#ifndef C_MODEL_H
#define C_MODEL_H


unsigned int c_model_len = 3512;
unsigned char c_model[] = {
 0x1c, 0x00, 0x00, 0x00, 0x54, 0x46, 0x4c, 0x33, 0x14, 0x00, 0x20, 0x00,
  0x1c, 0x00, 0x18, 0x00, 0x14, 0x00, 0x10, 0x00, 0x0c, 0x00, 0x00, 0x00,
  0x08, 0x00, 0x04, 0x00, 0x14, 0x00, 0x00, 0x00, 0x1c, 0x00, 0x00, 0x00,
  0x8c, 0x00, 0x00, 0x00, 0xe4, 0x00, 0x00, 0x00, 0x84, 0x08, 0x00, 0x00,
  0x94, 0x08, 0x00, 0x00, 0x60, 0x0d, 0x00, 0x00, 0x03, 0x00, 0x00, 0x00,
  0x01, 0x00, 0x00, 0x00, 0x10, 0x00, 0x00, 0x00, 0x00, 0x00, 0x0a, 0x00,
  0x10, 0x00, 0x0c, 0x00, 0x08, 0x00, 0x04, 0x00, 0x0a, 0x00, 0x00, 0x00,
  0x0c, 0x00, 0x00, 0x00, 0x1c, 0x00, 0x00, 0x00, 0x3c, 0x00, 0x00, 0x00,
  0x0f, 0x00, 0x00, 0x00, 0x73, 0x65, 0x72, 0x76, 0x69, 0x6e, 0x67, 0x5f,
  0x64, 0x65, 0x66, 0x61, 0x75, 0x6c, 0x74, 0x00, 0x01, 0x00, 0x00, 0x00,
  0x04, 0x00, 0x00, 0x00, 0x9c, 0xff, 0xff, 0xff, 0x09, 0x00, 0x00, 0x00,
  0x04, 0x00, 0x00, 0x00, 0x08, 0x00, 0x00, 0x00, 0x6f, 0x75, 0x74, 0x70,
  0x75, 0x74, 0x5f, 0x30, 0x00, 0x00, 0x00, 0x00, 0x01, 0x00, 0x00, 0x00,
  0x04, 0x00, 0x00, 0x00, 0x16, 0xf8, 0xff, 0xff, 0x04, 0x00, 0x00, 0x00,
  0x01, 0x00, 0x00, 0x00, 0x78, 0x00, 0x00, 0x00, 0x02, 0x00, 0x00, 0x00,
  0x34, 0x00, 0x00, 0x00, 0x04, 0x00, 0x00, 0x00, 0xdc, 0xff, 0xff, 0xff,
  0x0c, 0x00, 0x00, 0x00, 0x04, 0x00, 0x00, 0x00, 0x13, 0x00, 0x00, 0x00,
  0x43, 0x4f, 0x4e, 0x56, 0x45, 0x52, 0x53, 0x49, 0x4f, 0x4e, 0x5f, 0x4d,
  0x45, 0x54, 0x41, 0x44, 0x41, 0x54, 0x41, 0x00, 0x08, 0x00, 0x0c, 0x00,
  0x08, 0x00, 0x04, 0x00, 0x08, 0x00, 0x00, 0x00, 0x0b, 0x00, 0x00, 0x00,
  0x04, 0x00, 0x00, 0x00, 0x13, 0x00, 0x00, 0x00, 0x6d, 0x69, 0x6e, 0x5f,
  0x72, 0x75, 0x6e, 0x74, 0x69, 0x6d, 0x65, 0x5f, 0x76, 0x65, 0x72, 0x73,
  0x69, 0x6f, 0x6e, 0x00, 0x0d, 0x00, 0x00, 0x00, 0x9c, 0x07, 0x00, 0x00,
  0x94, 0x07, 0x00, 0x00, 0x78, 0x07, 0x00, 0x00, 0x40, 0x07, 0x00, 0x00,
  0xb0, 0x06, 0x00, 0x00, 0x20, 0x05, 0x00, 0x00, 0x10, 0x01, 0x00, 0x00,
  0xa0, 0x00, 0x00, 0x00, 0x98, 0x00, 0x00, 0x00, 0x90, 0x00, 0x00, 0x00,
  0x88, 0x00, 0x00, 0x00, 0x68, 0x00, 0x00, 0x00, 0x04, 0x00, 0x00, 0x00,
  0xba, 0xf8, 0xff, 0xff, 0x04, 0x00, 0x00, 0x00, 0x54, 0x00, 0x00, 0x00,
  0x0c, 0x00, 0x00, 0x00, 0x08, 0x00, 0x0e, 0x00, 0x08, 0x00, 0x04, 0x00,
  0x08, 0x00, 0x00, 0x00, 0x10, 0x00, 0x00, 0x00, 0x24, 0x00, 0x00, 0x00,
  0x00, 0x00, 0x06, 0x00, 0x08, 0x00, 0x04, 0x00, 0x06, 0x00, 0x00, 0x00,
  0x04, 0x00, 0x00, 0x00, 0x00, 0x00, 0x00, 0x00, 0x00, 0x00, 0x0a, 0x00,
  0x10, 0x00, 0x0c, 0x00, 0x08, 0x00, 0x04, 0x00, 0x0a, 0x00, 0x00, 0x00,
  0x01, 0x00, 0x00, 0x00, 0x02, 0x00, 0x00, 0x00, 0x04, 0x00, 0x00, 0x00,
  0x05, 0x00, 0x00, 0x00, 0x32, 0x2e, 0x39, 0x2e, 0x31, 0x00, 0x00, 0x00,
  0x1a, 0xf9, 0xff, 0xff, 0x04, 0x00, 0x00, 0x00, 0x10, 0x00, 0x00, 0x00,
  0x32, 0x2e, 0x30, 0x2e, 0x30, 0x00, 0x00, 0x00, 0x00, 0x00, 0x00, 0x00,
  0x00, 0x00, 0x00, 0x00, 0x5c, 0xf4, 0xff, 0xff, 0x60, 0xf4, 0xff, 0xff,
  0x64, 0xf4, 0xff, 0xff, 0x42, 0xf9, 0xff, 0xff, 0x04, 0x00, 0x00, 0x00,
  0x60, 0x00, 0x00, 0x00, 0x6d, 0xe6, 0xf4, 0x3c, 0x98, 0xc0, 0x88, 0x3f,
  0x4f, 0xdd, 0xac, 0xbc, 0x96, 0xae, 0x6f, 0xbf, 0xfc, 0x33, 0x3f, 0x3e,
  0xbc, 0x37, 0x34, 0x3d, 0x1e, 0xd0, 0x19, 0xbf, 0xff, 0xaf, 0xa2, 0x3c,
  0xf9, 0xeb, 0x7e, 0xbc, 0x1c, 0xb3, 0x5f, 0xbb, 0xb3, 0x01, 0x1a, 0x3f,
  0x33, 0x4f, 0xba, 0x3b, 0xb5, 0xfe, 0x2b, 0x3f, 0x92, 0x46, 0x13, 0xbf,
  0xb0, 0x61, 0x20, 0xbf, 0x50, 0x27, 0x4a, 0x3c, 0xec, 0xf1, 0x42, 0x3f,
  0xca, 0xde, 0xc0, 0x3a, 0x4f, 0x4d, 0xaa, 0xbc, 0xed, 0xcf, 0x84, 0xbb,
  0xf8, 0x3f, 0xd3, 0xbe, 0xed, 0x76, 0x4e, 0x3c, 0xbd, 0x56, 0x34, 0x3f,
  0x1f, 0x6a, 0x2f, 0xbf, 0xae, 0xf9, 0xff, 0xff, 0x04, 0x00, 0x00, 0x00,
  0x00, 0x04, 0x00, 0x00, 0x64, 0x22, 0xab, 0x3e, 0xbe, 0xa6, 0x6a, 0x3e,
  0xe8, 0xf6, 0xc5, 0x3e, 0x4d, 0xe6, 0x1b, 0x3e, 0x94, 0xc7, 0x8f, 0xbd,
  0x41, 0x74, 0xa6, 0xbd, 0xf0, 0x97, 0xbb, 0xbd, 0x6b, 0x54, 0x82, 0x3d,
  0xca, 0x42, 0x3d, 0x3e, 0x84, 0xc8, 0xa8, 0x3e, 0x69, 0x14, 0x99, 0x3e,
  0x1e, 0xf3, 0x8b, 0x3e, 0xaf, 0xf8, 0xf9, 0xbc, 0x44, 0x3a, 0x96, 0xbe,
  0x8d, 0xfe, 0x64, 0x3e, 0xf8, 0xed, 0x1c, 0x3d, 0xd4, 0x8f, 0xef, 0xbd,
  0xa8, 0x43, 0xd5, 0x3d, 0xfb, 0xaf, 0x5a, 0x3e, 0x74, 0xb1, 0x77, 0xbe,
  0x6c, 0x5a, 0x0a, 0x3f, 0xe9, 0x5b, 0x5c, 0xbe, 0x84, 0x9a, 0x5c, 0x3e,
  0x91, 0x89, 0x55, 0x3e, 0xd6, 0xe6, 0xb4, 0xbe, 0xfa, 0x05, 0xbd, 0x3e,
  0x9d, 0x11, 0xa3, 0x3d, 0xe2, 0xb6, 0x2f, 0xbe, 0xd0, 0xa0, 0xef, 0x3d,
  0x80, 0x28, 0x11, 0xbc, 0x38, 0x8c, 0x08, 0xbe, 0x90, 0x81, 0xb4, 0x3c,
  0x80, 0xbe, 0xf9, 0x3b, 0x0c, 0x13, 0x83, 0xbb, 0x60, 0x12, 0x6b, 0xbc,
  0xc1, 0x0e, 0xd2, 0x3e, 0x40, 0xc2, 0xd1, 0x3b, 0xf1, 0x22, 0xa0, 0x3d,
  0x4d, 0x79, 0x1b, 0x3c, 0x21, 0x85, 0xc8, 0x3e, 0x7e, 0x21, 0x1c, 0x3e,
  0x28, 0x7c, 0x25, 0xbd, 0xf3, 0xa4, 0xab, 0x3d, 0x70, 0xe6, 0xea, 0xbc,
  0xa5, 0x9b, 0x84, 0xbe, 0xc9, 0x4b, 0xa8, 0xbe, 0x6f, 0x04, 0x73, 0xbe,
  0x6c, 0xb9, 0xa7, 0x3e, 0xb8, 0x68, 0x18, 0xbd, 0xc0, 0x44, 0xaa, 0x3e,
  0xd6, 0x5c, 0xc1, 0x3e, 0x1c, 0x38, 0xa0, 0x3d, 0x94, 0x76, 0x19, 0xbf,
  0x19, 0x4b, 0xae, 0xbe, 0x62, 0xef, 0x07, 0x3e, 0x62, 0x2b, 0xde, 0x3e,
  0x57, 0xc2, 0xe5, 0x3d, 0xb0, 0x6f, 0x5a, 0x3e, 0xe2, 0xd7, 0x22, 0xbd,
  0xde, 0x91, 0xfc, 0x3e, 0x13, 0xfd, 0x15, 0xbe, 0x80, 0x00, 0xc4, 0x3e,
  0x84, 0xeb, 0xcc, 0xbd, 0x5c, 0x1d, 0x7d, 0x3e, 0x8c, 0x22, 0x60, 0x3e,
  0xb0, 0xc5, 0x05, 0xbe, 0xe0, 0x70, 0x85, 0xbe, 0xc3, 0xd2, 0x7a, 0xbe,
  0x5e, 0x53, 0x6c, 0xbe, 0xe5, 0x99, 0xc8, 0xbd, 0x50, 0xf5, 0x9c, 0xbd,
  0x7c, 0xc9, 0x11, 0xbe, 0x5a, 0x4d, 0x4b, 0xbf, 0x95, 0x00, 0x7d, 0xbe,
  0x98, 0xdb, 0x19, 0xbd, 0x20, 0xf9, 0x0a, 0xbd, 0xc1, 0x5a, 0xb9, 0xbe,
  0xd3, 0xb1, 0x89, 0x3e, 0x37, 0xa4, 0xc4, 0xbe, 0x54, 0x02, 0xb1, 0xbe,
  0xa8, 0x9a, 0xed, 0xbd, 0x60, 0x64, 0x83, 0xbd, 0xc1, 0xb0, 0xbf, 0x3c,
  0x78, 0x83, 0x9d, 0xbe, 0xeb, 0xd9, 0xa9, 0x3e, 0xa2, 0xa4, 0x8b, 0xbe,
  0x54, 0x09, 0xcc, 0xbe, 0xb8, 0x35, 0xbd, 0x3e, 0x29, 0x31, 0x49, 0x3e,
  0x06, 0xf9, 0xc1, 0xbe, 0x84, 0x48, 0x86, 0xbd, 0xea, 0x2f, 0x24, 0x3e,
  0xfc, 0x17, 0x9d, 0x3e, 0x5c, 0x71, 0xbf, 0xbd, 0xe0, 0xcd, 0x6d, 0xbc,
  0xc0, 0xf8, 0x8b, 0xbd, 0xe4, 0x51, 0x4a, 0x3e, 0x41, 0xba, 0x92, 0xbe,
  0xec, 0xfc, 0xb1, 0xbd, 0x48, 0x2f, 0xa4, 0xbe, 0xc6, 0xe5, 0xa6, 0xbe,
  0xb3, 0x9a, 0xc8, 0xbe, 0x08, 0xb5, 0xda, 0xbe, 0x7e, 0xd7, 0xd3, 0xbd,
  0x7c, 0x0f, 0x0e, 0x3e, 0x21, 0x82, 0xbd, 0xbe, 0xc1, 0x52, 0xc4, 0xbd,
  0x58, 0xff, 0xde, 0x3d, 0x4a, 0xd1, 0x78, 0xbe, 0x46, 0x60, 0x72, 0x3e,
  0x85, 0x51, 0x53, 0x3e, 0x06, 0xef, 0x63, 0xbe, 0x69, 0x62, 0xb5, 0xbe,
  0xf0, 0xd7, 0xab, 0x3e, 0x19, 0xac, 0xd2, 0xbe, 0xc5, 0x3f, 0x7a, 0xbe,
  0xee, 0xa8, 0x00, 0x3f, 0xc8, 0x79, 0x76, 0x3e, 0xfc, 0x0c, 0xd4, 0xbe,
  0x21, 0x83, 0xd3, 0xbe, 0x8f, 0x64, 0x60, 0x3e, 0x58, 0x7a, 0x24, 0x3e,
  0xca, 0x98, 0xc4, 0x3e, 0xc0, 0x7d, 0xc7, 0xbe, 0x84, 0x66, 0x2e, 0x3e,
  0xe0, 0xdb, 0x7f, 0x3e, 0x39, 0xd3, 0x90, 0xbe, 0xec, 0xa8, 0xc8, 0xbd,
  0x80, 0x02, 0x7c, 0x3b, 0xec, 0xf9, 0x35, 0x3e, 0x78, 0x82, 0xd9, 0x3d,
  0x66, 0xd1, 0xb8, 0x3e, 0xa0, 0xb9, 0xbc, 0xbd, 0x42, 0x4f, 0xbd, 0xbe,
  0x31, 0xea, 0x8f, 0xbe, 0x46, 0xb0, 0x61, 0xbe, 0x62, 0x8b, 0x00, 0xbe,
  0x28, 0x5a, 0x4c, 0x3e, 0x60, 0x69, 0xf3, 0x3c, 0xe8, 0xf4, 0xb3, 0x3e,
  0xcf, 0x90, 0xba, 0xbe, 0x60, 0x53, 0x21, 0x3d, 0x1c, 0x0e, 0x82, 0xbd,
  0x1c, 0x66, 0x96, 0x3d, 0xb2, 0xfb, 0xbe, 0x3e, 0x88, 0xa6, 0x39, 0x3d,
  0xdc, 0x60, 0x39, 0x3e, 0xb6, 0x4a, 0x06, 0xbe, 0xd7, 0xbd, 0x82, 0xbe,
  0x42, 0xca, 0x93, 0xbe, 0x7b, 0x01, 0x8b, 0xbe, 0xe8, 0xff, 0xce, 0x3d,
  0xc1, 0x42, 0xbf, 0xbe, 0x2d, 0xa2, 0x2b, 0xbe, 0x58, 0xc1, 0x88, 0x3d,
  0xbe, 0xfe, 0xbd, 0x3e, 0xf3, 0x7d, 0x67, 0xbe, 0x38, 0xf8, 0x39, 0x3e,
  0x0c, 0x09, 0x71, 0x3e, 0xd0, 0xee, 0xef, 0xbc, 0x24, 0xd5, 0x89, 0x3e,
  0xbd, 0xee, 0xa7, 0xbe, 0x7f, 0xe0, 0x62, 0xbe, 0x20, 0x37, 0xc0, 0xbe,
  0xc8, 0xf8, 0xa0, 0xbd, 0x07, 0xe7, 0xdf, 0x3c, 0xf1, 0x24, 0x6a, 0x3e,
  0xd4, 0x78, 0xb3, 0x3e, 0x27, 0x73, 0x27, 0x3f, 0x2d, 0xd5, 0xc5, 0xbe,
  0x8d, 0x54, 0xba, 0xbe, 0x8b, 0x35, 0x60, 0xbe, 0x41, 0xdf, 0x04, 0x3e,
  0x88, 0x56, 0xb9, 0xbe, 0xa7, 0xcf, 0xab, 0xbe, 0xc8, 0xda, 0xfe, 0x3d,
  0xc6, 0x47, 0xa1, 0x3e, 0x14, 0x5d, 0x94, 0xbe, 0x4c, 0x24, 0x13, 0xbd,
  0xc4, 0xcc, 0x1e, 0x3e, 0x86, 0xb9, 0xaa, 0x3e, 0x95, 0x9f, 0xaa, 0x3e,
  0x77, 0xec, 0x2d, 0x3e, 0xc1, 0x2f, 0x31, 0x3e, 0x97, 0x8b, 0xb3, 0x3e,
  0x5f, 0x46, 0xbc, 0xbe, 0x8a, 0x2c, 0x36, 0xbe, 0x1b, 0xeb, 0x8a, 0xbd,
  0x38, 0x44, 0xaf, 0xbd, 0xb5, 0x82, 0xab, 0xbe, 0x1e, 0x5e, 0x8e, 0xbe,
  0xee, 0x9a, 0xb8, 0x3e, 0x84, 0xef, 0xa1, 0x3e, 0xe8, 0xa1, 0xf7, 0xbd,
  0x20, 0xcb, 0x4c, 0xbe, 0x1c, 0x84, 0x88, 0xbd, 0x70, 0x29, 0x39, 0x3e,
  0x20, 0xae, 0x6e, 0x3e, 0x1f, 0x67, 0x33, 0xbe, 0xa4, 0xf9, 0x92, 0xbd,
  0xec, 0xc8, 0x95, 0xbe, 0x40, 0x3d, 0xdc, 0x3b, 0x28, 0xc1, 0xcc, 0x3d,
  0xa8, 0xa3, 0x22, 0x3e, 0x0a, 0xb1, 0x43, 0xbe, 0x58, 0x22, 0xc5, 0xbe,
  0x3b, 0x0f, 0xc2, 0xbe, 0x3c, 0x95, 0x2e, 0x3e, 0x7e, 0xe5, 0xc5, 0x3e,
  0x58, 0xca, 0xa5, 0xbe, 0xdc, 0xfb, 0x25, 0x3e, 0xb0, 0x8a, 0x94, 0xbc,
  0xe8, 0xef, 0x1c, 0x3e, 0x59, 0x6c, 0x44, 0xbe, 0xfb, 0x31, 0xb4, 0xbe,
  0x54, 0x8c, 0x74, 0x3e, 0x5a, 0x03, 0xc3, 0xbe, 0x98, 0xb1, 0x47, 0x3e,
  0xe9, 0x8d, 0xa7, 0xbe, 0x25, 0xc8, 0x1d, 0xbe, 0xfc, 0x7e, 0x60, 0xbe,
  0x22, 0xa1, 0x94, 0x3e, 0xb0, 0xef, 0xb5, 0x3e, 0x9e, 0xea, 0xa4, 0xbe,
  0xf0, 0x54, 0x57, 0xbd, 0xc0, 0x6e, 0xa3, 0xbd, 0x03, 0x7d, 0xb8, 0xbe,
  0x53, 0x32, 0x97, 0xbe, 0x52, 0x9d, 0x56, 0xbe, 0x75, 0xf5, 0xdf, 0xbe,
  0x34, 0x2b, 0x91, 0x3e, 0x7e, 0x9b, 0xb8, 0x3d, 0xbc, 0xd1, 0x62, 0xbc,
  0x20, 0x5a, 0x3f, 0x3e, 0xe4, 0x6d, 0xc7, 0xbd, 0x00, 0xc8, 0xdd, 0xb9,
  0x2b, 0xb1, 0x21, 0xbe, 0x5b, 0xf2, 0xd5, 0x3d, 0x56, 0x40, 0x30, 0x3e,
  0xa9, 0xe4, 0x5d, 0xbe, 0xd0, 0x8a, 0x85, 0x3e, 0xa8, 0x59, 0x9d, 0x3e,
  0x29, 0x22, 0xa0, 0x3e, 0xcc, 0x35, 0x93, 0xbe, 0x6c, 0x5f, 0x03, 0xbf,
  0x6b, 0xa6, 0x57, 0x3e, 0xe9, 0xfc, 0xdb, 0xbd, 0xad, 0x9f, 0x0c, 0xbe,
  0x51, 0xa2, 0x99, 0x3d, 0xf8, 0x27, 0x61, 0x3d, 0x4b, 0x2e, 0xb7, 0x3e,
  0xb4, 0xfe, 0xd3, 0xbc, 0xd8, 0xb4, 0xa8, 0xbd, 0xbc, 0x91, 0xa4, 0x3d,
  0x80, 0x6c, 0xc0, 0x3e, 0xdd, 0x78, 0xaa, 0xbe, 0xba, 0xfd, 0xff, 0xff,
  0x04, 0x00, 0x00, 0x00, 0x80, 0x01, 0x00, 0x00, 0xd0, 0x8c, 0x37, 0xbd,
  0xe8, 0x5e, 0x2a, 0xbd, 0x2d, 0x92, 0x87, 0xbe, 0xbc, 0xad, 0x15, 0x3e,
  0x03, 0x1d, 0x7b, 0x3e, 0xae, 0xa2, 0x7d, 0x3e, 0x60, 0x45, 0xd4, 0xbd,
  0xf0, 0xbd, 0x8d, 0xbd, 0x25, 0x71, 0x81, 0x3e, 0x38, 0xe5, 0x85, 0x3e,
  0x57, 0x1d, 0x16, 0x3e, 0x31, 0x98, 0xf4, 0x3e, 0xe4, 0x83, 0xe1, 0xbd,
  0xff, 0x64, 0x91, 0x3e, 0xfd, 0x02, 0xca, 0xbe, 0xa2, 0x4b, 0xb6, 0x3e,
  0x5a, 0xff, 0x03, 0xbf, 0x15, 0xb9, 0x40, 0x3e, 0x42, 0xbd, 0xb7, 0x3e,
  0xc1, 0x4a, 0x02, 0xbf, 0x6d, 0x7e, 0x0b, 0xbf, 0x53, 0xd7, 0x8a, 0x3e,
  0x4a, 0x6d, 0xd7, 0xbe, 0xb7, 0xd3, 0xb1, 0xbc, 0x03, 0x03, 0x31, 0x3d,
  0xd6, 0xe7, 0x61, 0xbf, 0xc1, 0x5a, 0x85, 0x3e, 0xac, 0x48, 0xb5, 0xbe,
  0xc5, 0xce, 0x57, 0xbe, 0x04, 0x70, 0xa1, 0xbd, 0xb3, 0x47, 0x83, 0x3e,
  0x26, 0x0d, 0x8d, 0x3e, 0xbb, 0x3a, 0xcb, 0x3e, 0xd8, 0x0b, 0x8b, 0xbe,
  0x90, 0xb8, 0xa4, 0xbd, 0x9e, 0x8e, 0x6d, 0xbe, 0x65, 0x55, 0x41, 0xbd,
  0x27, 0xe2, 0x53, 0xbe, 0x8d, 0x18, 0x79, 0xbe, 0x26, 0x98, 0x8e, 0x3e,
  0xcb, 0xca, 0xdf, 0x3c, 0x36, 0xb5, 0x9c, 0xbc, 0x20, 0xce, 0x97, 0x3d,
  0x32, 0xa5, 0x5c, 0xbe, 0x05, 0xe5, 0x64, 0xbe, 0x88, 0x97, 0x1e, 0xbe,
  0xe3, 0x1e, 0x78, 0xbe, 0x57, 0x60, 0x83, 0x3e, 0xf4, 0xb6, 0xc5, 0xbe,
  0x14, 0x08, 0x44, 0xbe, 0x1e, 0x6e, 0x01, 0x3e, 0x86, 0xe1, 0x00, 0xbe,
  0x5c, 0x8c, 0x93, 0xbe, 0x30, 0xd7, 0x46, 0xbe, 0x9c, 0xc3, 0xb3, 0x3e,
  0x8d, 0x04, 0x15, 0x3e, 0x79, 0x4b, 0x13, 0xbe, 0xf0, 0xc9, 0x71, 0xbd,
  0xae, 0xe5, 0x73, 0x3e, 0x60, 0x3d, 0xf2, 0x3c, 0xaa, 0x0c, 0x2e, 0xbd,
  0xee, 0x94, 0x47, 0xbd, 0x67, 0xe8, 0x3d, 0x3f, 0x18, 0x86, 0xee, 0x3c,
  0x77, 0x1a, 0xbd, 0x3d, 0x9f, 0x0d, 0x38, 0xbd, 0x18, 0x0c, 0xad, 0x3d,
  0xe9, 0xa7, 0x07, 0xbf, 0x50, 0xa9, 0x27, 0x3e, 0x4a, 0x1e, 0x95, 0x3e,
  0x03, 0x19, 0x9c, 0x3e, 0x58, 0xbe, 0xfa, 0x3e, 0xa4, 0x95, 0xb9, 0x3e,
  0xe3, 0x36, 0xa1, 0xbe, 0x03, 0x65, 0xa8, 0xbe, 0x46, 0x73, 0x0b, 0xbe,
  0x88, 0x7e, 0x90, 0x3d, 0xab, 0x23, 0xd2, 0x3e, 0x80, 0x49, 0x0e, 0x3d,
  0x6d, 0xf9, 0x66, 0x3e, 0x5b, 0x1e, 0x8c, 0xbe, 0x48, 0xec, 0x9d, 0x3e,
  0xc1, 0xf0, 0x9a, 0x3e, 0xcd, 0x8d, 0x88, 0xbd, 0x71, 0xa8, 0xc6, 0xbe,
  0x83, 0xf6, 0xc4, 0x3e, 0x41, 0xa5, 0x8d, 0x3e, 0x89, 0xa1, 0xc7, 0xbe,
  0x68, 0x6c, 0x74, 0xbd, 0x9d, 0x1a, 0xaf, 0x3e, 0x26, 0x8e, 0x36, 0xbe,
  0xe9, 0x18, 0x86, 0x3e, 0xc8, 0x90, 0x59, 0x3d, 0x8c, 0xee, 0x90, 0xbe,
  0x28, 0xb5, 0x82, 0xbd, 0x7f, 0x97, 0xaa, 0x3e, 0x46, 0xff, 0xff, 0xff,
  0x04, 0x00, 0x00, 0x00, 0x80, 0x00, 0x00, 0x00, 0x00, 0x00, 0x00, 0x00,
  0x5d, 0x7a, 0x58, 0xbd, 0x00, 0x00, 0x00, 0x00, 0xff, 0xc2, 0xd8, 0xbd,
  0x00, 0x00, 0x00, 0x00, 0x49, 0x9d, 0x19, 0xbe, 0xdc, 0xdd, 0x03, 0xbe,
  0xde, 0x7c, 0x14, 0xbe, 0x8a, 0x38, 0x5c, 0x3c, 0x00, 0x00, 0x00, 0x00,
  0x3d, 0x1b, 0xd3, 0xbd, 0x00, 0x00, 0x00, 0x00, 0x17, 0x01, 0x57, 0xbc,
  0xc6, 0x84, 0xe6, 0x3d, 0x9c, 0x5d, 0xa5, 0x3d, 0x00, 0x00, 0x00, 0x00,
  0x00, 0x00, 0x00, 0x00, 0x00, 0x00, 0x00, 0x00, 0x27, 0xbf, 0x03, 0xbe,
  0x00, 0x00, 0x00, 0x00, 0x69, 0x65, 0x44, 0x3e, 0x66, 0xbd, 0x9f, 0xbd,
  0xe3, 0x7a, 0x29, 0xbd, 0x14, 0x22, 0xf4, 0xbd, 0xcf, 0x83, 0x71, 0xbd,
  0x00, 0x00, 0x00, 0x00, 0x85, 0x93, 0xab, 0xbd, 0x46, 0x46, 0xee, 0xbd,
  0x00, 0x00, 0x00, 0x00, 0x00, 0x00, 0x00, 0x00, 0x00, 0x00, 0x00, 0x00,
  0x00, 0x00, 0x00, 0x00, 0xd2, 0xff, 0xff, 0xff, 0x04, 0x00, 0x00, 0x00,
  0x20, 0x00, 0x00, 0x00, 0x10, 0x65, 0x7d, 0xbd, 0x6d, 0x44, 0x24, 0xbe,
  0xfb, 0x3f, 0xad, 0xbc, 0x22, 0x8e, 0x68, 0x3e, 0x00, 0x00, 0x00, 0x00,
  0x3c, 0xc9, 0x17, 0xbd, 0x00, 0x00, 0x00, 0x00, 0x65, 0xf2, 0x95, 0x3d,
  0x00, 0x00, 0x06, 0x00, 0x08, 0x00, 0x04, 0x00, 0x06, 0x00, 0x00, 0x00,
  0x04, 0x00, 0x00, 0x00, 0x0c, 0x00, 0x00, 0x00, 0xed, 0x1b, 0x74, 0x3f,
  0xae, 0x64, 0x57, 0xbd, 0xfd, 0x23, 0x25, 0x3d, 0x44, 0xfb, 0xff, 0xff,
  0x48, 0xfb, 0xff, 0xff, 0x0f, 0x00, 0x00, 0x00, 0x4d, 0x4c, 0x49, 0x52,
  0x20, 0x43, 0x6f, 0x6e, 0x76, 0x65, 0x72, 0x74, 0x65, 0x64, 0x2e, 0x00,
  0x01, 0x00, 0x00, 0x00, 0x14, 0x00, 0x00, 0x00, 0x00, 0x00, 0x0e, 0x00,
  0x18, 0x00, 0x14, 0x00, 0x10, 0x00, 0x0c, 0x00, 0x08, 0x00, 0x04, 0x00,
  0x0e, 0x00, 0x00, 0x00, 0x14, 0x00, 0x00, 0x00, 0x1c, 0x00, 0x00, 0x00,
  0xec, 0x00, 0x00, 0x00, 0xf0, 0x00, 0x00, 0x00, 0xf4, 0x00, 0x00, 0x00,
  0x04, 0x00, 0x00, 0x00, 0x6d, 0x61, 0x69, 0x6e, 0x00, 0x00, 0x00, 0x00,
  0x03, 0x00, 0x00, 0x00, 0x90, 0x00, 0x00, 0x00, 0x48, 0x00, 0x00, 0x00,
  0x04, 0x00, 0x00, 0x00, 0x8a, 0xff, 0xff, 0xff, 0x1c, 0x00, 0x00, 0x00,
  0x00, 0x00, 0x00, 0x08, 0x1c, 0x00, 0x00, 0x00, 0x20, 0x00, 0x00, 0x00,
  0x00, 0x00, 0x0a, 0x00, 0x08, 0x00, 0x00, 0x00, 0x00, 0x00, 0x07, 0x00,
  0x0a, 0x00, 0x00, 0x00, 0x00, 0x00, 0x00, 0x01, 0x01, 0x00, 0x00, 0x00,
  0x09, 0x00, 0x00, 0x00, 0x03, 0x00, 0x00, 0x00, 0x08, 0x00, 0x00, 0x00,
  0x06, 0x00, 0x00, 0x00, 0x01, 0x00, 0x00, 0x00, 0xca, 0xff, 0xff, 0xff,
  0x10, 0x00, 0x00, 0x00, 0x00, 0x00, 0x00, 0x08, 0x10, 0x00, 0x00, 0x00,
  0x14, 0x00, 0x00, 0x00, 0xba, 0xff, 0xff, 0xff, 0x00, 0x00, 0x01, 0x01,
  0x01, 0x00, 0x00, 0x00, 0x08, 0x00, 0x00, 0x00, 0x03, 0x00, 0x00, 0x00,
  0x07, 0x00, 0x00, 0x00, 0x05, 0x00, 0x00, 0x00, 0x02, 0x00, 0x00, 0x00,
  0x00, 0x00, 0x0e, 0x00, 0x16, 0x00, 0x00, 0x00, 0x10, 0x00, 0x0c, 0x00,
  0x0b, 0x00, 0x04, 0x00, 0x0e, 0x00, 0x00, 0x00, 0x1c, 0x00, 0x00, 0x00,
  0x00, 0x00, 0x00, 0x08, 0x1c, 0x00, 0x00, 0x00, 0x20, 0x00, 0x00, 0x00,
  0x00, 0x00, 0x0a, 0x00, 0x08, 0x00, 0x07, 0x00, 0x00, 0x00, 0x06, 0x00,
  0x0a, 0x00, 0x00, 0x00, 0x00, 0x00, 0x01, 0x01, 0x01, 0x00, 0x00, 0x00,
  0x07, 0x00, 0x00, 0x00, 0x03, 0x00, 0x00, 0x00, 0x00, 0x00, 0x00, 0x00,
  0x04, 0x00, 0x00, 0x00, 0x03, 0x00, 0x00, 0x00, 0x01, 0x00, 0x00, 0x00,
  0x09, 0x00, 0x00, 0x00, 0x01, 0x00, 0x00, 0x00, 0x00, 0x00, 0x00, 0x00,
  0x0a, 0x00, 0x00, 0x00, 0x68, 0x03, 0x00, 0x00, 0x04, 0x03, 0x00, 0x00,
  0xb0, 0x02, 0x00, 0x00, 0x5c, 0x02, 0x00, 0x00, 0x08, 0x02, 0x00, 0x00,
  0xb4, 0x01, 0x00, 0x00, 0x60, 0x01, 0x00, 0x00, 0xd8, 0x00, 0x00, 0x00,
  0x50, 0x00, 0x00, 0x00, 0x04, 0x00, 0x00, 0x00, 0xce, 0xfc, 0xff, 0xff,
  0x10, 0x00, 0x00, 0x00, 0x10, 0x00, 0x00, 0x00, 0x0a, 0x00, 0x00, 0x00,
  0x28, 0x00, 0x00, 0x00, 0xc0, 0xfc, 0xff, 0xff, 0x19, 0x00, 0x00, 0x00,
  0x53, 0x74, 0x61, 0x74, 0x65, 0x66, 0x75, 0x6c, 0x50, 0x61, 0x72, 0x74,
  0x69, 0x74, 0x69, 0x6f, 0x6e, 0x65, 0x64, 0x43, 0x61, 0x6c, 0x6c, 0x3a,
  0x30, 0x00, 0x00, 0x00, 0x03, 0x00, 0x00, 0x00, 0x01, 0x00, 0x00, 0x00,
  0x01, 0x00, 0x00, 0x00, 0x03, 0x00, 0x00, 0x00, 0x16, 0xfd, 0xff, 0xff,
  0x10, 0x00, 0x00, 0x00, 0x10, 0x00, 0x00, 0x00, 0x09, 0x00, 0x00, 0x00,
  0x64, 0x00, 0x00, 0x00, 0x08, 0xfd, 0xff, 0xff, 0x55, 0x00, 0x00, 0x00,
  0x73, 0x65, 0x71, 0x75, 0x65, 0x6e, 0x74, 0x69, 0x61, 0x6c, 0x5f, 0x31,
  0x2f, 0x64, 0x65, 0x6e, 0x73, 0x65, 0x5f, 0x33, 0x2f, 0x54, 0x65, 0x6e,
  0x73, 0x6f, 0x72, 0x64, 0x6f, 0x74, 0x3b, 0x73, 0x65, 0x71, 0x75, 0x65,
  0x6e, 0x74, 0x69, 0x61, 0x6c, 0x5f, 0x31, 0x2f, 0x64, 0x65, 0x6e, 0x73,
  0x65, 0x5f, 0x33, 0x2f, 0x52, 0x65, 0x6c, 0x75, 0x3b, 0x73, 0x65, 0x71,
  0x75, 0x65, 0x6e, 0x74, 0x69, 0x61, 0x6c, 0x5f, 0x31, 0x2f, 0x64, 0x65,
  0x6e, 0x73, 0x65, 0x5f, 0x33, 0x2f, 0x42, 0x69, 0x61, 0x73, 0x41, 0x64,
  0x64, 0x00, 0x00, 0x00, 0x03, 0x00, 0x00, 0x00, 0x01, 0x00, 0x00, 0x00,
  0x01, 0x00, 0x00, 0x00, 0x08, 0x00, 0x00, 0x00, 0x9a, 0xfd, 0xff, 0xff,
  0x10, 0x00, 0x00, 0x00, 0x10, 0x00, 0x00, 0x00, 0x08, 0x00, 0x00, 0x00,
  0x64, 0x00, 0x00, 0x00, 0x8c, 0xfd, 0xff, 0xff, 0x55, 0x00, 0x00, 0x00,
  0x73, 0x65, 0x71, 0x75, 0x65, 0x6e, 0x74, 0x69, 0x61, 0x6c, 0x5f, 0x31,
  0x2f, 0x64, 0x65, 0x6e, 0x73, 0x65, 0x5f, 0x32, 0x2f, 0x54, 0x65, 0x6e,
  0x73, 0x6f, 0x72, 0x64, 0x6f, 0x74, 0x3b, 0x73, 0x65, 0x71, 0x75, 0x65,
  0x6e, 0x74, 0x69, 0x61, 0x6c, 0x5f, 0x31, 0x2f, 0x64, 0x65, 0x6e, 0x73,
  0x65, 0x5f, 0x32, 0x2f, 0x52, 0x65, 0x6c, 0x75, 0x3b, 0x73, 0x65, 0x71,
  0x75, 0x65, 0x6e, 0x74, 0x69, 0x61, 0x6c, 0x5f, 0x31, 0x2f, 0x64, 0x65,
  0x6e, 0x73, 0x65, 0x5f, 0x32, 0x2f, 0x42, 0x69, 0x61, 0x73, 0x41, 0x64,
  0x64, 0x00, 0x00, 0x00, 0x03, 0x00, 0x00, 0x00, 0x01, 0x00, 0x00, 0x00,
  0x01, 0x00, 0x00, 0x00, 0x20, 0x00, 0x00, 0x00, 0x1e, 0xfe, 0xff, 0xff,
  0x10, 0x00, 0x00, 0x00, 0x10, 0x00, 0x00, 0x00, 0x07, 0x00, 0x00, 0x00,
  0x34, 0x00, 0x00, 0x00, 0x10, 0xfe, 0xff, 0xff, 0x24, 0x00, 0x00, 0x00,
  0x73, 0x65, 0x71, 0x75, 0x65, 0x6e, 0x74, 0x69, 0x61, 0x6c, 0x5f, 0x31,
  0x2f, 0x6f, 0x75, 0x74, 0x70, 0x75, 0x74, 0x2f, 0x54, 0x65, 0x6e, 0x73,
  0x6f, 0x72, 0x64, 0x6f, 0x74, 0x2f, 0x4d, 0x61, 0x74, 0x4d, 0x75, 0x6c,
  0x00, 0x00, 0x00, 0x00, 0x02, 0x00, 0x00, 0x00, 0x03, 0x00, 0x00, 0x00,
  0x08, 0x00, 0x00, 0x00, 0x6e, 0xfe, 0xff, 0xff, 0x10, 0x00, 0x00, 0x00,
  0x10, 0x00, 0x00, 0x00, 0x06, 0x00, 0x00, 0x00, 0x34, 0x00, 0x00, 0x00,
  0x60, 0xfe, 0xff, 0xff, 0x25, 0x00, 0x00, 0x00, 0x73, 0x65, 0x71, 0x75,
  0x65, 0x6e, 0x74, 0x69, 0x61, 0x6c, 0x5f, 0x31, 0x2f, 0x64, 0x65, 0x6e,
  0x73, 0x65, 0x5f, 0x33, 0x2f, 0x54, 0x65, 0x6e, 0x73, 0x6f, 0x72, 0x64,
  0x6f, 0x74, 0x2f, 0x4d, 0x61, 0x74, 0x4d, 0x75, 0x6c, 0x00, 0x00, 0x00,
  0x02, 0x00, 0x00, 0x00, 0x08, 0x00, 0x00, 0x00, 0x20, 0x00, 0x00, 0x00,
  0xbe, 0xfe, 0xff, 0xff, 0x10, 0x00, 0x00, 0x00, 0x10, 0x00, 0x00, 0x00,
  0x05, 0x00, 0x00, 0x00, 0x34, 0x00, 0x00, 0x00, 0xb0, 0xfe, 0xff, 0xff,
  0x25, 0x00, 0x00, 0x00, 0x73, 0x65, 0x71, 0x75, 0x65, 0x6e, 0x74, 0x69,
  0x61, 0x6c, 0x5f, 0x31, 0x2f, 0x64, 0x65, 0x6e, 0x73, 0x65, 0x5f, 0x32,
  0x2f, 0x54, 0x65, 0x6e, 0x73, 0x6f, 0x72, 0x64, 0x6f, 0x74, 0x2f, 0x4d,
  0x61, 0x74, 0x4d, 0x75, 0x6c, 0x00, 0x00, 0x00, 0x02, 0x00, 0x00, 0x00,
  0x20, 0x00, 0x00, 0x00, 0x03, 0x00, 0x00, 0x00, 0x0e, 0xff, 0xff, 0xff,
  0x10, 0x00, 0x00, 0x00, 0x10, 0x00, 0x00, 0x00, 0x04, 0x00, 0x00, 0x00,
  0x38, 0x00, 0x00, 0x00, 0x00, 0xff, 0xff, 0xff, 0x2b, 0x00, 0x00, 0x00,
  0x73, 0x65, 0x71, 0x75, 0x65, 0x6e, 0x74, 0x69, 0x61, 0x6c, 0x5f, 0x31,
  0x2f, 0x64, 0x65, 0x6e, 0x73, 0x65, 0x5f, 0x32, 0x2f, 0x42, 0x69, 0x61,
  0x73, 0x41, 0x64, 0x64, 0x2f, 0x52, 0x65, 0x61, 0x64, 0x56, 0x61, 0x72,
  0x69, 0x61, 0x62, 0x6c, 0x65, 0x4f, 0x70, 0x00, 0x01, 0x00, 0x00, 0x00,
  0x20, 0x00, 0x00, 0x00, 0x5e, 0xff, 0xff, 0xff, 0x10, 0x00, 0x00, 0x00,
  0x10, 0x00, 0x00, 0x00, 0x03, 0x00, 0x00, 0x00, 0x38, 0x00, 0x00, 0x00,
  0x50, 0xff, 0xff, 0xff, 0x2b, 0x00, 0x00, 0x00, 0x73, 0x65, 0x71, 0x75,
  0x65, 0x6e, 0x74, 0x69, 0x61, 0x6c, 0x5f, 0x31, 0x2f, 0x64, 0x65, 0x6e,
  0x73, 0x65, 0x5f, 0x33, 0x2f, 0x42, 0x69, 0x61, 0x73, 0x41, 0x64, 0x64,
  0x2f, 0x52, 0x65, 0x61, 0x64, 0x56, 0x61, 0x72, 0x69, 0x61, 0x62, 0x6c,
  0x65, 0x4f, 0x70, 0x00, 0x01, 0x00, 0x00, 0x00, 0x08, 0x00, 0x00, 0x00,
  0xae, 0xff, 0xff, 0xff, 0x10, 0x00, 0x00, 0x00, 0x10, 0x00, 0x00, 0x00,
  0x02, 0x00, 0x00, 0x00, 0x38, 0x00, 0x00, 0x00, 0xa0, 0xff, 0xff, 0xff,
  0x2a, 0x00, 0x00, 0x00, 0x73, 0x65, 0x71, 0x75, 0x65, 0x6e, 0x74, 0x69,
  0x61, 0x6c, 0x5f, 0x31, 0x2f, 0x6f, 0x75, 0x74, 0x70, 0x75, 0x74, 0x2f,
  0x42, 0x69, 0x61, 0x73, 0x41, 0x64, 0x64, 0x2f, 0x52, 0x65, 0x61, 0x64,
  0x56, 0x61, 0x72, 0x69, 0x61, 0x62, 0x6c, 0x65, 0x4f, 0x70, 0x00, 0x00,
  0x01, 0x00, 0x00, 0x00, 0x03, 0x00, 0x00, 0x00, 0x00, 0x00, 0x0e, 0x00,
  0x14, 0x00, 0x10, 0x00, 0x00, 0x00, 0x0c, 0x00, 0x08, 0x00, 0x04, 0x00,
  0x0e, 0x00, 0x00, 0x00, 0x14, 0x00, 0x00, 0x00, 0x14, 0x00, 0x00, 0x00,
  0x01, 0x00, 0x00, 0x00, 0x24, 0x00, 0x00, 0x00, 0x04, 0x00, 0x04, 0x00,
  0x04, 0x00, 0x00, 0x00, 0x13, 0x00, 0x00, 0x00, 0x73, 0x65, 0x72, 0x76,
  0x69, 0x6e, 0x67, 0x5f, 0x64, 0x65, 0x66, 0x61, 0x75, 0x6c, 0x74, 0x5f,
  0x78, 0x3a, 0x30, 0x00, 0x03, 0x00, 0x00, 0x00, 0x01, 0x00, 0x00, 0x00,
  0x01, 0x00, 0x00, 0x00, 0x03, 0x00, 0x00, 0x00, 0x01, 0x00, 0x00, 0x00,
  0x10, 0x00, 0x00, 0x00, 0x0c, 0x00, 0x10, 0x00, 0x0f, 0x00, 0x00, 0x00,
  0x08, 0x00, 0x04, 0x00, 0x0c, 0x00, 0x00, 0x00, 0x09, 0x00, 0x00, 0x00,
  0x05, 0x00, 0x00, 0x00, 0x00, 0x00, 0x00, 0x09
};

#endif //C_MODEL_H