#ifndef SINE_MODEL_H
#define SINE_MODEL_H


unsigned int sine_model_len = 3008;
unsigned char sine_model[] = {
 0x24, 0x00, 0x00, 0x00, 0x54, 0x46, 0x4c, 0x33, 0x00, 0x00, 0x00, 0x00,
  0x00, 0x00, 0x00, 0x00, 0x14, 0x00, 0x20, 0x00, 0x04, 0x00, 0x08, 0x00,
  0x0c, 0x00, 0x10, 0x00, 0x14, 0x00, 0x00, 0x00, 0x18, 0x00, 0x1c, 0x00,
  0x14, 0x00, 0x00, 0x00, 0x03, 0x00, 0x00, 0x00, 0x70, 0x0b, 0x00, 0x00,
  0xe8, 0x06, 0x00, 0x00, 0xd0, 0x06, 0x00, 0x00, 0xb8, 0x00, 0x00, 0x00,
  0x80, 0x00, 0x00, 0x00, 0x04, 0x00, 0x00, 0x00, 0x01, 0x00, 0x00, 0x00,
  0x10, 0x00, 0x00, 0x00, 0x00, 0x00, 0x0a, 0x00, 0x10, 0x00, 0x04, 0x00,
  0x08, 0x00, 0x0c, 0x00, 0x0a, 0x00, 0x00, 0x00, 0x40, 0x00, 0x00, 0x00,
  0x1c, 0x00, 0x00, 0x00, 0x04, 0x00, 0x00, 0x00, 0x0f, 0x00, 0x00, 0x00,
  0x73, 0x65, 0x72, 0x76, 0x69, 0x6e, 0x67, 0x5f, 0x64, 0x65, 0x66, 0x61,
  0x75, 0x6c, 0x74, 0x00, 0x01, 0x00, 0x00, 0x00, 0x04, 0x00, 0x00, 0x00,
  0xc0, 0xff, 0xff, 0xff, 0x08, 0x00, 0x00, 0x00, 0x09, 0x00, 0x00, 0x00,
  0x07, 0x00, 0x00, 0x00, 0x64, 0x65, 0x6e, 0x73, 0x65, 0x5f, 0x32, 0x00,
  0x01, 0x00, 0x00, 0x00, 0x04, 0x00, 0x00, 0x00, 0xd6, 0xf9, 0xff, 0xff,
  0x04, 0x00, 0x00, 0x00, 0x0b, 0x00, 0x00, 0x00, 0x64, 0x65, 0x6e, 0x73,
  0x65, 0x5f, 0x69, 0x6e, 0x70, 0x75, 0x74, 0x00, 0x01, 0x00, 0x00, 0x00,
  0x0c, 0x00, 0x00, 0x00, 0x08, 0x00, 0x0c, 0x00, 0x04, 0x00, 0x08, 0x00,
  0x08, 0x00, 0x00, 0x00, 0x08, 0x00, 0x00, 0x00, 0x0b, 0x00, 0x00, 0x00,
  0x13, 0x00, 0x00, 0x00, 0x6d, 0x69, 0x6e, 0x5f, 0x72, 0x75, 0x6e, 0x74,
  0x69, 0x6d, 0x65, 0x5f, 0x76, 0x65, 0x72, 0x73, 0x69, 0x6f, 0x6e, 0x00,
  0x0c, 0x00, 0x00, 0x00, 0x08, 0x06, 0x00, 0x00, 0xf4, 0x05, 0x00, 0x00,
  0xd8, 0x05, 0x00, 0x00, 0x74, 0x05, 0x00, 0x00, 0x20, 0x05, 0x00, 0x00,
  0xcc, 0x04, 0x00, 0x00, 0xb8, 0x00, 0x00, 0x00, 0x64, 0x00, 0x00, 0x00,
  0x58, 0x00, 0x00, 0x00, 0x44, 0x00, 0x00, 0x00, 0x30, 0x00, 0x00, 0x00,
  0x04, 0x00, 0x00, 0x00, 0x56, 0xfa, 0xff, 0xff, 0x04, 0x00, 0x00, 0x00,
  0x10, 0x00, 0x00, 0x00, 0x31, 0x2e, 0x35, 0x2e, 0x30, 0x00, 0x00, 0x00,
  0x00, 0x00, 0x00, 0x00, 0x00, 0x00, 0x00, 0x00, 0x00, 0x00, 0x00, 0x00,
  0x00, 0x00, 0x00, 0x00, 0x00, 0x00, 0x00, 0x00, 0xe8, 0xf5, 0xff, 0xff,
  0x00, 0x00, 0x00, 0x00, 0x00, 0x00, 0x00, 0x00, 0x00, 0x00, 0x00, 0x00,
  0xf8, 0xf5, 0xff, 0xff, 0x00, 0x00, 0x00, 0x00, 0x00, 0x00, 0x00, 0x00,
  0x00, 0x00, 0x00, 0x00, 0x08, 0xf6, 0xff, 0xff, 0x00, 0x00, 0x00, 0x00,
  0xa6, 0xfa, 0xff, 0xff, 0x04, 0x00, 0x00, 0x00, 0x40, 0x00, 0x00, 0x00,
  0x44, 0x94, 0xe8, 0xbe, 0xb7, 0x67, 0x00, 0x3f, 0xb2, 0xea, 0xe8, 0x3f,
  0x07, 0xb8, 0x20, 0xbf, 0x7f, 0xa8, 0xd5, 0x3f, 0x7a, 0x0b, 0x56, 0x3f,
  0x3e, 0x0e, 0x78, 0x3e, 0xf1, 0xb3, 0x9b, 0xbe, 0xb5, 0x0e, 0xc9, 0xbd,
  0x43, 0x97, 0x08, 0x3f, 0x9c, 0xa9, 0x94, 0xbe, 0xb2, 0x72, 0x33, 0x3f,
  0x16, 0xda, 0xe3, 0xbe, 0x25, 0x31, 0x2b, 0xbf, 0x7d, 0x8e, 0x6a, 0xbf,
  0x51, 0x73, 0x02, 0x3f, 0x00, 0x00, 0x00, 0x00, 0xf6, 0xfa, 0xff, 0xff,
  0x04, 0x00, 0x00, 0x00, 0x00, 0x04, 0x00, 0x00, 0xd4, 0xed, 0xb7, 0xbe,
  0xbf, 0x85, 0xa8, 0x3e, 0x5e, 0x39, 0x05, 0xbe, 0x72, 0x22, 0x20, 0xbe,
  0xe3, 0xfd, 0xb1, 0x3d, 0x7b, 0xd9, 0xb8, 0x3e, 0xca, 0xfe, 0x8a, 0xbe,
  0xe9, 0x5d, 0xcc, 0x3e, 0xe3, 0xc8, 0xad, 0xbe, 0x8a, 0xcc, 0xc7, 0x3d,
  0x1e, 0xbd, 0x4a, 0xbe, 0x38, 0x8f, 0xe7, 0xbd, 0xd0, 0x43, 0x8e, 0xbc,
  0x3e, 0x7d, 0xdb, 0x3d, 0x62, 0x1f, 0x0a, 0xbe, 0x47, 0x4d, 0xa4, 0xbc,
  0xb0, 0x58, 0x18, 0x3d, 0x36, 0x83, 0x7a, 0x3e, 0xee, 0x8d, 0x40, 0x3e,
  0xff, 0x24, 0xbd, 0xbe, 0xd7, 0x54, 0xe1, 0x3d, 0xb8, 0x92, 0x06, 0x3d,
  0xf8, 0x85, 0xcd, 0xbd, 0x67, 0x77, 0xb7, 0x3e, 0x40, 0xa4, 0x4a, 0x3c,
  0xdb, 0xcb, 0x84, 0xbe, 0x4f, 0x84, 0xcc, 0x3e, 0x82, 0xc6, 0x61, 0xbe,
  0xc3, 0xc4, 0xa3, 0xbe, 0x22, 0x5f, 0x0c, 0x3d, 0xd0, 0x13, 0xf8, 0xbd,
  0x57, 0x49, 0x60, 0xbe, 0xa0, 0x48, 0xe0, 0xbd, 0x6a, 0x8e, 0xd6, 0xbe,
  0x32, 0xd0, 0xff, 0x3e, 0x38, 0x25, 0xaf, 0xbd, 0x72, 0x47, 0x18, 0x3e,
  0xba, 0x0c, 0xc4, 0xbe, 0x39, 0xea, 0xa4, 0x3e, 0x72, 0x0c, 0x17, 0x3e,
  0xc6, 0xef, 0x57, 0x3e, 0x9c, 0x2d, 0xce, 0xbd, 0x77, 0x2d, 0xca, 0xbe,
  0x00, 0x30, 0x12, 0xbd, 0x7e, 0xfd, 0xbe, 0xbe, 0x89, 0xd2, 0xd7, 0x3e,
  0x30, 0x0b, 0xe4, 0x3c, 0xfa, 0x66, 0xd8, 0xbe, 0xd6, 0xb0, 0x33, 0xbe,
  0xbc, 0x2f, 0xfe, 0xbd, 0xaf, 0x7e, 0xd2, 0x3e, 0x38, 0x3f, 0x55, 0xbd,
  0x59, 0xff, 0xb5, 0xbe, 0x86, 0xc9, 0x96, 0xbe, 0xf8, 0xa5, 0x9a, 0xbd,
  0xe8, 0x5a, 0x26, 0xbe, 0x5f, 0xa2, 0xa7, 0x3e, 0x9c, 0x70, 0xf7, 0xbe,
  0xce, 0x70, 0x29, 0xbe, 0x7d, 0x11, 0x82, 0x3e, 0xcf, 0xf5, 0xcb, 0xbe,
  0x09, 0x23, 0xf5, 0xbe, 0x61, 0x5d, 0x93, 0x3e, 0x80, 0xcb, 0x68, 0x3e,
  0x7d, 0xf1, 0xb1, 0x3e, 0x40, 0xab, 0xf2, 0xbd, 0x8b, 0x6d, 0x04, 0x3f,
  0x70, 0x86, 0x95, 0xbd, 0x52, 0x0c, 0x59, 0x3e, 0xf3, 0x4d, 0x95, 0x3e,
  0xc3, 0x1b, 0xa2, 0x3e, 0x86, 0xe2, 0xa2, 0x3e, 0x48, 0x4a, 0x72, 0xbe,
  0x8e, 0x83, 0x9a, 0xbe, 0x1d, 0xf5, 0xd2, 0xbe, 0x42, 0x5a, 0x87, 0xbe,
  0xd7, 0xb0, 0xb1, 0x3e, 0xd0, 0xf7, 0xc3, 0x3e, 0x80, 0x55, 0x28, 0xbb,
  0xb4, 0xdf, 0xb0, 0xbe, 0xd8, 0x8b, 0x1b, 0xbd, 0x30, 0xba, 0x96, 0xbd,
  0x83, 0xe7, 0x84, 0xbf, 0xcf, 0x07, 0x94, 0x3e, 0x5f, 0xd7, 0xdd, 0xbe,
  0x5e, 0x83, 0x64, 0x3e, 0x1e, 0x2d, 0x2f, 0x3e, 0x5e, 0xb3, 0x54, 0xbe,
  0x57, 0x2f, 0x95, 0x3e, 0x8a, 0xb8, 0xde, 0xbd, 0xb7, 0x4c, 0x97, 0xbe,
  0xdd, 0xb3, 0xda, 0x3e, 0x55, 0x31, 0xc6, 0x3e, 0xcf, 0x68, 0xbb, 0xbd,
  0x67, 0xcf, 0xc3, 0xbe, 0x29, 0xb3, 0x1e, 0x3f, 0x75, 0x96, 0xba, 0x3e,
  0x54, 0x53, 0xf1, 0x3d, 0xd7, 0xaf, 0x1b, 0x3e, 0x76, 0x02, 0x1d, 0xbe,
  0xd2, 0x8a, 0xb2, 0x3e, 0x5c, 0xe5, 0xb0, 0xbe, 0x52, 0x46, 0x49, 0x3e,
  0xda, 0xbb, 0x7b, 0xbe, 0xb4, 0x01, 0x95, 0x3d, 0xda, 0x39, 0x14, 0xbe,
  0xe4, 0x59, 0xcc, 0xbd, 0x38, 0x8f, 0x72, 0xbd, 0x99, 0x45, 0xd0, 0xbe,
  0x74, 0x4e, 0x18, 0x3e, 0x09, 0x7a, 0x9d, 0x3e, 0x44, 0xb4, 0x8b, 0xbc,
  0x2a, 0x62, 0xc6, 0xbe, 0x0d, 0xc2, 0xd1, 0x3e, 0xb8, 0x97, 0x81, 0xbe,
  0x55, 0xdc, 0xcc, 0xbe, 0xe6, 0xa4, 0xc0, 0x3e, 0x92, 0x97, 0x0a, 0xbe,
  0xa4, 0xb5, 0x27, 0xbe, 0x0e, 0xde, 0x48, 0x3e, 0x5b, 0xd6, 0xb3, 0xbe,
  0xe2, 0x7b, 0xc6, 0x3e, 0x12, 0x56, 0x83, 0xbe, 0x99, 0x6f, 0x6c, 0xbe,
  0x0c, 0x29, 0xce, 0xbd, 0x41, 0x5a, 0x38, 0x3d, 0x10, 0x45, 0xe7, 0xbd,
  0xe8, 0x17, 0x2a, 0xbe, 0xa0, 0x67, 0x7b, 0xbe, 0xb9, 0x94, 0xcc, 0x3e,
  0x82, 0xb9, 0xe8, 0xbc, 0x49, 0x99, 0xbd, 0x3e, 0xe0, 0x41, 0x98, 0x3e,
  0x90, 0xf1, 0x88, 0xbe, 0x7d, 0xd3, 0xc3, 0x3e, 0x01, 0xa1, 0x5a, 0x3e,
  0x24, 0xd2, 0x86, 0xbe, 0x3b, 0x0d, 0xa2, 0x3e, 0x8c, 0x54, 0xf5, 0x3d,
  0x36, 0x53, 0x41, 0x3e, 0x04, 0xef, 0x85, 0xbe, 0x77, 0xfd, 0x5a, 0xbe,
  0xff, 0x51, 0x5e, 0xbe, 0x3a, 0x12, 0xdc, 0x3e, 0xa6, 0x7d, 0x30, 0x3e,
  0x30, 0x6f, 0xf3, 0xbd, 0x16, 0x26, 0xb7, 0xbe, 0x14, 0xe0, 0x7f, 0xbe,
  0xa4, 0xbc, 0x0f, 0xbe, 0x5c, 0xa8, 0xa3, 0x3d, 0x26, 0x59, 0x46, 0x3e,
  0x38, 0x5a, 0xf8, 0xbe, 0x42, 0x27, 0x00, 0x3e, 0x5a, 0xc5, 0x61, 0x3e,
  0x40, 0x84, 0xf0, 0xbc, 0x9f, 0x06, 0xc5, 0x3e, 0x90, 0x55, 0x13, 0xbd,
  0x28, 0xf9, 0x5c, 0x3e, 0xd0, 0x1a, 0x0d, 0xbe, 0x22, 0x0c, 0xb4, 0x3d,
  0xf0, 0x75, 0x1e, 0x3d, 0x08, 0x21, 0x56, 0xbd, 0xc3, 0x6b, 0x88, 0x3e,
  0x58, 0x30, 0x8e, 0xbe, 0xe1, 0x90, 0x42, 0x3e, 0x4a, 0x15, 0x8d, 0xbe,
  0x22, 0x76, 0x5e, 0x3e, 0xa3, 0x1e, 0xa2, 0x3e, 0x1c, 0xd6, 0x8d, 0x3d,
  0xc3, 0x72, 0xf5, 0x3e, 0x14, 0xdd, 0xad, 0xbe, 0x7c, 0x7e, 0xc6, 0xbe,
  0x20, 0xc4, 0x2f, 0xbc, 0xb8, 0xcb, 0x1d, 0x3d, 0x39, 0x47, 0xb1, 0xbe,
  0x8f, 0xa7, 0xcb, 0x3d, 0x99, 0xfb, 0xc0, 0x3e, 0x20, 0xac, 0x26, 0xbe,
  0x8d, 0x36, 0x08, 0xbf, 0xd6, 0x94, 0x7c, 0x3e, 0x59, 0xf6, 0xf7, 0xbe,
  0xae, 0x7c, 0x36, 0x3e, 0x9f, 0x4f, 0xda, 0x3e, 0x6a, 0x58, 0xb7, 0xbb,
  0xb8, 0x4c, 0x08, 0x3d, 0x34, 0xcd, 0xa5, 0xbe, 0xf4, 0x9a, 0xb5, 0x3d,
  0x18, 0x04, 0x3d, 0xbd, 0x5c, 0x5f, 0xa6, 0x3d, 0x9a, 0x0b, 0xa2, 0x3e,
  0x66, 0x50, 0x1e, 0x3e, 0x6d, 0x89, 0x98, 0x3e, 0x98, 0x1f, 0xfa, 0xbd,
  0x94, 0x0c, 0xae, 0x3d, 0xe5, 0xf2, 0xd5, 0xbe, 0x15, 0x5b, 0x4f, 0xbe,
  0xcc, 0xd8, 0x88, 0xbe, 0x04, 0x60, 0xfb, 0x3d, 0x1b, 0x12, 0xc0, 0xbe,
  0x30, 0x02, 0xef, 0xbc, 0x72, 0x75, 0x52, 0x3e, 0x8d, 0x8f, 0xa2, 0xbe,
  0x7d, 0x92, 0xcc, 0x3e, 0x12, 0xba, 0x0e, 0x3e, 0x25, 0xb4, 0xa0, 0xbe,
  0x78, 0xc5, 0xb8, 0xbe, 0x50, 0x75, 0xae, 0xbd, 0xf0, 0xe5, 0x00, 0xbd,
  0xab, 0xa2, 0xbc, 0x3e, 0x0d, 0x26, 0xa5, 0x3e, 0xed, 0x2e, 0xa0, 0x3e,
  0x20, 0xca, 0x79, 0x3d, 0x16, 0x64, 0xda, 0xbe, 0xd6, 0xfc, 0x11, 0xbe,
  0x9e, 0xb7, 0x69, 0x3e, 0xc0, 0x43, 0x27, 0x3d, 0x40, 0x09, 0x1d, 0xbe,
  0x43, 0xd6, 0x15, 0xbf, 0xfc, 0x0b, 0xa6, 0xbd, 0x3a, 0xd8, 0x6f, 0x3e,
  0x0e, 0x2e, 0x14, 0x3e, 0x39, 0x5b, 0x1e, 0xbf, 0xe7, 0x23, 0xc5, 0x3e,
  0x47, 0x8c, 0x06, 0x3e, 0x9e, 0x38, 0x16, 0x3e, 0x58, 0xd5, 0x6b, 0xbd,
  0x55, 0x3e, 0x8c, 0x3e, 0x83, 0xba, 0xa4, 0x3e, 0x5f, 0x28, 0x11, 0xbf,
  0x97, 0x1f, 0x92, 0x3e, 0x22, 0x10, 0x8a, 0xbe, 0xf6, 0x3e, 0x31, 0xbf,
  0x11, 0xf4, 0xd4, 0x3e, 0x2d, 0xb5, 0x05, 0xbe, 0xf0, 0xb9, 0x3d, 0xbd,
  0x03, 0x47, 0xdc, 0xbe, 0x64, 0x13, 0xb4, 0xbd, 0x6e, 0x97, 0x1d, 0xbf,
  0xb8, 0x07, 0x15, 0xbe, 0x86, 0x24, 0x03, 0x3f, 0x77, 0xfd, 0xd8, 0xbe,
  0x59, 0xf4, 0x58, 0xbe, 0x5c, 0x2b, 0x13, 0xbe, 0xe9, 0x0f, 0xad, 0xbe,
  0x35, 0x5e, 0x8c, 0xbb, 0xa8, 0x43, 0x10, 0x3d, 0x8e, 0x3a, 0x3a, 0x3e,
  0x7c, 0x45, 0x7e, 0x3e, 0xd6, 0x00, 0x29, 0x3e, 0xbf, 0xc0, 0x6b, 0x3e,
  0x45, 0x50, 0x91, 0x3e, 0x0c, 0xa7, 0x93, 0xbe, 0x20, 0x5a, 0x7b, 0x3c,
  0xee, 0xdf, 0x6e, 0x3d, 0x3a, 0xbd, 0x03, 0x3e, 0x42, 0x3c, 0x58, 0xbe,
  0x00, 0x00, 0x00, 0x00, 0x06, 0xff, 0xff, 0xff, 0x04, 0x00, 0x00, 0x00,
  0x40, 0x00, 0x00, 0x00, 0xb0, 0xe0, 0x74, 0xbd, 0x36, 0x9c, 0x98, 0xbe,
  0xa6, 0xa1, 0x89, 0x3e, 0xd0, 0x76, 0xe9, 0xbe, 0x6d, 0x42, 0x0a, 0x3f,
  0x0c, 0x94, 0x0c, 0xbf, 0x64, 0xe1, 0x16, 0xbf, 0x3d, 0xc7, 0x92, 0x3e,
  0x44, 0x58, 0x70, 0xbe, 0xe7, 0x48, 0x02, 0x3f, 0x28, 0x5c, 0x04, 0xbf,
  0x34, 0xfc, 0xe7, 0xbd, 0x78, 0xe4, 0x6b, 0xbe, 0x73, 0x6e, 0x06, 0x3f,
  0x09, 0x25, 0x94, 0xbe, 0x46, 0x91, 0x7a, 0x3e, 0x00, 0x00, 0x00, 0x00,
  0x56, 0xff, 0xff, 0xff, 0x04, 0x00, 0x00, 0x00, 0x40, 0x00, 0x00, 0x00,
  0x00, 0x00, 0x00, 0x00, 0x00, 0x00, 0x00, 0x00, 0xf7, 0x81, 0x39, 0xbf,
  0x00, 0x00, 0x00, 0x00, 0x99, 0x15, 0x20, 0xbf, 0x00, 0x00, 0x00, 0x00,
  0x00, 0x00, 0x00, 0x00, 0x29, 0x2e, 0xc1, 0xbe, 0x00, 0x00, 0x00, 0x00,
  0x4b, 0x8e, 0x2b, 0x3d, 0x00, 0x00, 0x00, 0x00, 0x00, 0x00, 0x00, 0x00,
  0x00, 0x00, 0x00, 0x00, 0xc0, 0x0c, 0xaf, 0xbd, 0x00, 0x00, 0x00, 0x00,
  0xa9, 0x04, 0x66, 0x3f, 0x00, 0x00, 0x00, 0x00, 0xa6, 0xff, 0xff, 0xff,
  0x04, 0x00, 0x00, 0x00, 0x40, 0x00, 0x00, 0x00, 0xde, 0x60, 0x40, 0xbe,
  0x1e, 0xd3, 0x7c, 0xbc, 0x01, 0xea, 0x12, 0xbf, 0x31, 0x19, 0x85, 0x3e,
  0xc2, 0x3f, 0x1b, 0xbf, 0x96, 0xd5, 0xe0, 0x3e, 0x4b, 0xf2, 0xfe, 0xbb,
  0xc0, 0x50, 0x77, 0xbe, 0x79, 0xbe, 0x77, 0xbe, 0x24, 0x22, 0x6e, 0xbc,
  0xa4, 0x53, 0x32, 0xbe, 0x92, 0xf9, 0x9c, 0x3e, 0x00, 0x00, 0x00, 0x00,
  0x58, 0x52, 0x5f, 0x3e, 0x73, 0xa4, 0x86, 0x3e, 0xac, 0x97, 0x16, 0x3d,
  0x00, 0x00, 0x00, 0x00, 0x00, 0x00, 0x00, 0x00, 0x00, 0x00, 0x00, 0x00,
  0x00, 0x00, 0x06, 0x00, 0x08, 0x00, 0x04, 0x00, 0x06, 0x00, 0x00, 0x00,
  0x04, 0x00, 0x00, 0x00, 0x04, 0x00, 0x00, 0x00, 0xdc, 0xd9, 0x58, 0xbc,
  0x00, 0x00, 0x00, 0x00, 0x00, 0x00, 0x00, 0x00, 0x88, 0xfb, 0xff, 0xff,
  0x00, 0x00, 0x00, 0x00, 0x00, 0x00, 0x00, 0x00, 0x00, 0x00, 0x00, 0x00,
  0x98, 0xfb, 0xff, 0xff, 0x00, 0x00, 0x00, 0x00, 0x0f, 0x00, 0x00, 0x00,
  0x4d, 0x4c, 0x49, 0x52, 0x20, 0x43, 0x6f, 0x6e, 0x76, 0x65, 0x72, 0x74,
  0x65, 0x64, 0x2e, 0x00, 0x01, 0x00, 0x00, 0x00, 0x14, 0x00, 0x00, 0x00,
  0x00, 0x00, 0x0e, 0x00, 0x18, 0x00, 0x04, 0x00, 0x08, 0x00, 0x0c, 0x00,
  0x10, 0x00, 0x14, 0x00, 0x0e, 0x00, 0x00, 0x00, 0x00, 0x01, 0x00, 0x00,
  0xf4, 0x00, 0x00, 0x00, 0xe8, 0x00, 0x00, 0x00, 0x14, 0x00, 0x00, 0x00,
  0x04, 0x00, 0x00, 0x00, 0x04, 0x00, 0x00, 0x00, 0x6d, 0x61, 0x69, 0x6e,
  0x00, 0x00, 0x00, 0x00, 0x03, 0x00, 0x00, 0x00, 0x90, 0x00, 0x00, 0x00,
  0x48, 0x00, 0x00, 0x00, 0x04, 0x00, 0x00, 0x00, 0xce, 0xff, 0xff, 0xff,
  0x00, 0x00, 0x00, 0x08, 0x18, 0x00, 0x00, 0x00, 0x0c, 0x00, 0x00, 0x00,
  0x04, 0x00, 0x00, 0x00, 0x14, 0xfc, 0xff, 0xff, 0x01, 0x00, 0x00, 0x00,
  0x09, 0x00, 0x00, 0x00, 0x03, 0x00, 0x00, 0x00, 0x08, 0x00, 0x00, 0x00,
  0x06, 0x00, 0x00, 0x00, 0x01, 0x00, 0x00, 0x00, 0x00, 0x00, 0x0e, 0x00,
  0x14, 0x00, 0x00, 0x00, 0x08, 0x00, 0x0c, 0x00, 0x07, 0x00, 0x10, 0x00,
  0x0e, 0x00, 0x00, 0x00, 0x00, 0x00, 0x00, 0x08, 0x1c, 0x00, 0x00, 0x00,
  0x10, 0x00, 0x00, 0x00, 0x04, 0x00, 0x00, 0x00, 0xba, 0xff, 0xff, 0xff,
  0x00, 0x00, 0x00, 0x01, 0x01, 0x00, 0x00, 0x00, 0x08, 0x00, 0x00, 0x00,
  0x03, 0x00, 0x00, 0x00, 0x07, 0x00, 0x00, 0x00, 0x05, 0x00, 0x00, 0x00,
  0x02, 0x00, 0x00, 0x00, 0x00, 0x00, 0x0e, 0x00, 0x16, 0x00, 0x00, 0x00,
  0x08, 0x00, 0x0c, 0x00, 0x07, 0x00, 0x10, 0x00, 0x0e, 0x00, 0x00, 0x00,
  0x00, 0x00, 0x00, 0x08, 0x24, 0x00, 0x00, 0x00, 0x18, 0x00, 0x00, 0x00,
  0x0c, 0x00, 0x00, 0x00, 0x00, 0x00, 0x06, 0x00, 0x08, 0x00, 0x07, 0x00,
  0x06, 0x00, 0x00, 0x00, 0x00, 0x00, 0x00, 0x01, 0x01, 0x00, 0x00, 0x00,
  0x07, 0x00, 0x00, 0x00, 0x03, 0x00, 0x00, 0x00, 0x00, 0x00, 0x00, 0x00,
  0x04, 0x00, 0x00, 0x00, 0x03, 0x00, 0x00, 0x00, 0x01, 0x00, 0x00, 0x00,
  0x09, 0x00, 0x00, 0x00, 0x01, 0x00, 0x00, 0x00, 0x00, 0x00, 0x00, 0x00,
  0x0a, 0x00, 0x00, 0x00, 0x08, 0x03, 0x00, 0x00, 0xbc, 0x02, 0x00, 0x00,
  0x74, 0x02, 0x00, 0x00, 0x40, 0x02, 0x00, 0x00, 0xfc, 0x01, 0x00, 0x00,
  0xb4, 0x01, 0x00, 0x00, 0x6c, 0x01, 0x00, 0x00, 0xe8, 0x00, 0x00, 0x00,
  0x5c, 0x00, 0x00, 0x00, 0x04, 0x00, 0x00, 0x00, 0x34, 0xfd, 0xff, 0xff,
  0x44, 0x00, 0x00, 0x00, 0x0a, 0x00, 0x00, 0x00, 0x1c, 0x00, 0x00, 0x00,
  0x14, 0x00, 0x00, 0x00, 0x04, 0x00, 0x00, 0x00, 0x02, 0x00, 0x00, 0x00,
  0xff, 0xff, 0xff, 0xff, 0x01, 0x00, 0x00, 0x00, 0x20, 0xfd, 0xff, 0xff,
  0x19, 0x00, 0x00, 0x00, 0x53, 0x74, 0x61, 0x74, 0x65, 0x66, 0x75, 0x6c,
  0x50, 0x61, 0x72, 0x74, 0x69, 0x74, 0x69, 0x6f, 0x6e, 0x65, 0x64, 0x43,
  0x61, 0x6c, 0x6c, 0x3a, 0x30, 0x00, 0x00, 0x00, 0x02, 0x00, 0x00, 0x00,
  0x01, 0x00, 0x00, 0x00, 0x01, 0x00, 0x00, 0x00, 0x88, 0xfd, 0xff, 0xff,
  0x78, 0x00, 0x00, 0x00, 0x09, 0x00, 0x00, 0x00, 0x1c, 0x00, 0x00, 0x00,
  0x14, 0x00, 0x00, 0x00, 0x04, 0x00, 0x00, 0x00, 0x02, 0x00, 0x00, 0x00,
  0xff, 0xff, 0xff, 0xff, 0x10, 0x00, 0x00, 0x00, 0x74, 0xfd, 0xff, 0xff,
  0x4c, 0x00, 0x00, 0x00, 0x73, 0x65, 0x71, 0x75, 0x65, 0x6e, 0x74, 0x69,
  0x61, 0x6c, 0x2f, 0x64, 0x65, 0x6e, 0x73, 0x65, 0x5f, 0x31, 0x2f, 0x4d,
  0x61, 0x74, 0x4d, 0x75, 0x6c, 0x3b, 0x73, 0x65, 0x71, 0x75, 0x65, 0x6e,
  0x74, 0x69, 0x61, 0x6c, 0x2f, 0x64, 0x65, 0x6e, 0x73, 0x65, 0x5f, 0x31,
  0x2f, 0x52, 0x65, 0x6c, 0x75, 0x3b, 0x73, 0x65, 0x71, 0x75, 0x65, 0x6e,
  0x74, 0x69, 0x61, 0x6c, 0x2f, 0x64, 0x65, 0x6e, 0x73, 0x65, 0x5f, 0x31,
  0x2f, 0x42, 0x69, 0x61, 0x73, 0x41, 0x64, 0x64, 0x00, 0x00, 0x00, 0x00,
  0x02, 0x00, 0x00, 0x00, 0x01, 0x00, 0x00, 0x00, 0x10, 0x00, 0x00, 0x00,
  0x10, 0xfe, 0xff, 0xff, 0x70, 0x00, 0x00, 0x00, 0x08, 0x00, 0x00, 0x00,
  0x1c, 0x00, 0x00, 0x00, 0x14, 0x00, 0x00, 0x00, 0x04, 0x00, 0x00, 0x00,
  0x02, 0x00, 0x00, 0x00, 0xff, 0xff, 0xff, 0xff, 0x10, 0x00, 0x00, 0x00,
  0xfc, 0xfd, 0xff, 0xff, 0x46, 0x00, 0x00, 0x00, 0x73, 0x65, 0x71, 0x75,
  0x65, 0x6e, 0x74, 0x69, 0x61, 0x6c, 0x2f, 0x64, 0x65, 0x6e, 0x73, 0x65,
  0x2f, 0x4d, 0x61, 0x74, 0x4d, 0x75, 0x6c, 0x3b, 0x73, 0x65, 0x71, 0x75,
  0x65, 0x6e, 0x74, 0x69, 0x61, 0x6c, 0x2f, 0x64, 0x65, 0x6e, 0x73, 0x65,
  0x2f, 0x52, 0x65, 0x6c, 0x75, 0x3b, 0x73, 0x65, 0x71, 0x75, 0x65, 0x6e,
  0x74, 0x69, 0x61, 0x6c, 0x2f, 0x64, 0x65, 0x6e, 0x73, 0x65, 0x2f, 0x42,
  0x69, 0x61, 0x73, 0x41, 0x64, 0x64, 0x00, 0x00, 0x02, 0x00, 0x00, 0x00,
  0x01, 0x00, 0x00, 0x00, 0x10, 0x00, 0x00, 0x00, 0xd2, 0xfe, 0xff, 0xff,
  0x34, 0x00, 0x00, 0x00, 0x07, 0x00, 0x00, 0x00, 0x0c, 0x00, 0x00, 0x00,
  0x04, 0x00, 0x00, 0x00, 0x6c, 0xfe, 0xff, 0xff, 0x19, 0x00, 0x00, 0x00,
  0x73, 0x65, 0x71, 0x75, 0x65, 0x6e, 0x74, 0x69, 0x61, 0x6c, 0x2f, 0x64,
  0x65, 0x6e, 0x73, 0x65, 0x5f, 0x32, 0x2f, 0x4d, 0x61, 0x74, 0x4d, 0x75,
  0x6c, 0x00, 0x00, 0x00, 0x02, 0x00, 0x00, 0x00, 0x01, 0x00, 0x00, 0x00,
  0x10, 0x00, 0x00, 0x00, 0x16, 0xff, 0xff, 0xff, 0x34, 0x00, 0x00, 0x00,
  0x06, 0x00, 0x00, 0x00, 0x0c, 0x00, 0x00, 0x00, 0x04, 0x00, 0x00, 0x00,
  0xb0, 0xfe, 0xff, 0xff, 0x19, 0x00, 0x00, 0x00, 0x73, 0x65, 0x71, 0x75,
  0x65, 0x6e, 0x74, 0x69, 0x61, 0x6c, 0x2f, 0x64, 0x65, 0x6e, 0x73, 0x65,
  0x5f, 0x31, 0x2f, 0x4d, 0x61, 0x74, 0x4d, 0x75, 0x6c, 0x00, 0x00, 0x00,
  0x02, 0x00, 0x00, 0x00, 0x10, 0x00, 0x00, 0x00, 0x10, 0x00, 0x00, 0x00,
  0x5a, 0xff, 0xff, 0xff, 0x30, 0x00, 0x00, 0x00, 0x05, 0x00, 0x00, 0x00,
  0x0c, 0x00, 0x00, 0x00, 0x04, 0x00, 0x00, 0x00, 0xf4, 0xfe, 0xff, 0xff,
  0x17, 0x00, 0x00, 0x00, 0x73, 0x65, 0x71, 0x75, 0x65, 0x6e, 0x74, 0x69,
  0x61, 0x6c, 0x2f, 0x64, 0x65, 0x6e, 0x73, 0x65, 0x2f, 0x4d, 0x61, 0x74,
  0x4d, 0x75, 0x6c, 0x00, 0x02, 0x00, 0x00, 0x00, 0x10, 0x00, 0x00, 0x00,
  0x01, 0x00, 0x00, 0x00, 0x9a, 0xff, 0xff, 0xff, 0x24, 0x00, 0x00, 0x00,
  0x04, 0x00, 0x00, 0x00, 0x0c, 0x00, 0x00, 0x00, 0x04, 0x00, 0x00, 0x00,
  0x34, 0xff, 0xff, 0xff, 0x0a, 0x00, 0x00, 0x00, 0x64, 0x65, 0x6e, 0x73,
  0x65, 0x2f, 0x62, 0x69, 0x61, 0x73, 0x00, 0x00, 0x01, 0x00, 0x00, 0x00,
  0x10, 0x00, 0x00, 0x00, 0xca, 0xff, 0xff, 0xff, 0x28, 0x00, 0x00, 0x00,
  0x03, 0x00, 0x00, 0x00, 0x0c, 0x00, 0x00, 0x00, 0x04, 0x00, 0x00, 0x00,
  0x64, 0xff, 0xff, 0xff, 0x0c, 0x00, 0x00, 0x00, 0x64, 0x65, 0x6e, 0x73,
  0x65, 0x5f, 0x31, 0x2f, 0x62, 0x69, 0x61, 0x73, 0x00, 0x00, 0x00, 0x00,
  0x01, 0x00, 0x00, 0x00, 0x10, 0x00, 0x00, 0x00, 0x00, 0x00, 0x0e, 0x00,
  0x14, 0x00, 0x04, 0x00, 0x00, 0x00, 0x08, 0x00, 0x0c, 0x00, 0x10, 0x00,
  0x0e, 0x00, 0x00, 0x00, 0x28, 0x00, 0x00, 0x00, 0x02, 0x00, 0x00, 0x00,
  0x0c, 0x00, 0x00, 0x00, 0x04, 0x00, 0x00, 0x00, 0xa8, 0xff, 0xff, 0xff,
  0x0c, 0x00, 0x00, 0x00, 0x64, 0x65, 0x6e, 0x73, 0x65, 0x5f, 0x32, 0x2f,
  0x62, 0x69, 0x61, 0x73, 0x00, 0x00, 0x00, 0x00, 0x01, 0x00, 0x00, 0x00,
  0x01, 0x00, 0x00, 0x00, 0x14, 0x00, 0x18, 0x00, 0x04, 0x00, 0x00, 0x00,
  0x08, 0x00, 0x0c, 0x00, 0x10, 0x00, 0x00, 0x00, 0x00, 0x00, 0x14, 0x00,
  0x14, 0x00, 0x00, 0x00, 0x4c, 0x00, 0x00, 0x00, 0x01, 0x00, 0x00, 0x00,
  0x20, 0x00, 0x00, 0x00, 0x18, 0x00, 0x00, 0x00, 0x04, 0x00, 0x00, 0x00,
  0x02, 0x00, 0x00, 0x00, 0xff, 0xff, 0xff, 0xff, 0x01, 0x00, 0x00, 0x00,
  0x04, 0x00, 0x04, 0x00, 0x04, 0x00, 0x00, 0x00, 0x1d, 0x00, 0x00, 0x00,
  0x73, 0x65, 0x72, 0x76, 0x69, 0x6e, 0x67, 0x5f, 0x64, 0x65, 0x66, 0x61,
  0x75, 0x6c, 0x74, 0x5f, 0x64, 0x65, 0x6e, 0x73, 0x65, 0x5f, 0x69, 0x6e,
  0x70, 0x75, 0x74, 0x3a, 0x30, 0x00, 0x00, 0x00, 0x02, 0x00, 0x00, 0x00,
  0x01, 0x00, 0x00, 0x00, 0x01, 0x00, 0x00, 0x00, 0x01, 0x00, 0x00, 0x00,
  0x10, 0x00, 0x00, 0x00, 0x0c, 0x00, 0x10, 0x00, 0x07, 0x00, 0x00, 0x00,
  0x08, 0x00, 0x0c, 0x00, 0x0c, 0x00, 0x00, 0x00, 0x00, 0x00, 0x00, 0x09,
  0x09, 0x00, 0x00, 0x00, 0x09, 0x00, 0x00, 0x00
};

#endif //SINE_MODEL_H