#ifndef CNN_CLUSTERED_H
#define CNN_CLUSTERED_H


unsigned int CNN_clustered_len = 66768;
unsigned char CNN_clustered[] = {
 0x28, 0x00, 0x00, 0x00, 0x54, 0x46, 0x4c, 0x33, 0x00, 0x00, 0x00, 0x00,
  0x00, 0x00, 0x00, 0x00, 0x00, 0x00, 0x00, 0x00, 0x14, 0x00, 0x20, 0x00,
  0x04, 0x00, 0x08, 0x00, 0x0c, 0x00, 0x10, 0x00, 0x14, 0x00, 0x00, 0x00,
  0x18, 0x00, 0x1c, 0x00, 0x14, 0x00, 0x00, 0x00, 0x03, 0x00, 0x00, 0x00,
  0x2c, 0x04, 0x01, 0x00, 0x84, 0xfc, 0x00, 0x00, 0x6c, 0xfc, 0x00, 0x00,
  0xb4, 0x00, 0x00, 0x00, 0x7c, 0x00, 0x00, 0x00, 0x04, 0x00, 0x00, 0x00,
  0x01, 0x00, 0x00, 0x00, 0x04, 0x00, 0x00, 0x00, 0x7e, 0x02, 0xff, 0xff,
  0x44, 0x00, 0x00, 0x00, 0x1c, 0x00, 0x00, 0x00, 0x04, 0x00, 0x00, 0x00,
  0x0f, 0x00, 0x00, 0x00, 0x73, 0x65, 0x72, 0x76, 0x69, 0x6e, 0x67, 0x5f,
  0x64, 0x65, 0x66, 0x61, 0x75, 0x6c, 0x74, 0x00, 0x01, 0x00, 0x00, 0x00,
  0x04, 0x00, 0x00, 0x00, 0xb8, 0xff, 0xff, 0xff, 0x08, 0x00, 0x00, 0x00,
  0x0d, 0x00, 0x00, 0x00, 0x08, 0x00, 0x00, 0x00, 0x64, 0x65, 0x6e, 0x73,
  0x65, 0x5f, 0x32, 0x37, 0x00, 0x00, 0x00, 0x00, 0x01, 0x00, 0x00, 0x00,
  0x04, 0x00, 0x00, 0x00, 0x76, 0x03, 0xff, 0xff, 0x04, 0x00, 0x00, 0x00,
  0x0f, 0x00, 0x00, 0x00, 0x63, 0x6f, 0x6e, 0x76, 0x32, 0x64, 0x5f, 0x31,
  0x33, 0x5f, 0x69, 0x6e, 0x70, 0x75, 0x74, 0x00, 0x01, 0x00, 0x00, 0x00,
  0x0c, 0x00, 0x00, 0x00, 0x08, 0x00, 0x0c, 0x00, 0x04, 0x00, 0x08, 0x00,
  0x08, 0x00, 0x00, 0x00, 0x08, 0x00, 0x00, 0x00, 0x0f, 0x00, 0x00, 0x00,
  0x13, 0x00, 0x00, 0x00, 0x6d, 0x69, 0x6e, 0x5f, 0x72, 0x75, 0x6e, 0x74,
  0x69, 0x6d, 0x65, 0x5f, 0x76, 0x65, 0x72, 0x73, 0x69, 0x6f, 0x6e, 0x00,
  0x10, 0x00, 0x00, 0x00, 0xa8, 0xfb, 0x00, 0x00, 0x94, 0xfb, 0x00, 0x00,
  0x58, 0xfb, 0x00, 0x00, 0xc4, 0xfa, 0x00, 0x00, 0x30, 0xfa, 0x00, 0x00,
  0x0c, 0xfa, 0x00, 0x00, 0xf8, 0x09, 0x00, 0x00, 0x34, 0x05, 0x00, 0x00,
  0xa0, 0x00, 0x00, 0x00, 0x94, 0x00, 0x00, 0x00, 0x80, 0x00, 0x00, 0x00,
  0x6c, 0x00, 0x00, 0x00, 0x58, 0x00, 0x00, 0x00, 0x44, 0x00, 0x00, 0x00,
  0x30, 0x00, 0x00, 0x00, 0x04, 0x00, 0x00, 0x00, 0x0a, 0x04, 0xff, 0xff,
  0x04, 0x00, 0x00, 0x00, 0x10, 0x00, 0x00, 0x00, 0x31, 0x2e, 0x35, 0x2e,
  0x30, 0x00, 0x00, 0x00, 0x00, 0x00, 0x00, 0x00, 0x00, 0x00, 0x00, 0x00,
  0x00, 0x00, 0x00, 0x00, 0x00, 0x00, 0x00, 0x00, 0x00, 0x00, 0x00, 0x00,
  0x44, 0xfd, 0xfe, 0xff, 0x00, 0x00, 0x00, 0x00, 0x00, 0x00, 0x00, 0x00,
  0x00, 0x00, 0x00, 0x00, 0x54, 0xfd, 0xfe, 0xff, 0x00, 0x00, 0x00, 0x00,
  0x00, 0x00, 0x00, 0x00, 0x00, 0x00, 0x00, 0x00, 0x64, 0xfd, 0xfe, 0xff,
  0x00, 0x00, 0x00, 0x00, 0x00, 0x00, 0x00, 0x00, 0x00, 0x00, 0x00, 0x00,
  0x74, 0xfd, 0xfe, 0xff, 0x00, 0x00, 0x00, 0x00, 0x00, 0x00, 0x00, 0x00,
  0x00, 0x00, 0x00, 0x00, 0x84, 0xfd, 0xfe, 0xff, 0x00, 0x00, 0x00, 0x00,
  0x00, 0x00, 0x00, 0x00, 0x00, 0x00, 0x00, 0x00, 0x94, 0xfd, 0xfe, 0xff,
  0x00, 0x00, 0x00, 0x00, 0x8a, 0x04, 0xff, 0xff, 0x04, 0x00, 0x00, 0x00,
  0x80, 0x04, 0x00, 0x00, 0xcd, 0x7e, 0x55, 0x3e, 0xca, 0xd5, 0x42, 0xbf,
  0xaf, 0x8b, 0x1e, 0xbf, 0x37, 0x09, 0xbb, 0x3e, 0xcd, 0x7e, 0x55, 0x3e,
  0xcd, 0x7e, 0x55, 0x3e, 0xfb, 0xdc, 0x4c, 0x3f, 0xa6, 0x41, 0xb7, 0xbe,
  0xca, 0xd5, 0x42, 0xbf, 0xca, 0xd5, 0x42, 0xbf, 0x45, 0x47, 0x5e, 0xbe,
  0xaf, 0x8b, 0x1e, 0xbf, 0x3f, 0x21, 0x66, 0x3d, 0x03, 0x1c, 0x6f, 0x3f,
  0x37, 0x09, 0xbb, 0x3e, 0x45, 0x47, 0x5e, 0xbe, 0x4b, 0x5d, 0x3a, 0xbd,
  0xca, 0xd5, 0x42, 0xbf, 0x5f, 0x2e, 0x03, 0x3f, 0xfb, 0xdc, 0x4c, 0x3f,
  0xa6, 0x41, 0xb7, 0xbe, 0xcd, 0x7e, 0x55, 0x3e, 0xa6, 0x41, 0xb7, 0xbe,
  0xca, 0xd5, 0x42, 0xbf, 0x3f, 0x21, 0x66, 0x3d, 0x4b, 0x5d, 0x3a, 0xbd,
  0x4b, 0x5d, 0x3a, 0xbd, 0x4b, 0x5d, 0x3a, 0xbd, 0x37, 0x09, 0xbb, 0x3e,
  0xa6, 0x41, 0xb7, 0xbe, 0xcd, 0x7e, 0x55, 0x3e, 0xa6, 0x41, 0xb7, 0xbe,
  0xcd, 0x7e, 0x55, 0x3e, 0xa6, 0x41, 0xb7, 0xbe, 0x2a, 0xcf, 0x27, 0x3f,
  0x4b, 0x5d, 0x3a, 0xbd, 0x3f, 0x21, 0x66, 0x3d, 0xa6, 0x41, 0xb7, 0xbe,
  0x45, 0x47, 0x5e, 0xbe, 0x45, 0x47, 0x5e, 0xbe, 0x2a, 0xcf, 0x27, 0x3f,
  0x5f, 0x2e, 0x03, 0x3f, 0xcd, 0x7e, 0x55, 0x3e, 0x5f, 0x2e, 0x03, 0x3f,
  0xca, 0xd5, 0x42, 0xbf, 0x4b, 0x5d, 0x3a, 0xbd, 0xa6, 0x41, 0xb7, 0xbe,
  0xcd, 0x7e, 0x55, 0x3e, 0x37, 0x09, 0xbb, 0x3e, 0xa6, 0x41, 0xb7, 0xbe,
  0x45, 0x47, 0x5e, 0xbe, 0xaf, 0x8b, 0x1e, 0xbf, 0xa6, 0x41, 0xb7, 0xbe,
  0x93, 0x8c, 0xfa, 0xbe, 0xfb, 0xdc, 0x4c, 0x3f, 0x45, 0x47, 0x5e, 0xbe,
  0x4b, 0x5d, 0x3a, 0xbd, 0x4b, 0x5d, 0x3a, 0xbd, 0xa6, 0x41, 0xb7, 0xbe,
  0xa6, 0x41, 0xb7, 0xbe, 0xcd, 0x7e, 0x55, 0x3e, 0x2a, 0xcf, 0x27, 0x3f,
  0x2a, 0xcf, 0x27, 0x3f, 0xa6, 0x41, 0xb7, 0xbe, 0xca, 0xd5, 0x42, 0xbf,
  0x03, 0x1c, 0x6f, 0x3f, 0x5d, 0x60, 0x83, 0xbf, 0x5f, 0x2e, 0x03, 0x3f,
  0x2a, 0xcf, 0x27, 0x3f, 0xcd, 0x7e, 0x55, 0x3e, 0xfb, 0xdc, 0x4c, 0x3f,
  0xcd, 0x7e, 0x55, 0x3e, 0xa6, 0x41, 0xb7, 0xbe, 0x3f, 0x21, 0x66, 0x3d,
  0x3f, 0x21, 0x66, 0x3d, 0x2a, 0xcf, 0x27, 0x3f, 0xa6, 0x41, 0xb7, 0xbe,
  0x3f, 0x21, 0x66, 0x3d, 0x37, 0x09, 0xbb, 0x3e, 0x5f, 0x2e, 0x03, 0x3f,
  0x2a, 0xcf, 0x27, 0x3f, 0x93, 0x8c, 0xfa, 0xbe, 0x45, 0x47, 0x5e, 0xbe,
  0x3f, 0x21, 0x66, 0x3d, 0x37, 0x09, 0xbb, 0x3e, 0xcd, 0x7e, 0x55, 0x3e,
  0xcd, 0x7e, 0x55, 0x3e, 0x5f, 0x2e, 0x03, 0x3f, 0xa6, 0x41, 0xb7, 0xbe,
  0xca, 0xd5, 0x42, 0xbf, 0x3f, 0x21, 0x66, 0x3d, 0xfb, 0xdc, 0x4c, 0x3f,
  0x43, 0x5c, 0x67, 0xbf, 0xfb, 0xdc, 0x4c, 0x3f, 0xcd, 0x7e, 0x55, 0x3e,
  0x43, 0x5c, 0x67, 0xbf, 0xa6, 0x41, 0xb7, 0xbe, 0xaf, 0x8b, 0x1e, 0xbf,
  0x4b, 0x5d, 0x3a, 0xbd, 0x45, 0x47, 0x5e, 0xbe, 0x43, 0x5c, 0x67, 0xbf,
  0xca, 0xd5, 0x42, 0xbf, 0xcd, 0x7e, 0x55, 0x3e, 0x93, 0x8c, 0xfa, 0xbe,
  0x2a, 0xcf, 0x27, 0x3f, 0xfb, 0xdc, 0x4c, 0x3f, 0xfb, 0xdc, 0x4c, 0x3f,
  0x3f, 0x21, 0x66, 0x3d, 0xcd, 0x7e, 0x55, 0x3e, 0xca, 0xd5, 0x42, 0xbf,
  0xca, 0xd5, 0x42, 0xbf, 0xa6, 0x41, 0xb7, 0xbe, 0xcd, 0x7e, 0x55, 0x3e,
  0xa6, 0x41, 0xb7, 0xbe, 0x37, 0x09, 0xbb, 0x3e, 0x5f, 0x2e, 0x03, 0x3f,
  0xa6, 0x41, 0xb7, 0xbe, 0xfb, 0xdc, 0x4c, 0x3f, 0x93, 0x8c, 0xfa, 0xbe,
  0xca, 0xd5, 0x42, 0xbf, 0xca, 0xd5, 0x42, 0xbf, 0x2a, 0xcf, 0x27, 0x3f,
  0x5f, 0x2e, 0x03, 0x3f, 0x3f, 0x21, 0x66, 0x3d, 0x45, 0x47, 0x5e, 0xbe,
  0x37, 0x09, 0xbb, 0x3e, 0xca, 0xd5, 0x42, 0xbf, 0xcd, 0x7e, 0x55, 0x3e,
  0x2a, 0xcf, 0x27, 0x3f, 0x4b, 0x5d, 0x3a, 0xbd, 0x45, 0x47, 0x5e, 0xbe,
  0xcd, 0x7e, 0x55, 0x3e, 0x4b, 0x5d, 0x3a, 0xbd, 0x37, 0x09, 0xbb, 0x3e,
  0x45, 0x47, 0x5e, 0xbe, 0x93, 0x8c, 0xfa, 0xbe, 0x45, 0x47, 0x5e, 0xbe,
  0x4b, 0x5d, 0x3a, 0xbd, 0xcd, 0x7e, 0x55, 0x3e, 0x45, 0x47, 0x5e, 0xbe,
  0xca, 0xd5, 0x42, 0xbf, 0xcd, 0x7e, 0x55, 0x3e, 0x5f, 0x2e, 0x03, 0x3f,
  0xca, 0xd5, 0x42, 0xbf, 0xaf, 0x8b, 0x1e, 0xbf, 0x4b, 0x5d, 0x3a, 0xbd,
  0x2a, 0xcf, 0x27, 0x3f, 0x45, 0x47, 0x5e, 0xbe, 0xaf, 0x8b, 0x1e, 0xbf,
  0x2a, 0xcf, 0x27, 0x3f, 0xa6, 0x41, 0xb7, 0xbe, 0xa6, 0x41, 0xb7, 0xbe,
  0x2a, 0xcf, 0x27, 0x3f, 0xcd, 0x7e, 0x55, 0x3e, 0x93, 0x8c, 0xfa, 0xbe,
  0xca, 0xd5, 0x42, 0xbf, 0x4b, 0x5d, 0x3a, 0xbd, 0xcd, 0x7e, 0x55, 0x3e,
  0xca, 0xd5, 0x42, 0xbf, 0xfb, 0xdc, 0x4c, 0x3f, 0xcd, 0x7e, 0x55, 0x3e,
  0xfb, 0xdc, 0x4c, 0x3f, 0xcd, 0x7e, 0x55, 0x3e, 0x37, 0x09, 0xbb, 0x3e,
  0x43, 0x5c, 0x67, 0xbf, 0x5f, 0x2e, 0x03, 0x3f, 0xcd, 0x7e, 0x55, 0x3e,
  0x4b, 0x5d, 0x3a, 0xbd, 0x2a, 0xcf, 0x27, 0x3f, 0x93, 0x8c, 0xfa, 0xbe,
  0x93, 0x8c, 0xfa, 0xbe, 0xa6, 0x41, 0xb7, 0xbe, 0xca, 0xd5, 0x42, 0xbf,
  0xfb, 0xdc, 0x4c, 0x3f, 0x4b, 0x5d, 0x3a, 0xbd, 0x45, 0x47, 0x5e, 0xbe,
  0x3f, 0x21, 0x66, 0x3d, 0xcd, 0x7e, 0x55, 0x3e, 0xcd, 0x7e, 0x55, 0x3e,
  0x2a, 0xcf, 0x27, 0x3f, 0x45, 0x47, 0x5e, 0xbe, 0xa6, 0x41, 0xb7, 0xbe,
  0x93, 0x8c, 0xfa, 0xbe, 0xa6, 0x41, 0xb7, 0xbe, 0x3f, 0x21, 0x66, 0x3d,
  0x3f, 0x21, 0x66, 0x3d, 0xaf, 0x8b, 0x1e, 0xbf, 0xa6, 0x41, 0xb7, 0xbe,
  0x29, 0x12, 0x88, 0x3f, 0xca, 0xd5, 0x42, 0xbf, 0x37, 0x09, 0xbb, 0x3e,
  0x3f, 0x21, 0x66, 0x3d, 0x37, 0x09, 0xbb, 0x3e, 0xfb, 0xdc, 0x4c, 0x3f,
  0x5f, 0x2e, 0x03, 0x3f, 0xa6, 0x41, 0xb7, 0xbe, 0x3f, 0x21, 0x66, 0x3d,
  0x43, 0x5c, 0x67, 0xbf, 0x2a, 0xcf, 0x27, 0x3f, 0x37, 0x09, 0xbb, 0x3e,
  0x5d, 0x60, 0x83, 0xbf, 0x3f, 0x21, 0x66, 0x3d, 0x5f, 0x2e, 0x03, 0x3f,
  0x5f, 0x2e, 0x03, 0x3f, 0xca, 0xd5, 0x42, 0xbf, 0x5f, 0x2e, 0x03, 0x3f,
  0x37, 0x09, 0xbb, 0x3e, 0x4b, 0x5d, 0x3a, 0xbd, 0x37, 0x09, 0xbb, 0x3e,
  0x3f, 0x21, 0x66, 0x3d, 0x3f, 0x21, 0x66, 0x3d, 0xaf, 0x8b, 0x1e, 0xbf,
  0xca, 0xd5, 0x42, 0xbf, 0xfb, 0xdc, 0x4c, 0x3f, 0x03, 0x1c, 0x6f, 0x3f,
  0x43, 0x5c, 0x67, 0xbf, 0xfb, 0xdc, 0x4c, 0x3f, 0x5f, 0x2e, 0x03, 0x3f,
  0xfb, 0xdc, 0x4c, 0x3f, 0x4b, 0x5d, 0x3a, 0xbd, 0x37, 0x09, 0xbb, 0x3e,
  0x37, 0x09, 0xbb, 0x3e, 0x3f, 0x21, 0x66, 0x3d, 0x93, 0x8c, 0xfa, 0xbe,
  0x37, 0x09, 0xbb, 0x3e, 0x45, 0x47, 0x5e, 0xbe, 0xaf, 0x8b, 0x1e, 0xbf,
  0x5f, 0x2e, 0x03, 0x3f, 0xa6, 0x41, 0xb7, 0xbe, 0xcd, 0x7e, 0x55, 0x3e,
  0x37, 0x09, 0xbb, 0x3e, 0x3f, 0x21, 0x66, 0x3d, 0xcd, 0x7e, 0x55, 0x3e,
  0x93, 0x8c, 0xfa, 0xbe, 0x4b, 0x5d, 0x3a, 0xbd, 0x37, 0x09, 0xbb, 0x3e,
  0x5f, 0x2e, 0x03, 0x3f, 0x37, 0x09, 0xbb, 0x3e, 0x45, 0x47, 0x5e, 0xbe,
  0xa6, 0x41, 0xb7, 0xbe, 0xcd, 0x7e, 0x55, 0x3e, 0xa6, 0x41, 0xb7, 0xbe,
  0x5f, 0x2e, 0x03, 0x3f, 0xcd, 0x7e, 0x55, 0x3e, 0xaf, 0x8b, 0x1e, 0xbf,
  0x2a, 0xcf, 0x27, 0x3f, 0xaf, 0x8b, 0x1e, 0xbf, 0xca, 0xd5, 0x42, 0xbf,
  0xcd, 0x7e, 0x55, 0x3e, 0xa6, 0x41, 0xb7, 0xbe, 0x45, 0x47, 0x5e, 0xbe,
  0x3f, 0x21, 0x66, 0x3d, 0x93, 0x8c, 0xfa, 0xbe, 0x5f, 0x2e, 0x03, 0x3f,
  0xfb, 0xdc, 0x4c, 0x3f, 0x43, 0x5c, 0x67, 0xbf, 0x29, 0x12, 0x88, 0x3f,
  0xaf, 0x8b, 0x1e, 0xbf, 0xca, 0xd5, 0x42, 0xbf, 0xfb, 0xdc, 0x4c, 0x3f,
  0xfb, 0xdc, 0x4c, 0x3f, 0x45, 0x47, 0x5e, 0xbe, 0x4b, 0x5d, 0x3a, 0xbd,
  0x43, 0x5c, 0x67, 0xbf, 0x93, 0x8c, 0xfa, 0xbe, 0x45, 0x47, 0x5e, 0xbe,
  0x45, 0x47, 0x5e, 0xbe, 0x2a, 0xcf, 0x27, 0x3f, 0xcd, 0x7e, 0x55, 0x3e,
  0x29, 0x12, 0x88, 0x3f, 0x5f, 0x2e, 0x03, 0x3f, 0x37, 0x09, 0xbb, 0x3e,
  0x45, 0x47, 0x5e, 0xbe, 0xfb, 0xdc, 0x4c, 0x3f, 0x93, 0x8c, 0xfa, 0xbe,
  0x37, 0x09, 0xbb, 0x3e, 0xaf, 0x8b, 0x1e, 0xbf, 0xa6, 0x41, 0xb7, 0xbe,
  0x93, 0x8c, 0xfa, 0xbe, 0x45, 0x47, 0x5e, 0xbe, 0xca, 0xd5, 0x42, 0xbf,
  0xaf, 0x8b, 0x1e, 0xbf, 0x37, 0x09, 0xbb, 0x3e, 0x37, 0x09, 0xbb, 0x3e,
  0x2a, 0xcf, 0x27, 0x3f, 0x4b, 0x5d, 0x3a, 0xbd, 0x3f, 0x21, 0x66, 0x3d,
  0x2a, 0xcf, 0x27, 0x3f, 0x00, 0x00, 0x00, 0x00, 0x1a, 0x09, 0xff, 0xff,
  0x04, 0x00, 0x00, 0x00, 0xb0, 0x04, 0x00, 0x00, 0x4d, 0x44, 0x6e, 0x3e,
  0x8b, 0xea, 0x17, 0xbf, 0x4d, 0x44, 0x6e, 0x3e, 0x5e, 0xf8, 0xdc, 0x3d,
  0xc8, 0x3c, 0xdb, 0x3e, 0x44, 0x81, 0x4b, 0x3d, 0x33, 0xab, 0x7a, 0xbe,
  0xa8, 0xb9, 0xf8, 0xbe, 0x4d, 0x44, 0x6e, 0x3e, 0x4d, 0x44, 0x6e, 0x3e,
  0xc8, 0x3c, 0xdb, 0x3e, 0x33, 0xab, 0x7a, 0xbe, 0x44, 0x81, 0x4b, 0x3d,
  0x33, 0xab, 0x7a, 0xbe, 0x44, 0x81, 0x4b, 0x3d, 0x37, 0x37, 0x98, 0xbe,
  0x4d, 0x44, 0x6e, 0x3e, 0x33, 0xab, 0x7a, 0xbe, 0x33, 0xab, 0x7a, 0xbe,
  0x33, 0xab, 0x7a, 0xbe, 0xa8, 0xb9, 0xf8, 0xbe, 0x01, 0x49, 0x12, 0x3f,
  0x44, 0x81, 0x4b, 0x3d, 0xc8, 0x3c, 0xdb, 0x3e, 0x44, 0x81, 0x4b, 0x3d,
  0x01, 0x49, 0x12, 0x3f, 0x44, 0x81, 0x4b, 0x3d, 0x33, 0xab, 0x7a, 0xbe,
  0x33, 0xab, 0x7a, 0xbe, 0x44, 0x81, 0x4b, 0x3d, 0x4d, 0x44, 0x6e, 0x3e,
  0xa8, 0xb9, 0xf8, 0xbe, 0x83, 0x14, 0xeb, 0xbc, 0x44, 0x81, 0x4b, 0x3d,
  0x83, 0x14, 0xeb, 0xbc, 0x83, 0x14, 0xeb, 0xbc, 0x44, 0x81, 0x4b, 0x3d,
  0x4d, 0x44, 0x6e, 0x3e, 0x5e, 0xf8, 0xdc, 0x3d, 0x83, 0x14, 0xeb, 0xbc,
  0xa8, 0xb9, 0xf8, 0xbe, 0xc8, 0x3c, 0xdb, 0x3e, 0x83, 0x14, 0xeb, 0xbc,
  0x7f, 0x05, 0x2b, 0x3f, 0x37, 0x37, 0x98, 0xbe, 0x33, 0xab, 0x7a, 0xbe,
  0x37, 0x37, 0x98, 0xbe, 0xe8, 0xc8, 0x66, 0x3f, 0x8b, 0xea, 0x17, 0xbf,
  0x83, 0x14, 0xeb, 0xbc, 0xa8, 0xb9, 0xf8, 0xbe, 0x83, 0x14, 0xeb, 0xbc,
  0xc8, 0x3c, 0xdb, 0x3e, 0x5e, 0xf8, 0xdc, 0x3d, 0x4d, 0x44, 0x6e, 0x3e,
  0x37, 0x37, 0x98, 0xbe, 0x33, 0xab, 0x7a, 0xbe, 0x4d, 0x44, 0x6e, 0x3e,
  0x5e, 0xf8, 0xdc, 0x3d, 0x83, 0x14, 0xeb, 0xbc, 0x83, 0x14, 0xeb, 0xbc,
  0x33, 0xab, 0x7a, 0xbe, 0x37, 0x37, 0x98, 0xbe, 0xa8, 0xb9, 0xf8, 0xbe,
  0x5e, 0xf8, 0xdc, 0x3d, 0x8b, 0xea, 0x17, 0xbf, 0x83, 0x14, 0xeb, 0xbc,
  0x8b, 0xea, 0x17, 0xbf, 0x44, 0x81, 0x4b, 0x3d, 0x4d, 0x44, 0x6e, 0x3e,
  0x5e, 0xf8, 0xdc, 0x3d, 0xa8, 0xb9, 0xf8, 0xbe, 0x5e, 0xf8, 0xdc, 0x3d,
  0x37, 0x37, 0x98, 0xbe, 0x33, 0xab, 0x7a, 0xbe, 0x5e, 0xf8, 0xdc, 0x3d,
  0xc8, 0x3c, 0xdb, 0x3e, 0x01, 0x49, 0x12, 0x3f, 0x37, 0x37, 0x98, 0xbe,
  0x7f, 0x05, 0x2b, 0x3f, 0x4d, 0x44, 0x6e, 0x3e, 0xc8, 0x3c, 0xdb, 0x3e,
  0x83, 0x14, 0xeb, 0xbc, 0x37, 0x37, 0x98, 0xbe, 0x4d, 0x44, 0x6e, 0x3e,
  0x83, 0x14, 0xeb, 0xbc, 0x01, 0x49, 0x12, 0x3f, 0xc8, 0x3c, 0xdb, 0x3e,
  0x37, 0x37, 0x98, 0xbe, 0x83, 0x14, 0xeb, 0xbc, 0x44, 0x81, 0x4b, 0x3d,
  0x83, 0x14, 0xeb, 0xbc, 0x5e, 0xf8, 0xdc, 0x3d, 0xc8, 0x3c, 0xdb, 0x3e,
  0x4d, 0x44, 0x6e, 0x3e, 0xc8, 0x3c, 0xdb, 0x3e, 0x37, 0x37, 0x98, 0xbe,
  0x5e, 0xf8, 0xdc, 0x3d, 0xc8, 0x3c, 0xdb, 0x3e, 0x37, 0x37, 0x98, 0xbe,
  0x8b, 0xea, 0x17, 0xbf, 0x5e, 0xf8, 0xdc, 0x3d, 0x33, 0xab, 0x7a, 0xbe,
  0x5e, 0xf8, 0xdc, 0x3d, 0xa8, 0xb9, 0xf8, 0xbe, 0x83, 0x14, 0xeb, 0xbc,
  0x7f, 0x05, 0x2b, 0x3f, 0x5e, 0xf8, 0xdc, 0x3d, 0x44, 0x81, 0x4b, 0x3d,
  0x33, 0xab, 0x7a, 0xbe, 0x13, 0xcc, 0x81, 0x3f, 0x4d, 0x44, 0x6e, 0x3e,
  0x83, 0x14, 0xeb, 0xbc, 0xa8, 0xb9, 0xf8, 0xbe, 0x37, 0x37, 0x98, 0xbe,
  0x83, 0x14, 0xeb, 0xbc, 0x37, 0x37, 0x98, 0xbe, 0x33, 0xab, 0x7a, 0xbe,
  0x01, 0x49, 0x12, 0x3f, 0x37, 0x37, 0x98, 0xbe, 0xa8, 0xb9, 0xf8, 0xbe,
  0xe7, 0x47, 0x48, 0x3f, 0x4d, 0x44, 0x6e, 0x3e, 0xc8, 0x3c, 0xdb, 0x3e,
  0x37, 0x37, 0x98, 0xbe, 0x37, 0x37, 0x98, 0xbe, 0x4d, 0x44, 0x6e, 0x3e,
  0x4d, 0x44, 0x6e, 0x3e, 0xc8, 0x3c, 0xdb, 0x3e, 0x33, 0xab, 0x7a, 0xbe,
  0x83, 0x14, 0xeb, 0xbc, 0x44, 0x81, 0x4b, 0x3d, 0x01, 0x49, 0x12, 0x3f,
  0xc8, 0x3c, 0xdb, 0x3e, 0x44, 0x81, 0x4b, 0x3d, 0x83, 0x14, 0xeb, 0xbc,
  0x8b, 0xea, 0x17, 0xbf, 0x83, 0x14, 0xeb, 0xbc, 0x44, 0x81, 0x4b, 0x3d,
  0xa8, 0xb9, 0xf8, 0xbe, 0xc2, 0xed, 0x39, 0xbf, 0x83, 0x14, 0xeb, 0xbc,
  0x44, 0x81, 0x4b, 0x3d, 0x5e, 0xf8, 0xdc, 0x3d, 0x83, 0x14, 0xeb, 0xbc,
  0x83, 0x14, 0xeb, 0xbc, 0x83, 0x14, 0xeb, 0xbc, 0x7f, 0x05, 0x2b, 0x3f,
  0x44, 0x81, 0x4b, 0x3d, 0x33, 0xab, 0x7a, 0xbe, 0x4d, 0x44, 0x6e, 0x3e,
  0x4d, 0x44, 0x6e, 0x3e, 0x5e, 0xf8, 0xdc, 0x3d, 0x83, 0x14, 0xeb, 0xbc,
  0x4d, 0x44, 0x6e, 0x3e, 0x37, 0x37, 0x98, 0xbe, 0x7f, 0x05, 0x2b, 0x3f,
  0x01, 0x49, 0x12, 0x3f, 0xa8, 0xb9, 0xf8, 0xbe, 0x4d, 0x44, 0x6e, 0x3e,
  0x01, 0x49, 0x12, 0x3f, 0xc8, 0x3c, 0xdb, 0x3e, 0xc8, 0x3c, 0xdb, 0x3e,
  0x4d, 0x44, 0x6e, 0x3e, 0x37, 0x37, 0x98, 0xbe, 0x5e, 0xf8, 0xdc, 0x3d,
  0xc8, 0x3c, 0xdb, 0x3e, 0x83, 0x14, 0xeb, 0xbc, 0x4d, 0x44, 0x6e, 0x3e,
  0x44, 0x81, 0x4b, 0x3d, 0x33, 0xab, 0x7a, 0xbe, 0x8b, 0xea, 0x17, 0xbf,
  0x33, 0xab, 0x7a, 0xbe, 0xa8, 0xb9, 0xf8, 0xbe, 0x5e, 0xf8, 0xdc, 0x3d,
  0xc8, 0x3c, 0xdb, 0x3e, 0x99, 0x44, 0x58, 0xbf, 0x33, 0xab, 0x7a, 0xbe,
  0x5e, 0xf8, 0xdc, 0x3d, 0x5e, 0xf8, 0xdc, 0x3d, 0x4d, 0x44, 0x6e, 0x3e,
  0x83, 0x14, 0xeb, 0xbc, 0x4d, 0x44, 0x6e, 0x3e, 0xc8, 0x3c, 0xdb, 0x3e,
  0x37, 0x37, 0x98, 0xbe, 0x4d, 0x44, 0x6e, 0x3e, 0x37, 0x37, 0x98, 0xbe,
  0x8b, 0xea, 0x17, 0xbf, 0xa8, 0xb9, 0xf8, 0xbe, 0x33, 0xab, 0x7a, 0xbe,
  0xc8, 0x3c, 0xdb, 0x3e, 0xc8, 0x3c, 0xdb, 0x3e, 0x8b, 0xea, 0x17, 0xbf,
  0x5e, 0xf8, 0xdc, 0x3d, 0x5e, 0xf8, 0xdc, 0x3d, 0x44, 0x81, 0x4b, 0x3d,
  0x83, 0x14, 0xeb, 0xbc, 0x5e, 0xf8, 0xdc, 0x3d, 0x01, 0x49, 0x12, 0x3f,
  0xa8, 0xb9, 0xf8, 0xbe, 0x37, 0x37, 0x98, 0xbe, 0xc8, 0x3c, 0xdb, 0x3e,
  0x4d, 0x44, 0x6e, 0x3e, 0x33, 0xab, 0x7a, 0xbe, 0x5e, 0xf8, 0xdc, 0x3d,
  0x37, 0x37, 0x98, 0xbe, 0x37, 0x37, 0x98, 0xbe, 0x01, 0x49, 0x12, 0x3f,
  0x37, 0x37, 0x98, 0xbe, 0x83, 0x14, 0xeb, 0xbc, 0x5e, 0xf8, 0xdc, 0x3d,
  0x37, 0x37, 0x98, 0xbe, 0x44, 0x81, 0x4b, 0x3d, 0x33, 0xab, 0x7a, 0xbe,
  0x5e, 0xf8, 0xdc, 0x3d, 0x83, 0x14, 0xeb, 0xbc, 0x33, 0xab, 0x7a, 0xbe,
  0xc8, 0x3c, 0xdb, 0x3e, 0x5e, 0xf8, 0xdc, 0x3d, 0x83, 0x14, 0xeb, 0xbc,
  0xa8, 0xb9, 0xf8, 0xbe, 0x37, 0x37, 0x98, 0xbe, 0xe7, 0x47, 0x48, 0x3f,
  0x5e, 0xf8, 0xdc, 0x3d, 0x7f, 0x05, 0x2b, 0x3f, 0x5e, 0xf8, 0xdc, 0x3d,
  0xa8, 0xb9, 0xf8, 0xbe, 0x44, 0x81, 0x4b, 0x3d, 0x37, 0x37, 0x98, 0xbe,
  0xc8, 0x3c, 0xdb, 0x3e, 0xc8, 0x3c, 0xdb, 0x3e, 0x83, 0x14, 0xeb, 0xbc,
  0xc8, 0x3c, 0xdb, 0x3e, 0x5e, 0xf8, 0xdc, 0x3d, 0x8b, 0xea, 0x17, 0xbf,
  0x37, 0x37, 0x98, 0xbe, 0x4d, 0x44, 0x6e, 0x3e, 0x37, 0x37, 0x98, 0xbe,
  0x44, 0x81, 0x4b, 0x3d, 0x4d, 0x44, 0x6e, 0x3e, 0x01, 0x49, 0x12, 0x3f,
  0xc8, 0x3c, 0xdb, 0x3e, 0x83, 0x14, 0xeb, 0xbc, 0x5e, 0xf8, 0xdc, 0x3d,
  0x4d, 0x44, 0x6e, 0x3e, 0x83, 0x14, 0xeb, 0xbc, 0x8b, 0xea, 0x17, 0xbf,
  0x83, 0x14, 0xeb, 0xbc, 0x44, 0x81, 0x4b, 0x3d, 0x83, 0x14, 0xeb, 0xbc,
  0x4d, 0x44, 0x6e, 0x3e, 0x5e, 0xf8, 0xdc, 0x3d, 0x33, 0xab, 0x7a, 0xbe,
  0x37, 0x37, 0x98, 0xbe, 0xc2, 0xed, 0x39, 0xbf, 0x4d, 0x44, 0x6e, 0x3e,
  0x83, 0x14, 0xeb, 0xbc, 0x01, 0x49, 0x12, 0x3f, 0x4d, 0x44, 0x6e, 0x3e,
  0x8b, 0xea, 0x17, 0xbf, 0x83, 0x14, 0xeb, 0xbc, 0xa8, 0xb9, 0xf8, 0xbe,
  0xa8, 0xb9, 0xf8, 0xbe, 0xc8, 0x3c, 0xdb, 0x3e, 0x33, 0xab, 0x7a, 0xbe,
  0x83, 0x14, 0xeb, 0xbc, 0x01, 0x49, 0x12, 0x3f, 0x33, 0xab, 0x7a, 0xbe,
  0x83, 0x14, 0xeb, 0xbc, 0x4d, 0x44, 0x6e, 0x3e, 0xc2, 0xed, 0x39, 0xbf,
  0x4d, 0x44, 0x6e, 0x3e, 0x83, 0x14, 0xeb, 0xbc, 0x01, 0x49, 0x12, 0x3f,
  0x5e, 0xf8, 0xdc, 0x3d, 0x5e, 0xf8, 0xdc, 0x3d, 0x44, 0x81, 0x4b, 0x3d,
  0xc8, 0x3c, 0xdb, 0x3e, 0x37, 0x37, 0x98, 0xbe, 0xc8, 0x3c, 0xdb, 0x3e,
  0x4d, 0x44, 0x6e, 0x3e, 0xc8, 0x3c, 0xdb, 0x3e, 0x4d, 0x44, 0x6e, 0x3e,
  0x5e, 0xf8, 0xdc, 0x3d, 0x33, 0xab, 0x7a, 0xbe, 0x4d, 0x44, 0x6e, 0x3e,
  0x33, 0xab, 0x7a, 0xbe, 0xc2, 0xed, 0x39, 0xbf, 0x37, 0x37, 0x98, 0xbe,
  0x8b, 0xea, 0x17, 0xbf, 0x01, 0x49, 0x12, 0x3f, 0x4d, 0x44, 0x6e, 0x3e,
  0x83, 0x14, 0xeb, 0xbc, 0xc8, 0x3c, 0xdb, 0x3e, 0x01, 0x49, 0x12, 0x3f,
  0x83, 0x14, 0xeb, 0xbc, 0x4d, 0x44, 0x6e, 0x3e, 0xa8, 0xb9, 0xf8, 0xbe,
  0x37, 0x37, 0x98, 0xbe, 0x33, 0xab, 0x7a, 0xbe, 0x00, 0x00, 0x00, 0x00,
  0xda, 0x0d, 0xff, 0xff, 0x04, 0x00, 0x00, 0x00, 0x00, 0xf0, 0x00, 0x00,
  0xce, 0x11, 0xce, 0x11, 0x11, 0x11, 0x11, 0x11, 0x11, 0x11, 0x11, 0x11,
  0x11, 0x11, 0x11, 0x11, 0x11, 0x11, 0x11, 0x11, 0x11, 0x11, 0x11, 0x11,
  0x11, 0xce, 0x11, 0x11, 0x11, 0x11, 0x11, 0x11, 0x11, 0x11, 0x11, 0x11,
  0x11, 0xce, 0x11, 0x11, 0x11, 0xce, 0x11, 0x11, 0xce, 0xce, 0xce, 0x11,
  0x11, 0xce, 0x11, 0x11, 0x11, 0x11, 0x11, 0x11, 0x11, 0x11, 0xce, 0xce,
  0xce, 0x11, 0x11, 0x11, 0x11, 0x11, 0x11, 0x11, 0x11, 0x11, 0x11, 0x11,
  0xce, 0x11, 0x11, 0x11, 0x11, 0x11, 0x11, 0x11, 0x11, 0x11, 0x11, 0x11,
  0x11, 0x11, 0x11, 0x11, 0x11, 0x11, 0xce, 0x11, 0x11, 0x11, 0x11, 0x11,
  0x11, 0x11, 0x11, 0x11, 0xce, 0x11, 0x11, 0x11, 0x11, 0x11, 0x11, 0x11,
  0xce, 0x11, 0x11, 0x11, 0x11, 0x11, 0x11, 0x11, 0x11, 0x11, 0x11, 0x11,
  0xce, 0x11, 0x11, 0xce, 0x11, 0x11, 0x11, 0x11, 0x11, 0x11, 0x11, 0xce,
  0x11, 0x11, 0x11, 0x11, 0x11, 0x11, 0x11, 0x11, 0x11, 0x11, 0x11, 0xce,
  0x11, 0x11, 0x11, 0xce, 0x11, 0x11, 0x11, 0xce, 0x11, 0xce, 0x11, 0x11,
  0x11, 0xce, 0x11, 0x11, 0x11, 0x11, 0x11, 0x11, 0x11, 0x11, 0x11, 0x11,
  0x11, 0x11, 0x11, 0x11, 0x11, 0x11, 0x11, 0x11, 0x11, 0x11, 0x11, 0x11,
  0x11, 0x11, 0x11, 0x11, 0x11, 0x11, 0xce, 0x11, 0x11, 0x11, 0x11, 0x11,
  0x11, 0x11, 0x11, 0x11, 0x11, 0x11, 0x11, 0x11, 0x11, 0x11, 0x11, 0x11,
  0x11, 0x11, 0x11, 0x11, 0x11, 0x11, 0x11, 0x11, 0x11, 0x11, 0x11, 0x11,
  0x11, 0xce, 0x11, 0x11, 0x11, 0x11, 0x11, 0x11, 0x11, 0x11, 0x11, 0x11,
  0x11, 0x11, 0x11, 0x11, 0x11, 0x11, 0x11, 0x11, 0x11, 0x11, 0x11, 0x11,
  0x11, 0x11, 0x11, 0x11, 0x11, 0x11, 0x11, 0xce, 0x11, 0x11, 0xce, 0x11,
  0x11, 0xce, 0x11, 0x11, 0x11, 0x11, 0xce, 0xce, 0x11, 0x11, 0x11, 0x11,
  0x11, 0x11, 0x11, 0x11, 0x11, 0x11, 0x11, 0x11, 0x11, 0x11, 0x11, 0x11,
  0x11, 0x11, 0x11, 0x11, 0x11, 0x11, 0x11, 0x11, 0x11, 0x11, 0x11, 0x11,
  0x11, 0x11, 0x11, 0xce, 0x11, 0x11, 0xce, 0x11, 0x11, 0x11, 0x11, 0x11,
  0x11, 0x11, 0x11, 0x11, 0xce, 0x11, 0xce, 0x11, 0x11, 0x11, 0x11, 0x11,
  0x11, 0x11, 0x11, 0x11, 0x11, 0x11, 0x11, 0x11, 0xce, 0x11, 0x11, 0x11,
  0x11, 0x11, 0x11, 0x11, 0x11, 0x11, 0x11, 0xce, 0x11, 0xce, 0x11, 0xce,
  0x11, 0x11, 0x11, 0x11, 0xce, 0x11, 0x11, 0x11, 0x11, 0x11, 0x11, 0x11,
  0x11, 0x11, 0x11, 0xce, 0x11, 0x11, 0x11, 0x11, 0x11, 0x11, 0x11, 0x11,
  0x11, 0xce, 0x11, 0x11, 0x11, 0x11, 0x11, 0x11, 0x11, 0x11, 0x11, 0x11,
  0x11, 0xce, 0xce, 0xce, 0xce, 0xce, 0x11, 0x11, 0x11, 0x11, 0x11, 0x11,
  0xce, 0x11, 0x11, 0x11, 0xce, 0x11, 0x11, 0x11, 0x11, 0x11, 0x11, 0xce,
  0x11, 0x11, 0x11, 0x11, 0x11, 0x11, 0x11, 0xce, 0x11, 0x11, 0xce, 0x11,
  0x11, 0x11, 0x11, 0x11, 0xce, 0xce, 0x11, 0xce, 0xce, 0x11, 0x11, 0x11,
  0x11, 0x11, 0xce, 0x11, 0x11, 0x11, 0x11, 0xce, 0xce, 0x11, 0x11, 0x11,
  0x11, 0xce, 0x11, 0x11, 0x11, 0x11, 0x11, 0xce, 0x11, 0x11, 0x11, 0xce,
  0xce, 0xce, 0x11, 0x11, 0x11, 0x11, 0x11, 0x11, 0x11, 0x11, 0x11, 0x11,
  0xce, 0xce, 0x11, 0x11, 0xce, 0x11, 0x11, 0x11, 0x11, 0x11, 0x11, 0xce,
  0x11, 0x11, 0xce, 0x11, 0x11, 0x11, 0x11, 0x11, 0xce, 0x11, 0x11, 0x11,
  0x11, 0x11, 0x11, 0x11, 0x11, 0xce, 0x11, 0x11, 0x11, 0x11, 0x11, 0x11,
  0x11, 0x11, 0x11, 0x11, 0xce, 0x11, 0x11, 0x11, 0x11, 0x11, 0x11, 0x11,
  0x11, 0x11, 0x11, 0x11, 0x11, 0x11, 0x11, 0x11, 0xce, 0x11, 0x11, 0x11,
  0x11, 0x11, 0x11, 0x11, 0x11, 0x11, 0x11, 0xce, 0x11, 0x11, 0x11, 0x11,
  0xce, 0x11, 0x11, 0xce, 0x11, 0xce, 0x11, 0xce, 0x11, 0x11, 0x11, 0x11,
  0x11, 0x11, 0x11, 0x11, 0x11, 0x11, 0x11, 0x11, 0x11, 0x11, 0x11, 0x11,
  0x11, 0x11, 0x11, 0x11, 0xce, 0x11, 0x11, 0x11, 0x11, 0x11, 0x11, 0x11,
  0x11, 0x11, 0x11, 0x11, 0xce, 0x11, 0x11, 0x11, 0x11, 0x11, 0x11, 0x11,
  0x11, 0x11, 0x11, 0x11, 0x11, 0x11, 0x11, 0x11, 0x11, 0x11, 0x11, 0x11,
  0x11, 0x11, 0x11, 0x11, 0x11, 0x11, 0x11, 0x11, 0x11, 0x11, 0x11, 0x11,
  0x11, 0x11, 0x11, 0x11, 0x11, 0x11, 0xce, 0x11, 0x11, 0x11, 0xce, 0x11,
  0xce, 0x11, 0x11, 0xce, 0x11, 0xce, 0xce, 0x11, 0x11, 0x11, 0xce, 0x11,
  0x11, 0x11, 0xce, 0x11, 0x11, 0x11, 0x11, 0x11, 0x11, 0x11, 0x11, 0x11,
  0x11, 0x11, 0xce, 0x11, 0x11, 0x11, 0x11, 0x11, 0xce, 0x11, 0x11, 0xb0,
  0x11, 0xce, 0xce, 0x11, 0x11, 0xce, 0xce, 0x11, 0xce, 0x11, 0x11, 0xce,
  0x11, 0xce, 0x11, 0x11, 0x11, 0xce, 0x11, 0xce, 0xce, 0x11, 0xce, 0x11,
  0xce, 0x11, 0xce, 0x11, 0x11, 0x11, 0x11, 0xce, 0x11, 0x11, 0xce, 0x11,
  0x11, 0x11, 0x11, 0x11, 0x11, 0x11, 0xce, 0x11, 0xce, 0x11, 0x11, 0x11,
  0x11, 0x11, 0x11, 0xce, 0xce, 0x11, 0x11, 0x11, 0xce, 0x11, 0x11, 0x11,
  0x11, 0x11, 0x11, 0xce, 0x11, 0x11, 0x11, 0x11, 0x11, 0x11, 0x11, 0x11,
  0xce, 0x11, 0xce, 0x11, 0x11, 0x11, 0x11, 0xce, 0x11, 0x11, 0x11, 0x11,
  0xce, 0x11, 0x11, 0x11, 0xce, 0x11, 0x11, 0x11, 0x11, 0x11, 0x11, 0x11,
  0x11, 0x11, 0x11, 0x11, 0x11, 0x11, 0x11, 0x11, 0x11, 0x11, 0x11, 0x11,
  0x11, 0x11, 0x11, 0x11, 0x11, 0x11, 0x11, 0x11, 0x11, 0x11, 0x11, 0x11,
  0x11, 0xce, 0x11, 0x11, 0x11, 0x11, 0x11, 0x11, 0x11, 0x11, 0x11, 0x11,
  0x11, 0x11, 0x11, 0x11, 0x11, 0x11, 0x11, 0x11, 0x11, 0x11, 0x11, 0x11,
  0x11, 0x11, 0x11, 0x11, 0x11, 0x11, 0x11, 0x11, 0x11, 0x11, 0x11, 0x11,
  0x11, 0x11, 0xce, 0x11, 0xce, 0x11, 0x11, 0x11, 0x11, 0xce, 0x11, 0x11,
  0x11, 0x11, 0x11, 0x11, 0xce, 0x11, 0x11, 0x11, 0x11, 0x11, 0x11, 0x11,
  0x11, 0x11, 0x11, 0xce, 0x11, 0x11, 0x11, 0x11, 0xce, 0x11, 0x11, 0x11,
  0x11, 0xce, 0x11, 0x11, 0x11, 0x11, 0x11, 0x11, 0x11, 0x11, 0x11, 0x11,
  0x11, 0x11, 0x11, 0x11, 0x11, 0x11, 0x11, 0x11, 0x11, 0xce, 0x11, 0xce,
  0x11, 0x11, 0xce, 0x11, 0xce, 0x11, 0x11, 0xbc, 0x11, 0x11, 0x11, 0xce,
  0x11, 0xce, 0x11, 0x11, 0x11, 0x11, 0xce, 0xce, 0x11, 0xce, 0x11, 0x11,
  0x11, 0x11, 0x11, 0x11, 0x11, 0xce, 0xce, 0xce, 0x11, 0x11, 0x11, 0x11,
  0x11, 0x11, 0xce, 0xbc, 0x11, 0xce, 0x11, 0x11, 0x11, 0x11, 0x11, 0x11,
  0x11, 0x11, 0x11, 0x11, 0x11, 0x11, 0x11, 0x11, 0x11, 0xce, 0x11, 0x11,
  0xce, 0x11, 0x11, 0x11, 0xce, 0x11, 0x11, 0x11, 0x11, 0x11, 0x11, 0x11,
  0x11, 0x11, 0x11, 0x11, 0xce, 0x11, 0x11, 0x11, 0x11, 0x11, 0x11, 0x11,
  0xce, 0x11, 0x11, 0x11, 0x11, 0x11, 0x11, 0x11, 0x11, 0x11, 0x11, 0x11,
  0xce, 0x11, 0x11, 0xce, 0x11, 0x11, 0x11, 0xce, 0x11, 0x11, 0x11, 0x11,
  0x11, 0x11, 0xce, 0x11, 0xce, 0x11, 0xce, 0x11, 0xce, 0x11, 0x11, 0x11,
  0x11, 0x11, 0x11, 0xce, 0xce, 0x11, 0x11, 0x11, 0x11, 0x11, 0x11, 0x11,
  0x11, 0x11, 0x11, 0x11, 0x11, 0x11, 0x11, 0x11, 0x11, 0x11, 0x11, 0x11,
  0x11, 0x11, 0x11, 0x11, 0x11, 0x11, 0x11, 0x11, 0x11, 0x11, 0x11, 0x11,
  0x11, 0x11, 0x11, 0x11, 0x11, 0x11, 0x11, 0x11, 0x11, 0x11, 0x11, 0xce,
  0x11, 0x11, 0x11, 0x11, 0x11, 0x11, 0xce, 0x11, 0x11, 0x11, 0x11, 0x11,
  0xce, 0x11, 0x11, 0x11, 0x11, 0x11, 0x11, 0x11, 0x11, 0x11, 0x11, 0x11,
  0x11, 0x11, 0x11, 0xce, 0x11, 0x11, 0x11, 0xce, 0xce, 0x11, 0x11, 0x11,
  0x11, 0x11, 0x11, 0x11, 0xce, 0x11, 0x11, 0xce, 0x11, 0x11, 0xce, 0x11,
  0x11, 0x11, 0x11, 0x11, 0xce, 0x11, 0x11, 0x11, 0x11, 0x11, 0x11, 0x11,
  0xce, 0x11, 0xce, 0x11, 0x11, 0xce, 0x11, 0x11, 0x11, 0xce, 0x11, 0x11,
  0xce, 0x11, 0x11, 0x11, 0x11, 0x11, 0xce, 0xce, 0xce, 0x11, 0x11, 0x11,
  0x11, 0x11, 0x11, 0x11, 0x11, 0x11, 0x11, 0x11, 0x11, 0x11, 0xce, 0x11,
  0x11, 0x11, 0x11, 0xce, 0x11, 0x11, 0x11, 0x11, 0x11, 0xce, 0x11, 0x11,
  0x11, 0x11, 0xce, 0x11, 0xce, 0x11, 0x11, 0x11, 0x11, 0xce, 0xce, 0xbc,
  0x11, 0x11, 0x11, 0xce, 0x11, 0x11, 0x11, 0xce, 0xce, 0x11, 0x11, 0x11,
  0x11, 0x11, 0x11, 0x11, 0x11, 0xce, 0x11, 0xce, 0x11, 0xce, 0x11, 0x68,
  0xbc, 0x11, 0x11, 0x11, 0x11, 0xce, 0xce, 0x11, 0x11, 0x11, 0x11, 0x11,
  0x11, 0x11, 0x11, 0xce, 0xce, 0x11, 0x11, 0x11, 0x11, 0x11, 0x11, 0x11,
  0x11, 0x11, 0x11, 0xce, 0x11, 0x11, 0x11, 0x11, 0xce, 0x11, 0x11, 0x11,
  0x11, 0x11, 0x11, 0x11, 0x11, 0x11, 0xce, 0x11, 0x11, 0x11, 0x11, 0x11,
  0xce, 0x11, 0x11, 0x11, 0x11, 0x11, 0x11, 0x11, 0x11, 0x11, 0xce, 0x11,
  0x11, 0x11, 0x11, 0x11, 0x11, 0x11, 0x11, 0x11, 0xce, 0x11, 0x11, 0x11,
  0x11, 0x11, 0x11, 0x11, 0x11, 0xce, 0x11, 0x11, 0x11, 0x11, 0x11, 0x11,
  0x11, 0x11, 0x11, 0x11, 0x11, 0x11, 0x11, 0x11, 0x11, 0x11, 0x11, 0x11,
  0x11, 0x11, 0x11, 0x11, 0x11, 0x11, 0x11, 0x11, 0x11, 0x11, 0x11, 0x11,
  0x11, 0x11, 0x11, 0x11, 0x11, 0x11, 0xce, 0x11, 0x11, 0xce, 0x11, 0x11,
  0x11, 0x11, 0x11, 0x11, 0x11, 0x11, 0x11, 0x11, 0x11, 0xce, 0x11, 0x11,
  0x11, 0x11, 0x11, 0x11, 0x11, 0x11, 0x11, 0x11, 0x11, 0x11, 0x11, 0x11,
  0x11, 0x11, 0x11, 0x11, 0x11, 0x11, 0x11, 0x11, 0x11, 0x11, 0x11, 0x11,
  0x11, 0x11, 0xce, 0x11, 0x11, 0x11, 0x11, 0x11, 0x11, 0x11, 0x11, 0x11,
  0x11, 0x11, 0x11, 0x11, 0x11, 0xce, 0x11, 0x68, 0x11, 0x11, 0x11, 0x11,
  0x11, 0x11, 0x11, 0xce, 0x11, 0xce, 0x11, 0x11, 0x11, 0x11, 0xce, 0xce,
  0x11, 0x11, 0x11, 0x11, 0x11, 0xce, 0x11, 0x11, 0x11, 0xce, 0x11, 0x11,
  0x11, 0x11, 0x11, 0x11, 0x11, 0x11, 0x11, 0xce, 0x11, 0x11, 0x11, 0x11,
  0x11, 0xce, 0x11, 0x11, 0x11, 0xce, 0x11, 0x11, 0x11, 0x11, 0x11, 0x11,
  0x68, 0xce, 0x11, 0xce, 0x11, 0xce, 0x11, 0x11, 0x11, 0x11, 0x11, 0x11,
  0xce, 0x11, 0x11, 0x11, 0x11, 0x11, 0x11, 0xce, 0x11, 0x11, 0x11, 0x11,
  0x11, 0x11, 0x11, 0x11, 0x11, 0x11, 0x11, 0x11, 0x11, 0x11, 0xce, 0x11,
  0x11, 0x11, 0x11, 0x11, 0x11, 0xce, 0x11, 0xce, 0x11, 0x11, 0xce, 0x11,
  0x11, 0x11, 0x11, 0x11, 0x11, 0x11, 0x11, 0xce, 0x11, 0x11, 0x11, 0x11,
  0x11, 0x11, 0x11, 0x11, 0x11, 0x11, 0x11, 0x11, 0x11, 0x11, 0xce, 0x11,
  0x11, 0x11, 0x11, 0x11, 0x11, 0x11, 0xce, 0x11, 0xce, 0x11, 0x11, 0x11,
  0x11, 0x11, 0x11, 0x11, 0x11, 0xce, 0x11, 0x11, 0x11, 0x11, 0xce, 0x11,
  0x11, 0x11, 0x11, 0x11, 0x11, 0x11, 0x11, 0x11, 0x11, 0x11, 0x11, 0x11,
  0x11, 0x11, 0x11, 0x11, 0x11, 0x11, 0x11, 0x11, 0x11, 0x11, 0xce, 0x11,
  0x11, 0x11, 0xce, 0x11, 0x11, 0x11, 0x11, 0x11, 0x11, 0x11, 0x11, 0x11,
  0xce, 0x11, 0xce, 0xce, 0x11, 0x11, 0x11, 0x11, 0xce, 0x11, 0x11, 0x11,
  0x11, 0x11, 0x11, 0x11, 0x11, 0xce, 0x11, 0x11, 0x11, 0x11, 0xce, 0x11,
  0x11, 0x11, 0x11, 0x11, 0x11, 0x11, 0x11, 0xce, 0x11, 0xce, 0x11, 0x11,
  0x11, 0xce, 0xce, 0x11, 0x11, 0x11, 0x11, 0x11, 0x11, 0x11, 0x11, 0x11,
  0xce, 0x11, 0x11, 0x11, 0xce, 0x11, 0x11, 0x11, 0x11, 0x11, 0xce, 0x11,
  0x11, 0x11, 0x11, 0x11, 0x11, 0x11, 0x11, 0x11, 0x11, 0xce, 0x11, 0x11,
  0x11, 0x11, 0x11, 0xce, 0x11, 0x11, 0x11, 0x11, 0x11, 0xce, 0x11, 0x11,
  0x11, 0x11, 0x11, 0x11, 0x11, 0x11, 0x11, 0x11, 0x11, 0xce, 0x11, 0x11,
  0x11, 0x11, 0x11, 0x11, 0x11, 0xce, 0x11, 0x11, 0x11, 0x11, 0x11, 0x11,
  0x11, 0x11, 0x11, 0x11, 0x11, 0xce, 0x11, 0x11, 0x11, 0x11, 0x11, 0x11,
  0x11, 0x11, 0x11, 0x11, 0x11, 0xce, 0x11, 0x11, 0x11, 0x11, 0x11, 0x11,
  0x11, 0x11, 0x11, 0x11, 0x11, 0x11, 0x11, 0x11, 0x11, 0x11, 0x11, 0xce,
  0xce, 0x11, 0x11, 0x11, 0x11, 0x11, 0x11, 0x11, 0x11, 0x11, 0xce, 0xce,
  0xce, 0x11, 0x11, 0xce, 0x11, 0x11, 0x11, 0x11, 0x11, 0x11, 0x11, 0x11,
  0x11, 0x11, 0x11, 0x11, 0x11, 0x11, 0x11, 0x11, 0x11, 0xce, 0x11, 0x11,
  0x11, 0x11, 0x11, 0xce, 0x11, 0x11, 0x11, 0xce, 0x11, 0x11, 0x11, 0x11,
  0x11, 0x11, 0xce, 0x11, 0x11, 0x11, 0x11, 0x11, 0x11, 0x11, 0x11, 0xce,
  0x11, 0x11, 0x11, 0x11, 0x11, 0x11, 0x11, 0x11, 0x11, 0x11, 0xce, 0x11,
  0xce, 0x11, 0x11, 0x11, 0x11, 0x11, 0x11, 0x11, 0x11, 0xce, 0x11, 0x11,
  0x11, 0x11, 0x11, 0x11, 0x11, 0x11, 0x11, 0x11, 0x11, 0x11, 0x11, 0x11,
  0x11, 0x11, 0x11, 0x11, 0x11, 0x11, 0x11, 0xce, 0x11, 0x11, 0x11, 0x11,
  0x11, 0x11, 0x11, 0x11, 0xce, 0x11, 0x11, 0x11, 0x11, 0x11, 0xce, 0x11,
  0x11, 0x11, 0x11, 0x11, 0x11, 0x11, 0x11, 0x11, 0x11, 0x11, 0x11, 0xce,
  0x11, 0xce, 0x11, 0x11, 0x11, 0x11, 0xce, 0x11, 0x11, 0x11, 0x11, 0x11,
  0xce, 0x11, 0x11, 0xce, 0x11, 0x11, 0x11, 0x11, 0x11, 0x11, 0x11, 0xce,
  0x11, 0xce, 0x11, 0x11, 0x11, 0xce, 0x11, 0x11, 0x11, 0xce, 0x11, 0x11,
  0x11, 0x11, 0x11, 0x11, 0x11, 0xce, 0x11, 0x11, 0x11, 0x11, 0x11, 0x11,
  0x11, 0x11, 0x11, 0x11, 0x11, 0xce, 0x11, 0x11, 0x11, 0x11, 0x11, 0x11,
  0x11, 0x11, 0x11, 0xce, 0x11, 0x11, 0x11, 0x11, 0x11, 0x11, 0x11, 0x11,
  0x11, 0x11, 0x11, 0xce, 0x11, 0x11, 0x11, 0x11, 0x11, 0x11, 0x11, 0x11,
  0x11, 0x11, 0x11, 0x11, 0x11, 0x11, 0x11, 0xce, 0x11, 0x11, 0x11, 0x11,
  0x11, 0x11, 0x11, 0x11, 0x11, 0x11, 0x11, 0x11, 0x11, 0x11, 0x11, 0x11,
  0x11, 0x11, 0x11, 0x11, 0x11, 0x11, 0x11, 0x11, 0x11, 0x11, 0x11, 0x11,
  0x11, 0x11, 0x11, 0x11, 0x11, 0x11, 0x11, 0xce, 0x11, 0x11, 0x11, 0x11,
  0x68, 0x11, 0x11, 0xce, 0x11, 0x11, 0x11, 0x11, 0x11, 0x11, 0x11, 0x11,
  0x11, 0xce, 0x11, 0x11, 0x11, 0x11, 0x11, 0x11, 0x11, 0x11, 0xce, 0x11,
  0x11, 0xce, 0x11, 0x11, 0x11, 0x11, 0xce, 0x11, 0x11, 0x11, 0x11, 0x11,
  0xce, 0x11, 0x11, 0x11, 0xce, 0xce, 0x11, 0x11, 0x11, 0x11, 0x11, 0x11,
  0x11, 0x11, 0x11, 0xce, 0x11, 0x11, 0x11, 0x11, 0xce, 0x11, 0x11, 0x11,
  0x11, 0x11, 0xce, 0x11, 0xce, 0x11, 0x11, 0xce, 0xce, 0x11, 0x11, 0xce,
  0x11, 0x11, 0x11, 0x11, 0x11, 0x11, 0x11, 0xce, 0xce, 0x11, 0x11, 0x11,
  0x11, 0xce, 0x11, 0x11, 0x11, 0xce, 0xce, 0x11, 0x11, 0xce, 0xce, 0x11,
  0x11, 0x11, 0x11, 0x11, 0xce, 0x11, 0x11, 0xce, 0x11, 0x11, 0x11, 0x11,
  0x11, 0x11, 0x11, 0x11, 0x11, 0x11, 0xce, 0x11, 0x11, 0x11, 0x11, 0x11,
  0x11, 0x11, 0x11, 0x11, 0x11, 0x11, 0xce, 0x11, 0x11, 0x11, 0x11, 0x11,
  0xce, 0x11, 0x11, 0x11, 0x11, 0x11, 0x11, 0x11, 0x11, 0x11, 0xce, 0x11,
  0x11, 0x11, 0xce, 0x11, 0xce, 0x11, 0x11, 0x11, 0x11, 0x11, 0x11, 0x11,
  0x11, 0x11, 0xce, 0x11, 0x11, 0x11, 0x11, 0x11, 0x11, 0x11, 0x11, 0x11,
  0xce, 0x11, 0x11, 0x11, 0x11, 0x11, 0x11, 0x11, 0x11, 0x11, 0x11, 0xce,
  0x11, 0x11, 0x11, 0x11, 0x11, 0xce, 0x11, 0x11, 0x11, 0x11, 0x11, 0x11,
  0x11, 0x11, 0x11, 0x11, 0x11, 0x11, 0x11, 0xce, 0x11, 0x11, 0x11, 0x11,
  0x11, 0x11, 0x11, 0xce, 0xce, 0xce, 0x11, 0x11, 0x11, 0x11, 0x11, 0x11,
  0x11, 0x11, 0x11, 0x11, 0xce, 0x11, 0x11, 0x11, 0x11, 0x11, 0x11, 0x11,
  0xce, 0x11, 0x11, 0xce, 0xce, 0x11, 0x11, 0x11, 0x11, 0xce, 0x11, 0xce,
  0xce, 0xce, 0x11, 0xce, 0x11, 0x11, 0x11, 0xce, 0x11, 0x11, 0x11, 0x11,
  0x11, 0x11, 0x11, 0x11, 0x11, 0x11, 0x11, 0x11, 0xce, 0x11, 0x11, 0x11,
  0x11, 0xce, 0x11, 0x11, 0x11, 0x11, 0x11, 0x11, 0x11, 0x11, 0x11, 0x11,
  0x11, 0xce, 0x11, 0x11, 0x11, 0x11, 0x11, 0xce, 0x11, 0x11, 0xce, 0x11,
  0xce, 0x11, 0x11, 0x11, 0x11, 0x11, 0x11, 0x11, 0xce, 0x11, 0x11, 0x11,
  0xce, 0x11, 0xce, 0x11, 0xce, 0x11, 0x11, 0xce, 0x11, 0x11, 0x11, 0xce,
  0x11, 0x11, 0x11, 0x11, 0x11, 0x11, 0x11, 0x11, 0xce, 0x11, 0x11, 0x11,
  0x11, 0xce, 0x11, 0x11, 0x11, 0x11, 0x11, 0x11, 0x11, 0x11, 0x11, 0x11,
  0x11, 0x11, 0x11, 0x11, 0x11, 0x11, 0x11, 0x11, 0x11, 0x11, 0x11, 0x11,
  0x11, 0x11, 0xce, 0x11, 0x11, 0x11, 0x11, 0x11, 0x11, 0x11, 0x11, 0x11,
  0x11, 0x11, 0x11, 0x11, 0x11, 0x11, 0x11, 0x11, 0x11, 0x11, 0x11, 0x11,
  0x11, 0x11, 0x11, 0x11, 0x11, 0x11, 0x11, 0x11, 0x11, 0x11, 0x11, 0xce,
  0x11, 0x11, 0x11, 0x11, 0x11, 0x11, 0xce, 0x11, 0x11, 0x11, 0x11, 0x11,
  0x11, 0x11, 0x11, 0x11, 0x11, 0x11, 0x11, 0xce, 0x11, 0x11, 0x11, 0x11,
  0xce, 0x11, 0x11, 0x11, 0xce, 0x11, 0x11, 0x11, 0x11, 0x11, 0x11, 0x11,
  0x11, 0x11, 0x11, 0xce, 0x11, 0xce, 0x11, 0x11, 0x11, 0xce, 0xce, 0x11,
  0x11, 0x11, 0x11, 0x11, 0x11, 0x11, 0x11, 0xce, 0x11, 0xce, 0x11, 0x11,
  0x11, 0x11, 0x11, 0x11, 0x11, 0x11, 0x11, 0x11, 0x11, 0x11, 0x11, 0x11,
  0x11, 0x11, 0x11, 0x11, 0x11, 0x11, 0x11, 0x11, 0x11, 0x11, 0x11, 0xce,
  0x11, 0x11, 0x11, 0x11, 0x11, 0x11, 0x11, 0x11, 0x11, 0x11, 0x11, 0x11,
  0x11, 0x11, 0x11, 0x11, 0x11, 0x11, 0x11, 0x11, 0x11, 0x11, 0x11, 0xce,
  0x11, 0x11, 0xce, 0x11, 0xce, 0x11, 0x11, 0xce, 0x11, 0x11, 0x11, 0x11,
  0x11, 0xce, 0x11, 0x11, 0x11, 0x11, 0x11, 0x11, 0xce, 0x11, 0x11, 0x11,
  0x11, 0x11, 0x11, 0xce, 0x11, 0x11, 0x11, 0x11, 0x11, 0x11, 0xce, 0x11,
  0xce, 0x11, 0x11, 0xce, 0x11, 0x11, 0x11, 0x11, 0x11, 0x11, 0x11, 0x11,
  0x11, 0x11, 0x11, 0x11, 0xce, 0x11, 0x11, 0x11, 0x11, 0x11, 0x11, 0x11,
  0x11, 0x11, 0x11, 0x11, 0x11, 0xce, 0x11, 0x11, 0xce, 0x11, 0x11, 0x11,
  0xce, 0xce, 0x11, 0x11, 0x11, 0x11, 0x11, 0x11, 0x11, 0x11, 0x11, 0x11,
  0xce, 0x11, 0x11, 0x11, 0x11, 0x11, 0x11, 0xce, 0x11, 0x11, 0x11, 0x11,
  0x11, 0x11, 0x11, 0x11, 0xce, 0x11, 0x11, 0x11, 0x11, 0x11, 0x11, 0x11,
  0x11, 0x11, 0x11, 0x11, 0x11, 0x11, 0x11, 0x11, 0x11, 0x11, 0x11, 0x11,
  0x11, 0x11, 0x11, 0x11, 0x11, 0x11, 0x11, 0x11, 0xce, 0x11, 0xce, 0x11,
  0x11, 0xce, 0x11, 0x11, 0x11, 0x11, 0x11, 0x11, 0x11, 0x11, 0x11, 0x11,
  0xce, 0x11, 0x11, 0x11, 0x11, 0x11, 0x11, 0x11, 0x11, 0x11, 0x11, 0x11,
  0x11, 0x11, 0x11, 0x11, 0x11, 0x11, 0x11, 0x11, 0x11, 0x11, 0xce, 0xce,
  0xce, 0xce, 0xce, 0x11, 0x11, 0x11, 0x11, 0x11, 0x11, 0x11, 0x11, 0x11,
  0x11, 0x11, 0x11, 0x11, 0x11, 0x11, 0x11, 0x11, 0x11, 0x11, 0x11, 0xce,
  0x11, 0x11, 0x11, 0x11, 0x11, 0x11, 0x11, 0x11, 0xce, 0x11, 0x11, 0x11,
  0x11, 0xce, 0x11, 0x11, 0x11, 0xce, 0x11, 0x11, 0x11, 0x11, 0x11, 0x11,
  0x11, 0x11, 0x11, 0x11, 0x11, 0x11, 0x11, 0xce, 0x11, 0x11, 0x11, 0xce,
  0xce, 0x11, 0x11, 0xce, 0x11, 0x11, 0x11, 0xce, 0x11, 0x11, 0x11, 0xce,
  0x11, 0xce, 0xce, 0x11, 0x11, 0x11, 0x11, 0x11, 0x11, 0xce, 0x11, 0xce,
  0x11, 0x11, 0x11, 0x11, 0x11, 0x11, 0xbc, 0x11, 0xad, 0x11, 0x11, 0xce,
  0x11, 0xce, 0x11, 0xce, 0x11, 0xce, 0x11, 0x11, 0x11, 0x11, 0xce, 0x11,
  0xce, 0x11, 0xce, 0x11, 0x11, 0xbc, 0x11, 0xce, 0x11, 0x11, 0x11, 0x11,
  0x11, 0x11, 0xce, 0x11, 0xce, 0x11, 0x11, 0x11, 0x11, 0x11, 0x11, 0x11,
  0x11, 0x11, 0x11, 0x11, 0x11, 0x11, 0xce, 0x11, 0xce, 0x11, 0x11, 0x11,
  0x11, 0x11, 0x11, 0x11, 0x11, 0x11, 0x11, 0x11, 0x11, 0x11, 0x11, 0x11,
  0x11, 0x11, 0x11, 0x11, 0x11, 0x11, 0x11, 0x11, 0x11, 0x11, 0x11, 0x11,
  0x11, 0x11, 0x11, 0x11, 0x11, 0x11, 0x11, 0x11, 0x11, 0x11, 0x11, 0x11,
  0xce, 0x11, 0x11, 0x11, 0x11, 0x11, 0xce, 0x11, 0x11, 0x11, 0x11, 0x11,
  0x11, 0x11, 0x11, 0x11, 0x11, 0x11, 0x11, 0x11, 0x11, 0x11, 0x11, 0x11,
  0x11, 0x11, 0x11, 0x11, 0x11, 0x11, 0x11, 0x11, 0x11, 0x11, 0x11, 0x11,
  0x11, 0x11, 0x11, 0x11, 0x11, 0xce, 0x11, 0x11, 0x11, 0x11, 0xce, 0x11,
  0x11, 0x11, 0x11, 0x11, 0x11, 0x11, 0x11, 0xce, 0x11, 0xce, 0x11, 0x11,
  0x11, 0x11, 0x11, 0x11, 0x11, 0x11, 0x11, 0x11, 0xce, 0xce, 0x11, 0x11,
  0x11, 0xce, 0x11, 0x11, 0x11, 0x11, 0x11, 0x11, 0x11, 0x11, 0x11, 0x11,
  0x11, 0xce, 0x11, 0x11, 0x11, 0xce, 0x11, 0x11, 0x11, 0x11, 0x11, 0x11,
  0x11, 0x11, 0x11, 0x11, 0x11, 0x11, 0x11, 0x11, 0x11, 0x11, 0x11, 0x11,
  0x11, 0x11, 0x11, 0xce, 0x11, 0x11, 0x11, 0x11, 0x11, 0x11, 0x11, 0x68,
  0x11, 0x11, 0x11, 0xce, 0x11, 0x11, 0xce, 0x11, 0x11, 0x11, 0x11, 0x11,
  0x11, 0x11, 0x68, 0x11, 0x11, 0x11, 0x11, 0x11, 0x11, 0x11, 0x11, 0x11,
  0x11, 0x68, 0x11, 0xce, 0x11, 0x11, 0x68, 0x11, 0xce, 0x11, 0xce, 0x11,
  0x11, 0x11, 0xce, 0x11, 0x11, 0x11, 0xce, 0x11, 0x11, 0x11, 0x11, 0xce,
  0xce, 0x11, 0x11, 0x11, 0x11, 0x11, 0x11, 0x11, 0x11, 0x11, 0x11, 0x11,
  0xce, 0xce, 0xce, 0x11, 0x81, 0x11, 0x11, 0x11, 0xce, 0x11, 0xce, 0x11,
  0x11, 0x11, 0x11, 0x11, 0x11, 0x11, 0x11, 0x11, 0x11, 0x11, 0x11, 0x11,
  0x11, 0xce, 0x11, 0x11, 0x11, 0x11, 0xce, 0x11, 0x11, 0x11, 0x11, 0x11,
  0xce, 0x11, 0x11, 0xce, 0x11, 0x11, 0xce, 0x11, 0x11, 0x11, 0x11, 0x11,
  0x11, 0x11, 0x11, 0x11, 0x11, 0x11, 0x11, 0x11, 0x11, 0x11, 0x11, 0x11,
  0xce, 0x11, 0x11, 0x11, 0x11, 0x11, 0x11, 0x11, 0xce, 0x11, 0xce, 0x11,
  0x11, 0x11, 0x11, 0x11, 0x11, 0x11, 0x11, 0x11, 0x11, 0xce, 0x11, 0xce,
  0x11, 0x11, 0x11, 0xce, 0x11, 0x11, 0x11, 0x11, 0xce, 0x11, 0x11, 0xce,
  0xce, 0x11, 0xce, 0x11, 0x11, 0x11, 0x11, 0x11, 0x11, 0x11, 0x11, 0xce,
  0x11, 0x11, 0x11, 0xce, 0x11, 0x11, 0xce, 0x11, 0x11, 0x11, 0x11, 0xce,
  0x11, 0x11, 0x11, 0x11, 0x11, 0x11, 0x11, 0x11, 0x11, 0x11, 0x11, 0x11,
  0x11, 0x11, 0x11, 0x11, 0x11, 0x11, 0x11, 0x11, 0x11, 0x11, 0x11, 0x11,
  0x11, 0x11, 0x11, 0x11, 0x11, 0xce, 0xce, 0x11, 0xce, 0x11, 0x11, 0xce,
  0x11, 0x11, 0xce, 0x11, 0xce, 0x11, 0x11, 0x11, 0x11, 0x11, 0x11, 0x11,
  0x11, 0xce, 0x11, 0x11, 0x11, 0x11, 0x11, 0x11, 0x11, 0x11, 0x11, 0x11,
  0x11, 0x11, 0xce, 0x11, 0xce, 0x11, 0x11, 0xce, 0x11, 0x11, 0x11, 0x11,
  0xce, 0x11, 0x68, 0x11, 0x68, 0x11, 0x11, 0x11, 0x11, 0x11, 0x11, 0x11,
  0x11, 0x11, 0xce, 0x11, 0x11, 0x11, 0x68, 0x11, 0x11, 0x11, 0x11, 0x11,
  0x11, 0x11, 0x11, 0x11, 0x11, 0x11, 0x11, 0x11, 0xce, 0x11, 0x68, 0x11,
  0x11, 0x11, 0x11, 0x11, 0x11, 0x11, 0x11, 0x11, 0x11, 0x11, 0xce, 0x11,
  0x11, 0x11, 0x11, 0xce, 0x11, 0x11, 0x11, 0x68, 0x11, 0x11, 0x11, 0x11,
  0x11, 0x11, 0x11, 0x11, 0xbc, 0x11, 0x68, 0x11, 0x68, 0x11, 0x11, 0x11,
  0xce, 0x11, 0xce, 0x11, 0xce, 0x11, 0x11, 0x11, 0x11, 0x11, 0x11, 0x11,
  0x11, 0x11, 0x11, 0x11, 0x11, 0x11, 0x11, 0x11, 0x11, 0x11, 0x11, 0x11,
  0x11, 0x11, 0x11, 0x11, 0x11, 0x11, 0x11, 0x11, 0x11, 0x11, 0xce, 0x11,
  0x11, 0x11, 0x11, 0x11, 0x11, 0x11, 0x11, 0xce, 0x11, 0x11, 0x11, 0x11,
  0x11, 0x11, 0x11, 0x11, 0xce, 0x11, 0xce, 0x11, 0xce, 0x11, 0x11, 0x11,
  0x11, 0x11, 0x11, 0x11, 0x11, 0x11, 0x11, 0x11, 0x11, 0xce, 0x11, 0x11,
  0xce, 0x11, 0x11, 0x11, 0x11, 0x11, 0x11, 0x11, 0x11, 0x11, 0x11, 0x11,
  0xce, 0x11, 0x11, 0x11, 0xce, 0x11, 0x11, 0x11, 0x11, 0xce, 0x11, 0x11,
  0xce, 0x11, 0x11, 0xce, 0x11, 0x11, 0x11, 0x11, 0x11, 0x11, 0x11, 0x11,
  0x11, 0x11, 0x11, 0x11, 0x11, 0x11, 0x11, 0xce, 0xce, 0xce, 0x11, 0xce,
  0x11, 0x11, 0x11, 0x11, 0x11, 0xce, 0x11, 0x11, 0x11, 0x11, 0x11, 0x11,
  0x11, 0x11, 0xce, 0xce, 0xce, 0x11, 0x11, 0xce, 0xce, 0xce, 0x11, 0x11,
  0x11, 0x11, 0x11, 0x11, 0x11, 0x11, 0x11, 0x11, 0x11, 0x11, 0x11, 0xce,
  0x11, 0x11, 0x11, 0x11, 0x11, 0x11, 0x11, 0x11, 0xce, 0x11, 0xce, 0x11,
  0x11, 0xce, 0x11, 0x11, 0x11, 0x11, 0x11, 0x11, 0x11, 0x11, 0x11, 0x11,
  0xce, 0x11, 0x11, 0x11, 0x11, 0x11, 0xce, 0x11, 0x11, 0xce, 0x11, 0xce,
  0xce, 0x11, 0x11, 0x11, 0xce, 0x11, 0x11, 0x11, 0x11, 0x11, 0x11, 0x11,
  0x11, 0x11, 0xce, 0x11, 0x11, 0x11, 0x11, 0x11, 0xce, 0x11, 0xce, 0x11,
  0x11, 0x11, 0x11, 0x11, 0x11, 0x11, 0x11, 0x11, 0xce, 0x11, 0x11, 0x11,
  0xce, 0x11, 0xce, 0x11, 0x11, 0x11, 0x11, 0x11, 0xce, 0x11, 0xce, 0x11,
  0x11, 0x11, 0x11, 0x11, 0xce, 0x11, 0x11, 0x11, 0xce, 0x11, 0x11, 0x11,
  0x11, 0x11, 0x11, 0x11, 0x11, 0x11, 0x11, 0x11, 0x11, 0x11, 0xce, 0x11,
  0x11, 0x11, 0x11, 0xce, 0x11, 0x11, 0xce, 0x11, 0x11, 0x11, 0xce, 0x11,
  0x11, 0x11, 0xce, 0xce, 0x11, 0x11, 0x68, 0x11, 0x11, 0x11, 0x11, 0xce,
  0x11, 0x11, 0xce, 0x11, 0x11, 0x11, 0xce, 0x11, 0x11, 0x11, 0x11, 0x11,
  0x11, 0x11, 0x11, 0x11, 0x11, 0x11, 0xce, 0x11, 0x11, 0x11, 0x11, 0x11,
  0x11, 0x11, 0x11, 0x11, 0x11, 0x11, 0x11, 0x11, 0xce, 0x11, 0x11, 0x11,
  0x11, 0x11, 0x11, 0x11, 0x11, 0x11, 0xce, 0x11, 0x11, 0x11, 0x11, 0x11,
  0x11, 0x11, 0x11, 0x11, 0x11, 0x11, 0x11, 0x11, 0x11, 0x11, 0x11, 0x11,
  0xce, 0x11, 0x11, 0x11, 0x11, 0x11, 0x11, 0x11, 0x11, 0x11, 0x11, 0x11,
  0x11, 0xce, 0xce, 0x11, 0x11, 0x11, 0xce, 0xce, 0x11, 0x11, 0xce, 0xce,
  0x11, 0x11, 0x11, 0x11, 0x11, 0x11, 0x11, 0x11, 0xce, 0x11, 0x11, 0x11,
  0x11, 0x11, 0x11, 0x11, 0xce, 0x11, 0xce, 0xce, 0x11, 0x11, 0xce, 0x11,
  0x11, 0x11, 0x11, 0xce, 0x11, 0x11, 0x11, 0x11, 0xce, 0xce, 0x11, 0xce,
  0x11, 0x11, 0x11, 0x11, 0x11, 0x11, 0x11, 0x11, 0x11, 0x11, 0x11, 0x11,
  0xce, 0x11, 0x11, 0x11, 0x11, 0x11, 0xce, 0xce, 0xce, 0x11, 0x11, 0xce,
  0xce, 0x11, 0x11, 0x11, 0xce, 0x11, 0x11, 0xce, 0x11, 0x11, 0x11, 0x11,
  0x11, 0xce, 0x11, 0xce, 0xce, 0x11, 0x11, 0xce, 0xce, 0x11, 0xce, 0x11,
  0x11, 0xce, 0x11, 0xce, 0xce, 0x11, 0x11, 0x11, 0x11, 0x11, 0x11, 0x11,
  0x11, 0x11, 0x11, 0x11, 0x11, 0x11, 0xce, 0x11, 0xce, 0x11, 0x11, 0x11,
  0xce, 0x11, 0x11, 0x11, 0x11, 0x11, 0x11, 0x11, 0x11, 0x11, 0x11, 0x11,
  0xce, 0x11, 0x11, 0x11, 0x11, 0x11, 0x11, 0x11, 0x11, 0x11, 0x11, 0x11,
  0x11, 0x11, 0x11, 0x11, 0x11, 0x11, 0x11, 0x11, 0x11, 0x11, 0x11, 0x11,
  0x11, 0x11, 0x11, 0x11, 0x11, 0x11, 0x11, 0x11, 0x11, 0x11, 0x11, 0x11,
  0x11, 0x11, 0xce, 0x11, 0x11, 0x11, 0x11, 0x11, 0x11, 0x11, 0x11, 0x11,
  0x11, 0x11, 0x11, 0x11, 0x11, 0xce, 0x11, 0x11, 0x11, 0x11, 0x11, 0x11,
  0x11, 0x11, 0x11, 0x11, 0x11, 0x11, 0x11, 0x11, 0xce, 0x11, 0x11, 0x11,
  0x11, 0x11, 0x11, 0x11, 0x11, 0x11, 0x11, 0x11, 0x11, 0x11, 0x11, 0x11,
  0x11, 0x11, 0x11, 0xce, 0x11, 0x11, 0xce, 0x11, 0x11, 0x11, 0x11, 0x11,
  0x11, 0x11, 0xce, 0x11, 0x11, 0x11, 0x11, 0x11, 0x11, 0x11, 0x11, 0x11,
  0x11, 0x11, 0x11, 0x11, 0x11, 0x11, 0x11, 0x11, 0x11, 0x11, 0xce, 0x11,
  0x11, 0x11, 0x11, 0x11, 0xce, 0x11, 0x11, 0x11, 0xce, 0x11, 0x11, 0x11,
  0xce, 0x11, 0x11, 0x11, 0x11, 0xce, 0x11, 0x11, 0x11, 0x11, 0x11, 0x11,
  0x11, 0x11, 0x11, 0x11, 0x11, 0x11, 0xce, 0x11, 0x11, 0x11, 0x11, 0x11,
  0x11, 0x11, 0xce, 0xce, 0x11, 0x11, 0x11, 0xce, 0x11, 0x11, 0x11, 0x11,
  0xce, 0x11, 0x11, 0x11, 0xce, 0xce, 0xce, 0xce, 0x11, 0x11, 0xce, 0x11,
  0xce, 0x11, 0x11, 0x11, 0x11, 0x11, 0xce, 0x11, 0xce, 0x11, 0x11, 0xce,
  0x11, 0x11, 0x11, 0x11, 0xce, 0x11, 0x11, 0x11, 0xce, 0x11, 0x11, 0x11,
  0xce, 0x11, 0x11, 0x11, 0xce, 0x11, 0x11, 0x11, 0xce, 0x11, 0x11, 0x11,
  0x11, 0x11, 0x11, 0x11, 0x11, 0x11, 0x11, 0x11, 0x11, 0x11, 0x11, 0xce,
  0x11, 0x11, 0x11, 0x11, 0x11, 0x11, 0x11, 0x11, 0x11, 0x11, 0xce, 0x11,
  0x11, 0x11, 0x11, 0x11, 0x11, 0x11, 0x11, 0x11, 0x11, 0x11, 0x11, 0x11,
  0xce, 0x11, 0x11, 0x11, 0x11, 0x11, 0x11, 0xce, 0xce, 0x11, 0x11, 0xce,
  0x11, 0x11, 0x11, 0x11, 0x11, 0x11, 0xce, 0x11, 0xce, 0x11, 0x11, 0x11,
  0x11, 0xce, 0x11, 0xce, 0x11, 0x11, 0x11, 0x11, 0x11, 0x11, 0xce, 0x11,
  0x11, 0x11, 0x11, 0x11, 0x11, 0x11, 0x11, 0x11, 0x11, 0x11, 0x11, 0x11,
  0x11, 0x11, 0x11, 0xce, 0x11, 0x11, 0x11, 0x11, 0x11, 0x11, 0x11, 0x11,
  0x11, 0x11, 0x11, 0x11, 0x11, 0x11, 0x11, 0x11, 0x11, 0xce, 0x11, 0x11,
  0x11, 0x11, 0x11, 0x11, 0x11, 0x11, 0x11, 0x11, 0x11, 0x11, 0x11, 0x11,
  0x11, 0x11, 0x11, 0x11, 0x11, 0x11, 0x11, 0xce, 0x11, 0x11, 0x11, 0x11,
  0x11, 0x11, 0x11, 0xce, 0x11, 0x11, 0x11, 0x11, 0x11, 0x11, 0x11, 0x11,
  0x11, 0x11, 0x11, 0x11, 0xce, 0x11, 0x11, 0x11, 0x11, 0x11, 0x11, 0x11,
  0x11, 0x11, 0x11, 0x11, 0x11, 0x11, 0x11, 0x11, 0xce, 0x11, 0x11, 0x11,
  0x11, 0x11, 0x11, 0x11, 0x11, 0x11, 0x11, 0x11, 0x11, 0x11, 0x11, 0x11,
  0x11, 0x11, 0x11, 0xce, 0x11, 0x11, 0x11, 0xce, 0x11, 0x11, 0x11, 0x11,
  0x11, 0x11, 0x11, 0x11, 0x11, 0xce, 0x11, 0x11, 0x11, 0x11, 0x11, 0x11,
  0x11, 0x11, 0x11, 0x11, 0x11, 0x11, 0x11, 0x11, 0x11, 0x11, 0x11, 0x11,
  0xce, 0x11, 0x11, 0x11, 0x11, 0x11, 0x11, 0x11, 0xce, 0x11, 0x11, 0x11,
  0x11, 0x11, 0x11, 0xce, 0x11, 0x11, 0x11, 0x11, 0x11, 0x11, 0x11, 0x11,
  0x11, 0x11, 0xce, 0xce, 0x11, 0x11, 0x11, 0x11, 0x11, 0x11, 0xce, 0x11,
  0x11, 0x11, 0x11, 0x11, 0x11, 0x11, 0x11, 0x11, 0x11, 0xce, 0x11, 0x11,
  0x11, 0x11, 0x11, 0x11, 0x11, 0x11, 0x11, 0xce, 0x11, 0x11, 0x11, 0x11,
  0x11, 0x11, 0x11, 0x11, 0xce, 0x11, 0x11, 0x11, 0x11, 0x11, 0x11, 0x11,
  0x11, 0xce, 0xce, 0x11, 0x11, 0x11, 0x11, 0x11, 0x11, 0x11, 0x11, 0x11,
  0xce, 0x11, 0x11, 0x11, 0x11, 0x11, 0xce, 0x11, 0xce, 0x11, 0x11, 0x11,
  0x11, 0xce, 0x11, 0x11, 0x11, 0x11, 0x11, 0x11, 0xce, 0x11, 0x11, 0x11,
  0x11, 0xce, 0x11, 0x11, 0x11, 0x11, 0x11, 0x11, 0xce, 0x11, 0x11, 0x11,
  0x11, 0xce, 0x11, 0x11, 0x11, 0xce, 0x11, 0x11, 0x11, 0x11, 0x11, 0x11,
  0x11, 0x11, 0x11, 0x11, 0x11, 0x11, 0xce, 0xce, 0x11, 0x11, 0x11, 0x11,
  0x11, 0x11, 0x11, 0x11, 0x11, 0x11, 0x11, 0x11, 0x11, 0x11, 0x11, 0x11,
  0x11, 0x11, 0x11, 0x11, 0xce, 0x11, 0x11, 0x11, 0x11, 0x11, 0x11, 0x11,
  0x11, 0xce, 0x11, 0x11, 0x11, 0x11, 0x11, 0x11, 0x11, 0x11, 0xce, 0x11,
  0x11, 0x11, 0x11, 0xce, 0x11, 0x11, 0xce, 0x11, 0x11, 0x11, 0xce, 0x11,
  0x11, 0x11, 0x11, 0x11, 0x11, 0x11, 0xce, 0x11, 0x11, 0x11, 0x11, 0xce,
  0x11, 0x11, 0x11, 0x11, 0x11, 0x11, 0x11, 0x11, 0x11, 0x11, 0x11, 0x11,
  0xce, 0x11, 0x11, 0x11, 0xce, 0x11, 0x11, 0x11, 0x11, 0x11, 0x11, 0x11,
  0x11, 0x11, 0x11, 0x11, 0x11, 0x11, 0x11, 0x11, 0xce, 0x11, 0x11, 0x11,
  0x11, 0x11, 0x11, 0x11, 0x11, 0x11, 0x11, 0x11, 0x11, 0x11, 0xce, 0x11,
  0xce, 0x11, 0x11, 0x11, 0x11, 0x11, 0x11, 0x11, 0x11, 0x11, 0x11, 0x11,
  0x11, 0x11, 0x11, 0x11, 0x11, 0x11, 0x11, 0x11, 0x11, 0x11, 0xce, 0x11,
  0x11, 0xce, 0xce, 0x11, 0x11, 0x11, 0x11, 0x11, 0x11, 0xce, 0x11, 0x11,
  0xce, 0xce, 0x11, 0x11, 0x11, 0x11, 0x11, 0x11, 0xce, 0x11, 0x11, 0x11,
  0x11, 0x11, 0x11, 0x11, 0x11, 0x11, 0x11, 0xce, 0x11, 0x11, 0x11, 0x11,
  0x11, 0x11, 0x11, 0x11, 0x11, 0x11, 0xce, 0x11, 0xce, 0x11, 0x11, 0x11,
  0xce, 0x11, 0x11, 0x11, 0x11, 0x11, 0x11, 0x11, 0xce, 0xce, 0x11, 0xce,
  0xce, 0x11, 0x11, 0x11, 0x11, 0x11, 0xce, 0x11, 0xce, 0x11, 0x11, 0x11,
  0x11, 0x11, 0x11, 0x11, 0x11, 0x11, 0xce, 0x11, 0x11, 0x11, 0x11, 0x11,
  0xce, 0x11, 0x11, 0x11, 0x11, 0x11, 0xce, 0xce, 0xce, 0x11, 0x11, 0x11,
  0x11, 0x11, 0x11, 0x11, 0x11, 0x11, 0x11, 0x11, 0x11, 0x11, 0xce, 0x11,
  0x11, 0xce, 0x11, 0xce, 0x11, 0x11, 0x11, 0x11, 0x11, 0x11, 0x11, 0x11,
  0xce, 0xce, 0x11, 0xce, 0x11, 0x11, 0x11, 0x11, 0xce, 0x11, 0x11, 0x11,
  0x11, 0x11, 0x11, 0x11, 0x11, 0x11, 0x11, 0xce, 0x11, 0x11, 0x11, 0x11,
  0x11, 0xce, 0x11, 0x11, 0x11, 0x11, 0xce, 0xce, 0x11, 0x11, 0x11, 0x11,
  0x11, 0x11, 0x11, 0x11, 0x11, 0x11, 0x11, 0xce, 0x11, 0xce, 0x11, 0x11,
  0x11, 0x11, 0x11, 0x11, 0x11, 0x11, 0x11, 0x11, 0x11, 0x11, 0x11, 0x11,
  0x11, 0x11, 0x11, 0x11, 0x11, 0x11, 0x11, 0x11, 0x11, 0x11, 0x11, 0x11,
  0x11, 0x11, 0x11, 0x11, 0x11, 0x11, 0xce, 0x11, 0x11, 0x11, 0x11, 0x11,
  0x11, 0x11, 0x11, 0xce, 0x11, 0x11, 0x11, 0x11, 0x11, 0xce, 0x11, 0x11,
  0x11, 0x11, 0xce, 0x11, 0x11, 0x11, 0x11, 0x11, 0x11, 0x11, 0x11, 0x11,
  0xce, 0x11, 0x11, 0x11, 0x11, 0x11, 0xce, 0x11, 0x11, 0x11, 0x11, 0x11,
  0xce, 0x11, 0x11, 0x11, 0xce, 0x11, 0x11, 0x11, 0xce, 0x11, 0x11, 0x11,
  0xce, 0x11, 0x11, 0xce, 0x11, 0x11, 0x11, 0x11, 0x11, 0x11, 0x11, 0x11,
  0x11, 0x11, 0xce, 0x11, 0x11, 0x11, 0xce, 0xce, 0x11, 0x11, 0x11, 0x11,
  0x11, 0x11, 0x11, 0x11, 0x11, 0xce, 0xce, 0x11, 0x11, 0x11, 0x11, 0x11,
  0x11, 0x11, 0x11, 0x11, 0x11, 0x11, 0x11, 0x11, 0x11, 0x11, 0x11, 0x11,
  0xce, 0x11, 0xce, 0x11, 0x11, 0x11, 0x11, 0x11, 0xce, 0x11, 0x11, 0xce,
  0x11, 0x11, 0x11, 0x11, 0x11, 0x11, 0x11, 0x11, 0xce, 0x11, 0x11, 0x11,
  0xce, 0x11, 0x11, 0x11, 0x11, 0xce, 0x11, 0x11, 0x11, 0x11, 0x11, 0x11,
  0xce, 0xce, 0x11, 0xce, 0xce, 0x11, 0xce, 0xce, 0x11, 0x11, 0x11, 0x11,
  0x11, 0x11, 0x11, 0x11, 0x11, 0x11, 0x11, 0x11, 0x11, 0xce, 0x11, 0xce,
  0xce, 0x11, 0x11, 0x11, 0x11, 0x11, 0x11, 0x11, 0x11, 0x11, 0x11, 0x11,
  0x11, 0x11, 0x11, 0x11, 0x11, 0x11, 0x11, 0x11, 0x11, 0x11, 0x11, 0xce,
  0x11, 0x11, 0x11, 0x11, 0x11, 0x11, 0x11, 0x11, 0x11, 0xce, 0x11, 0x11,
  0x11, 0x11, 0x11, 0x11, 0x11, 0x11, 0x11, 0x11, 0xce, 0x11, 0x11, 0xce,
  0xce, 0x11, 0x11, 0x11, 0x11, 0x11, 0x11, 0x11, 0x11, 0x11, 0x11, 0x11,
  0x11, 0x11, 0x11, 0x11, 0x11, 0x11, 0xce, 0x11, 0x11, 0x11, 0xce, 0x11,
  0x11, 0xce, 0x11, 0x11, 0x11, 0x11, 0x11, 0x11, 0x11, 0x11, 0x11, 0x11,
  0x11, 0x11, 0xce, 0xce, 0x11, 0x11, 0x11, 0x11, 0x11, 0x11, 0x11, 0x11,
  0x11, 0x11, 0x11, 0x11, 0xce, 0x11, 0x11, 0x11, 0x11, 0x11, 0x11, 0x11,
  0x11, 0x11, 0x11, 0x11, 0x11, 0x11, 0x11, 0x11, 0x11, 0x11, 0x11, 0x11,
  0x11, 0x11, 0x11, 0xce, 0x11, 0x11, 0x11, 0x11, 0x11, 0x11, 0x11, 0x11,
  0x11, 0x11, 0x11, 0x11, 0x11, 0xce, 0x11, 0xce, 0x11, 0x11, 0xce, 0x11,
  0x11, 0x11, 0xce, 0xce, 0x11, 0x11, 0x11, 0x11, 0x11, 0x11, 0xce, 0x11,
  0x11, 0x11, 0x11, 0x11, 0x11, 0x11, 0x11, 0x11, 0x11, 0x11, 0x11, 0x11,
  0x11, 0x11, 0x11, 0x11, 0x11, 0x11, 0x11, 0xce, 0x11, 0x11, 0x11, 0x11,
  0x11, 0x11, 0x11, 0x11, 0x11, 0x11, 0xce, 0x11, 0x11, 0x11, 0x11, 0x11,
  0x11, 0x11, 0x11, 0x11, 0xce, 0x11, 0xce, 0x11, 0xce, 0x11, 0x11, 0x11,
  0x11, 0x11, 0x11, 0x11, 0x11, 0x11, 0x11, 0x11, 0xce, 0x11, 0x11, 0x11,
  0x11, 0x11, 0x11, 0x11, 0x11, 0x11, 0x11, 0x11, 0x11, 0xce, 0xce, 0x11,
  0x11, 0xce, 0x11, 0x11, 0x11, 0x11, 0x11, 0x11, 0x11, 0x11, 0x11, 0x11,
  0x11, 0xce, 0x11, 0xce, 0xce, 0x11, 0x11, 0x11, 0x11, 0x11, 0x11, 0x11,
  0xce, 0x11, 0x11, 0xce, 0x11, 0x11, 0x11, 0x11, 0x11, 0x11, 0x11, 0x11,
  0xce, 0x11, 0x11, 0x11, 0x11, 0x11, 0xce, 0xce, 0x11, 0x11, 0x11, 0x11,
  0x11, 0x11, 0xce, 0x11, 0x11, 0x11, 0x11, 0xce, 0x11, 0x11, 0x11, 0x11,
  0xce, 0x11, 0x11, 0x11, 0xce, 0x11, 0x11, 0x11, 0xce, 0xce, 0xce, 0x11,
  0x11, 0x11, 0x11, 0x11, 0x11, 0xce, 0x11, 0xce, 0x11, 0xce, 0x11, 0x11,
  0x11, 0xce, 0x11, 0x11, 0x11, 0x11, 0xce, 0x11, 0x11, 0x11, 0x11, 0x11,
  0xce, 0x11, 0x11, 0x11, 0x11, 0x11, 0x11, 0x11, 0x11, 0x11, 0x11, 0xce,
  0x11, 0x11, 0x11, 0x11, 0x11, 0x11, 0x11, 0x11, 0x11, 0xce, 0x11, 0x11,
  0x11, 0x11, 0x11, 0x11, 0x11, 0xce, 0x11, 0x11, 0xce, 0x11, 0x11, 0x11,
  0x11, 0x11, 0xce, 0x11, 0x11, 0x11, 0x11, 0x11, 0x11, 0x11, 0x11, 0x11,
  0xce, 0x11, 0x11, 0x11, 0x11, 0x11, 0x11, 0x11, 0x11, 0x11, 0xce, 0x11,
  0x11, 0x11, 0x11, 0x11, 0x11, 0x11, 0x11, 0x11, 0x11, 0xce, 0xce, 0x11,
  0x11, 0x11, 0x11, 0x11, 0xce, 0x11, 0xce, 0x11, 0x11, 0xce, 0x11, 0x11,
  0x11, 0x11, 0x11, 0x11, 0x11, 0x11, 0x11, 0x11, 0x11, 0x11, 0x11, 0xce,
  0x11, 0x11, 0x11, 0x11, 0x11, 0x11, 0x11, 0x11, 0x11, 0x11, 0xce, 0x11,
  0x11, 0x11, 0x11, 0xce, 0xce, 0xce, 0x11, 0x11, 0x11, 0x11, 0x11, 0x11,
  0x11, 0x11, 0x11, 0xce, 0x11, 0x11, 0xce, 0x11, 0x11, 0x11, 0xce, 0x11,
  0x11, 0x11, 0x11, 0x11, 0x11, 0x11, 0x11, 0x11, 0x11, 0x11, 0x11, 0x11,
  0xce, 0x11, 0x11, 0xce, 0x11, 0xce, 0x11, 0x11, 0xce, 0x11, 0x11, 0x11,
  0x11, 0xce, 0x11, 0x11, 0xce, 0x11, 0xce, 0x11, 0xce, 0x11, 0xce, 0x11,
  0x11, 0x11, 0xce, 0x11, 0x11, 0x11, 0x11, 0x11, 0xce, 0x11, 0x11, 0x11,
  0x11, 0x11, 0x11, 0x11, 0x11, 0x11, 0xce, 0x11, 0x11, 0xce, 0xce, 0x11,
  0xce, 0x11, 0x11, 0x11, 0x11, 0xce, 0x11, 0x11, 0x11, 0x11, 0x11, 0x11,
  0xce, 0x11, 0x11, 0x11, 0x11, 0x11, 0x11, 0x11, 0x11, 0x11, 0x11, 0x11,
  0x11, 0x11, 0x11, 0x11, 0x11, 0x11, 0x11, 0x11, 0x11, 0x11, 0x11, 0x11,
  0x11, 0x11, 0x11, 0x11, 0x11, 0x11, 0x11, 0x11, 0x11, 0x11, 0x11, 0x11,
  0x11, 0xce, 0x11, 0x11, 0x11, 0x11, 0x11, 0x11, 0x11, 0x11, 0x11, 0xce,
  0xce, 0x11, 0x11, 0x11, 0xce, 0x11, 0x11, 0x11, 0x11, 0x11, 0x11, 0xce,
  0x11, 0x11, 0x11, 0x11, 0x11, 0x11, 0x11, 0x11, 0x11, 0xce, 0x11, 0x11,
  0x11, 0x11, 0xce, 0x11, 0x11, 0xce, 0x11, 0x11, 0x11, 0x11, 0xce, 0x11,
  0x11, 0x11, 0x11, 0x11, 0x11, 0xce, 0x11, 0x11, 0x11, 0xce, 0xce, 0x11,
  0x11, 0x11, 0xce, 0xce, 0xce, 0x11, 0x11, 0x11, 0x11, 0xce, 0x11, 0x11,
  0x11, 0x11, 0x11, 0x11, 0x11, 0x11, 0xce, 0x11, 0x11, 0x11, 0x11, 0x11,
  0x11, 0xce, 0x11, 0x11, 0xce, 0x11, 0x11, 0x11, 0x11, 0x11, 0x11, 0x11,
  0x11, 0x11, 0x11, 0x11, 0x11, 0x11, 0x11, 0x11, 0x11, 0x11, 0x11, 0x11,
  0x11, 0x11, 0x11, 0x11, 0x11, 0xce, 0x11, 0x11, 0xce, 0xce, 0x11, 0xce,
  0x11, 0x11, 0x11, 0x11, 0x11, 0x11, 0x11, 0x11, 0x11, 0xce, 0x11, 0x11,
  0x11, 0x11, 0x11, 0x11, 0x11, 0x11, 0xce, 0x11, 0x11, 0x11, 0x11, 0x11,
  0x11, 0x11, 0x11, 0x11, 0x11, 0xce, 0x11, 0x11, 0x11, 0x11, 0x11, 0x11,
  0x11, 0x11, 0x11, 0xce, 0x11, 0x11, 0xce, 0x11, 0x11, 0x11, 0x11, 0x11,
  0xce, 0x11, 0x11, 0x11, 0x11, 0x11, 0x11, 0x11, 0x11, 0x11, 0x11, 0x11,
  0xce, 0x11, 0xce, 0x11, 0x11, 0x11, 0xce, 0x11, 0xce, 0x11, 0x11, 0x11,
  0x11, 0x11, 0xce, 0x11, 0x11, 0x11, 0x11, 0x11, 0x11, 0xce, 0xce, 0x11,
  0x11, 0x11, 0xce, 0x11, 0x11, 0x11, 0x11, 0x11, 0x11, 0x11, 0x11, 0x11,
  0x11, 0xce, 0x11, 0x11, 0x11, 0x11, 0x11, 0x11, 0xce, 0x11, 0x11, 0x11,
  0x11, 0x11, 0x11, 0xce, 0x11, 0x11, 0x11, 0x11, 0x11, 0x11, 0x11, 0xce,
  0x11, 0x11, 0x11, 0xce, 0xce, 0x11, 0x11, 0xce, 0x11, 0x11, 0x11, 0xce,
  0x11, 0x11, 0x11, 0x11, 0x11, 0x11, 0x11, 0x11, 0x11, 0x11, 0x11, 0x11,
  0x11, 0x11, 0x11, 0x11, 0x11, 0x11, 0xce, 0x11, 0x11, 0x11, 0x11, 0x11,
  0x11, 0x11, 0x11, 0x11, 0x11, 0x11, 0x11, 0x11, 0x11, 0x11, 0x11, 0x11,
  0xce, 0xce, 0x11, 0x11, 0x11, 0x11, 0x11, 0x11, 0x11, 0x11, 0x11, 0x11,
  0x11, 0x11, 0x11, 0x11, 0xce, 0x11, 0x11, 0x11, 0x11, 0x11, 0x11, 0x11,
  0xce, 0x11, 0x11, 0x11, 0x11, 0xce, 0x11, 0xce, 0x11, 0x11, 0x11, 0x11,
  0x11, 0x11, 0x11, 0x11, 0x11, 0x11, 0x11, 0x11, 0x11, 0xce, 0x11, 0x11,
  0x11, 0x11, 0x11, 0x11, 0x11, 0x11, 0x11, 0xce, 0x11, 0x11, 0x11, 0x11,
  0xce, 0x11, 0x11, 0x11, 0x11, 0x11, 0x11, 0x11, 0x11, 0xce, 0x11, 0x11,
  0x11, 0x11, 0x11, 0x11, 0x11, 0xce, 0xce, 0x11, 0x11, 0x11, 0x11, 0x11,
  0x11, 0xce, 0x11, 0x11, 0x11, 0x11, 0xce, 0x11, 0x11, 0x11, 0xce, 0x11,
  0x11, 0x11, 0x11, 0x11, 0x11, 0x11, 0x11, 0x11, 0x11, 0x11, 0x11, 0x11,
  0xce, 0xce, 0xce, 0x11, 0x11, 0x11, 0x11, 0x11, 0x11, 0x11, 0x11, 0x11,
  0xce, 0x11, 0x11, 0x11, 0xce, 0x11, 0x11, 0xce, 0x11, 0xce, 0x11, 0x11,
  0x11, 0xce, 0x11, 0x11, 0xce, 0xce, 0x11, 0x11, 0x11, 0x11, 0x11, 0x11,
  0xce, 0x11, 0xce, 0x11, 0x11, 0x11, 0x11, 0x11, 0x11, 0x11, 0xce, 0x11,
  0x11, 0xce, 0xce, 0x11, 0x11, 0x11, 0x11, 0xce, 0x11, 0x11, 0x11, 0x11,
  0x11, 0xce, 0x11, 0x11, 0x11, 0x11, 0x11, 0x11, 0xce, 0x11, 0xce, 0x11,
  0x11, 0x11, 0x11, 0x11, 0x11, 0x11, 0x11, 0x11, 0x11, 0x11, 0x11, 0x11,
  0xce, 0x11, 0xce, 0x11, 0x11, 0x11, 0x11, 0x11, 0x11, 0xce, 0x11, 0x11,
  0x11, 0xce, 0x11, 0x11, 0xce, 0x11, 0x11, 0xce, 0x11, 0x11, 0x11, 0x11,
  0x11, 0x11, 0x11, 0xce, 0x11, 0x11, 0x11, 0x11, 0x11, 0x11, 0x11, 0x11,
  0x11, 0x11, 0x11, 0xce, 0x11, 0x11, 0x11, 0x11, 0x11, 0x11, 0x11, 0x11,
  0x11, 0x11, 0xce, 0x11, 0x11, 0x11, 0x11, 0x11, 0x11, 0xce, 0x11, 0x11,
  0x11, 0x11, 0x11, 0x11, 0x11, 0x11, 0x11, 0xce, 0x11, 0x11, 0x11, 0x11,
  0xce, 0x11, 0x11, 0x11, 0x11, 0x11, 0x11, 0x11, 0xce, 0xce, 0x11, 0x11,
  0xce, 0xce, 0xce, 0x11, 0x11, 0x11, 0x11, 0x11, 0x11, 0x11, 0x11, 0x11,
  0x11, 0x11, 0x11, 0x11, 0x11, 0x11, 0x11, 0x11, 0x11, 0x11, 0x11, 0x11,
  0x11, 0x11, 0x11, 0x11, 0x11, 0x11, 0x11, 0x11, 0x11, 0x11, 0xce, 0x11,
  0x11, 0x11, 0x11, 0x11, 0x11, 0xce, 0x11, 0x11, 0xce, 0x11, 0x11, 0x11,
  0x11, 0x11, 0xce, 0x11, 0x11, 0xce, 0x11, 0x11, 0x11, 0x11, 0x11, 0x11,
  0x11, 0x11, 0x11, 0x11, 0x11, 0x11, 0x11, 0x11, 0xce, 0x11, 0xce, 0x11,
  0x11, 0x11, 0xce, 0x11, 0x11, 0x11, 0x11, 0xce, 0x11, 0x11, 0x11, 0x11,
  0x11, 0x11, 0x11, 0x11, 0x11, 0x11, 0x11, 0x11, 0x11, 0x11, 0x11, 0x11,
  0xce, 0x11, 0x11, 0x11, 0x11, 0x11, 0x11, 0x11, 0x11, 0x11, 0x11, 0xce,
  0xce, 0x11, 0x11, 0xce, 0xce, 0x11, 0x11, 0x11, 0x11, 0xce, 0x11, 0x11,
  0x11, 0x11, 0xce, 0x11, 0x11, 0x11, 0x11, 0x11, 0x11, 0x11, 0x11, 0xce,
  0xce, 0x11, 0x11, 0x11, 0xce, 0x11, 0x11, 0x11, 0xce, 0x11, 0x11, 0x11,
  0x11, 0xce, 0x11, 0x11, 0x11, 0x11, 0x11, 0x11, 0x11, 0x11, 0x11, 0xce,
  0x11, 0x11, 0x11, 0xce, 0x11, 0x11, 0x11, 0x11, 0x11, 0x11, 0x11, 0xce,
  0x11, 0x11, 0x11, 0x11, 0x11, 0xce, 0xce, 0x11, 0xce, 0xce, 0xce, 0x11,
  0x11, 0x11, 0x11, 0x11, 0x11, 0x11, 0x11, 0x11, 0x11, 0x11, 0x11, 0x11,
  0x11, 0x11, 0x11, 0x11, 0x11, 0x11, 0xce, 0x11, 0x11, 0x11, 0x11, 0x11,
  0x11, 0x11, 0x11, 0x11, 0x11, 0x11, 0x11, 0x11, 0x11, 0x11, 0x11, 0x11,
  0x11, 0x11, 0x11, 0xce, 0x11, 0x11, 0x11, 0x11, 0x11, 0x11, 0x11, 0x11,
  0x11, 0x11, 0xce, 0x11, 0x11, 0xce, 0x11, 0x11, 0x11, 0x11, 0xce, 0x11,
  0x11, 0x11, 0x11, 0xce, 0x11, 0x11, 0x11, 0x11, 0x11, 0x11, 0x11, 0x11,
  0x11, 0x11, 0x11, 0x11, 0x11, 0x11, 0x11, 0xce, 0x11, 0xce, 0x11, 0x11,
  0x11, 0x11, 0x11, 0x11, 0x11, 0x11, 0x11, 0x11, 0x11, 0x11, 0xce, 0x11,
  0x11, 0x11, 0x11, 0xce, 0x11, 0xce, 0x11, 0x11, 0x11, 0x11, 0x11, 0x11,
  0x11, 0x11, 0xce, 0x11, 0x11, 0x11, 0xce, 0x11, 0x11, 0x11, 0x11, 0x11,
  0xce, 0x11, 0x11, 0x11, 0x11, 0x11, 0x11, 0xce, 0xce, 0x11, 0xce, 0x11,
  0x11, 0x11, 0xce, 0x11, 0x11, 0x11, 0x11, 0x11, 0xce, 0x11, 0x11, 0xce,
  0x11, 0x11, 0x11, 0xce, 0x11, 0x11, 0x11, 0x11, 0x11, 0x11, 0x11, 0x11,
  0xce, 0x11, 0x11, 0xce, 0xce, 0xce, 0x11, 0x11, 0x11, 0xce, 0xce, 0x11,
  0x11, 0xce, 0x11, 0x11, 0x11, 0xce, 0x11, 0x11, 0x11, 0x11, 0x11, 0x11,
  0x11, 0x11, 0x11, 0x11, 0xce, 0xce, 0x11, 0x11, 0xce, 0x11, 0x11, 0x11,
  0x11, 0x11, 0x11, 0xce, 0x11, 0xce, 0x11, 0xce, 0x11, 0x11, 0x11, 0x11,
  0x11, 0xce, 0x11, 0x11, 0x11, 0x11, 0x11, 0x11, 0x11, 0xce, 0x11, 0x11,
  0x11, 0x11, 0x11, 0x11, 0xce, 0x11, 0x11, 0x11, 0x11, 0x11, 0x11, 0x11,
  0x11, 0x11, 0x11, 0x11, 0x11, 0x11, 0x11, 0x11, 0x11, 0x11, 0x11, 0x11,
  0x11, 0xce, 0x11, 0x11, 0x11, 0x11, 0x11, 0x11, 0x11, 0x11, 0x11, 0x11,
  0x11, 0x11, 0x11, 0x11, 0x11, 0x11, 0x11, 0x11, 0x11, 0x11, 0x11, 0x11,
  0x11, 0xce, 0x11, 0x11, 0x11, 0x11, 0x11, 0x11, 0x11, 0xce, 0x11, 0x11,
  0x11, 0x11, 0x11, 0x11, 0x11, 0x11, 0x11, 0xce, 0xce, 0xce, 0x11, 0x11,
  0x11, 0x11, 0x11, 0x11, 0x11, 0x11, 0x11, 0x11, 0x11, 0x11, 0xce, 0xce,
  0x11, 0x11, 0x11, 0x11, 0xce, 0x11, 0x11, 0x11, 0x11, 0x11, 0x11, 0x11,
  0x11, 0x11, 0x11, 0x11, 0x11, 0x11, 0x11, 0x11, 0x11, 0x11, 0x11, 0xce,
  0x11, 0x11, 0x11, 0x11, 0x11, 0xce, 0x11, 0x11, 0x11, 0x11, 0x11, 0x11,
  0x11, 0x11, 0x11, 0x11, 0x11, 0xce, 0xce, 0x11, 0xce, 0x11, 0x11, 0x11,
  0xce, 0x11, 0x11, 0x11, 0x11, 0x11, 0x11, 0x11, 0x11, 0x11, 0x11, 0x11,
  0x11, 0x11, 0x11, 0x11, 0x11, 0x11, 0x11, 0xce, 0xce, 0x11, 0x11, 0xce,
  0xce, 0x11, 0xce, 0xce, 0xce, 0x11, 0x11, 0xce, 0xce, 0x11, 0x11, 0x11,
  0x11, 0x11, 0xce, 0xce, 0x11, 0x11, 0xce, 0xce, 0x11, 0x11, 0xce, 0x11,
  0xce, 0x11, 0x11, 0x11, 0x11, 0xce, 0x11, 0x11, 0x11, 0xce, 0x11, 0x11,
  0x11, 0x11, 0x11, 0xce, 0x11, 0x11, 0x11, 0x11, 0x11, 0x11, 0x11, 0x11,
  0x11, 0x11, 0xce, 0xce, 0x11, 0x11, 0x11, 0x11, 0x11, 0x11, 0x11, 0x11,
  0x11, 0x11, 0x11, 0x11, 0x11, 0x11, 0x11, 0x11, 0x11, 0xce, 0x11, 0xce,
  0x11, 0xce, 0x11, 0x11, 0x11, 0x11, 0x11, 0x11, 0x11, 0x11, 0x11, 0x11,
  0xce, 0x11, 0xce, 0x11, 0x11, 0x11, 0x11, 0x11, 0x11, 0x11, 0x11, 0x11,
  0x11, 0xce, 0x11, 0x11, 0x11, 0xce, 0x11, 0x11, 0x11, 0x11, 0x11, 0x11,
  0x11, 0x11, 0xce, 0x11, 0x11, 0x11, 0x11, 0x11, 0x11, 0x11, 0x11, 0x11,
  0x11, 0x11, 0x11, 0x11, 0x11, 0xce, 0x11, 0x11, 0x11, 0x11, 0x11, 0x11,
  0x11, 0x11, 0x11, 0x11, 0x11, 0x11, 0x11, 0x11, 0x11, 0x11, 0x11, 0x11,
  0x11, 0x11, 0x11, 0x11, 0x11, 0x11, 0x11, 0x11, 0x11, 0x11, 0x11, 0x11,
  0x11, 0xce, 0xce, 0xce, 0xce, 0x11, 0xce, 0xce, 0x11, 0x11, 0xce, 0x11,
  0x11, 0xce, 0x11, 0xce, 0x11, 0x11, 0xce, 0x11, 0x11, 0x11, 0xce, 0xce,
  0x11, 0x11, 0x11, 0x11, 0x11, 0xce, 0x11, 0xce, 0x11, 0x11, 0x11, 0x11,
  0x11, 0xce, 0x11, 0x11, 0xce, 0x11, 0x11, 0x11, 0x11, 0xce, 0x11, 0x11,
  0x11, 0xce, 0x11, 0x11, 0x11, 0x11, 0xce, 0x11, 0x11, 0x11, 0x11, 0xce,
  0x11, 0x11, 0x11, 0xce, 0xce, 0x11, 0x11, 0xce, 0x11, 0x11, 0x11, 0xce,
  0x11, 0x11, 0x11, 0xce, 0x11, 0x11, 0x11, 0x11, 0x11, 0xce, 0x11, 0xce,
  0xce, 0x11, 0xce, 0x11, 0xce, 0x11, 0x11, 0x11, 0x11, 0x11, 0x11, 0x11,
  0x11, 0x11, 0x11, 0x11, 0xce, 0x11, 0xce, 0x11, 0x11, 0x11, 0x11, 0xce,
  0xce, 0x11, 0x11, 0x11, 0x11, 0x11, 0x11, 0x11, 0x11, 0x11, 0xce, 0x11,
  0xce, 0x11, 0xce, 0x11, 0xce, 0x11, 0x11, 0x11, 0x11, 0x11, 0x11, 0x11,
  0x11, 0x11, 0x11, 0x11, 0x11, 0x11, 0x11, 0xce, 0x11, 0x11, 0x11, 0x11,
  0x11, 0x11, 0x11, 0xce, 0x11, 0x11, 0xce, 0x11, 0x11, 0x11, 0x11, 0x11,
  0xce, 0x11, 0x11, 0x11, 0xce, 0x11, 0x11, 0x11, 0x11, 0x11, 0x11, 0x11,
  0x11, 0x11, 0x11, 0xce, 0xce, 0x11, 0x11, 0xce, 0x11, 0xce, 0x11, 0x11,
  0x11, 0x11, 0x11, 0x11, 0x11, 0x11, 0x11, 0x11, 0x11, 0x11, 0x11, 0x11,
  0x11, 0xce, 0x11, 0x11, 0x11, 0x11, 0x11, 0x11, 0xce, 0x11, 0x11, 0xce,
  0x11, 0x11, 0x11, 0x11, 0xce, 0x11, 0x11, 0x11, 0x11, 0x11, 0x11, 0x11,
  0xce, 0x11, 0x11, 0x11, 0x11, 0xce, 0x11, 0xce, 0x11, 0xce, 0x11, 0x11,
  0xce, 0xce, 0x11, 0xce, 0x11, 0x11, 0x11, 0xce, 0x11, 0x11, 0x11, 0x11,
  0x11, 0x11, 0x11, 0x11, 0xce, 0xce, 0x11, 0x11, 0xce, 0x11, 0x11, 0x11,
  0x11, 0xce, 0x11, 0xce, 0x11, 0x11, 0x11, 0x11, 0x11, 0x11, 0x11, 0x11,
  0xce, 0xce, 0x11, 0xce, 0x11, 0xce, 0x11, 0x11, 0x11, 0x11, 0xce, 0x11,
  0xce, 0xce, 0x11, 0x11, 0xce, 0x11, 0x11, 0x11, 0x11, 0x11, 0x11, 0x11,
  0xce, 0xce, 0x11, 0x11, 0x11, 0x11, 0xce, 0x11, 0x11, 0x11, 0xce, 0xce,
  0x11, 0xce, 0x11, 0x11, 0x11, 0x11, 0x11, 0x11, 0x11, 0xce, 0x11, 0x11,
  0x11, 0xce, 0x11, 0x11, 0x11, 0x11, 0x11, 0x11, 0x11, 0x11, 0x11, 0x11,
  0xce, 0x11, 0x11, 0x11, 0x11, 0x11, 0xce, 0x11, 0xce, 0x11, 0x11, 0x11,
  0x11, 0x11, 0x11, 0x11, 0x11, 0xce, 0x11, 0x11, 0x11, 0x11, 0x11, 0xce,
  0x11, 0x11, 0xce, 0x11, 0x11, 0x11, 0x11, 0xce, 0x11, 0x11, 0x11, 0x11,
  0x11, 0x11, 0x11, 0x11, 0x11, 0x11, 0x11, 0xce, 0x11, 0x11, 0x11, 0x11,
  0x11, 0x11, 0x11, 0x11, 0xce, 0x11, 0x11, 0x11, 0x11, 0x11, 0x11, 0x11,
  0x11, 0x11, 0x11, 0x11, 0x11, 0x11, 0x11, 0x11, 0x11, 0x11, 0x11, 0x11,
  0x11, 0x11, 0x11, 0x11, 0x11, 0xce, 0x11, 0x11, 0x11, 0x11, 0x11, 0x11,
  0xce, 0x11, 0xce, 0x11, 0x11, 0x11, 0xce, 0x11, 0xce, 0x11, 0x11, 0x11,
  0x11, 0xce, 0x11, 0x11, 0x11, 0x11, 0x11, 0x11, 0x11, 0x11, 0x11, 0x11,
  0xce, 0x11, 0x11, 0x11, 0x11, 0x11, 0xce, 0x11, 0x11, 0x11, 0x11, 0xce,
  0xce, 0x11, 0x11, 0xce, 0x11, 0x11, 0x11, 0x11, 0x11, 0x11, 0x11, 0x11,
  0x11, 0x11, 0x11, 0x11, 0x11, 0x11, 0x11, 0xce, 0x11, 0xce, 0x11, 0x11,
  0xce, 0x11, 0x11, 0x11, 0xce, 0x11, 0x11, 0xce, 0xce, 0x11, 0x11, 0x11,
  0x11, 0x11, 0x11, 0x11, 0x11, 0x11, 0x11, 0x11, 0x11, 0x11, 0x11, 0x11,
  0x11, 0x11, 0x11, 0x11, 0x11, 0xce, 0x11, 0x11, 0x11, 0x11, 0x11, 0x11,
  0x11, 0x11, 0x11, 0x11, 0x11, 0x11, 0x11, 0x11, 0x11, 0x11, 0x11, 0x11,
  0x11, 0xce, 0x11, 0xce, 0x11, 0x11, 0x11, 0x11, 0x11, 0x11, 0x11, 0x11,
  0x11, 0xce, 0x11, 0x11, 0xce, 0x11, 0x11, 0x11, 0xce, 0x11, 0x11, 0x11,
  0xce, 0x11, 0x11, 0x11, 0x11, 0x11, 0x11, 0xce, 0xce, 0x11, 0xce, 0x11,
  0x11, 0x11, 0x11, 0x11, 0x11, 0x11, 0x11, 0x11, 0xce, 0x11, 0x11, 0xce,
  0x11, 0xce, 0x11, 0x11, 0x11, 0x11, 0xce, 0x11, 0x11, 0x11, 0xce, 0x11,
  0x11, 0x11, 0x11, 0x11, 0xce, 0x11, 0x11, 0xce, 0xce, 0x11, 0x11, 0x11,
  0x11, 0x11, 0xce, 0xce, 0x11, 0x11, 0x11, 0x11, 0x11, 0x11, 0x11, 0x11,
  0x11, 0x11, 0x11, 0x11, 0x11, 0x11, 0xce, 0xce, 0x11, 0x11, 0xce, 0x11,
  0x11, 0x11, 0xce, 0x11, 0x11, 0x11, 0x11, 0xce, 0x11, 0x11, 0x11, 0x11,
  0x11, 0xce, 0x11, 0xce, 0xce, 0x11, 0x11, 0x11, 0x11, 0x11, 0x11, 0x11,
  0x11, 0xce, 0xce, 0xce, 0x11, 0x11, 0xce, 0x11, 0x11, 0x11, 0x11, 0x11,
  0x11, 0x11, 0xce, 0x11, 0x11, 0x11, 0x11, 0x11, 0x11, 0x11, 0x11, 0x11,
  0x11, 0x11, 0x11, 0x11, 0x68, 0x11, 0x11, 0x11, 0x11, 0x11, 0x11, 0x11,
  0xce, 0x11, 0x11, 0x11, 0x11, 0x11, 0x11, 0x11, 0x11, 0x11, 0x11, 0x11,
  0x11, 0x11, 0x11, 0xce, 0x11, 0x11, 0x11, 0x11, 0xce, 0x11, 0x11, 0x11,
  0x11, 0x11, 0x11, 0x11, 0xce, 0x11, 0x11, 0x11, 0x11, 0x11, 0x11, 0x11,
  0x11, 0x11, 0x11, 0x11, 0x11, 0x11, 0x11, 0x11, 0x11, 0x11, 0x11, 0x11,
  0xce, 0x11, 0x11, 0xce, 0x11, 0x11, 0x11, 0x11, 0x11, 0x11, 0x11, 0x11,
  0xce, 0x11, 0x11, 0xce, 0x11, 0x11, 0x11, 0x11, 0x11, 0x11, 0xce, 0xce,
  0x11, 0x11, 0x11, 0x11, 0x11, 0x11, 0x11, 0x11, 0x11, 0xce, 0x11, 0x11,
  0x11, 0xce, 0x11, 0x11, 0xce, 0x11, 0x11, 0x11, 0xce, 0xce, 0x11, 0xce,
  0x11, 0x11, 0x11, 0x11, 0xce, 0xce, 0xce, 0x11, 0xce, 0xce, 0x11, 0x11,
  0xce, 0x11, 0x11, 0x11, 0x11, 0x11, 0xce, 0xce, 0x11, 0xce, 0x11, 0x11,
  0x11, 0xce, 0x11, 0xce, 0x11, 0xce, 0x11, 0x11, 0x11, 0x11, 0x11, 0x11,
  0xce, 0x11, 0xce, 0xce, 0x11, 0x11, 0x11, 0xce, 0x11, 0xce, 0x11, 0x11,
  0x11, 0xce, 0x11, 0x11, 0x11, 0x11, 0xce, 0x11, 0x11, 0x11, 0x11, 0xce,
  0x11, 0x11, 0x11, 0x11, 0x11, 0x11, 0x11, 0x11, 0x11, 0x11, 0xce, 0xce,
  0x11, 0xce, 0x11, 0x11, 0x11, 0x11, 0xce, 0x11, 0xce, 0x11, 0x11, 0xce,
  0x11, 0xce, 0x11, 0x11, 0xce, 0xce, 0xce, 0x11, 0xce, 0x11, 0xce, 0xce,
  0x11, 0x11, 0xbc, 0x11, 0xce, 0x11, 0x11, 0x11, 0xce, 0xce, 0xce, 0xce,
  0x11, 0xce, 0x11, 0x11, 0x11, 0x11, 0x11, 0xce, 0x11, 0xce, 0x11, 0xce,
  0x11, 0x11, 0xce, 0x11, 0x11, 0x11, 0xce, 0x11, 0x11, 0x11, 0x11, 0x11,
  0x11, 0x11, 0x11, 0xce, 0x11, 0x11, 0xce, 0x11, 0x11, 0x11, 0x11, 0x11,
  0xce, 0x11, 0xce, 0x11, 0xce, 0x11, 0x11, 0x11, 0x11, 0x11, 0x11, 0x11,
  0xce, 0xce, 0x11, 0x11, 0x11, 0x11, 0x11, 0x11, 0xce, 0x11, 0x11, 0x11,
  0x11, 0x11, 0x11, 0x11, 0x11, 0x11, 0x11, 0xce, 0x11, 0x11, 0x11, 0x11,
  0x11, 0x11, 0x11, 0x11, 0x11, 0x11, 0x11, 0x11, 0x11, 0xce, 0x11, 0x11,
  0x11, 0x11, 0x11, 0x11, 0x11, 0x11, 0x11, 0x11, 0x11, 0x11, 0x11, 0x11,
  0xce, 0x11, 0x11, 0x11, 0x11, 0x11, 0x11, 0x11, 0x11, 0x11, 0x11, 0x11,
  0x11, 0xce, 0x11, 0x11, 0x11, 0x11, 0x11, 0x11, 0x11, 0x11, 0x11, 0xce,
  0x11, 0x11, 0x11, 0xce, 0xce, 0x11, 0x11, 0xce, 0x11, 0x11, 0x11, 0x11,
  0x11, 0x11, 0x11, 0x11, 0x11, 0x11, 0xce, 0x11, 0xce, 0x11, 0xce, 0x11,
  0x11, 0xce, 0x11, 0xce, 0x11, 0x11, 0x11, 0xce, 0x11, 0x11, 0xce, 0x11,
  0xce, 0x11, 0x11, 0x11, 0x11, 0x11, 0x11, 0xce, 0x11, 0xce, 0x11, 0xce,
  0x11, 0xce, 0xce, 0xce, 0xce, 0x11, 0x11, 0x11, 0x11, 0xce, 0x11, 0x11,
  0x11, 0x11, 0x11, 0x11, 0x11, 0x11, 0x11, 0xce, 0x11, 0x11, 0x11, 0x11,
  0x11, 0x11, 0x11, 0x11, 0xce, 0xce, 0x11, 0x11, 0x11, 0xce, 0x11, 0x11,
  0x11, 0x11, 0x11, 0x11, 0xce, 0x11, 0xce, 0x11, 0x11, 0x11, 0xce, 0xce,
  0xce, 0xce, 0x11, 0x11, 0x11, 0x11, 0x11, 0x11, 0x11, 0x11, 0xce, 0x11,
  0xce, 0x11, 0x11, 0x11, 0x11, 0x11, 0x11, 0x11, 0xce, 0x11, 0xce, 0x11,
  0xce, 0x11, 0xce, 0x11, 0x11, 0x11, 0xce, 0x11, 0x11, 0x11, 0xce, 0x11,
  0x11, 0xce, 0x11, 0xce, 0x11, 0xce, 0x11, 0x11, 0x11, 0x11, 0x11, 0xce,
  0xce, 0x11, 0x11, 0x11, 0xce, 0x11, 0x11, 0x11, 0x11, 0x11, 0xce, 0xce,
  0x11, 0xce, 0xce, 0x11, 0x11, 0x11, 0xce, 0x11, 0xce, 0xce, 0x11, 0x11,
  0x11, 0x11, 0x11, 0x11, 0x11, 0x11, 0x11, 0x11, 0x11, 0xce, 0x11, 0xce,
  0xce, 0x11, 0xce, 0x11, 0x11, 0x11, 0xce, 0x11, 0x11, 0x11, 0x11, 0x11,
  0xce, 0x11, 0x11, 0x11, 0xce, 0x11, 0x11, 0x11, 0x11, 0x11, 0x11, 0x11,
  0x11, 0x11, 0x11, 0x11, 0x11, 0x11, 0x11, 0x11, 0x11, 0x11, 0x11, 0x11,
  0x11, 0x11, 0xce, 0x11, 0x11, 0x11, 0x11, 0x11, 0x11, 0xce, 0xce, 0x11,
  0x11, 0x11, 0x11, 0xce, 0xce, 0xce, 0x11, 0x11, 0x11, 0xce, 0x11, 0x11,
  0xce, 0x11, 0xce, 0x11, 0x11, 0x11, 0x11, 0x11, 0x11, 0xce, 0xce, 0xce,
  0x11, 0x11, 0x11, 0x11, 0xce, 0x11, 0x11, 0x11, 0xce, 0xce, 0x11, 0xce,
  0x11, 0xce, 0x11, 0x11, 0x11, 0xce, 0xce, 0x11, 0x11, 0x11, 0x11, 0x11,
  0xce, 0x11, 0x11, 0x11, 0x11, 0x11, 0xce, 0xce, 0xce, 0x11, 0xce, 0x11,
  0x11, 0xce, 0x11, 0x11, 0xce, 0x11, 0xce, 0xce, 0x11, 0x11, 0x11, 0x11,
  0x11, 0xce, 0xce, 0xce, 0x11, 0xce, 0xce, 0x11, 0xce, 0x11, 0x11, 0x11,
  0x11, 0xce, 0x11, 0x11, 0x11, 0x11, 0x11, 0x11, 0x11, 0x11, 0x11, 0x11,
  0x11, 0x11, 0xce, 0x11, 0x11, 0x11, 0x11, 0x11, 0x11, 0x11, 0x11, 0xce,
  0x11, 0x11, 0x11, 0x11, 0x11, 0x11, 0x11, 0x11, 0x11, 0x11, 0x11, 0x11,
  0x11, 0xce, 0x11, 0x11, 0x11, 0x11, 0x11, 0x11, 0x11, 0xce, 0x11, 0x11,
  0xce, 0x11, 0x11, 0x11, 0x11, 0x11, 0x11, 0x11, 0x11, 0x11, 0xce, 0x11,
  0x11, 0x11, 0x11, 0x11, 0x11, 0x11, 0x11, 0x11, 0x11, 0x11, 0xce, 0xce,
  0x11, 0x11, 0x11, 0x11, 0x11, 0x11, 0x11, 0x11, 0x11, 0x11, 0x11, 0x11,
  0x11, 0x11, 0x11, 0x11, 0x11, 0x11, 0x11, 0x11, 0x11, 0xce, 0x11, 0x11,
  0x11, 0x11, 0x11, 0x11, 0x11, 0x11, 0x11, 0x11, 0xce, 0x11, 0xce, 0x11,
  0x11, 0x11, 0x11, 0x11, 0x11, 0x11, 0x11, 0x11, 0x11, 0x11, 0x11, 0x11,
  0x11, 0x11, 0x11, 0x11, 0xce, 0x11, 0x11, 0x11, 0x11, 0x11, 0x11, 0x11,
  0x11, 0x11, 0x11, 0x11, 0x11, 0x11, 0x11, 0x11, 0x11, 0x11, 0x11, 0x11,
  0x11, 0x11, 0x11, 0x11, 0x11, 0x11, 0x11, 0x11, 0x11, 0x11, 0xce, 0x11,
  0x11, 0x11, 0x11, 0x11, 0x11, 0x11, 0x11, 0x11, 0x11, 0x11, 0x11, 0x11,
  0x11, 0x11, 0x11, 0x11, 0x11, 0x11, 0x11, 0x11, 0x11, 0x11, 0x11, 0xce,
  0x11, 0x11, 0x11, 0x11, 0x11, 0x11, 0xce, 0xce, 0xce, 0x11, 0x11, 0x11,
  0xce, 0x11, 0x11, 0xce, 0x11, 0x11, 0x11, 0x11, 0x11, 0xce, 0x11, 0x11,
  0x11, 0xce, 0xce, 0x11, 0x11, 0x11, 0x11, 0xce, 0xce, 0x11, 0x11, 0x11,
  0xce, 0xce, 0xce, 0x11, 0xce, 0x11, 0x11, 0xce, 0x11, 0x11, 0x11, 0x11,
  0x11, 0x11, 0x11, 0x11, 0x11, 0x11, 0x11, 0x11, 0x11, 0x11, 0x11, 0x11,
  0x11, 0x11, 0x11, 0x11, 0x11, 0xce, 0x11, 0x11, 0x11, 0x11, 0x11, 0x11,
  0x11, 0x11, 0x11, 0x11, 0x11, 0x11, 0xce, 0x11, 0xce, 0x11, 0x11, 0x11,
  0x11, 0x11, 0xce, 0x11, 0x11, 0xce, 0xce, 0x11, 0x11, 0x11, 0x11, 0x11,
  0x11, 0x11, 0xce, 0x11, 0x11, 0x11, 0x11, 0xce, 0x11, 0x11, 0x11, 0x11,
  0xce, 0xce, 0x11, 0x11, 0x11, 0xce, 0x11, 0x11, 0x11, 0xce, 0x11, 0x11,
  0x11, 0xce, 0x11, 0x11, 0x11, 0x11, 0x11, 0x11, 0x11, 0x11, 0x11, 0x11,
  0xce, 0x11, 0x11, 0x11, 0x11, 0x11, 0x11, 0x11, 0x11, 0x11, 0x11, 0x11,
  0x11, 0x11, 0x11, 0x11, 0x11, 0x11, 0x11, 0x11, 0x11, 0x11, 0x11, 0x11,
  0x11, 0x11, 0x11, 0x11, 0xce, 0x11, 0x11, 0x11, 0x11, 0x11, 0x11, 0x11,
  0xce, 0x11, 0x11, 0x11, 0xce, 0x11, 0x11, 0x11, 0x11, 0x11, 0x11, 0x11,
  0x11, 0x11, 0x11, 0x11, 0x11, 0x11, 0xce, 0x11, 0x11, 0x11, 0x11, 0x11,
  0xce, 0x11, 0x11, 0xce, 0xce, 0x11, 0x11, 0x11, 0x11, 0x11, 0x11, 0x11,
  0x11, 0x11, 0xce, 0x11, 0x11, 0x11, 0xce, 0x11, 0x11, 0xce, 0x11, 0x11,
  0xce, 0x11, 0x11, 0x11, 0x11, 0x11, 0xce, 0x11, 0x11, 0x11, 0x11, 0xce,
  0x11, 0x11, 0x11, 0xce, 0x11, 0x11, 0x11, 0x11, 0xce, 0x11, 0x11, 0x11,
  0x11, 0xce, 0x11, 0x11, 0x11, 0x11, 0x11, 0xce, 0x11, 0x11, 0x11, 0x11,
  0x11, 0x11, 0x11, 0x11, 0x11, 0xce, 0x11, 0x11, 0x11, 0xce, 0x11, 0x11,
  0x11, 0x11, 0xce, 0x11, 0x11, 0x11, 0x11, 0x11, 0x11, 0xce, 0x11, 0x11,
  0xce, 0x11, 0x11, 0xce, 0xce, 0x11, 0x11, 0x11, 0xce, 0x11, 0x11, 0x11,
  0x11, 0x11, 0x11, 0x11, 0x11, 0xce, 0x11, 0x11, 0x11, 0xce, 0x11, 0x11,
  0x11, 0x11, 0xce, 0xce, 0x11, 0x11, 0x11, 0x11, 0x11, 0x11, 0xce, 0x11,
  0x11, 0xce, 0xce, 0x11, 0x11, 0x11, 0x11, 0x11, 0x11, 0x11, 0x11, 0x11,
  0x11, 0x11, 0x11, 0x11, 0xce, 0x11, 0x11, 0x11, 0x11, 0x11, 0x11, 0x11,
  0x11, 0x11, 0x11, 0x11, 0x11, 0x11, 0x11, 0x11, 0x11, 0x11, 0x11, 0x11,
  0x11, 0x11, 0x11, 0x11, 0x11, 0x11, 0x11, 0x11, 0xce, 0x11, 0xce, 0x11,
  0x11, 0x11, 0x11, 0xce, 0x11, 0xce, 0x11, 0x11, 0x11, 0x11, 0x11, 0x11,
  0x11, 0x11, 0x11, 0x11, 0x11, 0xce, 0x11, 0x11, 0x11, 0x11, 0x11, 0xce,
  0x11, 0x11, 0x11, 0x11, 0x11, 0x11, 0x11, 0x11, 0x11, 0x11, 0xce, 0x11,
  0x11, 0x11, 0x11, 0x11, 0x11, 0x11, 0x11, 0x11, 0x11, 0x11, 0xce, 0x11,
  0x11, 0x11, 0x11, 0xce, 0x11, 0x11, 0xce, 0x11, 0x11, 0x11, 0x11, 0x11,
  0x11, 0x11, 0x11, 0x11, 0x11, 0x11, 0x11, 0x11, 0xce, 0x11, 0x11, 0xce,
  0x11, 0x11, 0x11, 0x11, 0x11, 0x11, 0x11, 0x11, 0x11, 0x11, 0x11, 0x11,
  0x11, 0xce, 0x11, 0x11, 0xce, 0x11, 0x11, 0x11, 0x11, 0xce, 0x11, 0x11,
  0x11, 0x11, 0x11, 0x11, 0x11, 0x11, 0x11, 0xce, 0xce, 0x11, 0xce, 0x11,
  0x11, 0x11, 0x11, 0x11, 0xce, 0x11, 0x11, 0x11, 0x11, 0x11, 0x11, 0x11,
  0xce, 0x11, 0x11, 0x11, 0x11, 0xce, 0x11, 0x11, 0x11, 0x11, 0x11, 0x11,
  0x11, 0xce, 0x11, 0x11, 0x11, 0xce, 0x11, 0x11, 0x11, 0xce, 0x11, 0x11,
  0x11, 0x11, 0x11, 0x11, 0x11, 0x11, 0xce, 0x11, 0xce, 0x11, 0xce, 0x11,
  0xce, 0x11, 0x11, 0x11, 0x11, 0xce, 0xce, 0x11, 0x11, 0x11, 0x11, 0x11,
  0x11, 0x11, 0xce, 0x11, 0x11, 0x11, 0x11, 0x11, 0xce, 0x11, 0xce, 0x11,
  0x11, 0x11, 0x11, 0x11, 0x11, 0x11, 0x11, 0xce, 0x11, 0x11, 0x11, 0x11,
  0x11, 0x11, 0x11, 0xce, 0x11, 0x11, 0x11, 0x11, 0xce, 0x11, 0x11, 0x11,
  0x11, 0xce, 0x11, 0x11, 0x11, 0x11, 0x11, 0x11, 0x11, 0x11, 0x11, 0x11,
  0x11, 0x11, 0x11, 0x11, 0x11, 0x11, 0x11, 0x11, 0x11, 0x11, 0x11, 0xce,
  0xce, 0x11, 0x11, 0x11, 0x11, 0x11, 0x11, 0x11, 0x11, 0x11, 0x11, 0x11,
  0x11, 0xce, 0xce, 0xce, 0x11, 0x11, 0x11, 0x11, 0x11, 0x11, 0x11, 0x11,
  0x11, 0x11, 0x11, 0x11, 0x11, 0x11, 0xce, 0xce, 0x11, 0x11, 0x11, 0x11,
  0x11, 0x11, 0x11, 0x11, 0x11, 0x11, 0x11, 0x11, 0x11, 0x11, 0x11, 0x11,
  0xce, 0xce, 0x11, 0x11, 0x11, 0x11, 0x11, 0x11, 0x11, 0x11, 0x11, 0x11,
  0x11, 0xce, 0x11, 0x11, 0xce, 0xce, 0x11, 0x11, 0x11, 0x11, 0x11, 0x11,
  0x11, 0x11, 0xce, 0xce, 0x11, 0x11, 0x11, 0x11, 0x11, 0x11, 0xce, 0xce,
  0x11, 0x11, 0x11, 0x11, 0x11, 0xce, 0xce, 0xce, 0x11, 0xce, 0xce, 0x11,
  0x11, 0x11, 0x11, 0x11, 0x11, 0x11, 0x11, 0x11, 0xce, 0x11, 0x11, 0x11,
  0x11, 0x11, 0x11, 0x11, 0x11, 0x11, 0xce, 0x11, 0x11, 0xce, 0xce, 0x11,
  0x11, 0x11, 0x11, 0xce, 0x11, 0x11, 0x11, 0x11, 0x11, 0xce, 0x11, 0x11,
  0x11, 0x11, 0x11, 0x11, 0x11, 0x11, 0x11, 0x11, 0x11, 0xce, 0x11, 0x11,
  0x11, 0x11, 0xce, 0x11, 0x11, 0xce, 0x11, 0x11, 0x11, 0x11, 0x11, 0x11,
  0x11, 0x11, 0xce, 0xce, 0x11, 0x11, 0x11, 0x11, 0x11, 0x11, 0x11, 0x11,
  0x11, 0x11, 0x11, 0xce, 0x11, 0xce, 0x11, 0x11, 0x11, 0xce, 0x11, 0x11,
  0x11, 0x11, 0xce, 0xce, 0x11, 0x11, 0xce, 0x11, 0xce, 0x11, 0x11, 0x11,
  0xce, 0xce, 0xce, 0x11, 0x11, 0x11, 0x11, 0x11, 0x11, 0x11, 0x11, 0xce,
  0x11, 0x11, 0x11, 0x11, 0x11, 0x11, 0x11, 0x11, 0x11, 0x11, 0x11, 0x11,
  0xce, 0x11, 0x11, 0x11, 0xce, 0x11, 0x11, 0x11, 0x11, 0x11, 0xce, 0x11,
  0xce, 0x11, 0x11, 0x11, 0x11, 0x11, 0x11, 0x11, 0x11, 0x11, 0x11, 0x11,
  0x11, 0x11, 0xce, 0x11, 0x11, 0x11, 0x11, 0x11, 0xce, 0x11, 0x11, 0x11,
  0x11, 0x11, 0xce, 0x11, 0x11, 0x11, 0x11, 0x11, 0x11, 0x11, 0x11, 0x11,
  0x11, 0x11, 0x11, 0x11, 0x11, 0xce, 0x11, 0x11, 0xce, 0x11, 0x11, 0x11,
  0x11, 0x11, 0x11, 0xce, 0x11, 0x11, 0x11, 0x11, 0x11, 0x11, 0xce, 0x11,
  0x11, 0x11, 0x11, 0x11, 0x11, 0x11, 0x11, 0x11, 0x11, 0x11, 0x11, 0x11,
  0xce, 0x11, 0xce, 0x11, 0x11, 0x11, 0x11, 0x11, 0x11, 0x11, 0xce, 0x11,
  0x11, 0x11, 0x11, 0x11, 0x11, 0x11, 0x11, 0x11, 0x11, 0x11, 0x11, 0x11,
  0x11, 0x11, 0xce, 0xce, 0x11, 0x11, 0x11, 0x11, 0x11, 0x11, 0x11, 0xce,
  0x11, 0xce, 0x11, 0x11, 0x11, 0x11, 0x11, 0x11, 0x11, 0xce, 0x11, 0x11,
  0xce, 0x11, 0xce, 0x11, 0xce, 0x11, 0x11, 0x11, 0xce, 0x11, 0xce, 0x11,
  0x11, 0x11, 0x11, 0x11, 0x11, 0x11, 0x11, 0x11, 0x11, 0x11, 0x11, 0xce,
  0xce, 0x11, 0x11, 0x11, 0xce, 0x11, 0x11, 0xce, 0xce, 0x11, 0x11, 0x11,
  0xce, 0x11, 0xce, 0x11, 0x11, 0xce, 0x11, 0x11, 0x11, 0x11, 0x11, 0x11,
  0x11, 0x11, 0x11, 0x11, 0x11, 0x11, 0x11, 0x11, 0x11, 0x11, 0x11, 0x11,
  0x11, 0x11, 0x11, 0x11, 0x11, 0x11, 0xce, 0x11, 0x11, 0x11, 0x11, 0x11,
  0x11, 0x11, 0x11, 0x11, 0x11, 0xce, 0xce, 0x11, 0xce, 0x11, 0x11, 0xce,
  0x11, 0x11, 0x11, 0x11, 0x11, 0x11, 0x11, 0x11, 0x11, 0x11, 0x11, 0x11,
  0xce, 0x11, 0x11, 0x11, 0xce, 0x11, 0x11, 0x11, 0x11, 0x11, 0x11, 0x11,
  0x11, 0xce, 0x11, 0x11, 0x11, 0x11, 0x11, 0x11, 0x11, 0x11, 0x11, 0xce,
  0x11, 0xce, 0x11, 0x11, 0x11, 0x11, 0x11, 0x11, 0x11, 0xce, 0x11, 0x11,
  0x11, 0x11, 0x11, 0x11, 0x11, 0x11, 0x11, 0x11, 0x11, 0x11, 0x11, 0x11,
  0x11, 0x11, 0x11, 0x11, 0x11, 0x11, 0x11, 0x11, 0x11, 0x11, 0xce, 0x11,
  0x11, 0x11, 0x11, 0x11, 0x11, 0x11, 0x11, 0x11, 0x11, 0x11, 0xce, 0x11,
  0x11, 0x11, 0x11, 0x11, 0x11, 0x11, 0x11, 0xce, 0x11, 0x11, 0x11, 0x11,
  0x11, 0x11, 0xce, 0x11, 0x11, 0x11, 0x11, 0xce, 0x11, 0x11, 0x11, 0x11,
  0x11, 0x11, 0x11, 0x11, 0xce, 0x11, 0x11, 0xce, 0x11, 0x11, 0xce, 0xce,
  0x11, 0x11, 0xce, 0x11, 0x11, 0x11, 0x11, 0x11, 0x11, 0xce, 0x11, 0x11,
  0x11, 0xce, 0x11, 0x11, 0xce, 0x11, 0x11, 0x11, 0x11, 0x11, 0xce, 0x11,
  0x11, 0x11, 0x11, 0x11, 0x11, 0x11, 0x11, 0x11, 0x11, 0x11, 0x11, 0xce,
  0x11, 0x11, 0x11, 0x11, 0x11, 0xce, 0x11, 0x11, 0x11, 0x11, 0xce, 0x11,
  0x11, 0x11, 0x11, 0x11, 0xce, 0x11, 0xce, 0x11, 0x11, 0x11, 0x11, 0x11,
  0x11, 0x11, 0x11, 0x11, 0x11, 0x11, 0x11, 0x11, 0x11, 0xce, 0x11, 0x11,
  0x11, 0x11, 0x11, 0x11, 0x11, 0x11, 0x11, 0x11, 0x11, 0xce, 0x11, 0x11,
  0xce, 0x11, 0x11, 0x11, 0x11, 0xce, 0x11, 0x11, 0x11, 0x11, 0x11, 0x11,
  0x11, 0x11, 0x11, 0x11, 0x11, 0x11, 0x11, 0x11, 0x11, 0x11, 0x11, 0xce,
  0x11, 0xce, 0xce, 0xce, 0xce, 0x11, 0x11, 0x11, 0x11, 0xce, 0x11, 0x11,
  0x11, 0x11, 0x11, 0x11, 0x11, 0x11, 0x11, 0x11, 0x11, 0x11, 0xce, 0xce,
  0x11, 0xce, 0x11, 0x11, 0x11, 0x11, 0x11, 0x11, 0x11, 0x11, 0xce, 0x11,
  0x11, 0x11, 0xce, 0x11, 0xce, 0x11, 0x11, 0x11, 0x11, 0xce, 0x11, 0xce,
  0x11, 0x11, 0x11, 0xce, 0x11, 0x11, 0x11, 0x11, 0x11, 0x11, 0x11, 0x11,
  0x11, 0x11, 0x11, 0x11, 0x11, 0x11, 0xce, 0x11, 0x11, 0xce, 0x11, 0x11,
  0x11, 0x11, 0xce, 0x11, 0x11, 0x11, 0xce, 0x11, 0x11, 0x11, 0x11, 0x11,
  0x11, 0x11, 0x11, 0x11, 0x11, 0x11, 0x11, 0x11, 0x11, 0x11, 0x11, 0xce,
  0x11, 0x11, 0x11, 0x11, 0x11, 0x11, 0x11, 0x11, 0x11, 0x11, 0xce, 0xce,
  0xce, 0x11, 0x11, 0x11, 0x11, 0xce, 0x11, 0x11, 0x11, 0x11, 0x11, 0x11,
  0x11, 0x11, 0x11, 0x11, 0x11, 0x11, 0x11, 0x11, 0x11, 0x11, 0x11, 0x11,
  0xce, 0x11, 0x11, 0x11, 0x11, 0x11, 0x11, 0x11, 0x11, 0x11, 0x11, 0x11,
  0x11, 0x11, 0x11, 0x11, 0x11, 0x11, 0x11, 0xce, 0x11, 0xce, 0x11, 0x11,
  0xce, 0x11, 0x11, 0x11, 0x11, 0x11, 0x11, 0x11, 0x11, 0x11, 0x11, 0x11,
  0xce, 0x11, 0x11, 0x11, 0x11, 0x11, 0xce, 0x11, 0x11, 0x11, 0x11, 0x11,
  0x11, 0x11, 0x11, 0x11, 0x11, 0x11, 0x11, 0xce, 0x11, 0x11, 0x11, 0x11,
  0x11, 0x11, 0x11, 0x11, 0x11, 0x11, 0xce, 0xce, 0xce, 0x11, 0x11, 0x11,
  0x11, 0x11, 0x11, 0x11, 0x11, 0x11, 0x11, 0x11, 0x11, 0x11, 0x11, 0x11,
  0x11, 0x11, 0xce, 0x11, 0x11, 0x11, 0x11, 0x11, 0x11, 0x11, 0x11, 0x11,
  0x11, 0x11, 0x11, 0x11, 0xce, 0x11, 0x11, 0x11, 0x11, 0x11, 0xce, 0x11,
  0xce, 0x11, 0xce, 0x11, 0x11, 0x11, 0x11, 0x11, 0x11, 0x11, 0xce, 0x11,
  0x11, 0x11, 0x11, 0xce, 0x11, 0x11, 0x11, 0x11, 0x11, 0x11, 0x11, 0x11,
  0x11, 0x11, 0x11, 0x11, 0x11, 0x11, 0xce, 0x11, 0x11, 0x11, 0x11, 0xce,
  0x11, 0xce, 0x11, 0xce, 0x11, 0x11, 0x11, 0x11, 0x11, 0x11, 0x11, 0x11,
  0x11, 0xce, 0x11, 0xce, 0xce, 0x11, 0x11, 0x11, 0xce, 0x11, 0x11, 0x11,
  0x11, 0x11, 0x11, 0xce, 0x11, 0x11, 0x11, 0x11, 0x11, 0x11, 0xce, 0x11,
  0x11, 0x11, 0x11, 0x11, 0x11, 0x11, 0x11, 0x11, 0x11, 0x11, 0x11, 0xce,
  0x11, 0x11, 0x11, 0x11, 0x11, 0x11, 0xce, 0x11, 0x11, 0x11, 0x11, 0x11,
  0x11, 0x11, 0xce, 0x11, 0x11, 0xce, 0x11, 0x11, 0xce, 0x11, 0x11, 0x11,
  0x11, 0x11, 0x11, 0x11, 0x11, 0x11, 0x11, 0x11, 0x11, 0x11, 0x11, 0x11,
  0xce, 0x11, 0x11, 0x11, 0x11, 0x11, 0x11, 0xce, 0x11, 0x11, 0x11, 0x11,
  0xce, 0x11, 0x11, 0xce, 0x11, 0x11, 0x11, 0x11, 0x11, 0xce, 0x11, 0xce,
  0x11, 0x11, 0x11, 0x11, 0x11, 0x11, 0x11, 0x11, 0x11, 0x11, 0x11, 0x11,
  0x11, 0x11, 0x11, 0x11, 0x11, 0x11, 0x11, 0x11, 0x11, 0x11, 0x11, 0x11,
  0x11, 0x11, 0x11, 0x11, 0x11, 0x11, 0x11, 0x11, 0x11, 0x11, 0x11, 0x11,
  0x11, 0x11, 0x11, 0x11, 0x11, 0x11, 0x11, 0xce, 0x11, 0x11, 0x11, 0x11,
  0x11, 0x11, 0x11, 0x11, 0x11, 0x11, 0x11, 0xce, 0x11, 0x11, 0x11, 0x11,
  0x11, 0xce, 0xce, 0x11, 0x11, 0x11, 0x11, 0x11, 0x11, 0x11, 0x11, 0x11,
  0x11, 0x11, 0xce, 0x11, 0x11, 0x11, 0x11, 0xce, 0x11, 0x11, 0x11, 0x11,
  0x11, 0x11, 0x11, 0x11, 0xce, 0x11, 0x11, 0x11, 0x11, 0x11, 0x11, 0x11,
  0x11, 0x11, 0xce, 0x11, 0x11, 0x11, 0x11, 0xce, 0xce, 0xce, 0x11, 0x11,
  0xce, 0xce, 0x11, 0x11, 0x11, 0x11, 0x11, 0x11, 0x11, 0x11, 0x11, 0xce,
  0x11, 0x11, 0x11, 0xce, 0x11, 0x11, 0x11, 0xce, 0x11, 0x11, 0x11, 0x11,
  0x11, 0x11, 0xce, 0x11, 0x11, 0x11, 0xce, 0xce, 0x11, 0x11, 0x11, 0x11,
  0x11, 0x11, 0x11, 0x11, 0x11, 0x11, 0x11, 0x11, 0x11, 0x11, 0x11, 0x11,
  0x11, 0x11, 0x11, 0x11, 0x11, 0x11, 0xce, 0x11, 0x11, 0x11, 0x11, 0x11,
  0x11, 0x11, 0x11, 0xce, 0x11, 0x11, 0x11, 0x11, 0x11, 0x11, 0x11, 0x11,
  0x11, 0x11, 0x11, 0x11, 0x11, 0xce, 0x11, 0x11, 0x11, 0x11, 0x11, 0x11,
  0x11, 0x11, 0x11, 0x11, 0x11, 0x11, 0xce, 0x11, 0x11, 0x11, 0x11, 0x11,
  0xce, 0x11, 0x11, 0x11, 0x11, 0xce, 0x11, 0xce, 0xce, 0x11, 0x11, 0xce,
  0xce, 0x11, 0x11, 0x11, 0x11, 0x11, 0x11, 0x11, 0x11, 0x11, 0x11, 0x11,
  0x11, 0xce, 0x11, 0x11, 0x11, 0xce, 0x11, 0x11, 0x11, 0x11, 0x11, 0x11,
  0x11, 0x11, 0x11, 0x11, 0x11, 0x11, 0x11, 0x11, 0x11, 0x11, 0x11, 0x11,
  0x11, 0x11, 0x11, 0x11, 0x11, 0x11, 0x11, 0x11, 0x11, 0x11, 0x11, 0x11,
  0x11, 0x11, 0xce, 0x11, 0x11, 0x11, 0x11, 0xce, 0x11, 0xce, 0x11, 0x11,
  0xce, 0x11, 0x11, 0xce, 0x11, 0x11, 0x11, 0x11, 0xce, 0x11, 0x11, 0xce,
  0x11, 0x11, 0x11, 0x11, 0x11, 0x11, 0x11, 0x11, 0x11, 0x11, 0x11, 0x11,
  0x11, 0x11, 0xce, 0x11, 0x11, 0x11, 0x11, 0x11, 0x11, 0x11, 0x11, 0x11,
  0x11, 0x11, 0x11, 0xce, 0x11, 0x11, 0x11, 0x11, 0x11, 0x11, 0x11, 0x11,
  0x11, 0xce, 0x11, 0x11, 0x11, 0x11, 0x11, 0x11, 0x11, 0x11, 0x11, 0x11,
  0x11, 0x11, 0x11, 0xce, 0x11, 0xce, 0x11, 0x11, 0x11, 0x11, 0x11, 0x11,
  0x11, 0x11, 0x11, 0x11, 0x11, 0x11, 0x11, 0x11, 0x11, 0x11, 0xce, 0x11,
  0x11, 0x11, 0x11, 0x11, 0x11, 0x11, 0x11, 0x11, 0x11, 0x11, 0x11, 0x11,
  0x11, 0xce, 0x11, 0x11, 0x11, 0xce, 0x11, 0x11, 0x11, 0xce, 0x11, 0xce,
  0x11, 0x11, 0x11, 0xce, 0x11, 0xce, 0xce, 0x11, 0x11, 0x11, 0x11, 0x11,
  0x11, 0x11, 0x11, 0x11, 0x11, 0x11, 0x11, 0x11, 0x11, 0x11, 0x11, 0x11,
  0x11, 0xce, 0xce, 0x11, 0xce, 0x11, 0xce, 0x11, 0xce, 0xce, 0xce, 0x11,
  0x11, 0x11, 0x11, 0xce, 0x11, 0x11, 0x11, 0x11, 0x11, 0x11, 0x11, 0x11,
  0x11, 0xce, 0xce, 0x11, 0x11, 0x11, 0x11, 0xce, 0x11, 0x11, 0x11, 0xce,
  0x11, 0xce, 0x11, 0x11, 0x11, 0x11, 0x11, 0x11, 0x11, 0x11, 0x11, 0x11,
  0x11, 0x11, 0x11, 0x11, 0x11, 0x11, 0x11, 0x11, 0x11, 0x11, 0x11, 0x11,
  0x11, 0x11, 0x11, 0x11, 0x11, 0x11, 0x11, 0x11, 0x11, 0x11, 0xce, 0xce,
  0x11, 0x11, 0x11, 0x11, 0x11, 0x11, 0x11, 0x11, 0x11, 0x11, 0x11, 0x11,
  0x11, 0x11, 0x11, 0x11, 0xce, 0x11, 0x11, 0x11, 0xce, 0x11, 0x11, 0x11,
  0x11, 0x11, 0x11, 0x11, 0x11, 0x11, 0x11, 0xce, 0x11, 0x11, 0x11, 0x11,
  0x11, 0x11, 0x11, 0x11, 0x11, 0x11, 0x11, 0x11, 0x11, 0x11, 0x11, 0xce,
  0x11, 0x11, 0x11, 0x11, 0x11, 0x11, 0x11, 0x11, 0xce, 0x11, 0x11, 0x11,
  0x11, 0x11, 0x11, 0x11, 0x11, 0x11, 0x11, 0x11, 0x11, 0x11, 0x11, 0x11,
  0x11, 0x11, 0x11, 0xce, 0x11, 0x11, 0x11, 0x11, 0x11, 0x11, 0xce, 0x11,
  0x11, 0x11, 0x11, 0x11, 0x11, 0x11, 0x11, 0x11, 0xce, 0x11, 0x11, 0xce,
  0x11, 0x11, 0x11, 0x11, 0xce, 0x11, 0x11, 0xce, 0x11, 0x11, 0x11, 0x11,
  0x11, 0x11, 0x11, 0x11, 0x11, 0x11, 0x11, 0x11, 0x11, 0x11, 0x11, 0x11,
  0x11, 0x11, 0x11, 0x11, 0x11, 0x11, 0x11, 0x11, 0x11, 0x11, 0x11, 0x11,
  0x11, 0x11, 0x11, 0x11, 0x11, 0xce, 0x11, 0x11, 0x11, 0x11, 0x11, 0x11,
  0x11, 0x11, 0x11, 0x11, 0x11, 0x11, 0x11, 0x11, 0x11, 0x11, 0x11, 0x11,
  0x11, 0x11, 0x11, 0x11, 0xce, 0x11, 0x11, 0x11, 0x11, 0x11, 0x11, 0x11,
  0x11, 0x11, 0x11, 0x11, 0x11, 0x11, 0x11, 0x11, 0x11, 0x11, 0x11, 0x11,
  0x11, 0x11, 0x11, 0x11, 0x11, 0x11, 0x11, 0x11, 0x11, 0x11, 0x11, 0x11,
  0x11, 0x11, 0x11, 0xce, 0x11, 0x11, 0x11, 0x11, 0x11, 0x11, 0x11, 0xce,
  0x11, 0x11, 0x11, 0xce, 0xce, 0x11, 0x11, 0x11, 0x11, 0x11, 0x11, 0x11,
  0x11, 0x11, 0x11, 0x11, 0x11, 0x11, 0x11, 0x11, 0x11, 0xce, 0x11, 0x11,
  0x11, 0x11, 0x11, 0x11, 0xce, 0x11, 0x11, 0xce, 0x11, 0xce, 0x11, 0x11,
  0x11, 0x11, 0x11, 0x11, 0x11, 0x11, 0x11, 0x11, 0x11, 0x11, 0xce, 0x11,
  0x11, 0x11, 0x11, 0x11, 0x11, 0x11, 0x11, 0xce, 0x11, 0x11, 0xce, 0x11,
  0x11, 0x11, 0x11, 0x11, 0x11, 0x11, 0x11, 0x11, 0x11, 0x11, 0x11, 0xce,
  0x11, 0x11, 0x11, 0x11, 0x11, 0x11, 0xce, 0x11, 0x11, 0x11, 0xce, 0xce,
  0x11, 0x11, 0x11, 0x11, 0x11, 0x11, 0x11, 0x11, 0x11, 0x11, 0x11, 0x11,
  0x11, 0x11, 0x11, 0x11, 0x11, 0x11, 0x11, 0x11, 0x11, 0x11, 0x11, 0x11,
  0x11, 0x11, 0x11, 0x11, 0x11, 0x11, 0x11, 0x11, 0x11, 0x11, 0x11, 0x11,
  0x11, 0x11, 0x11, 0x11, 0x11, 0x11, 0x11, 0x11, 0x11, 0x11, 0x11, 0x11,
  0x11, 0x11, 0xce, 0x11, 0x11, 0x11, 0x11, 0x11, 0x11, 0x11, 0x11, 0x11,
  0x11, 0x11, 0x11, 0x11, 0x11, 0x11, 0x11, 0x11, 0x11, 0x11, 0x11, 0x11,
  0xce, 0x11, 0x11, 0xce, 0xce, 0x11, 0x11, 0x11, 0x11, 0x11, 0x11, 0x11,
  0x11, 0x11, 0x11, 0x11, 0x11, 0x11, 0x11, 0x11, 0xce, 0x11, 0x11, 0x11,
  0x11, 0x11, 0x11, 0x11, 0x11, 0x11, 0x11, 0x11, 0x11, 0x11, 0x11, 0x11,
  0x11, 0x11, 0x11, 0x11, 0x11, 0x11, 0x11, 0x11, 0x11, 0xce, 0x11, 0xce,
  0x11, 0x11, 0x11, 0x11, 0x11, 0x11, 0x11, 0x11, 0x11, 0xce, 0x11, 0x11,
  0x11, 0x11, 0x11, 0x11, 0x11, 0x11, 0x11, 0x11, 0x11, 0xce, 0x11, 0x11,
  0xce, 0x11, 0x11, 0x11, 0xce, 0x11, 0xce, 0xce, 0xce, 0x11, 0x11, 0x11,
  0x11, 0x11, 0x11, 0x11, 0x11, 0xce, 0xce, 0x11, 0x11, 0xce, 0x11, 0xce,
  0x11, 0x11, 0x11, 0x11, 0xce, 0xce, 0x11, 0xce, 0x11, 0xce, 0xce, 0xce,
  0x11, 0x11, 0xce, 0xce, 0x11, 0xce, 0x11, 0x11, 0x11, 0x11, 0x11, 0xce,
  0x11, 0xce, 0x11, 0xce, 0x11, 0xce, 0x11, 0x11, 0xce, 0x11, 0x11, 0xce,
  0x11, 0x11, 0x11, 0x11, 0x11, 0x11, 0x11, 0x11, 0x11, 0x11, 0x11, 0x11,
  0x11, 0x11, 0x11, 0x11, 0x11, 0xce, 0x11, 0xce, 0x11, 0x11, 0x11, 0x11,
  0x11, 0x11, 0x11, 0x11, 0x11, 0x11, 0x11, 0x11, 0x11, 0x11, 0x11, 0x11,
  0x11, 0x11, 0x11, 0x11, 0x11, 0x11, 0xce, 0x11, 0x11, 0x11, 0x11, 0x11,
  0x11, 0x11, 0x11, 0x11, 0x11, 0x11, 0xce, 0x11, 0x11, 0x11, 0x11, 0x11,
  0x11, 0x11, 0x11, 0x11, 0x11, 0x11, 0x11, 0x11, 0x11, 0x11, 0x11, 0xce,
  0x11, 0xce, 0x11, 0x11, 0x11, 0x11, 0x11, 0xce, 0x11, 0x11, 0x11, 0x11,
  0x11, 0x11, 0x11, 0x11, 0x11, 0x11, 0x11, 0xce, 0x11, 0x11, 0x11, 0x11,
  0x11, 0x11, 0xce, 0x11, 0x11, 0x11, 0x11, 0x11, 0x11, 0x11, 0x11, 0x11,
  0x11, 0x11, 0x11, 0x11, 0x11, 0x11, 0x11, 0x11, 0x11, 0x11, 0x11, 0x11,
  0x11, 0x11, 0x11, 0x11, 0x11, 0x11, 0x11, 0x11, 0x11, 0x11, 0x11, 0x11,
  0xce, 0x11, 0x11, 0xce, 0x11, 0x11, 0x11, 0x11, 0x11, 0x11, 0x11, 0xce,
  0x11, 0x11, 0x11, 0xce, 0x11, 0x11, 0xce, 0x11, 0x11, 0x11, 0x11, 0x11,
  0x11, 0x11, 0x11, 0xce, 0x11, 0x11, 0x11, 0x11, 0xce, 0x11, 0x11, 0x11,
  0x11, 0x11, 0x11, 0x11, 0x11, 0xce, 0x11, 0xce, 0xce, 0x11, 0x11, 0xce,
  0xce, 0xce, 0x11, 0x11, 0x11, 0xce, 0x11, 0x11, 0xce, 0xce, 0x11, 0xce,
  0xce, 0x11, 0x11, 0xce, 0x11, 0x11, 0x11, 0x11, 0x11, 0x11, 0x11, 0x11,
  0x11, 0x11, 0x11, 0xce, 0xce, 0xce, 0xce, 0xce, 0x11, 0x11, 0x11, 0xce,
  0x11, 0xce, 0xce, 0x11, 0xce, 0xce, 0xce, 0xce, 0xce, 0x11, 0x11, 0xce,
  0xce, 0x11, 0xce, 0x11, 0xce, 0x11, 0x11, 0x11, 0x11, 0x11, 0xce, 0xce,
  0x11, 0x11, 0x11, 0x11, 0xce, 0x11, 0xce, 0x11, 0xce, 0x11, 0x11, 0xce,
  0xce, 0x11, 0xce, 0xce, 0x11, 0x11, 0x11, 0x11, 0xce, 0x11, 0xce, 0x11,
  0x11, 0x11, 0x11, 0x11, 0xce, 0x11, 0x11, 0x11, 0x11, 0x11, 0x11, 0x11,
  0x11, 0x11, 0x11, 0x11, 0x11, 0x11, 0x11, 0x11, 0xce, 0xce, 0x11, 0xce,
  0x11, 0x11, 0x11, 0x11, 0x11, 0x11, 0x11, 0x11, 0x11, 0x11, 0x11, 0x11,
  0x11, 0x11, 0x11, 0x11, 0x11, 0x11, 0x11, 0x11, 0x11, 0xce, 0x11, 0x11,
  0x11, 0xce, 0xce, 0x11, 0x11, 0x11, 0x11, 0x11, 0xce, 0x11, 0xce, 0x11,
  0x11, 0x11, 0x11, 0x11, 0x11, 0x11, 0x11, 0x11, 0x11, 0x11, 0x11, 0xce,
  0xce, 0x11, 0x11, 0x11, 0x11, 0x11, 0x11, 0x11, 0x11, 0xce, 0x11, 0x11,
  0x11, 0xce, 0x11, 0x11, 0x11, 0xce, 0xce, 0x11, 0x11, 0x11, 0x11, 0x11,
  0x11, 0x11, 0xce, 0x11, 0x11, 0x11, 0x11, 0x11, 0x11, 0x11, 0x11, 0x11,
  0xce, 0x11, 0x11, 0x11, 0x11, 0x11, 0x11, 0x11, 0xce, 0xce, 0x11, 0x11,
  0x11, 0x11, 0x11, 0x11, 0x11, 0x11, 0x11, 0x11, 0x11, 0x11, 0x11, 0x11,
  0x11, 0x11, 0x11, 0xce, 0xce, 0x11, 0x11, 0x11, 0x11, 0xce, 0x11, 0x11,
  0x11, 0x11, 0xce, 0xce, 0x11, 0x11, 0x11, 0xce, 0x11, 0x11, 0x11, 0x11,
  0x11, 0x11, 0x11, 0x11, 0x11, 0x11, 0x11, 0x11, 0x11, 0x11, 0xce, 0x11,
  0xce, 0x11, 0x11, 0x11, 0xce, 0xce, 0x11, 0x11, 0x11, 0x11, 0x11, 0xce,
  0x11, 0x11, 0x11, 0x11, 0x11, 0x11, 0xce, 0xce, 0x11, 0x11, 0x11, 0x11,
  0x11, 0x11, 0x11, 0x11, 0x11, 0x11, 0x11, 0x11, 0x11, 0x11, 0x11, 0x11,
  0xce, 0x11, 0x11, 0x11, 0x11, 0x11, 0xce, 0x11, 0x11, 0xce, 0x11, 0xce,
  0xce, 0x11, 0x11, 0x11, 0x11, 0x11, 0x11, 0xce, 0x11, 0x11, 0x11, 0xce,
  0x11, 0x11, 0x11, 0x11, 0x11, 0x11, 0x11, 0x11, 0x11, 0x11, 0xce, 0x11,
  0x11, 0x11, 0x11, 0xce, 0x11, 0x11, 0x11, 0x11, 0xce, 0x11, 0x11, 0x11,
  0x11, 0x11, 0xce, 0x11, 0x11, 0x11, 0x11, 0x11, 0x11, 0x11, 0x11, 0x11,
  0x11, 0x11, 0x11, 0x11, 0x11, 0x11, 0x11, 0x11, 0x11, 0xce, 0x11, 0x11,
  0x11, 0x11, 0x11, 0x11, 0x11, 0x11, 0xce, 0x11, 0x11, 0x11, 0x11, 0xce,
  0x11, 0x11, 0x11, 0x11, 0x11, 0x11, 0x11, 0x11, 0x11, 0x11, 0x11, 0x11,
  0x11, 0x11, 0x11, 0xce, 0x11, 0x11, 0x11, 0x11, 0x11, 0x11, 0xce, 0x11,
  0x11, 0x11, 0x11, 0x11, 0x11, 0x11, 0x11, 0x11, 0xce, 0xce, 0x11, 0x11,
  0x11, 0x11, 0x11, 0xce, 0x11, 0xce, 0x11, 0x11, 0x11, 0x11, 0x11, 0x11,
  0x11, 0x11, 0x11, 0x11, 0x11, 0x11, 0x11, 0x11, 0x11, 0x11, 0x11, 0x11,
  0x11, 0x11, 0x11, 0xce, 0xce, 0x11, 0x11, 0x11, 0x11, 0x11, 0x11, 0x11,
  0x11, 0x11, 0x11, 0x11, 0x11, 0x11, 0x11, 0x11, 0x11, 0x11, 0x11, 0x11,
  0x11, 0xce, 0xce, 0x11, 0x11, 0xce, 0xce, 0x11, 0x11, 0x11, 0xce, 0x11,
  0x11, 0xce, 0xce, 0xce, 0x11, 0xce, 0x11, 0x11, 0x11, 0xce, 0x11, 0x11,
  0x11, 0xce, 0x11, 0x11, 0x11, 0x11, 0x11, 0x11, 0x11, 0x11, 0x11, 0x11,
  0x11, 0xce, 0x11, 0xce, 0x11, 0x11, 0x11, 0x11, 0x11, 0x11, 0x11, 0x11,
  0x11, 0x11, 0x11, 0xce, 0x11, 0x11, 0x11, 0x11, 0x11, 0x11, 0xce, 0x11,
  0x11, 0x11, 0x11, 0xce, 0x11, 0x11, 0x11, 0x11, 0x11, 0xce, 0x11, 0x11,
  0x11, 0x11, 0x11, 0x11, 0x11, 0x11, 0x11, 0x11, 0x11, 0x11, 0x11, 0x11,
  0x11, 0x11, 0xce, 0x11, 0xce, 0x11, 0x11, 0x11, 0x11, 0x11, 0x11, 0x11,
  0x11, 0x11, 0x11, 0x11, 0x11, 0x11, 0x11, 0x11, 0x11, 0x11, 0xce, 0x11,
  0xce, 0xce, 0x11, 0x11, 0x11, 0x11, 0x11, 0x11, 0x11, 0x11, 0x11, 0x11,
  0x11, 0x11, 0x11, 0x11, 0x11, 0x11, 0x11, 0x11, 0x11, 0x11, 0x11, 0x11,
  0x11, 0x11, 0x11, 0x11, 0x11, 0x11, 0x11, 0x11, 0x11, 0x11, 0x11, 0x11,
  0x11, 0x11, 0x11, 0x11, 0x11, 0x11, 0x11, 0x11, 0x11, 0x11, 0x11, 0x11,
  0x11, 0x11, 0x11, 0x11, 0x11, 0x11, 0x11, 0x11, 0x11, 0x11, 0x11, 0x11,
  0x11, 0x11, 0x11, 0x11, 0x11, 0x11, 0x11, 0x11, 0x11, 0x11, 0x11, 0x11,
  0x11, 0x11, 0x11, 0x11, 0x11, 0x11, 0x11, 0x11, 0x11, 0x11, 0x11, 0xce,
  0x11, 0x11, 0x11, 0x11, 0x11, 0x11, 0xce, 0x11, 0x11, 0x11, 0x11, 0x11,
  0x11, 0x11, 0x11, 0x11, 0x11, 0x11, 0x11, 0x11, 0x11, 0xce, 0x11, 0x11,
  0x11, 0x11, 0x11, 0x11, 0xce, 0x11, 0x11, 0x11, 0x11, 0x11, 0x11, 0xce,
  0x11, 0xce, 0x11, 0x11, 0x11, 0x11, 0x11, 0x11, 0x11, 0x11, 0x11, 0xce,
  0x11, 0x11, 0xce, 0x11, 0x11, 0x11, 0xce, 0x11, 0x11, 0x11, 0x11, 0x11,
  0xce, 0xce, 0x11, 0x11, 0x11, 0x11, 0x11, 0x11, 0x11, 0x11, 0xce, 0x11,
  0x11, 0x11, 0x11, 0x11, 0x11, 0x11, 0x11, 0xce, 0x11, 0x11, 0xce, 0x11,
  0x11, 0xce, 0x11, 0x11, 0x11, 0x11, 0x11, 0x11, 0x11, 0xce, 0x11, 0x11,
  0xce, 0x11, 0x11, 0x11, 0x11, 0x11, 0x11, 0x11, 0x11, 0x11, 0x11, 0x11,
  0xce, 0x11, 0x11, 0xce, 0x11, 0x11, 0x11, 0x11, 0x11, 0x11, 0x11, 0x11,
  0x11, 0x11, 0x11, 0x11, 0x11, 0xce, 0x11, 0x11, 0x11, 0x11, 0x11, 0x11,
  0x11, 0x11, 0x11, 0xce, 0x11, 0x11, 0x11, 0x11, 0xce, 0x11, 0x11, 0x11,
  0xce, 0x11, 0xce, 0x11, 0x11, 0x11, 0x11, 0x11, 0x11, 0x11, 0xce, 0x11,
  0x11, 0xce, 0x11, 0xce, 0x11, 0x11, 0x11, 0x11, 0x11, 0x11, 0x11, 0x11,
  0x11, 0x11, 0x11, 0x11, 0x11, 0x11, 0x11, 0x11, 0x11, 0x11, 0x11, 0x11,
  0x11, 0x11, 0x11, 0x11, 0x11, 0x11, 0x11, 0x11, 0x11, 0x11, 0x11, 0x11,
  0xce, 0x11, 0x11, 0x11, 0x11, 0x11, 0xce, 0xce, 0xce, 0x11, 0x11, 0x11,
  0x11, 0x11, 0x11, 0x11, 0x11, 0x11, 0x11, 0xce, 0x11, 0x11, 0x11, 0x11,
  0x11, 0x11, 0x11, 0x11, 0x11, 0x11, 0x11, 0x11, 0x11, 0x11, 0x11, 0x11,
  0x11, 0x11, 0x11, 0x11, 0x11, 0x11, 0x11, 0x11, 0x11, 0x11, 0x11, 0x11,
  0x11, 0x11, 0x11, 0x11, 0x11, 0x11, 0xce, 0xce, 0x11, 0x11, 0x11, 0x11,
  0x11, 0x11, 0x11, 0x11, 0x11, 0x11, 0x11, 0x11, 0x11, 0x11, 0x11, 0x11,
  0x11, 0x11, 0x11, 0x11, 0xce, 0x11, 0x11, 0xce, 0x11, 0x11, 0x11, 0x11,
  0xce, 0x11, 0xce, 0xce, 0x11, 0x11, 0x11, 0x11, 0xce, 0xce, 0x11, 0xce,
  0x11, 0x11, 0x11, 0x11, 0x11, 0x11, 0xce, 0x11, 0x11, 0x11, 0x11, 0x11,
  0x11, 0x11, 0x11, 0x11, 0x11, 0x11, 0x11, 0x11, 0x11, 0x11, 0x11, 0x11,
  0x11, 0x11, 0x11, 0x11, 0xce, 0x11, 0x11, 0x11, 0x11, 0x11, 0x11, 0x11,
  0x11, 0xce, 0x11, 0xce, 0xce, 0x11, 0x11, 0x11, 0x11, 0x11, 0x11, 0xce,
  0x11, 0xce, 0x11, 0x11, 0xce, 0x11, 0xce, 0x11, 0x11, 0x11, 0x11, 0x11,
  0x11, 0xce, 0x11, 0xce, 0x11, 0x11, 0x11, 0x11, 0xce, 0x11, 0xce, 0x11,
  0x11, 0xce, 0xce, 0x11, 0x11, 0x11, 0x11, 0xce, 0x11, 0x11, 0x11, 0x11,
  0x11, 0x11, 0x11, 0x11, 0x11, 0x11, 0xce, 0x11, 0x11, 0x11, 0x11, 0x11,
  0x11, 0x11, 0xce, 0x11, 0x11, 0x11, 0x11, 0x11, 0x11, 0x11, 0x11, 0x11,
  0x11, 0x11, 0x11, 0x11, 0x11, 0x11, 0xce, 0x11, 0x11, 0x11, 0x11, 0x11,
  0x11, 0x11, 0x11, 0x11, 0x11, 0xce, 0x11, 0x11, 0x11, 0x11, 0x11, 0x11,
  0x11, 0x11, 0x11, 0x11, 0x11, 0xce, 0x11, 0x11, 0x11, 0x11, 0x11, 0x11,
  0x11, 0x11, 0x11, 0x11, 0x11, 0xce, 0x11, 0x11, 0x11, 0x11, 0x11, 0x11,
  0x11, 0x11, 0x11, 0x11, 0x11, 0x11, 0x11, 0x11, 0x11, 0x11, 0x11, 0x11,
  0x11, 0x11, 0x11, 0x11, 0x11, 0x11, 0x11, 0x11, 0x11, 0xce, 0x11, 0x11,
  0xce, 0x11, 0x11, 0x11, 0x11, 0x11, 0x11, 0x11, 0x11, 0x11, 0x11, 0x11,
  0x11, 0x11, 0x11, 0x11, 0x11, 0x11, 0x11, 0x11, 0x11, 0x11, 0x11, 0x11,
  0xce, 0x11, 0x11, 0x11, 0x11, 0x11, 0x11, 0x11, 0x11, 0x11, 0x11, 0x11,
  0x11, 0x11, 0xce, 0x11, 0x11, 0x11, 0x11, 0x11, 0x11, 0x11, 0x11, 0x11,
  0x11, 0x11, 0x11, 0xce, 0xce, 0x11, 0x11, 0x11, 0x11, 0x11, 0x11, 0x11,
  0x11, 0x11, 0x11, 0x11, 0x11, 0x11, 0x11, 0x11, 0x11, 0x11, 0x11, 0x11,
  0x11, 0x11, 0x11, 0x11, 0xce, 0x11, 0xce, 0x11, 0x11, 0x11, 0x11, 0x11,
  0x11, 0xce, 0xce, 0x11, 0x11, 0x11, 0x11, 0xce, 0x11, 0x11, 0x11, 0x11,
  0x11, 0x11, 0x11, 0x11, 0x11, 0x11, 0xce, 0x11, 0x11, 0x11, 0x11, 0x11,
  0x11, 0xce, 0x11, 0x11, 0x11, 0x11, 0xce, 0x11, 0x11, 0x11, 0xce, 0x11,
  0x11, 0x11, 0x11, 0xce, 0x11, 0x11, 0xce, 0x11, 0xce, 0x11, 0xce, 0x11,
  0x11, 0x11, 0xce, 0x11, 0x11, 0x11, 0x11, 0x11, 0x11, 0x11, 0x11, 0x11,
  0x11, 0x11, 0xce, 0x11, 0x11, 0x11, 0x11, 0x11, 0x11, 0xce, 0x11, 0x11,
  0x11, 0x11, 0x11, 0x11, 0x11, 0x11, 0x11, 0x11, 0x11, 0x11, 0x11, 0x11,
  0x11, 0x11, 0x11, 0x11, 0x11, 0x11, 0x11, 0x11, 0x11, 0x11, 0xce, 0x11,
  0x11, 0x11, 0x11, 0x11, 0x11, 0x11, 0x11, 0x11, 0x11, 0x11, 0x11, 0x11,
  0x11, 0x11, 0x11, 0x11, 0x11, 0x11, 0x11, 0x11, 0x11, 0x11, 0x11, 0x11,
  0x11, 0x11, 0x11, 0x11, 0x11, 0x11, 0x11, 0x11, 0x11, 0x11, 0x11, 0x11,
  0x11, 0x11, 0x11, 0x11, 0x11, 0x11, 0x11, 0x11, 0x11, 0x11, 0x11, 0x11,
  0xce, 0x11, 0x11, 0xce, 0x11, 0x11, 0x11, 0x11, 0x11, 0x11, 0x11, 0x11,
  0x11, 0x11, 0x11, 0x11, 0xce, 0x11, 0x11, 0x11, 0xce, 0xce, 0x11, 0x11,
  0x11, 0x11, 0x11, 0xce, 0x11, 0x11, 0x11, 0xce, 0xce, 0xce, 0x11, 0x11,
  0xce, 0xce, 0x11, 0x11, 0x11, 0x11, 0x11, 0x11, 0xce, 0x11, 0x11, 0x11,
  0x11, 0x11, 0x11, 0x11, 0x11, 0x11, 0xce, 0xce, 0x11, 0x11, 0x11, 0x11,
  0x11, 0x11, 0x11, 0x11, 0xce, 0x11, 0x11, 0x11, 0x11, 0x11, 0xce, 0x11,
  0x11, 0xce, 0x11, 0x11, 0x11, 0x11, 0x11, 0x11, 0x11, 0x11, 0x11, 0xce,
  0x11, 0x11, 0x11, 0x11, 0x11, 0x11, 0x11, 0xce, 0x11, 0x11, 0x11, 0x11,
  0xce, 0xce, 0x11, 0x11, 0x11, 0x11, 0xce, 0x11, 0xce, 0x11, 0xce, 0x11,
  0x11, 0x11, 0x11, 0x11, 0x11, 0x11, 0x11, 0x11, 0x11, 0x11, 0xce, 0x11,
  0xce, 0x11, 0x11, 0x11, 0x11, 0x11, 0x11, 0x11, 0x11, 0xce, 0x11, 0x11,
  0x11, 0x11, 0x11, 0x11, 0x11, 0x11, 0x11, 0x11, 0x11, 0x11, 0x11, 0xce,
  0xce, 0x11, 0x11, 0x11, 0xce, 0x11, 0x11, 0x11, 0xce, 0x11, 0x11, 0xce,
  0x11, 0xce, 0x11, 0x11, 0x11, 0x11, 0xce, 0x11, 0x11, 0x11, 0x11, 0x11,
  0x11, 0x11, 0x11, 0x11, 0x11, 0x11, 0x11, 0x11, 0x11, 0x11, 0x11, 0x11,
  0x11, 0x11, 0x11, 0x11, 0x11, 0x11, 0x11, 0x11, 0x11, 0x11, 0x11, 0x11,
  0x11, 0x11, 0x11, 0x11, 0x11, 0x11, 0x11, 0x11, 0x11, 0x11, 0x11, 0x11,
  0x11, 0x11, 0x11, 0x11, 0x11, 0x11, 0x11, 0x11, 0x11, 0x11, 0x11, 0x11,
  0x11, 0x11, 0xce, 0x11, 0x11, 0x11, 0x11, 0x11, 0x11, 0x11, 0x11, 0x11,
  0x11, 0x11, 0x11, 0x11, 0x11, 0x11, 0x11, 0x11, 0x11, 0x11, 0x11, 0x11,
  0x11, 0x11, 0x11, 0xce, 0x11, 0x11, 0x11, 0x11, 0x11, 0x11, 0x11, 0x11,
  0x11, 0x11, 0x11, 0x11, 0x11, 0x11, 0x11, 0x11, 0x11, 0x11, 0x11, 0x11,
  0xce, 0x11, 0x11, 0xce, 0x11, 0x11, 0x11, 0x11, 0xce, 0x11, 0x11, 0xce,
  0x11, 0x11, 0x11, 0x11, 0x11, 0x11, 0x11, 0x11, 0x11, 0x11, 0xce, 0x11,
  0x11, 0x11, 0x11, 0x11, 0x11, 0x11, 0x11, 0x11, 0x11, 0x11, 0x11, 0xce,
  0x11, 0x11, 0x11, 0x11, 0x11, 0x11, 0x11, 0x11, 0x11, 0xce, 0x11, 0xce,
  0x11, 0xce, 0x11, 0x11, 0x11, 0x11, 0xce, 0x11, 0xce, 0x11, 0x11, 0x11,
  0x11, 0x11, 0x11, 0x11, 0x11, 0xce, 0x11, 0x11, 0x11, 0xce, 0x11, 0x11,
  0x11, 0x11, 0x11, 0x11, 0x11, 0x11, 0x11, 0x11, 0xce, 0xce, 0xce, 0x11,
  0x11, 0xce, 0x11, 0x11, 0x11, 0x11, 0xce, 0x11, 0x11, 0xce, 0x11, 0x11,
  0xce, 0x11, 0x11, 0x11, 0x11, 0x11, 0xce, 0x11, 0x11, 0x11, 0x11, 0x11,
  0x11, 0x11, 0x11, 0x11, 0x11, 0x11, 0x11, 0x11, 0x11, 0x11, 0xce, 0x11,
  0x11, 0x11, 0xce, 0x11, 0x11, 0xce, 0x11, 0x11, 0x11, 0x11, 0xce, 0x11,
  0x11, 0x11, 0x11, 0x11, 0x11, 0x11, 0x11, 0x11, 0x11, 0xce, 0x11, 0x11,
  0x11, 0x11, 0xce, 0x11, 0x11, 0x11, 0x11, 0x11, 0x11, 0x11, 0x11, 0x11,
  0x11, 0x11, 0x11, 0x11, 0x11, 0x11, 0xce, 0x11, 0x11, 0x11, 0x11, 0x11,
  0x11, 0x11, 0x11, 0x11, 0x11, 0x11, 0x11, 0x11, 0x11, 0x11, 0x11, 0x11,
  0xce, 0x11, 0x11, 0x11, 0x11, 0x11, 0x11, 0x11, 0x11, 0x11, 0x11, 0x11,
  0x11, 0x11, 0x11, 0x11, 0x11, 0x11, 0x11, 0x11, 0x11, 0x11, 0x11, 0x11,
  0x11, 0x11, 0x11, 0x11, 0x11, 0x11, 0x11, 0x11, 0x11, 0x11, 0x11, 0xce,
  0xce, 0x11, 0x11, 0x11, 0x11, 0x11, 0x11, 0x11, 0x11, 0x11, 0x11, 0x11,
  0x11, 0x11, 0x11, 0x11, 0x11, 0x11, 0x11, 0x11, 0x11, 0x11, 0x11, 0x11,
  0x11, 0x11, 0x11, 0x11, 0x11, 0x11, 0x11, 0x11, 0xce, 0x11, 0x11, 0x11,
  0x11, 0x11, 0x11, 0x11, 0x11, 0x11, 0x11, 0x11, 0x11, 0x11, 0x11, 0x11,
  0xce, 0x11, 0x11, 0x11, 0x11, 0x11, 0xce, 0xce, 0xce, 0x11, 0x11, 0x11,
  0x11, 0xce, 0x11, 0x11, 0xce, 0x11, 0x11, 0x11, 0x11, 0x11, 0x11, 0x11,
  0x11, 0x11, 0x11, 0x11, 0x11, 0x11, 0x11, 0x11, 0x11, 0xce, 0xce, 0x11,
  0x11, 0xce, 0xce, 0x11, 0x11, 0x11, 0x11, 0x11, 0x11, 0x11, 0x11, 0xce,
  0x11, 0x11, 0xce, 0x11, 0x11, 0xce, 0x11, 0x11, 0x11, 0x11, 0x11, 0x11,
  0x11, 0x11, 0x11, 0x11, 0x11, 0x11, 0x11, 0x11, 0xce, 0x11, 0xce, 0xce,
  0x11, 0x11, 0x11, 0x11, 0x11, 0x11, 0x11, 0x11, 0x11, 0x11, 0x11, 0x11,
  0x11, 0x11, 0x11, 0x11, 0x11, 0x11, 0x11, 0x11, 0x11, 0x11, 0xce, 0x11,
  0x11, 0x11, 0x11, 0x11, 0x11, 0x11, 0x11, 0x11, 0x11, 0xce, 0x11, 0x11,
  0x11, 0x11, 0x11, 0x11, 0x11, 0x11, 0x11, 0x11, 0x11, 0x11, 0x11, 0xce,
  0x11, 0x11, 0x11, 0x11, 0x11, 0x11, 0x11, 0x11, 0x11, 0xce, 0x11, 0xce,
  0x11, 0x11, 0x11, 0x11, 0x11, 0x11, 0x11, 0xce, 0x11, 0x11, 0x11, 0x11,
  0x11, 0x11, 0x11, 0x11, 0x11, 0x11, 0x11, 0x11, 0x11, 0x11, 0x11, 0x11,
  0x11, 0xce, 0xce, 0x11, 0x11, 0x11, 0x11, 0x11, 0xce, 0x11, 0x11, 0xce,
  0xce, 0x11, 0x11, 0x11, 0x11, 0xce, 0xce, 0x11, 0xce, 0x11, 0x11, 0xce,
  0xce, 0x11, 0x11, 0x11, 0x11, 0xce, 0x11, 0x11, 0x11, 0xce, 0x11, 0xce,
  0xce, 0x11, 0x11, 0x11, 0xce, 0x11, 0x11, 0xbc, 0x11, 0x11, 0x11, 0x11,
  0x11, 0xce, 0xce, 0x11, 0xce, 0xce, 0xce, 0x11, 0xce, 0xce, 0x11, 0xce,
  0x11, 0x11, 0x11, 0x11, 0xce, 0x11, 0x11, 0x11, 0x11, 0x11, 0x11, 0xce,
  0x11, 0x11, 0xce, 0xce, 0xce, 0x11, 0x11, 0xce, 0x11, 0xce, 0xce, 0x11,
  0xce, 0x11, 0x11, 0x11, 0xce, 0xce, 0xce, 0x11, 0x11, 0x11, 0x11, 0xce,
  0x11, 0xce, 0x11, 0xce, 0xce, 0x11, 0x11, 0xce, 0xce, 0x11, 0x11, 0xce,
  0xce, 0x11, 0x11, 0x11, 0xce, 0x11, 0x11, 0x11, 0xce, 0x11, 0x11, 0x11,
  0x11, 0xce, 0xce, 0xce, 0xce, 0x11, 0xce, 0x11, 0xce, 0xce, 0x11, 0xce,
  0x11, 0xce, 0x11, 0x11, 0x11, 0x11, 0x11, 0xce, 0x11, 0x11, 0x11, 0x11,
  0x11, 0x11, 0x11, 0x11, 0x11, 0xce, 0x11, 0x11, 0x11, 0x11, 0x11, 0x11,
  0x11, 0x11, 0x11, 0x11, 0x11, 0xce, 0x11, 0x11, 0x11, 0xce, 0x11, 0xce,
  0x11, 0x11, 0x11, 0x11, 0x11, 0x11, 0x11, 0x11, 0x11, 0x11, 0x11, 0x11,
  0x11, 0x11, 0x11, 0x11, 0x11, 0x11, 0x11, 0xce, 0x11, 0x11, 0x11, 0x11,
  0x11, 0x11, 0x11, 0x11, 0x11, 0xce, 0x11, 0x11, 0xce, 0x11, 0x11, 0xce,
  0xce, 0x11, 0xce, 0xce, 0x11, 0x11, 0x11, 0x11, 0x11, 0x11, 0x11, 0x11,
  0xce, 0xce, 0x11, 0x11, 0x11, 0x11, 0x11, 0x11, 0x11, 0xce, 0x11, 0x11,
  0x11, 0x11, 0x11, 0x11, 0x11, 0x11, 0x11, 0xce, 0xce, 0x11, 0x11, 0x11,
  0x11, 0x11, 0xce, 0x11, 0x11, 0x11, 0x11, 0xce, 0x11, 0x11, 0x11, 0x11,
  0xce, 0x11, 0x11, 0x11, 0x11, 0x11, 0x11, 0x11, 0x11, 0x11, 0xce, 0x11,
  0x11, 0x11, 0xce, 0xce, 0x11, 0x11, 0xce, 0x11, 0x11, 0x11, 0xce, 0x11,
  0x11, 0x11, 0xce, 0x11, 0x11, 0x11, 0x11, 0x11, 0xbc, 0xce, 0xce, 0x11,
  0x11, 0x11, 0x11, 0x11, 0x11, 0x11, 0xce, 0x11, 0xce, 0x11, 0x11, 0xce,
  0x11, 0x11, 0xce, 0x11, 0x11, 0x11, 0xce, 0x11, 0x11, 0x11, 0xce, 0x11,
  0x11, 0xce, 0x11, 0x11, 0x11, 0x11, 0x11, 0x11, 0xce, 0x11, 0x11, 0x11,
  0x11, 0x11, 0x11, 0x11, 0x11, 0x11, 0xce, 0x11, 0x11, 0x11, 0xce, 0x11,
  0x11, 0xce, 0x11, 0x11, 0x11, 0x11, 0xce, 0x11, 0x11, 0x11, 0x11, 0x11,
  0x11, 0x11, 0xce, 0x11, 0x11, 0x11, 0xce, 0x11, 0x11, 0x11, 0x11, 0x11,
  0x11, 0x11, 0x11, 0x11, 0x11, 0x11, 0x11, 0x11, 0x11, 0x11, 0xce, 0xce,
  0x11, 0x11, 0x11, 0x11, 0xce, 0x11, 0x11, 0x11, 0xce, 0xce, 0xce, 0x11,
  0xce, 0x11, 0x11, 0x11, 0x11, 0xce, 0x11, 0x11, 0x11, 0x11, 0x11, 0x11,
  0x11, 0x11, 0x11, 0x11, 0x11, 0x11, 0x11, 0x11, 0x11, 0x11, 0x11, 0x11,
  0x11, 0x11, 0x11, 0xce, 0xce, 0xce, 0xce, 0xce, 0x11, 0xce, 0x11, 0x11,
  0xce, 0xce, 0x11, 0x11, 0x11, 0x11, 0xce, 0xce, 0xce, 0x11, 0x11, 0x11,
