#ifndef ANN_PRUNED_H
#define ANN_PRUNED_H


unsigned int ANN_pruned_len = 15736;
unsigned char ANN_pruned[] = {
 0x20, 0x00, 0x00, 0x00, 0x54, 0x46, 0x4c, 0x33, 0x00, 0x00, 0x00, 0x00,
  0x14, 0x00, 0x20, 0x00, 0x04, 0x00, 0x08, 0x00, 0x0c, 0x00, 0x10, 0x00,
  0x14, 0x00, 0x00, 0x00, 0x18, 0x00, 0x1c, 0x00, 0x14, 0x00, 0x00, 0x00,
  0x03, 0x00, 0x00, 0x00, 0x18, 0x00, 0x00, 0x00, 0x28, 0x00, 0x00, 0x00,
  0x54, 0x01, 0x00, 0x00, 0x28, 0x00, 0x00, 0x00, 0xfc, 0x00, 0x00, 0x00,
  0x6c, 0x00, 0x00, 0x00, 0x04, 0x00, 0x00, 0x00, 0x7c, 0x36, 0x00, 0x00,
  0xb8, 0x30, 0x00, 0x00, 0xa8, 0x02, 0x00, 0x00, 0x10, 0x02, 0x00, 0x00,
  0x01, 0x00, 0x00, 0x00, 0x50, 0x01, 0x00, 0x00, 0x12, 0x00, 0x00, 0x00,
  0x14, 0x3d, 0x00, 0x00, 0x10, 0x3d, 0x00, 0x00, 0x9c, 0x3b, 0x00, 0x00,
  0x28, 0x3b, 0x00, 0x00, 0xc0, 0x38, 0x00, 0x00, 0x5c, 0x37, 0x00, 0x00,
  0xfc, 0x3c, 0x00, 0x00, 0x54, 0x31, 0x00, 0x00, 0xf4, 0x3c, 0x00, 0x00,
  0x74, 0x0f, 0x00, 0x00, 0xec, 0x3c, 0x00, 0x00, 0xa8, 0x05, 0x00, 0x00,
  0xe4, 0x3c, 0x00, 0x00, 0xc8, 0x03, 0x00, 0x00, 0xdc, 0x3c, 0x00, 0x00,
  0xd8, 0x3c, 0x00, 0x00, 0xd4, 0x3c, 0x00, 0x00, 0xc4, 0x00, 0x00, 0x00,
  0x01, 0x00, 0x00, 0x00, 0x10, 0x00, 0x00, 0x00, 0x00, 0x00, 0x0a, 0x00,
  0x10, 0x00, 0x0c, 0x00, 0x08, 0x00, 0x04, 0x00, 0x0a, 0x00, 0x00, 0x00,
  0x0c, 0x00, 0x00, 0x00, 0x1c, 0x00, 0x00, 0x00, 0x20, 0x00, 0x00, 0x00,
  0x0f, 0x00, 0x00, 0x00, 0x73, 0x65, 0x72, 0x76, 0x69, 0x6e, 0x67, 0x5f,
  0x64, 0x65, 0x66, 0x61, 0x75, 0x6c, 0x74, 0x00, 0x01, 0x00, 0x00, 0x00,
  0x14, 0x00, 0x00, 0x00, 0x01, 0x00, 0x00, 0x00, 0x2c, 0x00, 0x00, 0x00,
  0x08, 0x00, 0x0c, 0x00, 0x08, 0x00, 0x04, 0x00, 0x08, 0x00, 0x00, 0x00,
  0x0f, 0x00, 0x00, 0x00, 0x04, 0x00, 0x00, 0x00, 0x0e, 0x00, 0x00, 0x00,
  0x71, 0x75, 0x61, 0x6e, 0x74, 0x5f, 0x64, 0x65, 0x6e, 0x73, 0x65, 0x5f,
  0x31, 0x31, 0x00, 0x00, 0x1a, 0xc5, 0xff, 0xff, 0x04, 0x00, 0x00, 0x00,
  0x0d, 0x00, 0x00, 0x00, 0x64, 0x65, 0x6e, 0x73, 0x65, 0x5f, 0x38, 0x5f,
  0x69, 0x6e, 0x70, 0x75, 0x74, 0x00, 0x00, 0x00, 0x01, 0x00, 0x00, 0x00,
  0x0c, 0x00, 0x00, 0x00, 0x08, 0x00, 0x0c, 0x00, 0x04, 0x00, 0x08, 0x00,
  0x08, 0x00, 0x00, 0x00, 0x08, 0x00, 0x00, 0x00, 0x11, 0x00, 0x00, 0x00,
  0x13, 0x00, 0x00, 0x00, 0x6d, 0x69, 0x6e, 0x5f, 0x72, 0x75, 0x6e, 0x74,
  0x69, 0x6d, 0x65, 0x5f, 0x76, 0x65, 0x72, 0x73, 0x69, 0x6f, 0x6e, 0x00,
  0x6a, 0xc5, 0xff, 0xff, 0x04, 0x00, 0x00, 0x00, 0x10, 0x00, 0x00, 0x00,
  0x31, 0x2e, 0x31, 0x34, 0x2e, 0x30, 0x00, 0x00, 0x00, 0x00, 0x00, 0x00,
  0x00, 0x00, 0x00, 0x00, 0x0f, 0x00, 0x00, 0x00, 0x4d, 0x4c, 0x49, 0x52,
  0x20, 0x43, 0x6f, 0x6e, 0x76, 0x65, 0x72, 0x74, 0x65, 0x64, 0x2e, 0x00,
  0x00, 0x00, 0x0e, 0x00, 0x18, 0x00, 0x04, 0x00, 0x08, 0x00, 0x0c, 0x00,
  0x10, 0x00, 0x14, 0x00, 0x0e, 0x00, 0x00, 0x00, 0x14, 0x00, 0x00, 0x00,
  0x54, 0x00, 0x00, 0x00, 0x58, 0x00, 0x00, 0x00, 0x5c, 0x00, 0x00, 0x00,
  0x78, 0x00, 0x00, 0x00, 0x10, 0x00, 0x00, 0x00, 0x54, 0x3b, 0x00, 0x00,
  0xd8, 0x3a, 0x00, 0x00, 0xd8, 0x39, 0x00, 0x00, 0x6c, 0x39, 0x00, 0x00,
  0x08, 0x37, 0x00, 0x00, 0x0c, 0x35, 0x00, 0x00, 0x00, 0x34, 0x00, 0x00,
  0x30, 0x2f, 0x00, 0x00, 0x20, 0x2e, 0x00, 0x00, 0x50, 0x0d, 0x00, 0x00,
  0x54, 0x0c, 0x00, 0x00, 0x80, 0x03, 0x00, 0x00, 0x94, 0x02, 0x00, 0x00,
  0xc0, 0x01, 0x00, 0x00, 0x08, 0x01, 0x00, 0x00, 0x70, 0x00, 0x00, 0x00,
  0x01, 0x00, 0x00, 0x00, 0x00, 0x00, 0x00, 0x00, 0x01, 0x00, 0x00, 0x00,
  0x0f, 0x00, 0x00, 0x00, 0x07, 0x00, 0x00, 0x00, 0x80, 0x34, 0x00, 0x00,
  0xa4, 0x2e, 0x00, 0x00, 0xe0, 0x0c, 0x00, 0x00, 0x14, 0x03, 0x00, 0x00,
  0x5c, 0x01, 0x00, 0x00, 0xa8, 0x00, 0x00, 0x00, 0x10, 0x00, 0x00, 0x00,
  0x04, 0x00, 0x00, 0x00, 0x6d, 0x61, 0x69, 0x6e, 0x00, 0x00, 0x00, 0x00,
  0x76, 0xff, 0xff, 0xff, 0x03, 0x00, 0x00, 0x00, 0x10, 0x00, 0x00, 0x00,
  0x04, 0x00, 0x00, 0x00, 0x01, 0x00, 0x00, 0x00, 0x0f, 0x00, 0x00, 0x00,
  0x01, 0x00, 0x00, 0x00, 0x0e, 0x00, 0x00, 0x00, 0xac, 0xcb, 0xff, 0xff,
  0x06, 0x00, 0x00, 0x00, 0x00, 0x00, 0x00, 0x06, 0x02, 0x00, 0x00, 0x00,
  0x6c, 0xc5, 0xff, 0xff, 0x14, 0x00, 0x00, 0x00, 0x10, 0x00, 0x00, 0x00,
  0x18, 0x00, 0x00, 0x00, 0x44, 0x00, 0x00, 0x00, 0x30, 0x00, 0x00, 0x00,
  0x02, 0x00, 0x00, 0x00, 0x01, 0x00, 0x00, 0x00, 0x01, 0x00, 0x00, 0x00,
  0x19, 0x00, 0x00, 0x00, 0x53, 0x74, 0x61, 0x74, 0x65, 0x66, 0x75, 0x6c,
  0x50, 0x61, 0x72, 0x74, 0x69, 0x74, 0x69, 0x6f, 0x6e, 0x65, 0x64, 0x43,
  0x61, 0x6c, 0x6c, 0x3a, 0x30, 0x00, 0x00, 0x00, 0x02, 0x00, 0x00, 0x00,
  0xff, 0xff, 0xff, 0xff, 0x01, 0x00, 0x00, 0x00, 0x04, 0x00, 0x06, 0x00,
  0x04, 0x00, 0x00, 0x00, 0x00, 0x00, 0x0a, 0x00, 0x10, 0x00, 0x04, 0x00,
  0x08, 0x00, 0x0c, 0x00, 0x0a, 0x00, 0x00, 0x00, 0x02, 0x00, 0x00, 0x00,
  0x10, 0x00, 0x00, 0x00, 0x04, 0x00, 0x00, 0x00, 0x01, 0x00, 0x00, 0x00,
  0x0e, 0x00, 0x00, 0x00, 0x01, 0x00, 0x00, 0x00, 0x0d, 0x00, 0x00, 0x00,
  0x40, 0xcc, 0xff, 0xff, 0x0e, 0x00, 0x00, 0x00, 0x00, 0x00, 0x00, 0x0e,
  0x02, 0x00, 0x00, 0x00, 0x34, 0xcc, 0xff, 0xff, 0x00, 0x00, 0x00, 0x09,
  0x14, 0x00, 0x00, 0x00, 0x0f, 0x00, 0x00, 0x00, 0x18, 0x00, 0x00, 0x00,
  0x48, 0x00, 0x00, 0x00, 0x38, 0x00, 0x00, 0x00, 0x02, 0x00, 0x00, 0x00,
  0x01, 0x00, 0x00, 0x00, 0x01, 0x00, 0x00, 0x00, 0x23, 0x00, 0x00, 0x00,
  0x73, 0x65, 0x71, 0x75, 0x65, 0x6e, 0x74, 0x69, 0x61, 0x6c, 0x5f, 0x32,
  0x2f, 0x71, 0x75, 0x61, 0x6e, 0x74, 0x5f, 0x64, 0x65, 0x6e, 0x73, 0x65,
  0x5f, 0x31, 0x31, 0x2f, 0x53, 0x69, 0x67, 0x6d, 0x6f, 0x69, 0x64, 0x00,
  0x02, 0x00, 0x00, 0x00, 0xff, 0xff, 0xff, 0xff, 0x01, 0x00, 0x00, 0x00,
  0x8c, 0xc6, 0xff, 0xff, 0x08, 0x00, 0x00, 0x00, 0x0c, 0x00, 0x00, 0x00,
  0x01, 0x00, 0x00, 0x00, 0x00, 0x00, 0x80, 0x3b, 0x01, 0x00, 0x00, 0x00,
  0x80, 0xff, 0xff, 0xff, 0xff, 0xff, 0xff, 0xff, 0x00, 0x00, 0x00, 0x00,
  0x92, 0xf4, 0xff, 0xff, 0x00, 0x00, 0x00, 0x08, 0x01, 0x00, 0x00, 0x00,
  0x18, 0x00, 0x00, 0x00, 0x0c, 0x00, 0x00, 0x00, 0x04, 0x00, 0x00, 0x00,
  0x2c, 0xc6, 0xff, 0xff, 0x01, 0x00, 0x00, 0x00, 0x0d, 0x00, 0x00, 0x00,
  0x03, 0x00, 0x00, 0x00, 0x0b, 0x00, 0x00, 0x00, 0x0c, 0x00, 0x00, 0x00,
  0x02, 0x00, 0x00, 0x00, 0xe8, 0xcc, 0xff, 0xff, 0x00, 0x00, 0x00, 0x09,
  0x14, 0x00, 0x00, 0x00, 0x0e, 0x00, 0x00, 0x00, 0x18, 0x00, 0x00, 0x00,
  0x6c, 0x00, 0x00, 0x00, 0x5c, 0x00, 0x00, 0x00, 0x02, 0x00, 0x00, 0x00,
  0x01, 0x00, 0x00, 0x00, 0x01, 0x00, 0x00, 0x00, 0x46, 0x00, 0x00, 0x00,
  0x73, 0x65, 0x71, 0x75, 0x65, 0x6e, 0x74, 0x69, 0x61, 0x6c, 0x5f, 0x32,
  0x2f, 0x71, 0x75, 0x61, 0x6e, 0x74, 0x5f, 0x64, 0x65, 0x6e, 0x73, 0x65,
  0x5f, 0x31, 0x31, 0x2f, 0x4d, 0x61, 0x74, 0x4d, 0x75, 0x6c, 0x3b, 0x73,
  0x65, 0x71, 0x75, 0x65, 0x6e, 0x74, 0x69, 0x61, 0x6c, 0x5f, 0x32, 0x2f,
  0x71, 0x75, 0x61, 0x6e, 0x74, 0x5f, 0x64, 0x65, 0x6e, 0x73, 0x65, 0x5f,
  0x31, 0x31, 0x2f, 0x42, 0x69, 0x61, 0x73, 0x41, 0x64, 0x64, 0x00, 0x00,
  0x02, 0x00, 0x00, 0x00, 0xff, 0xff, 0xff, 0xff, 0x01, 0x00, 0x00, 0x00,
  0x64, 0xc7, 0xff, 0xff, 0x08, 0x00, 0x00, 0x00, 0x0c, 0x00, 0x00, 0x00,
  0x01, 0x00, 0x00, 0x00, 0x94, 0x09, 0xb3, 0x3c, 0x01, 0x00, 0x00, 0x00,
  0x1e, 0x00, 0x00, 0x00, 0x00, 0x00, 0x00, 0x00, 0x00, 0x00, 0x00, 0x00,
  0x5e, 0xc8, 0xff, 0xff, 0x04, 0x00, 0x00, 0x00, 0x20, 0x00, 0x00, 0x00,
  0x00, 0x82, 0xff, 0x10, 0x00, 0x8b, 0x00, 0xfa, 0x00, 0x85, 0x01, 0x00,
  0x01, 0x03, 0x00, 0x00, 0x7d, 0x02, 0xff, 0x15, 0x00, 0x05, 0x68, 0x02,
  0x01, 0x04, 0x00, 0x04, 0x21, 0x81, 0x00, 0x00, 0xf6, 0xc7, 0xff, 0xff,
  0x00, 0x00, 0x00, 0x09, 0x10, 0x00, 0x00, 0x00, 0x0d, 0x00, 0x00, 0x00,
  0x14, 0x00, 0x00, 0x00, 0x7c, 0x00, 0x00, 0x00, 0x02, 0x00, 0x00, 0x00,
  0x01, 0x00, 0x00, 0x00, 0x20, 0x00, 0x00, 0x00, 0x65, 0x00, 0x00, 0x00,
  0x73, 0x65, 0x71, 0x75, 0x65, 0x6e, 0x74, 0x69, 0x61, 0x6c, 0x5f, 0x32,
  0x2f, 0x71, 0x75, 0x61, 0x6e, 0x74, 0x5f, 0x64, 0x65, 0x6e, 0x73, 0x65,
  0x5f, 0x31, 0x31, 0x2f, 0x4d, 0x61, 0x74, 0x4d, 0x75, 0x6c, 0x3b, 0x73,
  0x65, 0x71, 0x75, 0x65, 0x6e, 0x74, 0x69, 0x61, 0x6c, 0x5f, 0x32, 0x2f,
  0x71, 0x75, 0x61, 0x6e, 0x74, 0x5f, 0x64, 0x65, 0x6e, 0x73, 0x65, 0x5f,
  0x31, 0x31, 0x2f, 0x4c, 0x61, 0x73, 0x74, 0x56, 0x61, 0x6c, 0x75, 0x65,
  0x51, 0x75, 0x61, 0x6e, 0x74, 0x2f, 0x46, 0x61, 0x6b, 0x65, 0x51, 0x75,
  0x61, 0x6e, 0x74, 0x57, 0x69, 0x74, 0x68, 0x4d, 0x69, 0x6e, 0x4d, 0x61,
  0x78, 0x56, 0x61, 0x72, 0x73, 0x00, 0x00, 0x00, 0x44, 0xc8, 0xff, 0xff,
  0x08, 0x00, 0x00, 0x00, 0x0c, 0x00, 0x00, 0x00, 0x01, 0x00, 0x00, 0x00,
  0x18, 0x92, 0x24, 0x3b, 0x01, 0x00, 0x00, 0x00, 0x00, 0x00, 0x00, 0x00,
  0x00, 0x00, 0x00, 0x00, 0x46, 0xf6, 0xff, 0xff, 0x00, 0x00, 0x00, 0x08,
  0x01, 0x00, 0x00, 0x00, 0x1c, 0x00, 0x00, 0x00, 0x10, 0x00, 0x00, 0x00,
  0x04, 0x00, 0x00, 0x00, 0x76, 0xd4, 0xff, 0xff, 0x00, 0x00, 0x00, 0x01,
  0x01, 0x00, 0x00, 0x00, 0x0b, 0x00, 0x00, 0x00, 0x03, 0x00, 0x00, 0x00,
  0x09, 0x00, 0x00, 0x00, 0x0a, 0x00, 0x00, 0x00, 0x01, 0x00, 0x00, 0x00,
  0xa0, 0xce, 0xff, 0xff, 0x00, 0x00, 0x00, 0x09, 0x14, 0x00, 0x00, 0x00,
  0x0c, 0x00, 0x00, 0x00, 0x18, 0x00, 0x00, 0x00, 0x8c, 0x00, 0x00, 0x00,
  0x7c, 0x00, 0x00, 0x00, 0x02, 0x00, 0x00, 0x00, 0x01, 0x00, 0x00, 0x00,
  0x20, 0x00, 0x00, 0x00, 0x67, 0x00, 0x00, 0x00, 0x73, 0x65, 0x71, 0x75,
  0x65, 0x6e, 0x74, 0x69, 0x61, 0x6c, 0x5f, 0x32, 0x2f, 0x71, 0x75, 0x61,
  0x6e, 0x74, 0x5f, 0x64, 0x65, 0x6e, 0x73, 0x65, 0x5f, 0x31, 0x30, 0x2f,
  0x4d, 0x61, 0x74, 0x4d, 0x75, 0x6c, 0x3b, 0x73, 0x65, 0x71, 0x75, 0x65,
  0x6e, 0x74, 0x69, 0x61, 0x6c, 0x5f, 0x32, 0x2f, 0x71, 0x75, 0x61, 0x6e,
  0x74, 0x5f, 0x64, 0x65, 0x6e, 0x73, 0x65, 0x5f, 0x31, 0x30, 0x2f, 0x52,
  0x65, 0x6c, 0x75, 0x3b, 0x73, 0x65, 0x71, 0x75, 0x65, 0x6e, 0x74, 0x69,
  0x61, 0x6c, 0x5f, 0x32, 0x2f, 0x71, 0x75, 0x61, 0x6e, 0x74, 0x5f, 0x64,
  0x65, 0x6e, 0x73, 0x65, 0x5f, 0x31, 0x30, 0x2f, 0x42, 0x69, 0x61, 0x73,
  0x41, 0x64, 0x64, 0x00, 0x02, 0x00, 0x00, 0x00, 0xff, 0xff, 0xff, 0xff,
  0x20, 0x00, 0x00, 0x00, 0x3c, 0xc9, 0xff, 0xff, 0x08, 0x00, 0x00, 0x00,
  0x0c, 0x00, 0x00, 0x00, 0x01, 0x00, 0x00, 0x00, 0x81, 0x36, 0x12, 0x3e,
  0x01, 0x00, 0x00, 0x00, 0x84, 0xff, 0xff, 0xff, 0xff, 0xff, 0xff, 0xff,
  0x00, 0x00, 0x00, 0x00, 0x36, 0xca, 0xff, 0xff, 0x04, 0x00, 0x00, 0x00,
  0x00, 0x08, 0x00, 0x00, 0xcc, 0x00, 0x00, 0x00, 0x00, 0x00, 0x00, 0x00,
  0x00, 0x00, 0x00, 0x00, 0x00, 0x00, 0x00, 0x00, 0x00, 0x43, 0x00, 0x00,
  0xa2, 0x00, 0xcc, 0x35, 0x00, 0x00, 0x00, 0x00, 0x00, 0x00, 0x3e, 0x00,
  0x36, 0x00, 0x00, 0x00, 0x00, 0x00, 0xcc, 0x00, 0x00, 0x00, 0xd0, 0x00,
  0x00, 0x00, 0x00, 0x00, 0x00, 0x00, 0x00, 0x00, 0x00, 0x00, 0x00, 0x00,
  0x4c, 0x00, 0x00, 0x00, 0x00, 0x00, 0xb7, 0x00, 0xfb, 0x31, 0xca, 0xfb,
  0x35, 0xa6, 0x00, 0xc2, 0xfc, 0x4d, 0x00, 0x00, 0x00, 0x74, 0xfe, 0xfd,
  0xfc, 0x00, 0xfc, 0xc2, 0x30, 0x00, 0x30, 0x37, 0x00, 0x0e, 0xc3, 0xfc,
  0x31, 0x0b, 0xc9, 0x04, 0x00, 0x12, 0x07, 0xf8, 0xff, 0x00, 0x3b, 0x44,
  0x00, 0x01, 0x03, 0x00, 0xb4, 0xc4, 0xc3, 0x01, 0x00, 0x36, 0xfb, 0x00,
  0x00, 0x06, 0xae, 0xcb, 0xff, 0xfa, 0x00, 0x00, 0xfb, 0x04, 0xfd, 0xff,
  0xfe, 0xfe, 0xfe, 0xfe, 0x00, 0xfe, 0x38, 0x35, 0xfe, 0xfe, 0x00, 0x00,
  0x40, 0x00, 0x00, 0x00, 0x00, 0x38, 0xfe, 0x43, 0x00, 0x00, 0x40, 0x00,
  0x00, 0x00, 0x00, 0xfe, 0x49, 0xfe, 0xfe, 0xfe, 0x00, 0xfe, 0x00, 0xfe,
  0xc5, 0x00, 0xa9, 0x00, 0x00, 0xc5, 0x49, 0x38, 0x38, 0xfe, 0x00, 0xfe,
  0x00, 0x35, 0xfe, 0x00, 0x00, 0x00, 0xfe, 0x00, 0x00, 0xc9, 0xc9, 0x38,
  0x00, 0xfe, 0xfe, 0x00, 0x11, 0x02, 0x0c, 0x30, 0xfb, 0x00, 0x00, 0x11,
  0x3e, 0xf4, 0x00, 0x00, 0x00, 0xc9, 0x01, 0x39, 0x06, 0x00, 0x0f, 0x34,
  0xb2, 0xfb, 0x00, 0xf9, 0x08, 0xed, 0x00, 0x02, 0x00, 0xf3, 0x01, 0x04,
  0x02, 0x03, 0x01, 0x1f, 0x02, 0xcd, 0x37, 0x00, 0x34, 0x38, 0x0b, 0x00,
  0xc6, 0x04, 0x00, 0xfe, 0xfd, 0xf3, 0x10, 0x00, 0x02, 0xda, 0x01, 0xfd,
  0x02, 0x0d, 0x00, 0x00, 0xfb, 0xf3, 0xc8, 0x41, 0x00, 0x00, 0x00, 0x00,
  0x53, 0x00, 0xb8, 0x00, 0x00, 0xa1, 0x00, 0x00, 0x34, 0x00, 0x00, 0x00,
  0xcc, 0x00, 0x00, 0x00, 0x00, 0x00, 0x00, 0x00, 0x00, 0x00, 0x00, 0xaa,
  0x5b, 0x00, 0x00, 0x00, 0x00, 0x00, 0x00, 0x35, 0x00, 0x00, 0x00, 0x00,
  0x00, 0x00, 0x00, 0x00, 0x00, 0x33, 0x34, 0x8f, 0x00, 0x00, 0xc5, 0x00,
  0x00, 0x00, 0xc3, 0x00, 0x00, 0xb2, 0x00, 0x4b, 0x00, 0x00, 0x8c, 0x42,
  0xfe, 0xfd, 0x00, 0xfd, 0x01, 0xfd, 0x32, 0x2d, 0xfd, 0xfe, 0x00, 0x00,
  0x00, 0x4d, 0xfe, 0x00, 0xfd, 0x00, 0xfe, 0xfe, 0xfe, 0x31, 0x00, 0xfe,
  0xfe, 0x00, 0x00, 0xfd, 0x00, 0x00, 0x02, 0xb7, 0x00, 0x00, 0x01, 0xff,
  0xbc, 0x34, 0xfd, 0x37, 0x00, 0x01, 0xc5, 0x00, 0x30, 0xc5, 0x00, 0xfe,
  0x00, 0xfe, 0xfe, 0x00, 0x00, 0xce, 0xfd, 0x00, 0x00, 0xfd, 0x00, 0x00,
  0xfd, 0x01, 0xfe, 0xfe, 0x00, 0x8b, 0xb7, 0x00, 0x00, 0x00, 0x00, 0xbf,
  0x00, 0xb0, 0x00, 0x00, 0x00, 0xca, 0x00, 0x00, 0x00, 0x00, 0x00, 0x00,
  0x00, 0x00, 0x00, 0xbf, 0x00, 0x00, 0xce, 0x00, 0xad, 0x00, 0x00, 0x00,
  0x00, 0xcb, 0x00, 0x00, 0x00, 0x00, 0x00, 0x00, 0xc8, 0x00, 0xc4, 0x00,
  0xc6, 0xb5, 0x00, 0x00, 0x3a, 0x00, 0xc9, 0x00, 0xc8, 0x00, 0x00, 0x00,
  0x44, 0x00, 0x00, 0x00, 0x00, 0x00, 0x00, 0x00, 0xb9, 0x00, 0x00, 0xff,
  0x00, 0x00, 0x00, 0xfe, 0xc5, 0xcc, 0x00, 0x00, 0x00, 0x00, 0xd0, 0x00,
  0x00, 0x00, 0x3b, 0xca, 0x00, 0x00, 0x36, 0x00, 0x00, 0x00, 0x00, 0x00,
  0x00, 0x00, 0xff, 0x00, 0x00, 0xff, 0xfe, 0x32, 0xff, 0x00, 0x03, 0xb7,
  0x00, 0x00, 0xc3, 0x00, 0x02, 0x00, 0x00, 0x00, 0x02, 0x00, 0xff, 0x36,
  0x00, 0x00, 0xc9, 0x00, 0x00, 0xcc, 0x00, 0xd0, 0x02, 0x01, 0x00, 0x00,
  0xf8, 0xf8, 0xf2, 0x00, 0x06, 0xbe, 0x00, 0xf6, 0x2c, 0x01, 0x00, 0x00,
  0x30, 0x19, 0x00, 0xf5, 0xf4, 0x00, 0xf5, 0xfd, 0x5c, 0xd3, 0x00, 0xd1,
  0xe2, 0x1d, 0x00, 0xfa, 0x00, 0xfa, 0xc8, 0xf8, 0x00, 0xf8, 0x04, 0xf5,
  0xfa, 0x00, 0xb7, 0x00, 0x00, 0x00, 0x10, 0x00, 0x00, 0x2e, 0x00, 0x3d,
  0x02, 0x01, 0xf6, 0x3c, 0x01, 0xf4, 0xcb, 0xfe, 0x01, 0xc7, 0x00, 0x00,
  0x0e, 0xf3, 0x2d, 0x03, 0xfe, 0x03, 0xfe, 0x03, 0xfd, 0x06, 0x00, 0x00,
  0x02, 0x46, 0x00, 0x00, 0x00, 0x4a, 0xff, 0xd1, 0xca, 0x00, 0x02, 0x03,
  0x1a, 0xff, 0x00, 0xff, 0x00, 0xec, 0xcf, 0x02, 0xfb, 0x10, 0x03, 0x02,
  0x00, 0x06, 0xff, 0xf3, 0xff, 0x00, 0x00, 0x00, 0x00, 0x01, 0x58, 0x00,
  0xfe, 0x01, 0x00, 0x2d, 0x02, 0x00, 0xfa, 0x00, 0x2f, 0xf9, 0x06, 0x00,
  0x00, 0xfe, 0x00, 0x00, 0x03, 0x03, 0xcf, 0x00, 0x0d, 0xf9, 0x04, 0x08,
  0xf9, 0xfa, 0x00, 0x34, 0xfc, 0xe7, 0x33, 0x00, 0x00, 0x4f, 0xff, 0x06,
  0xd2, 0xcf, 0x0a, 0xfa, 0xe4, 0x04, 0x00, 0x04, 0xf6, 0x13, 0x00, 0xfb,
  0x05, 0xf5, 0x01, 0xfa, 0x02, 0xbe, 0xf4, 0x14, 0xfb, 0x00, 0x2e, 0x00,
  0x00, 0xfe, 0xf0, 0x00, 0x03, 0x32, 0x00, 0xf3, 0xfd, 0xf5, 0x01, 0x00,
  0x03, 0x09, 0xf7, 0xfe, 0xc9, 0x04, 0x00, 0x00, 0x02, 0xf9, 0xf9, 0x01,
  0x00, 0x00, 0x00, 0x00, 0x00, 0x00, 0x00, 0xc9, 0x00, 0x00, 0x36, 0x00,
  0x00, 0x00, 0x00, 0x00, 0x00, 0x00, 0x00, 0x00, 0xc5, 0x00, 0xcf, 0x00,
  0x00, 0xcd, 0x00, 0x00, 0x00, 0xc8, 0x00, 0xc5, 0xcb, 0x00, 0xcb, 0x00,
  0xbc, 0x00, 0x00, 0xc4, 0xc7, 0x00, 0x00, 0x00, 0x00, 0xcc, 0x00, 0x00,
  0x00, 0x00, 0x00, 0x00, 0x00, 0x00, 0x00, 0x00, 0x00, 0x00, 0x00, 0x00,
  0x00, 0x3b, 0x00, 0x00, 0xfd, 0xfd, 0xfb, 0xfd, 0x00, 0xfd, 0xc8, 0xfd,
  0xfd, 0x00, 0x38, 0x00, 0x00, 0x00, 0x00, 0xff, 0xfd, 0xb9, 0xfb, 0xfd,
  0x03, 0x00, 0x00, 0xfd, 0xff, 0x00, 0x00, 0xfd, 0x00, 0x33, 0xfd, 0xfd,
  0x00, 0xfb, 0xfb, 0xfb, 0xfd, 0x00, 0xfd, 0x00, 0x00, 0x00, 0x00, 0x00,
  0x02, 0xfd, 0x00, 0xff, 0x36, 0xcd, 0xfd, 0x00, 0x00, 0xfb, 0xff, 0x00,
  0x00, 0xfd, 0x00, 0x00, 0xfe, 0xfd, 0xfd, 0xfe, 0x02, 0xf6, 0xfc, 0x02,
  0x31, 0xf6, 0x00, 0xf7, 0xf7, 0xea, 0x00, 0x00, 0x3d, 0xc2, 0xff, 0xfa,
  0x04, 0x00, 0xfe, 0xf4, 0xdd, 0x01, 0x00, 0x02, 0xf7, 0x15, 0x00, 0x2b,
  0xce, 0x25, 0xfe, 0xf6, 0x02, 0xf6, 0xf5, 0x45, 0xf9, 0x00, 0x30, 0x00,
  0x00, 0x3a, 0xe4, 0x00, 0x07, 0x2d, 0x00, 0xf4, 0xfd, 0x25, 0x2d, 0x00,
  0x03, 0x02, 0xf5, 0xfe, 0x01, 0xfd, 0x39, 0x00, 0xfe, 0xf7, 0xf5, 0xfc,
  0x00, 0x00, 0x00, 0x00, 0x3c, 0x00, 0x00, 0x00, 0xc6, 0x00, 0x32, 0x00,
  0x35, 0x00, 0xcd, 0x00, 0x00, 0x00, 0x00, 0xbb, 0x00, 0x00, 0xc6, 0x00,
  0x00, 0x00, 0x00, 0x00, 0x00, 0x00, 0x00, 0x00, 0x00, 0xca, 0x00, 0x00,
  0x00, 0x00, 0x00, 0x4c, 0x00, 0x00, 0x00, 0x00, 0x00, 0x00, 0xb0, 0xbb,
  0x00, 0x00, 0xb9, 0x00, 0x00, 0x00, 0x00, 0x00, 0xb5, 0xaa, 0x00, 0x00,
  0x00, 0x00, 0xc0, 0x00, 0x00, 0x00, 0x00, 0xc8, 0x00, 0xd0, 0x00, 0x00,
  0x00, 0x00, 0x00, 0x00, 0xc5, 0x45, 0x00, 0x00, 0xc7, 0x00, 0x00, 0x00,
  0xb6, 0x00, 0x00, 0x00, 0x00, 0x00, 0x00, 0x00, 0x00, 0x00, 0x00, 0x00,
  0x31, 0x00, 0x00, 0x00, 0x00, 0x00, 0x00, 0x50, 0x00, 0x00, 0x00, 0x00,
  0x33, 0x00, 0x00, 0x00, 0x00, 0xca, 0xca, 0x34, 0x00, 0x00, 0x00, 0x00,
  0x00, 0x00, 0x00, 0x00, 0x00, 0x00, 0xc3, 0xc2, 0x03, 0xff, 0x00, 0xcb,
  0x00, 0xff, 0x00, 0x04, 0x01, 0xc9, 0x00, 0x00, 0x00, 0x00, 0x00, 0x05,
  0x04, 0x00, 0x01, 0x06, 0xfb, 0x00, 0x00, 0x00, 0xca, 0x00, 0x39, 0xb8,
  0x00, 0x2f, 0x00, 0xff, 0x35, 0x32, 0xfe, 0x02, 0xff, 0xcf, 0xbe, 0xb9,
  0x30, 0x32, 0x02, 0xc4, 0x34, 0xff, 0x00, 0xfc, 0x05, 0x00, 0x02, 0x00,
  0x00, 0xff, 0xfa, 0x00, 0x00, 0xcd, 0x00, 0x00, 0xfa, 0xfa, 0xff, 0x05,
  0x0c, 0xfa, 0x07, 0x3c, 0xfb, 0xfb, 0x00, 0x03, 0xfd, 0xea, 0x00, 0x00,
  0x00, 0xfb, 0x00, 0x06, 0x08, 0x00, 0x0c, 0xfc, 0x26, 0xd5, 0x00, 0xff,
  0xbe, 0x15, 0x37, 0xfd, 0x05, 0xf6, 0x02, 0xfc, 0x02, 0xfb, 0xf9, 0x47,
  0xfd, 0x00, 0xfe, 0x00, 0x35, 0xfe, 0xf0, 0x00, 0x02, 0xfe, 0x00, 0xf5,
  0xfe, 0xf5, 0x02, 0x00, 0x02, 0x0d, 0xc3, 0xfe, 0x01, 0x05, 0x00, 0x00,
  0x01, 0xfa, 0x35, 0xcd, 0xea, 0x1a, 0xa5, 0xf7, 0xfc, 0xea, 0x00, 0xbe,
  0x1a, 0xe7, 0x00, 0x00, 0x00, 0x74, 0xff, 0xee, 0x30, 0x00, 0xa7, 0x26,
  0xec, 0xcd, 0x00, 0x03, 0xf7, 0xbe, 0x00, 0xf3, 0x04, 0xf1, 0x00, 0xe7,
  0xcf, 0xe5, 0xf1, 0xed, 0xea, 0x00, 0xe7, 0x40, 0x00, 0xff, 0x29, 0x3c,
  0x04, 0xea, 0x00, 0xed, 0x38, 0xfe, 0xe6, 0x00, 0x03, 0xfd, 0x2d, 0x38,
  0x01, 0xef, 0x00, 0x33, 0xfe, 0xf4, 0x19, 0xf7, 0x17, 0x0d, 0x06, 0x05,
  0xfa, 0x08, 0x38, 0x18, 0x11, 0x07, 0x00, 0x00, 0x00, 0xf3, 0xfe, 0xd1,
  0x06, 0x00, 0x0e, 0x0d, 0xa3, 0x01, 0x00, 0x2f, 0xf0, 0x0e, 0x00, 0x01,
  0x05, 0x05, 0x04, 0x13, 0x02, 0x13, 0x09, 0x21, 0x0e, 0xc9, 0x0d, 0x00,
  0x00, 0x00, 0x2b, 0x00, 0xfa, 0x0e, 0x00, 0xda, 0xfe, 0xf3, 0x4c, 0x00,
  0x00, 0x07, 0x09, 0x00, 0xfe, 0x12, 0x00, 0xbc, 0x03, 0xce, 0x0d, 0x06,
  0x00, 0x00, 0x00, 0x00, 0x00, 0x00, 0xc8, 0x00, 0x00, 0xc4, 0x00, 0x39,
  0x00, 0xcb, 0xcd, 0xcc, 0x00, 0x00, 0x00, 0xc9, 0x00, 0x00, 0x00, 0x00,
  0x00, 0x00, 0x39, 0xc5, 0x00, 0x00, 0x00, 0x00, 0x00, 0x00, 0x00, 0x00,
  0xc3, 0x00, 0x00, 0x00, 0x34, 0x00, 0x00, 0x00, 0x00, 0x00, 0x00, 0x00,
  0x32, 0x00, 0x00, 0xc9, 0x00, 0xc8, 0x00, 0x00, 0x00, 0x00, 0x00, 0xbb,
  0x00, 0x00, 0x00, 0x00, 0xfd, 0xfd, 0x00, 0xfd, 0x3c, 0xfd, 0x00, 0x00,
  0xfd, 0xfd, 0x00, 0x00, 0x00, 0x00, 0x00, 0xfd, 0xfd, 0xbe, 0xcb, 0xfd,
  0xfd, 0x00, 0x39, 0xfd, 0xfd, 0x00, 0x00, 0xfd, 0x00, 0xfd, 0xfd, 0xfd,
  0x00, 0xfd, 0xfd, 0xfd, 0xfd, 0x00, 0xfd, 0x3d, 0x00, 0x00, 0xc4, 0x00,
  0x00, 0x31, 0x00, 0xcb, 0x00, 0xfd, 0xfd, 0x00, 0x00, 0xfd, 0xfd, 0xbf,
  0x00, 0xfd, 0x00, 0x00, 0xfd, 0x00, 0xfd, 0xfd, 0xc6, 0xc5, 0xf9, 0xc9,
  0x00, 0xf9, 0x00, 0x00, 0xf9, 0xf9, 0x00, 0x34, 0x00, 0x00, 0x00, 0xf9,
  0xc9, 0x00, 0xf9, 0xf9, 0x00, 0x00, 0x00, 0xc5, 0x00, 0x00, 0x00, 0xbc,
  0x00, 0xc6, 0x00, 0xf9, 0x00, 0xf9, 0xf9, 0xf9, 0xf9, 0xcc, 0xf9, 0x00,
  0x00, 0x00, 0x00, 0xc7, 0x00, 0xf9, 0x00, 0xf9, 0x00, 0x00, 0xf9, 0x00,
  0x00, 0xf9, 0x2b, 0x00, 0x00, 0x00, 0x00, 0x00, 0x00, 0xf9, 0xf9, 0xce,
  0x04, 0x00, 0x01, 0x02, 0x06, 0x00, 0x00, 0x01, 0x01, 0xf9, 0xc9, 0x00,
  0x00, 0x08, 0x00, 0x07, 0x3f, 0xca, 0x33, 0x02, 0x03, 0x00, 0x00, 0xfd,
  0x03, 0x4b, 0x00, 0xcc, 0x00, 0xfb, 0x01, 0x00, 0x00, 0xff, 0xfd, 0x02,
  0x01, 0xc8, 0x00, 0xca, 0x00, 0x3b, 0x0c, 0x00, 0xce, 0x01, 0x00, 0xba,
  0xfe, 0x00, 0x03, 0x00, 0x00, 0x32, 0xca, 0x00, 0x00, 0x03, 0x00, 0x00,
  0x00, 0xff, 0x00, 0x06, 0x0e, 0x31, 0x07, 0x08, 0xfb, 0xfb, 0x00, 0x00,
  0xfe, 0xe8, 0x00, 0x00, 0x00, 0xf5, 0xff, 0x09, 0x07, 0xcd, 0x0c, 0xfb,
  0xe1, 0x02, 0x00, 0xff, 0xf5, 0x13, 0x37, 0xfd, 0x05, 0xf5, 0x35, 0xfd,
  0x02, 0xfc, 0xf7, 0x17, 0xfd, 0x00, 0xfd, 0x43, 0x35, 0xcc, 0xec, 0x00,
  0x35, 0xff, 0x00, 0xf5, 0xfd, 0xf4, 0x03, 0x00, 0x03, 0x0c, 0xf8, 0xfe,
  0x01, 0x02, 0x32, 0x00, 0x00, 0xfa, 0xfa, 0x02, 0x0c, 0x03, 0x47, 0x0b,
  0xfa, 0x01, 0x00, 0x07, 0x06, 0xf3, 0x00, 0x00, 0x00, 0x07, 0x00, 0x07,
  0x06, 0x00, 0x0c, 0x04, 0xdc, 0x01, 0x00, 0x05, 0xc0, 0x15, 0x36, 0x05,
  0x05, 0xff, 0x04, 0x40, 0x02, 0x07, 0xfe, 0x15, 0xd4, 0x00, 0xcf, 0x00,
  0x00, 0xca, 0xe0, 0x00, 0x36, 0x05, 0x00, 0x01, 0xfe, 0xf3, 0x0c, 0x00,
  0x00, 0x0d, 0xfe, 0x00, 0x00, 0x07, 0x00, 0x00, 0x39, 0x03, 0x02, 0x09,
  0x00, 0xc7, 0x00, 0x00, 0x00, 0x00, 0x00, 0x43, 0x00, 0x00, 0x00, 0x00,
  0x00, 0x00, 0x00, 0xc7, 0x00, 0xbf, 0xcc, 0xc1, 0x00, 0x00, 0x00, 0x35,
  0x00, 0x00, 0x00, 0x00, 0x00, 0x00, 0x00, 0x00, 0x00, 0x00, 0x00, 0x00,
  0x00, 0x00, 0x00, 0x00, 0x00, 0x00, 0x00, 0x00, 0x00, 0x00, 0x35, 0x00,
  0x00, 0x00, 0x00, 0x00, 0x00, 0x00, 0x00, 0x33, 0x00, 0x00, 0x00, 0x00,
  0x00, 0x00, 0x00, 0x00, 0x3d, 0x31, 0xfb, 0xc1, 0x00, 0xf6, 0xbe, 0xd4,
  0xfe, 0xed, 0x34, 0x00, 0x00, 0x05, 0x00, 0x2b, 0x05, 0x00, 0x08, 0x00,
  0xec, 0x01, 0x00, 0xfc, 0x0e, 0x11, 0x00, 0xf8, 0x05, 0x23, 0xbc, 0xf8,
  0xb2, 0xfa, 0xca, 0x0f, 0xf8, 0x00, 0xfe, 0x00, 0x00, 0xfe, 0x01, 0x00,
  0x0a, 0x2d, 0x00, 0xf9, 0xfa, 0xf7, 0x06, 0x00, 0xa3, 0x03, 0xf8, 0xfe,
  0xbb, 0x57, 0x00, 0xcf, 0xfe, 0xa4, 0xf6, 0x00, 0x15, 0x0c, 0x15, 0x04,
  0xfb, 0x05, 0x00, 0x09, 0x48, 0x81, 0x00, 0x00, 0x00, 0xe3, 0x00, 0x11,
  0x06, 0x00, 0x1b, 0x0a, 0xb0, 0xf4, 0xcd, 0xf6, 0x03, 0xeb, 0x00, 0x05,
  0x00, 0xff, 0x05, 0x3f, 0x03, 0x3c, 0xff, 0x36, 0x0b, 0x00, 0x0e, 0x00,
  0x00, 0xfe, 0xe4, 0x37, 0xff, 0x12, 0x00, 0x0a, 0xfd, 0xf3, 0x19, 0x00,
  0x45, 0x0d, 0x07, 0xfe, 0xff, 0x43, 0x00, 0x00, 0xf9, 0xff, 0x0b, 0x07,
  0xca, 0x00, 0x00, 0x00, 0x00, 0x00, 0x3f, 0x00, 0x00, 0x00, 0x00, 0x3b,
  0x00, 0x40, 0x00, 0x00, 0x00, 0x00, 0x00, 0x00, 0x00, 0x00, 0x00, 0x00,
  0x00, 0x00, 0x00, 0x00, 0x00, 0x00, 0x00, 0x00, 0x00, 0x00, 0xcd, 0x00,
  0x00, 0xc6, 0x00, 0x33, 0x00, 0x00, 0x00, 0x00, 0x00, 0x00, 0x00, 0x00,
  0x00, 0x00, 0x00, 0x00, 0x00, 0x00, 0x00, 0x00, 0x00, 0x00, 0x00, 0x00,
  0x00, 0x00, 0xc3, 0x00, 0x00, 0xd0, 0x00, 0x00, 0x00, 0xb3, 0x00, 0x00,
  0x00, 0x3f, 0x00, 0x00, 0x00, 0x00, 0x00, 0x00, 0xcc, 0x00, 0x00, 0x00,
  0x00, 0x00, 0x35, 0x00, 0x00, 0x00, 0xc5, 0x00, 0x00, 0x00, 0x00, 0xca,
  0x00, 0x00, 0x00, 0x00, 0x00, 0x00, 0x00, 0x00, 0xcd, 0x00, 0x00, 0x00,
  0x3a, 0x00, 0xcc, 0x00, 0x00, 0x00, 0x00, 0x00, 0x00, 0x34, 0x00, 0x00,
  0x00, 0x00, 0x00, 0x00, 0x00, 0x00, 0x00, 0x00, 0x30, 0xf8, 0x34, 0xff,
  0xfd, 0xf8, 0x00, 0xfd, 0xf7, 0xf4, 0x00, 0x00, 0xc2, 0x4e, 0x45, 0xfb,
  0x00, 0x00, 0xfd, 0xf8, 0x02, 0xb9, 0x00, 0x01, 0xfe, 0x09, 0x00, 0xf8,
  0x00, 0xf2, 0xfe, 0xf7, 0x00, 0xf3, 0x30, 0xc6, 0xf8, 0x00, 0xfa, 0x00,
  0x00, 0x00, 0x48, 0xb9, 0x02, 0xf8, 0x00, 0x3d, 0xfb, 0x00, 0xc7, 0x00,
  0x02, 0x00, 0xf7, 0xfe, 0x3d, 0xbf, 0x00, 0x00, 0x00, 0x29, 0xf8, 0xce,
  0xae, 0xd1, 0xff, 0xff, 0x00, 0x00, 0x00, 0x09, 0x10, 0x00, 0x00, 0x00,
  0x0b, 0x00, 0x00, 0x00, 0x14, 0x00, 0x00, 0x00, 0x7c, 0x00, 0x00, 0x00,
  0x02, 0x00, 0x00, 0x00, 0x20, 0x00, 0x00, 0x00, 0x40, 0x00, 0x00, 0x00,
  0x65, 0x00, 0x00, 0x00, 0x73, 0x65, 0x71, 0x75, 0x65, 0x6e, 0x74, 0x69,
  0x61, 0x6c, 0x5f, 0x32, 0x2f, 0x71, 0x75, 0x61, 0x6e, 0x74, 0x5f, 0x64,
  0x65, 0x6e, 0x73, 0x65, 0x5f, 0x31, 0x30, 0x2f, 0x4d, 0x61, 0x74, 0x4d,
  0x75, 0x6c, 0x3b, 0x73, 0x65, 0x71, 0x75, 0x65, 0x6e, 0x74, 0x69, 0x61,
  0x6c, 0x5f, 0x32, 0x2f, 0x71, 0x75, 0x61, 0x6e, 0x74, 0x5f, 0x64, 0x65,
  0x6e, 0x73, 0x65, 0x5f, 0x31, 0x30, 0x2f, 0x4c, 0x61, 0x73, 0x74, 0x56,
  0x61, 0x6c, 0x75, 0x65, 0x51, 0x75, 0x61, 0x6e, 0x74, 0x2f, 0x46, 0x61,
  0x6b, 0x65, 0x51, 0x75, 0x61, 0x6e, 0x74, 0x57, 0x69, 0x74, 0x68, 0x4d,
  0x69, 0x6e, 0x4d, 0x61, 0x78, 0x56, 0x61, 0x72, 0x73, 0x00, 0x00, 0x00,
  0xfc, 0xd1, 0xff, 0xff, 0x08, 0x00, 0x00, 0x00, 0x0c, 0x00, 0x00, 0x00,
  0x01, 0x00, 0x00, 0x00, 0x42, 0x02, 0x8b, 0x3b, 0x01, 0x00, 0x00, 0x00,
  0x00, 0x00, 0x00, 0x00, 0x00, 0x00, 0x00, 0x00, 0x00, 0x00, 0x0e, 0x00,
  0x18, 0x00, 0x08, 0x00, 0x0c, 0x00, 0x10, 0x00, 0x07, 0x00, 0x14, 0x00,
  0x0e, 0x00, 0x00, 0x00, 0x00, 0x00, 0x00, 0x08, 0x01, 0x00, 0x00, 0x00,
  0x1c, 0x00, 0x00, 0x00, 0x10, 0x00, 0x00, 0x00, 0x04, 0x00, 0x00, 0x00,
  0x3e, 0xde, 0xff, 0xff, 0x00, 0x00, 0x00, 0x01, 0x01, 0x00, 0x00, 0x00,
  0x09, 0x00, 0x00, 0x00, 0x03, 0x00, 0x00, 0x00, 0x07, 0x00, 0x00, 0x00,
  0x08, 0x00, 0x00, 0x00, 0x04, 0x00, 0x00, 0x00, 0x68, 0xd8, 0xff, 0xff,
  0x00, 0x00, 0x00, 0x09, 0x14, 0x00, 0x00, 0x00, 0x0a, 0x00, 0x00, 0x00,
  0x18, 0x00, 0x00, 0x00, 0x8c, 0x00, 0x00, 0x00, 0x7c, 0x00, 0x00, 0x00,
  0x02, 0x00, 0x00, 0x00, 0x01, 0x00, 0x00, 0x00, 0x40, 0x00, 0x00, 0x00,
  0x64, 0x00, 0x00, 0x00, 0x73, 0x65, 0x71, 0x75, 0x65, 0x6e, 0x74, 0x69,
  0x61, 0x6c, 0x5f, 0x32, 0x2f, 0x71, 0x75, 0x61, 0x6e, 0x74, 0x5f, 0x64,
  0x65, 0x6e, 0x73, 0x65, 0x5f, 0x39, 0x2f, 0x4d, 0x61, 0x74, 0x4d, 0x75,
  0x6c, 0x3b, 0x73, 0x65, 0x71, 0x75, 0x65, 0x6e, 0x74, 0x69, 0x61, 0x6c,
  0x5f, 0x32, 0x2f, 0x71, 0x75, 0x61, 0x6e, 0x74, 0x5f, 0x64, 0x65, 0x6e,
  0x73, 0x65, 0x5f, 0x39, 0x2f, 0x52, 0x65, 0x6c, 0x75, 0x3b, 0x73, 0x65,
  0x71, 0x75, 0x65, 0x6e, 0x74, 0x69, 0x61, 0x6c, 0x5f, 0x32, 0x2f, 0x71,
  0x75, 0x61, 0x6e, 0x74, 0x5f, 0x64, 0x65, 0x6e, 0x73, 0x65, 0x5f, 0x39,
  0x2f, 0x42, 0x69, 0x61, 0x73, 0x41, 0x64, 0x64, 0x00, 0x00, 0x00, 0x00,
  0x02, 0x00, 0x00, 0x00, 0xff, 0xff, 0xff, 0xff, 0x40, 0x00, 0x00, 0x00,
  0x04, 0xd3, 0xff, 0xff, 0x08, 0x00, 0x00, 0x00, 0x0c, 0x00, 0x00, 0x00,
  0x01, 0x00, 0x00, 0x00, 0xf0, 0x36, 0xe1, 0x3e, 0x01, 0x00, 0x00, 0x00,
  0x81, 0xff, 0xff, 0xff, 0xff, 0xff, 0xff, 0xff, 0xfa, 0xd3, 0xff, 0xff,
  0x04, 0x00, 0x00, 0x00, 0x00, 0x20, 0x00, 0x00, 0x00, 0xe7, 0x00, 0x26,
  0x00, 0xdf, 0xec, 0x26, 0x00, 0x00, 0xff, 0x03, 0x00, 0x00, 0x01, 0x00,
  0x03, 0xfd, 0x00, 0x0e, 0x00, 0x01, 0x04, 0x00, 0x00, 0x03, 0x00, 0x00,
  0xf4, 0xe9, 0x02, 0x00, 0x04, 0x0a, 0x00, 0x05, 0x00, 0x02, 0x00, 0x19,
  0x00, 0x00, 0x0b, 0x00, 0xec, 0x01, 0x00, 0x00, 0x00, 0x03, 0x00, 0xe6,
  0xff, 0x00, 0x04, 0x00, 0x25, 0x3a, 0xe6, 0x02, 0x00, 0x00, 0xe1, 0x00,
  0x18, 0x19, 0x00, 0x00, 0x00, 0x01, 0x00, 0x03, 0x00, 0x21, 0x00, 0x01,
  0x00, 0x0a, 0xff, 0x05, 0x22, 0xea, 0xfa, 0x00, 0x06, 0x00, 0x00, 0x05,
  0x01, 0x00, 0x02, 0x21, 0x08, 0xfe, 0xfe, 0x00, 0xed, 0x00, 0x00, 0xff,
  0x00, 0xe4, 0xe0, 0x05, 0x01, 0xfe, 0xd0, 0x00, 0x03, 0x02, 0x09, 0x06,
  0x00, 0x00, 0x00, 0x00, 0x00, 0xff, 0x0f, 0x06, 0xe4, 0xe3, 0xf4, 0x01,
  0x00, 0x00, 0x00, 0x00, 0x00, 0xe5, 0x1b, 0xf1, 0x00, 0xd8, 0xe9, 0x0a,
  0x00, 0x01, 0xf6, 0xe2, 0x00, 0x00, 0xff, 0x00, 0xf5, 0x14, 0x00, 0xf1,
  0x00, 0x14, 0xf6, 0x00, 0x00, 0xff, 0x00, 0x00, 0xdf, 0xef, 0xf9, 0x00,
  0xde, 0xf6, 0x00, 0x03, 0x00, 0xee, 0x00, 0x00, 0x00, 0x00, 0x1e, 0xff,
  0x00, 0xfc, 0x00, 0x00, 0x00, 0xe5, 0xd2, 0x00, 0xf2, 0x00, 0xfb, 0xdc,
  0x0a, 0xf2, 0x00, 0x00, 0x00, 0x00, 0x00, 0x00, 0xd5, 0xe5, 0x18, 0x00,
  0x00, 0x00, 0x00, 0xd4, 0x00, 0xe8, 0x00, 0xe1, 0x00, 0xf1, 0x00, 0xf5,
  0xea, 0xf7, 0xe7, 0x00, 0x11, 0x1a, 0x00, 0x17, 0x00, 0x00, 0x14, 0xf4,
  0xf5, 0xf5, 0xf1, 0x00, 0xea, 0x00, 0x00, 0xff, 0x00, 0xd7, 0x00, 0xf4,
  0xe6, 0xf2, 0x00, 0x00, 0xff, 0xd8, 0xfa, 0xe8, 0x00, 0x00, 0x19, 0x00,
  0x00, 0x2e, 0xdb, 0xe4, 0x00, 0x0f, 0xf5, 0x00, 0xe3, 0x00, 0x00, 0x00,
  0x19, 0x13, 0x00, 0x09, 0x00, 0x04, 0xf0, 0x04, 0x00, 0x04, 0x00, 0xfb,
  0x00, 0x00, 0x01, 0x00, 0x05, 0xff, 0x00, 0x09, 0x00, 0x00, 0x1c, 0x00,
  0x00, 0x02, 0x00, 0xe1, 0xe2, 0x1f, 0xe1, 0x00, 0x03, 0x09, 0xe7, 0xec,
  0x00, 0x24, 0xe4, 0x00, 0x00, 0x00, 0x05, 0x1e, 0x04, 0x03, 0x00, 0x00,
  0x00, 0xfb, 0x00, 0x00, 0xff, 0x00, 0x04, 0xe5, 0x08, 0x08, 0x03, 0x00,
  0x00, 0x00, 0x20, 0xe9, 0x20, 0x11, 0x00, 0x00, 0x00, 0x01, 0x00, 0x05,
  0x00, 0x04, 0x00, 0x00, 0x00, 0xea, 0x1e, 0x04, 0x0f, 0x11, 0xfe, 0x1a,
  0x05, 0x00, 0x00, 0x06, 0xe2, 0x00, 0x02, 0x04, 0x06, 0x02, 0x01, 0x00,
  0xff, 0x00, 0x00, 0x01, 0x00, 0xfe, 0x00, 0x04, 0x01, 0xcc, 0x00, 0x00,
  0x02, 0x00, 0x08, 0xdf, 0x00, 0x00, 0xe8, 0x00, 0x00, 0xff, 0x05, 0x05,
  0x02, 0x03, 0xf7, 0xff, 0xe8, 0x00, 0x00, 0x17, 0x00, 0xd4, 0x00, 0xda,
  0x00, 0x1f, 0xfe, 0x02, 0x00, 0x00, 0xfe, 0x1c, 0x00, 0xff, 0x01, 0x00,
  0x00, 0xf8, 0x00, 0x2c, 0x00, 0xfa, 0x05, 0x00, 0x00, 0x01, 0x00, 0x00,
  0xee, 0x02, 0x02, 0x1a, 0x04, 0x07, 0x00, 0xec, 0x00, 0x03, 0xe0, 0x00,
  0x00, 0x00, 0x04, 0x00, 0x01, 0x00, 0x00, 0x00, 0x00, 0x08, 0x00, 0x1b,
  0xde, 0x00, 0x05, 0x00, 0x05, 0xcb, 0x03, 0x01, 0x00, 0x1d, 0x00, 0x1c,
  0x00, 0x07, 0x00, 0xe6, 0x00, 0x00, 0xe8, 0xfe, 0x00, 0x0e, 0x00, 0xe9,
  0x00, 0x06, 0xff, 0x03, 0x10, 0x05, 0xfd, 0x00, 0x04, 0xe8, 0x00, 0x05,
  0x00, 0x00, 0xfc, 0x02, 0x05, 0xfe, 0xfc, 0x00, 0x04, 0x00, 0x00, 0xff,
  0x00, 0x00, 0x00, 0x04, 0x00, 0xfd, 0x00, 0x00, 0x02, 0x01, 0x06, 0xf0,
  0x00, 0x00, 0x00, 0x00, 0x00, 0x2d, 0x1d, 0x02, 0x01, 0xfc, 0xf4, 0x01,
  0x00, 0x00, 0x17, 0x00, 0x19, 0x09, 0x00, 0xc4, 0x00, 0x01, 0xea, 0xdf,
  0x00, 0xfb, 0x08, 0x06, 0x00, 0xe6, 0xff, 0xe4, 0xfc, 0xfc, 0x00, 0xfe,
  0x00, 0xfb, 0xe2, 0x00, 0xe6, 0xfd, 0x00, 0x00, 0xe9, 0xfb, 0x02, 0x1c,
  0x00, 0xfa, 0x00, 0xfc, 0x00, 0xfb, 0xe5, 0x00, 0x00, 0x00, 0xfd, 0x00,
  0x00, 0xfb, 0x00, 0x00, 0x00, 0x05, 0x00, 0x00, 0xfc, 0x00, 0xff, 0xe4,
  0xfb, 0xfb, 0xff, 0x00, 0x00, 0x00, 0x00, 0x00, 0x00, 0xff, 0x00, 0x00,
  0x00, 0xff, 0x00, 0xfa, 0x00, 0xe8, 0x00, 0x00, 0x00, 0xfb, 0x18, 0xfc,
  0xfc, 0xfe, 0x04, 0x00, 0xfc, 0xe5, 0xe2, 0xfc, 0xcd, 0xe5, 0xfc, 0xfb,
  0xfa, 0xfb, 0x00, 0x00, 0xff, 0x00, 0x00, 0xff, 0xe3, 0x00, 0x00, 0xfc,
  0xff, 0x02, 0x00, 0x00, 0xff, 0x00, 0xfb, 0x05, 0x00, 0xe9, 0x00, 0x00,
  0x00, 0xfc, 0x01, 0xef, 0xe8, 0x22, 0x02, 0xe9, 0x00, 0x00, 0x00, 0x00,
  0x00, 0x36, 0x00, 0xd9, 0x00, 0x00, 0x01, 0x00, 0x00, 0x02, 0x01, 0x1d,
  0xe8, 0xff, 0xe2, 0x00, 0x01, 0x45, 0x00, 0x1f, 0x00, 0x35, 0x01, 0x00,
  0x00, 0x00, 0x00, 0x00, 0x01, 0x01, 0x17, 0x00, 0xe6, 0x01, 0x00, 0x01,
  0x00, 0x00, 0x00, 0x00, 0x00, 0x00, 0x00, 0xff, 0x00, 0x01, 0x00, 0x00,
  0x00, 0x1e, 0x00, 0xe6, 0x04, 0x00, 0x01, 0xe4, 0x00, 0x01, 0x00, 0x00,
  0x00, 0x00, 0x00, 0x00, 0xd7, 0xff, 0x00, 0x00, 0x00, 0x00, 0x19, 0xe4,
  0x00, 0x05, 0x00, 0x00, 0x00, 0x01, 0xff, 0x01, 0x20, 0x01, 0x37, 0x00,
  0x08, 0x00, 0x00, 0xe9, 0xff, 0x00, 0x25, 0x02, 0x04, 0x00, 0xff, 0x00,
  0x1c, 0x00, 0x00, 0xff, 0x00, 0xdd, 0x00, 0xd7, 0xd2, 0x01, 0x00, 0x17,
  0x00, 0xca, 0x01, 0x1d, 0x00, 0x00, 0x00, 0x00, 0x00, 0x2c, 0x00, 0x00,
  0x00, 0x01, 0x01, 0xe9, 0xe5, 0x19, 0x00, 0x00, 0x00, 0x00, 0x00, 0x00,
  0xe3, 0x1d, 0x00, 0x00, 0x00, 0xe1, 0x00, 0x00, 0x00, 0x00, 0x00, 0x00,
  0x00, 0x00, 0xe7, 0x00, 0x00, 0x00, 0x00, 0x00, 0xde, 0x00, 0xd6, 0x00,
  0x00, 0x00, 0xe3, 0x00, 0x00, 0x00, 0x00, 0x00, 0x00, 0x00, 0x00, 0x00,
  0x00, 0x00, 0x00, 0xe8, 0x00, 0xda, 0x00, 0x00, 0x00, 0xd7, 0x00, 0x00,
  0xde, 0xe6, 0x00, 0x17, 0x00, 0xdb, 0x00, 0x00, 0x00, 0x00, 0x00, 0x00,
  0x00, 0x00, 0x00, 0x18, 0x00, 0x00, 0x00, 0x00, 0xe8, 0x00, 0x00, 0x00,
  0xe6, 0x00, 0x00, 0x00, 0x00, 0x00, 0xd5, 0x00, 0x00, 0x00, 0x00, 0x00,
  0x00, 0x00, 0xd5, 0x00, 0xe9, 0x00, 0x18, 0x00, 0x00, 0x00, 0x00, 0xe8,
  0xe8, 0x00, 0x00, 0x00, 0x00, 0x00, 0x00, 0x00, 0x00, 0x00, 0x00, 0x00,
  0x00, 0x00, 0x00, 0x00, 0xda, 0x20, 0x1f, 0x00, 0x00, 0xde, 0x00, 0x00,
  0x00, 0x00, 0x00, 0xe2, 0x00, 0x1b, 0x00, 0x39, 0x25, 0x24, 0x01, 0x00,
  0x00, 0x00, 0x24, 0xfb, 0x00, 0x00, 0x01, 0x00, 0x00, 0xe8, 0x00, 0x00,
  0x00, 0x01, 0xfb, 0x00, 0x29, 0x00, 0x00, 0x00, 0xec, 0x23, 0x00, 0x00,
  0xfe, 0xfe, 0x00, 0x00, 0xe7, 0x01, 0x00, 0x18, 0x00, 0x00, 0xff, 0x00,
  0x01, 0x00, 0x23, 0x00, 0x00, 0xf9, 0x00, 0x00, 0x01, 0x26, 0x01, 0x00,
  0x00, 0x23, 0xe0, 0xe0, 0x00, 0x20, 0x00, 0x00, 0x00, 0xeb, 0x00, 0x00,
  0x00, 0x01, 0x00, 0x00, 0x00, 0x24, 0x00, 0x01, 0x00, 0xfe, 0x18, 0xfd,
  0x07, 0x04, 0xfa, 0x00, 0xd1, 0x00, 0x00, 0xfe, 0x00, 0x00, 0xe1, 0x17,
  0xe2, 0x00, 0xe1, 0x00, 0x00, 0x00, 0x00, 0x01, 0x00, 0x01, 0x00, 0xfd,
  0x01, 0xff, 0x00, 0x1a, 0x01, 0x01, 0xe3, 0x12, 0x00, 0x00, 0x00, 0x1a,
  0xe7, 0x18, 0xff, 0xfa, 0x00, 0x00, 0x01, 0x01, 0x00, 0x00, 0x00, 0x18,
  0x00, 0x02, 0x00, 0x0c, 0x00, 0xff, 0xef, 0x03, 0x00, 0x02, 0x1d, 0x24,
  0x00, 0x00, 0xea, 0x00, 0x09, 0xf8, 0x00, 0x04, 0x00, 0xfe, 0x06, 0x00,
  0x00, 0x03, 0x00, 0x00, 0xc3, 0x07, 0x0b, 0x19, 0x03, 0x0b, 0x00, 0x05,
  0x00, 0xef, 0xe2, 0x00, 0x00, 0x00, 0x0b, 0xff, 0xfc, 0xe7, 0x00, 0x00,
  0x00, 0xfa, 0x00, 0x00, 0xfb, 0x00, 0x03, 0x00, 0x0a, 0x32, 0x04, 0x1a,
  0x00, 0x25, 0x00, 0x00, 0x1c, 0xe8, 0xd9, 0x00, 0x00, 0x01, 0x00, 0x19,
  0x00, 0x0b, 0x00, 0x01, 0x00, 0x0d, 0xff, 0x08, 0x09, 0x0c, 0xf9, 0x00,
  0xec, 0x1a, 0x00, 0x03, 0x00, 0x00, 0xff, 0x37, 0x08, 0x03, 0xff, 0x00,
  0x0d, 0xe2, 0x00, 0xff, 0x00, 0x01, 0x00, 0x06, 0x01, 0x1b, 0x00, 0x00,
  0xe4, 0x03, 0x09, 0x03, 0x00, 0x00, 0x00, 0x00, 0x00, 0x27, 0x04, 0xfa,
  0x02, 0x00, 0xfa, 0x01, 0x00, 0x00, 0xe9, 0x00, 0xc4, 0xf9, 0x00, 0xd9,
  0x00, 0xda, 0x17, 0xfa, 0x00, 0x02, 0xe5, 0xad, 0x00, 0xe9, 0xff, 0x00,
  0xfb, 0x2c, 0x00, 0xee, 0x19, 0xfc, 0xff, 0x00, 0x00, 0x01, 0x00, 0x00,
  0x3c, 0xfd, 0xfd, 0xc9, 0x1a, 0xc9, 0x00, 0xf7, 0x00, 0xfd, 0x19, 0x00,
  0x00, 0x00, 0x15, 0x00, 0x1b, 0xfc, 0xe3, 0x00, 0x00, 0x24, 0xe2, 0x00,
  0xfe, 0x00, 0xff, 0x00, 0xd9, 0xf5, 0xff, 0xff, 0xdb, 0x00, 0x00, 0x00,
  0xce, 0xc8, 0x00, 0x00, 0x00, 0x16, 0x00, 0xfb, 0xe3, 0xc4, 0x00, 0x1a,
  0x00, 0xf6, 0x01, 0xe3, 0xc6, 0x2c, 0x07, 0x00, 0xfd, 0x00, 0x19, 0xf8,
  0xff, 0xe9, 0xfc, 0xdf, 0xf9, 0x00, 0x04, 0x00, 0x03, 0x18, 0x00, 0x00,
  0xe9, 0x00, 0x19, 0xe3, 0xff, 0x1a, 0x00, 0x00, 0xfe, 0xfe, 0xf8, 0x1d,
  0x00, 0x00, 0x19, 0x00, 0x00, 0x15, 0xf5, 0xf9, 0x00, 0x1f, 0x07, 0xff,
  0x00, 0x00, 0xcd, 0x00, 0xe5, 0x00, 0xe1, 0x00, 0x00, 0x00, 0x00, 0x00,
  0x00, 0x00, 0x00, 0x00, 0x00, 0x00, 0x00, 0x00, 0x00, 0xe5, 0x00, 0xe4,
  0xe7, 0x00, 0xe7, 0x00, 0x00, 0x00, 0x00, 0x00, 0x00, 0x00, 0xe3, 0xe4,
  0xe6, 0x00, 0x00, 0x00, 0x00, 0x18, 0x00, 0x19, 0xe7, 0x00, 0x00, 0x00,
  0x00, 0x00, 0x00, 0x00, 0x00, 0x00, 0x17, 0x00, 0x00, 0x00, 0x00, 0x00,
  0x00, 0xe5, 0x00, 0xe9, 0x00, 0x00, 0x00, 0x00, 0x1a, 0x00, 0x17, 0x00,
  0x00, 0x00, 0x00, 0x00, 0xe9, 0x1f, 0x00, 0x00, 0x00, 0x00, 0x00, 0x00,
  0x19, 0x00, 0x00, 0x00, 0x00, 0x00, 0x00, 0x00, 0x00, 0x00, 0x00, 0x00,
  0x00, 0xe7, 0x00, 0xe7, 0x00, 0x00, 0x18, 0x00, 0xe5, 0x00, 0x00, 0x00,
  0x00, 0x00, 0x00, 0x00, 0x00, 0x18, 0xe6, 0x00, 0x00, 0x00, 0x00, 0x19,
  0x00, 0x00, 0x1a, 0x00, 0x00, 0x00, 0x00, 0x00, 0x00, 0x00, 0x00, 0x00,
  0xe4, 0x00, 0x19, 0x19, 0x00, 0x00, 0x00, 0xdf, 0x00, 0x00, 0x00, 0x00,
  0x00, 0x00, 0x00, 0x00, 0x00, 0x00, 0x00, 0xe8, 0x00, 0xd6, 0x00, 0x00,
  0x00, 0x00, 0x00, 0x00, 0xe5, 0xe8, 0x00, 0x00, 0x00, 0x00, 0xe8, 0x00,
  0x00, 0x00, 0x00, 0x00, 0x00, 0x00, 0x00, 0x00, 0x00, 0x00, 0xe9, 0x00,
  0x00, 0x00, 0x00, 0x00, 0x00, 0x00, 0x00, 0xe6, 0x00, 0xe2, 0x00, 0x00,
  0x00, 0x00, 0x00, 0x00, 0x19, 0x00, 0x00, 0x00, 0xe7, 0x00, 0x00, 0x00,
  0x00, 0xe8, 0x00, 0x00, 0x00, 0xe7, 0xe6, 0xe3, 0x00, 0xe0, 0x00, 0x00,
  0x00, 0x00, 0x00, 0xe5, 0x00, 0x00, 0x00, 0x19, 0x00, 0x00, 0x00, 0x00,
  0x00, 0x00, 0x18, 0x00, 0xdb, 0x00, 0x00, 0x00, 0x00, 0xe3, 0x00, 0x00,
  0xe2, 0x00, 0x00, 0x00, 0x00, 0x00, 0x00, 0xe7, 0x00, 0xe1, 0x00, 0x00,
  0x1a, 0x00, 0x00, 0x00, 0x00, 0x00, 0x00, 0x00, 0x00, 0x00, 0x00, 0x00,
  0x24, 0x00, 0x00, 0x00, 0x00, 0x00, 0x00, 0x00, 0x00, 0xe5, 0x00, 0xe7,
  0x00, 0xd9, 0x00, 0x00, 0xe7, 0x00, 0xe6, 0x00, 0x00, 0x00, 0x00, 0x00,
  0x00, 0x00, 0x00, 0x18, 0x00, 0x00, 0x00, 0x00, 0x00, 0x1d, 0xe6, 0x00,
  0x00, 0x00, 0x00, 0x28, 0x00, 0x00, 0x00, 0x00, 0x00, 0x00, 0x00, 0xe7,
  0x00, 0x00, 0x18, 0x00, 0x00, 0x00, 0x00, 0x00, 0x00, 0x00, 0x1c, 0xe5,
  0x00, 0x00, 0xe5, 0x00, 0x00, 0x00, 0x00, 0x00, 0x00, 0x00, 0x00, 0x00,
  0x00, 0x00, 0x00, 0x00, 0x00, 0x00, 0x00, 0x00, 0x00, 0x00, 0x00, 0x23,
  0x00, 0x00, 0xd7, 0x00, 0x00, 0x00, 0x00, 0x00, 0x00, 0x00, 0x00, 0x00,
  0x00, 0x00, 0x00, 0x00, 0xe6, 0x00, 0x00, 0x00, 0xe6, 0x00, 0x00, 0x00,
  0x00, 0x00, 0x00, 0x00, 0x00, 0x00, 0x00, 0x00, 0x00, 0x00, 0x00, 0x00,
  0x00, 0x00, 0xe8, 0x00, 0xdd, 0x19, 0xe7, 0xf4, 0x00, 0xf8, 0x02, 0xfa,
  0x00, 0x08, 0x0b, 0xe8, 0x00, 0x00, 0x01, 0x00, 0xf3, 0x20, 0x18, 0x01,
  0x00, 0xfd, 0xff, 0x00, 0xd5, 0x05, 0xdb, 0x00, 0x2f, 0xfe, 0xfc, 0x00,
  0x00, 0xdf, 0x00, 0xfd, 0x00, 0x04, 0x00, 0x00, 0x00, 0x00, 0xf8, 0xe8,
  0xff, 0xea, 0x00, 0x00, 0x00, 0xfc, 0x00, 0x00, 0xff, 0x00, 0x01, 0xe6,
  0xf8, 0xca, 0xff, 0xff, 0x00, 0x00, 0x00, 0x00, 0xe7, 0xfb, 0x00, 0x00,
  0xda, 0xff, 0x00, 0x07, 0x00, 0xb8, 0x00, 0x00, 0xe6, 0xfa, 0xe2, 0xfa,
  0xef, 0xe8, 0x28, 0x00, 0x05, 0xe6, 0x00, 0xcc, 0xff, 0x00, 0xfc, 0xfb,
  0xea, 0x0a, 0x07, 0x00, 0xf4, 0x00, 0x00, 0xe7, 0xde, 0xd6, 0x00, 0x12,
  0x17, 0x10, 0x00, 0x00, 0x1c, 0xff, 0x14, 0x1d, 0x00, 0x00, 0x00, 0x00,
  0xe6, 0x00, 0xf5, 0x03, 0x02, 0xfc, 0x0d, 0x00, 0x00, 0x00, 0x00, 0xdd,
  0x00, 0x2f, 0x19, 0x2c, 0x00, 0xfe, 0xd2, 0xfe, 0x00, 0xfd, 0xff, 0x00,
  0x00, 0xfe, 0x00, 0x00, 0xfd, 0xfe, 0x00, 0x02, 0x00, 0xfe, 0xff, 0x00,
  0x00, 0xfe, 0x1b, 0xe5, 0xfd, 0xff, 0x01, 0x00, 0x30, 0x00, 0x00, 0xff,
  0x00, 0xfd, 0x00, 0x00, 0x1a, 0x00, 0x01, 0xff, 0x01, 0x17, 0xe5, 0x1f,
  0x00, 0x00, 0x00, 0x00, 0xfe, 0x00, 0xfe, 0x00, 0xff, 0xfe, 0x00, 0x01,
  0x00, 0x00, 0x00, 0x00, 0xe0, 0x16, 0xe5, 0x19, 0xe4, 0x01, 0x00, 0xfd,
  0xde, 0xcf, 0x00, 0x01, 0x00, 0xdb, 0xff, 0xff, 0x01, 0xff, 0xe9, 0x00,
  0xdd, 0x00, 0x00, 0xe2, 0x00, 0x00, 0xfe, 0xff, 0xe6, 0xfd, 0xfd, 0x00,
  0x02, 0x00, 0x00, 0xff, 0x00, 0xff, 0x00, 0xff, 0x01, 0xff, 0x00, 0x00,
  0x00, 0x02, 0x00, 0xe8, 0x00, 0x00, 0x00, 0x00, 0x00, 0xfe, 0x01, 0xfe,
  0x00, 0xfe, 0x1a, 0x01, 0x00, 0x00, 0x00, 0x00, 0x00, 0xf3, 0x00, 0x05,
  0x00, 0xe6, 0xd8, 0x08, 0x00, 0x01, 0xfe, 0xea, 0x00, 0xff, 0x01, 0x18,
  0x06, 0x01, 0x00, 0x12, 0x00, 0xe4, 0x01, 0xe6, 0x00, 0xe7, 0xe8, 0x00,
  0xe4, 0x03, 0xfc, 0x23, 0x02, 0x08, 0x00, 0x07, 0x00, 0x04, 0x00, 0x00,
  0x00, 0x00, 0x03, 0xff, 0xd2, 0x04, 0x00, 0x00, 0x00, 0xee, 0x00, 0x1a,
  0x03, 0x00, 0x03, 0x00, 0x27, 0x25, 0x01, 0xff, 0x00, 0x00, 0x00, 0xe4,
  0x00, 0x41, 0x00, 0x00, 0xe5, 0x01, 0x00, 0x06, 0x18, 0x0e, 0x00, 0x01,
  0x00, 0x08, 0xff, 0x04, 0x20, 0xe7, 0xf8, 0x00, 0xec, 0x00, 0x00, 0x08,
  0xff, 0x00, 0x04, 0x05, 0x06, 0x1e, 0x00, 0x00, 0xf4, 0x00, 0x00, 0x00,
  0x00, 0xe3, 0x00, 0x03, 0x01, 0xfb, 0x00, 0x00, 0x01, 0x01, 0x06, 0xc6,
  0x00, 0x00, 0x00, 0x00, 0xe3, 0x02, 0x09, 0x29, 0x01, 0x07, 0xf5, 0x00,
  0x00, 0x00, 0x00, 0x00, 0x00, 0xf9, 0x00, 0xfc, 0x00, 0xfd, 0xf6, 0x1a,
  0xe7, 0xe0, 0x18, 0x11, 0x00, 0xfe, 0xfe, 0x00, 0xfa, 0xfc, 0x00, 0x07,
  0x00, 0xfc, 0x00, 0xe9, 0x00, 0xfe, 0xe7, 0x00, 0x00, 0xfe, 0xfc, 0x00,
  0x01, 0x01, 0xe8, 0x06, 0x00, 0xde, 0xe8, 0x00, 0x00, 0x00, 0xff, 0xff,
  0x05, 0xe1, 0x00, 0x00, 0x00, 0xf7, 0x00, 0x1a, 0xfc, 0x00, 0x00, 0x00,
  0x17, 0xfd, 0x01, 0x01, 0x00, 0x00, 0x00, 0x00, 0x00, 0x0c, 0x00, 0x00,
  0x00, 0x1c, 0x00, 0xfa, 0x00, 0xfc, 0x00, 0x01, 0x00, 0x00, 0x00, 0x00,
  0x01, 0xfa, 0xfe, 0x00, 0xfc, 0x00, 0x00, 0x06, 0xe8, 0x00, 0xfd, 0xff,
  0x00, 0xfa, 0xfe, 0xe6, 0xff, 0x00, 0x00, 0xff, 0x00, 0x01, 0x00, 0x00,
  0xe7, 0xfe, 0x00, 0x00, 0x00, 0x02, 0xff, 0xe0, 0x00, 0x00, 0x00, 0x00,
  0x00, 0xfc, 0x01, 0x03, 0xff, 0xfd, 0x00, 0x01, 0x00, 0x00, 0x00, 0x00,
  0x00, 0x00, 0x00, 0x00, 0x1c, 0x1c, 0x00, 0x00, 0x00, 0xdf, 0x00, 0xe4,
  0x00, 0x00, 0x00, 0x00, 0x00, 0x00, 0x00, 0xd6, 0x00, 0x00, 0x00, 0x00,
  0x00, 0x00, 0x00, 0x00, 0x00, 0x00, 0x00, 0x00, 0x00, 0x00, 0x00, 0x00,
  0x00, 0x00, 0x00, 0x00, 0x00, 0x00, 0x00, 0x19, 0x00, 0xe8, 0x00, 0x29,
  0x00, 0xca, 0x00, 0x00, 0xc1, 0x00, 0x00, 0x18, 0x00, 0xd0, 0x00, 0x00,
  0xe2, 0x00, 0x00, 0xd9, 0xe8, 0x00, 0x00, 0x00, 0x00, 0x00, 0x00, 0x00,
  0x00, 0xe7, 0x00, 0x00, 0x18, 0xe4, 0x00, 0x00, 0x00, 0x24, 0x00, 0x00,
  0x00, 0x00, 0x20, 0x00, 0x00, 0x17, 0x00, 0x00, 0xe8, 0x00, 0x00, 0x00,
  0x00, 0x00, 0x00, 0x00, 0x00, 0x00, 0x00, 0x1d, 0x00, 0x00, 0x00, 0x00,
  0x00, 0x00, 0x00, 0x00, 0x00, 0x00, 0x1a, 0x00, 0xe4, 0x00, 0x00, 0x00,
  0x00, 0xdd, 0x00, 0x00, 0x00, 0x19, 0xe2, 0x00, 0x00, 0xd4, 0x00, 0x04,
  0xe8, 0x09, 0xf9, 0x05, 0x00, 0xff, 0xfc, 0x1d, 0x00, 0x00, 0xff, 0x00,
  0x04, 0xfe, 0x00, 0x09, 0x00, 0x01, 0x02, 0x00, 0x00, 0xff, 0x00, 0xe5,
  0xea, 0x22, 0xd9, 0x00, 0xe2, 0x07, 0x00, 0x02, 0x00, 0x03, 0x00, 0x00,
  0x00, 0x00, 0x08, 0x00, 0x03, 0x01, 0x00, 0x00, 0x00, 0x08, 0x00, 0x00,
  0x00, 0x00, 0x01, 0x00, 0x0a, 0x09, 0x00, 0x01, 0x00, 0x00, 0xe6, 0x00,
  0x00, 0x0e, 0x00, 0x00, 0x00, 0xe8, 0x00, 0x02, 0x00, 0x14, 0xe9, 0x1b,
  0x00, 0x08, 0x01, 0x03, 0x15, 0xfa, 0xe7, 0x00, 0x03, 0x1a, 0x00, 0x04,
  0x00, 0x00, 0x02, 0x04, 0x07, 0x1c, 0xfb, 0x00, 0x08, 0xe7, 0x00, 0x00,
  0xe6, 0x00, 0xe7, 0x25, 0x01, 0x00, 0x00, 0xe6, 0x01, 0x01, 0x1f, 0x0b,
  0x00, 0x00, 0x00, 0x00, 0x00, 0xe4, 0x0b, 0x06, 0x01, 0x02, 0xf5, 0xff,
  0x00, 0x00, 0x00, 0x00, 0x00, 0xe6, 0x1a, 0x04, 0x00, 0x1c, 0x05, 0xe5,
  0x00, 0x00, 0x04, 0x0b, 0x00, 0xff, 0x00, 0x00, 0x00, 0xfb, 0xe6, 0xfa,
  0x00, 0xfe, 0x00, 0x00, 0x00, 0xe9, 0xe8, 0x00, 0xed, 0x02, 0x04, 0x00,
  0xfe, 0x01, 0xde, 0xfc, 0x00, 0x00, 0x00, 0x00, 0x00, 0x19, 0x06, 0x00,
  0x00, 0xfe, 0x00, 0x00, 0xe8, 0x02, 0xe6, 0x00, 0xfd, 0x00, 0x02, 0x00,
  0x00, 0x00, 0x01, 0x01, 0x00, 0x00, 0x00, 0x00, 0xe8, 0xee, 0x00, 0x00,
  0xdd, 0x01, 0x00, 0xff, 0x00, 0x20, 0x00, 0xe7, 0xdd, 0x01, 0xff, 0x00,
  0xf4, 0x02, 0xfb, 0x00, 0x02, 0x00, 0x17, 0xfb, 0x01, 0x00, 0xff, 0x00,
  0x02, 0xfd, 0x00, 0xe2, 0x06, 0x00, 0x00, 0xff, 0x00, 0xdd, 0x00, 0x00,
  0x01, 0x01, 0x00, 0xe5, 0x01, 0x01, 0xe9, 0x01, 0x00, 0x00, 0xe7, 0xe8,
  0x00, 0xfc, 0x03, 0xfa, 0x00, 0x1b, 0x05, 0x01, 0x00, 0x00, 0xe4, 0x00,
  0x00, 0x3f, 0xe8, 0x17, 0x00, 0xf9, 0x57, 0xfa, 0x00, 0xf8, 0xeb, 0xe2,
  0xe9, 0xe6, 0xff, 0xd8, 0x02, 0x1d, 0x00, 0xfe, 0x00, 0xfa, 0x01, 0xe6,
  0x00, 0x00, 0xe6, 0xc7, 0x36, 0xff, 0x10, 0xdd, 0xdb, 0xf6, 0x00, 0xd4,
  0x00, 0x04, 0x00, 0x00, 0x00, 0x00, 0xf9, 0x00, 0xfd, 0xdf, 0x00, 0x00,
  0x00, 0x01, 0x00, 0x00, 0xfc, 0x00, 0x01, 0x00, 0xf7, 0xf8, 0x00, 0xff,
  0x00, 0x00, 0x00, 0x00, 0x00, 0xe9, 0x00, 0x00, 0xe7, 0xff, 0x00, 0xf8,
  0x00, 0xbe, 0xd5, 0xff, 0xd3, 0x11, 0x01, 0xfa, 0xe9, 0x35, 0x11, 0x00,
  0x01, 0x00, 0x00, 0xce, 0xff, 0x00, 0x1e, 0xff, 0xfb, 0x06, 0x03, 0xe0,
  0x00, 0x00, 0x00, 0xe6, 0x00, 0x1f, 0xe5, 0xfc, 0x17, 0x00, 0xc7, 0x00,
  0xff, 0xff, 0xbd, 0x22, 0x00, 0x1b, 0x00, 0x00, 0x00, 0x15, 0xdc, 0xff,
  0x01, 0xe0, 0x06, 0x00, 0xde, 0x00, 0x00, 0x00, 0xe8, 0x00, 0x00, 0xfc,
  0x00, 0xba, 0x04, 0xff, 0x00, 0xfd, 0x00, 0x19, 0x00, 0x00, 0x00, 0x00,
  0xfe, 0xfd, 0x00, 0xfa, 0xe5, 0xfd, 0xfe, 0x00, 0xe6, 0x00, 0x00, 0x00,
  0x00, 0xc8, 0x00, 0x00, 0x00, 0xfc, 0x00, 0xfd, 0x00, 0xfe, 0x00, 0x00,
  0x00, 0x00, 0xdd, 0x00, 0x00, 0xfd, 0x00, 0x00, 0x00, 0x00, 0x00, 0x00,
  0xfd, 0x00, 0x00, 0x00, 0xd2, 0xe4, 0x00, 0x00, 0x00, 0x00, 0x00, 0x00,
  0x00, 0x00, 0x00, 0x00, 0x00, 0x00, 0x00, 0xfd, 0x00, 0xe8, 0x00, 0x00,
  0x00, 0xfd, 0x00, 0xfd, 0x00, 0x00, 0x00, 0x00, 0xfd, 0x00, 0xd7, 0xfd,
  0x00, 0x00, 0xfd, 0xfd, 0xe4, 0x00, 0x00, 0x00, 0xfc, 0x00, 0x00, 0x00,
  0x00, 0xd9, 0x00, 0xcf, 0x1a, 0xfd, 0x00, 0x00, 0x00, 0x00, 0xfc, 0xda,
  0x19, 0x00, 0x00, 0x00, 0xe5, 0xfd, 0x00, 0x07, 0x00, 0x19, 0x21, 0x00,
  0xde, 0x00, 0x00, 0x00, 0x00, 0x00, 0x00, 0x00, 0x00, 0x00, 0x00, 0xe2,
  0xe9, 0x00, 0x00, 0x00, 0x00, 0x00, 0xe0, 0x00, 0xe6, 0x00, 0xe7, 0x00,
  0x18, 0x00, 0x00, 0x00, 0x00, 0x00, 0x17, 0x00, 0xe8, 0x00, 0x00, 0x00,
  0x00, 0x00, 0x00, 0x00, 0x00, 0x00, 0x00, 0x00, 0x00, 0x00, 0x00, 0x00,
  0xe5, 0x00, 0x00, 0x1b, 0x00, 0x00, 0x00, 0x00, 0x00, 0x00, 0x00, 0xe0,
  0x00, 0x00, 0x00, 0xe6, 0x00, 0x00, 0x00, 0x00, 0x00, 0x00, 0xe6, 0x00,
  0x00, 0xe9, 0x00, 0xe4, 0x00, 0x00, 0x00, 0x00, 0x00, 0xe4, 0x00, 0x00,
  0x00, 0x17, 0xe0, 0x00, 0x00, 0x00, 0x00, 0x00, 0x00, 0x00, 0x00, 0x00,
  0x00, 0x00, 0xe2, 0x00, 0x00, 0x00, 0x00, 0x00, 0x00, 0x00, 0x00, 0x00,
  0x00, 0x00, 0x00, 0x00, 0xe5, 0x00, 0x00, 0x00, 0x00, 0x00, 0x00, 0x00,
  0xe8, 0x00, 0x00, 0x00, 0x00, 0x00, 0x00, 0x00, 0x00, 0x00, 0x00, 0x00,
  0x00, 0xfb, 0x00, 0xf9, 0x00, 0xd8, 0xf8, 0xfe, 0x00, 0xc2, 0xdf, 0xeb,
  0x00, 0xe9, 0xff, 0x00, 0x14, 0x17, 0x00, 0xff, 0x00, 0xf9, 0xfd, 0x00,
  0x00, 0xe5, 0x19, 0x00, 0xdb, 0xd4, 0xe0, 0x00, 0x04, 0xe0, 0x00, 0x02,
  0x00, 0xfb, 0x00, 0x00, 0x00, 0x00, 0x1a, 0x00, 0xff, 0xfc, 0x00, 0x00,
  0x1a, 0xf1, 0x00, 0x00, 0xf8, 0x00, 0xfe, 0x00, 0xfa, 0xfa, 0xfe, 0x2a,
  0xe5, 0x00, 0x00, 0x00, 0x00, 0x14, 0x00, 0x00, 0x00, 0xff, 0x00, 0xfd,
  0x00, 0xd2, 0x00, 0x2f, 0x00, 0xfa, 0x00, 0xfc, 0x11, 0xfe, 0xff, 0x00,
  0xd8, 0x00, 0x00, 0x02, 0xff, 0x00, 0xfa, 0xfa, 0xfd, 0xfc, 0xff, 0x00,
  0xfb, 0x00, 0x00, 0xff, 0x00, 0xcd, 0x00, 0xfc, 0xff, 0xfa, 0xd5, 0x00,
  0xe6, 0xff, 0xfa, 0xf7, 0x00, 0x00, 0x00, 0x00, 0xe9, 0xf8, 0x1d, 0x19,
  0xff, 0x12, 0xd6, 0x01, 0xe7, 0x00, 0xd2, 0xdc, 0x00, 0xe6, 0x00, 0xe5,
  0x00, 0xd0, 0x13, 0xf8, 0x1b, 0xf9, 0x06, 0x02, 0x00, 0xe8, 0xff, 0x00,
  0x01, 0xfc, 0x00, 0xfc, 0x00, 0xfb, 0xfe, 0x00, 0x00, 0xe7, 0x00, 0x19,
  0x02, 0xff, 0xee, 0xd5, 0xff, 0xff, 0x00, 0xe7, 0xe7, 0x03, 0x00, 0x00,
  0x00, 0x00, 0x1d, 0xff, 0x00, 0xfd, 0x00, 0x00, 0x00, 0x19, 0xca, 0x00,
  0xfc, 0x00, 0x00, 0xe2, 0x1b, 0x01, 0xe8, 0x00, 0x00, 0x00, 0x00, 0x00,
  0xd2, 0xfc, 0x00, 0x00, 0xe6, 0xff, 0x00, 0xf8, 0x00, 0xea, 0x00, 0x01,
  0x00, 0x00, 0x00, 0xfc, 0xfe, 0xfc, 0x12, 0x00, 0xfc, 0x00, 0x00, 0xb9,
  0xff, 0x00, 0xfb, 0xce, 0xfd, 0xde, 0x01, 0x00, 0x08, 0x00, 0x00, 0xe6,
  0x00, 0xff, 0x00, 0xfc, 0xff, 0x01, 0xe1, 0x00, 0xff, 0x01, 0xfd, 0xf5,
  0x00, 0x00, 0x00, 0x19, 0x00, 0xfc, 0x00, 0xf7, 0x18, 0x29, 0x0f, 0x00,
  0x00, 0x00, 0x00, 0x00, 0x00, 0x0f, 0x00, 0xbf, 0x00, 0xce, 0xaf, 0x09,
  0x00, 0xf0, 0xf9, 0xff, 0x1a, 0x00, 0x00, 0x00, 0xe2, 0xfb, 0xde, 0x10,
  0x00, 0xfd, 0xe9, 0x00, 0x00, 0xff, 0x00, 0x00, 0xca, 0xfe, 0xf2, 0x00,
  0x00, 0xff, 0x1a, 0xfb, 0x00, 0xf1, 0x00, 0x00, 0x00, 0x00, 0xf1, 0x00,
  0x07, 0xf2, 0x00, 0x00, 0x00, 0xf9, 0x00, 0x00, 0xfc, 0x00, 0xff, 0x00,
  0x02, 0xd0, 0x1b, 0x00, 0x00, 0x00, 0x00, 0x00, 0x00, 0x36, 0x00, 0x19,
  0x00, 0x18, 0x00, 0xeb, 0x00, 0x34, 0x00, 0x00, 0x28, 0xe4, 0x00, 0x00,
  0x00, 0xfb, 0xf8, 0x00, 0xfe, 0x00, 0x00, 0xfd, 0x00, 0x00, 0xfb, 0x1a,
  0x01, 0xf7, 0xff, 0x00, 0xce, 0x1a, 0x00, 0x00, 0x00, 0x1e, 0x00, 0x01,
  0x00, 0x0b, 0x00, 0x00, 0xff, 0xe7, 0xf8, 0x15, 0x00, 0x00, 0x00, 0x00,
  0x00, 0xfc, 0x29, 0x19, 0x00, 0x19, 0x01, 0x00, 0x1e, 0x00, 0x00, 0x00,
  0x00, 0x00, 0x00, 0x00, 0xe7, 0xe5, 0x00, 0x00, 0x00, 0x00, 0x00, 0x00,
  0x00, 0x00, 0x00, 0x00, 0x19, 0x00, 0x00, 0x00, 0x00, 0x00, 0x00, 0xe8,
  0x1c, 0x00, 0x00, 0x00, 0x00, 0x00, 0xe4, 0x00, 0xe3, 0x00, 0xe4, 0x00,
  0x00, 0x00, 0x00, 0x00, 0xe5, 0x00, 0x00, 0x00, 0x00, 0x00, 0x00, 0x00,
  0x00, 0xe6, 0x00, 0x00, 0x00, 0x00, 0x00, 0xe2, 0x00, 0xe1, 0x00, 0x00,
  0x00, 0xe3, 0x00, 0xdd, 0x00, 0xe2, 0x1a, 0x00, 0x00, 0x00, 0x00, 0x00,
  0x00, 0x00, 0x00, 0x00, 0x00, 0xe8, 0x00, 0xe8, 0x00, 0x17, 0x00, 0x00,
  0x00, 0x00, 0x00, 0x00, 0x00, 0x1a, 0xdc, 0x00, 0x00, 0x00, 0x00, 0x00,
  0x00, 0x00, 0x00, 0x00, 0x00, 0x00, 0x00, 0x00, 0x00, 0x00, 0xe5, 0x00,
  0x19, 0x00, 0x00, 0x00, 0x00, 0x00, 0xe6, 0x00, 0x00, 0x00, 0x00, 0x00,
  0x00, 0xe2, 0x00, 0x00, 0x00, 0x00, 0x00, 0x00, 0xe3, 0xb3, 0x00, 0xb6,
  0x00, 0xf1, 0x07, 0xfa, 0x00, 0xf7, 0xfe, 0x05, 0x00, 0xfe, 0x00, 0x00,
  0xf6, 0x13, 0x00, 0x01, 0x00, 0x0d, 0xe4, 0x00, 0x1e, 0xfd, 0x00, 0x00,
  0xe9, 0xfa, 0xf6, 0x00, 0xff, 0xf9, 0x00, 0xf9, 0x00, 0x14, 0x00, 0x00,
  0x00, 0x00, 0xf1, 0x00, 0xcb, 0xf5, 0x1a, 0x00, 0x00, 0xfe, 0x00, 0x00,
  0xf1, 0x00, 0xff, 0x00, 0xf3, 0xf0, 0x19, 0x01, 0x00, 0x00, 0x00, 0x00,
  0x00, 0xbe, 0x00, 0x00, 0xe5, 0x18, 0x00, 0xf1, 0x00, 0xf6, 0x00, 0x01,
  0xe3, 0xf8, 0xff, 0xf8, 0xe8, 0x16, 0xfc, 0x00, 0xfa, 0x00, 0x00, 0xf6,
  0x1d, 0x00, 0xf0, 0xf7, 0xf7, 0xf9, 0xf9, 0xe8, 0xfd, 0x00, 0x1c, 0xff,
  0x00, 0xfd, 0x00, 0xf9, 0x01, 0xf1, 0x00, 0x00, 0x01, 0x02, 0xf9, 0xfe,
  0x00, 0x00, 0x00, 0x00, 0x00, 0x0d, 0xed, 0xfa, 0xff, 0x0c, 0x05, 0x00,
  0x00, 0x00, 0x00, 0x00, 0xe9, 0x00, 0x00, 0xfd, 0xe5, 0x00, 0x00, 0xd6,
  0xe8, 0xda, 0x00, 0x1a, 0x00, 0xe5, 0x00, 0x00, 0xfd, 0xfd, 0x00, 0xfd,
  0x00, 0xfd, 0xfd, 0x00, 0x00, 0x00, 0x00, 0xe8, 0x00, 0xfd, 0x00, 0x18,
  0x1a, 0xfd, 0x00, 0xfd, 0x00, 0xfd, 0x1a, 0x00, 0x00, 0x00, 0x00, 0x00,
  0x00, 0xfd, 0x00, 0x00, 0x00, 0x00, 0x00, 0x00, 0xfd, 0x00, 0x00, 0x00,
  0xfd, 0xfd, 0xe8, 0x00, 0x00, 0xe7, 0x00, 0x00, 0x00, 0x00, 0x00, 0x00,
  0x00, 0x00, 0x00, 0xfd, 0x1f, 0x00, 0x00, 0x1c, 0x24, 0xfd, 0x00, 0xfd,
  0x00, 0x00, 0xd4, 0x00, 0xfd, 0x00, 0x00, 0x15, 0xce, 0x00, 0xfd, 0xfd,
  0xfd, 0xfd, 0x00, 0x00, 0x00, 0x00, 0x00, 0x00, 0xe4, 0x00, 0x00, 0xfd,
  0x00, 0xe3, 0x19, 0x00, 0x00, 0x00, 0xfd, 0x00, 0x00, 0x00, 0xe6, 0x00,
  0x17, 0xfd, 0x00, 0x00, 0x00, 0xfd, 0xe0, 0x00, 0x00, 0x00, 0x00, 0x00,
  0x00, 0xfb, 0x00, 0xfa, 0x00, 0x02, 0x07, 0xfe, 0x00, 0x1a, 0x02, 0xfa,
  0x00, 0xe9, 0x01, 0x00, 0xf6, 0x00, 0x00, 0xd0, 0x00, 0xff, 0xfb, 0x00,
  0x00, 0x00, 0x00, 0x00, 0x14, 0xf9, 0x1d, 0x00, 0x00, 0xf8, 0x00, 0x02,
  0x00, 0xf8, 0x00, 0x00, 0xe4, 0x00, 0xfe, 0x18, 0x06, 0x01, 0x00, 0x00,
  0x00, 0xe5, 0x1b, 0x00, 0xff, 0xe6, 0xff, 0x00, 0xf2, 0xf3, 0x00, 0x00,
  0xe7, 0xe5, 0x00, 0x00, 0x00, 0x00, 0x00, 0xe6, 0x00, 0xff, 0x00, 0x01,
  0x00, 0xf6, 0x00, 0x00, 0x00, 0xf5, 0x00, 0xfa, 0xf4, 0x06, 0xe7, 0x00,
  0xf9, 0x00, 0x00, 0x19, 0x00, 0x18, 0xfe, 0xf7, 0xfb, 0xfa, 0x06, 0x00,
  0xfc, 0x00, 0x00, 0x00, 0x00, 0x03, 0x00, 0xf8, 0xff, 0x06, 0x19, 0x19,
  0xfe, 0xe9, 0xfd, 0xfe, 0x00, 0x00, 0x00, 0x00, 0x00, 0x00, 0xff, 0xe4,
  0xe4, 0xfe, 0x06, 0xff, 0x00, 0x00, 0x00, 0x00, 0x00, 0xda, 0x00, 0xdc,
  0x00, 0xfd, 0xde, 0x00, 0x00, 0x00, 0x01, 0xfe, 0x00, 0x00, 0x01, 0x00,
  0x00, 0xfe, 0x00, 0x01, 0x00, 0xfe, 0x01, 0x00, 0x00, 0x01, 0x00, 0x00,
  0xfa, 0x01, 0xfd, 0x22, 0x1e, 0xe8, 0x00, 0xfe, 0x00, 0x00, 0x00, 0x00,
  0x1b, 0x00, 0x00, 0x19, 0x25, 0x00, 0x00, 0x00, 0x00, 0xff, 0x00, 0x00,
  0xfe, 0x00, 0x03, 0x00, 0x1d, 0xdb, 0x03, 0x00, 0x00, 0x00, 0x00, 0x00,
  0x24, 0x01, 0x00, 0x00, 0x00, 0x01, 0xe7, 0xff, 0x00, 0x01, 0x00, 0x01,
  0x00, 0x02, 0x00, 0x01, 0xf9, 0x01, 0xe3, 0x00, 0x1a, 0x00, 0x00, 0xe7,
  0x00, 0x00, 0xfe, 0x01, 0x02, 0xff, 0xff, 0x18, 0x1c, 0x00, 0x00, 0x01,
  0x00, 0xff, 0x00, 0x01, 0x1a, 0xfc, 0x00, 0xe6, 0x01, 0x01, 0x02, 0xe8,
  0x00, 0x19, 0x00, 0x00, 0x00, 0xd5, 0xe5, 0xfd, 0x02, 0x36, 0xfe, 0x01,
  0x00, 0x00, 0x00, 0x00, 0x00, 0xac, 0x00, 0x0a, 0xd7, 0xb8, 0xf0, 0x09,
  0x00, 0x0c, 0xff, 0xf9, 0x00, 0x01, 0x01, 0xe3, 0x06, 0xff, 0x00, 0xfe,
  0x00, 0x05, 0x0c, 0x00, 0x00, 0x05, 0x00, 0x00, 0xd8, 0x0b, 0x09, 0x00,
  0x03, 0x11, 0x00, 0x2e, 0x00, 0x24, 0x00, 0x00, 0x00, 0x00, 0x0b, 0xff,
  0xe7, 0x0b, 0x00, 0x00, 0x00, 0xfb, 0x00, 0xe7, 0xe9, 0x00, 0x06, 0x00,
  0x0e, 0xe5, 0x04, 0xff, 0x00, 0x00, 0x00, 0x00, 0x00, 0xfa, 0xe3, 0x00,
  0xe7, 0xff, 0x18, 0x0d, 0x00, 0x3f, 0x00, 0x01, 0x00, 0x11, 0x00, 0x0e,
  0x10, 0x10, 0xf2, 0x00, 0x0c, 0x17, 0xe6, 0x29, 0xff, 0x00, 0x24, 0x0a,
  0x0f, 0x05, 0x01, 0x00, 0x09, 0x00, 0x00, 0xff, 0x00, 0x00, 0x00, 0xf5,
  0xff, 0x28, 0xe8, 0x00, 0x02, 0x01, 0x12, 0x04, 0x00, 0x00, 0xe5, 0x00,
  0xe5, 0x37, 0x0a, 0xea, 0x03, 0xe3, 0xf7, 0x01, 0x00, 0x00, 0x00, 0x00,
  0x19, 0xe8, 0x00, 0xcb, 0x00, 0xe0, 0xdc, 0xfe, 0x00, 0xe4, 0x00, 0x00,
  0x17, 0x00, 0x00, 0x00, 0xfe, 0xfe, 0x00, 0xfe, 0x1a, 0xfe, 0xfe, 0x00,
  0x00, 0x00, 0x00, 0x00, 0xdb, 0xfe, 0x00, 0x00, 0x00, 0xfe, 0x00, 0x2d,
  0x00, 0x00, 0x00, 0xe5, 0x00, 0x00, 0xfe, 0x00, 0xdc, 0xfe, 0x00, 0xe1,
  0x00, 0x00, 0x00, 0x00, 0xd9, 0x00, 0xfe, 0x00, 0xfe, 0xfe, 0x00, 0xdf,
  0x00, 0x00, 0x00, 0x00, 0x00, 0x1d, 0x00, 0x00, 0x00, 0x00, 0xe8, 0xfe,
  0x00, 0x22, 0x00, 0x00, 0x00, 0xfe, 0x00, 0xfe, 0x21, 0x00, 0x00, 0x00,
  0xfe, 0x00, 0x00, 0xfe, 0x00, 0x00, 0xfe, 0xfe, 0xfe, 0xfe, 0xe6, 0x00,
  0xfe, 0x00, 0x00, 0x00, 0x00, 0x00, 0x00, 0xfe, 0x00, 0xfe, 0x00, 0x00,
  0x00, 0x00, 0xfe, 0x00, 0x00, 0x1b, 0x00, 0x00, 0x00, 0xfe, 0x18, 0xfe,
  0x00, 0xfe, 0x00, 0xe6, 0x00, 0x00, 0x00, 0x00, 0xe0, 0xf3, 0x00, 0xe0,
  0x00, 0x04, 0x12, 0xea, 0x00, 0x02, 0x02, 0xe5, 0x00, 0xe2, 0xe6, 0x00,
  0x04, 0x1b, 0xe5, 0xe6, 0x00, 0x04, 0x01, 0x00, 0x00, 0x01, 0xe9, 0x00,
  0x06, 0x01, 0x06, 0x00, 0x00, 0xfc, 0x00, 0xfe, 0x00, 0x05, 0x00, 0x19,
  0x00, 0x00, 0x02, 0x00, 0xfc, 0x04, 0xe6, 0xe4, 0x00, 0xfe, 0x00, 0x00,
  0x04, 0x00, 0x00, 0x00, 0xfb, 0xfe, 0x00, 0x00, 0x00, 0x00, 0x00, 0x00,
  0x00, 0xd5, 0x00, 0x00, 0x00, 0x00, 0x00, 0x01, 0x00, 0xe8, 0x00, 0xe5,
  0xdd, 0xfe, 0x00, 0x01, 0xe5, 0x2c, 0x00, 0x00, 0x00, 0x00, 0x00, 0xff,
  0x00, 0x00, 0x04, 0xfe, 0x01, 0x08, 0x02, 0x00, 0x0a, 0x00, 0x00, 0x00,
  0x00, 0x03, 0xe5, 0x00, 0x00, 0x0b, 0x00, 0x00, 0xfe, 0x00, 0xfd, 0xff,
  0x00, 0x00, 0x00, 0x00, 0x00, 0x04, 0xfc, 0xfa, 0x01, 0x03, 0x11, 0xff,
  0x00, 0x00, 0x00, 0x00, 0x18, 0x0e, 0x00, 0xfb, 0xd9, 0xf9, 0x23, 0xfc,
  0x00, 0xfe, 0x06, 0xee, 0x00, 0xfe, 0xff, 0xe1, 0xfd, 0x00, 0x00, 0xf9,
  0x00, 0xff, 0xfc, 0x00, 0xe8, 0xfd, 0x00, 0x00, 0x03, 0xfc, 0x02, 0x1a,
  0xfd, 0xfa, 0x00, 0xfc, 0x19, 0xfe, 0x18, 0x00, 0x00, 0x00, 0xfb, 0xff,
  0xfd, 0x00, 0x1e, 0x00, 0x00, 0xdc, 0x00, 0xe9, 0x00, 0x00, 0xfe, 0x00,
  0xf7, 0xdf, 0x01, 0x00, 0x00, 0x00, 0x00, 0x00, 0x23, 0xf4, 0x00, 0xe7,
  0x17, 0x00, 0x00, 0xff, 0x00, 0x0f, 0x00, 0x01, 0x18, 0xfc, 0x00, 0xfb,
  0x09, 0xf1, 0x02, 0xe8, 0xfa, 0xe6, 0x17, 0xfa, 0xff, 0x00, 0x25, 0x15,
  0xfc, 0x01, 0xfe, 0x00, 0xf8, 0x18, 0x00, 0xff, 0x00, 0xe0, 0x00, 0xfb,
  0xff, 0x01, 0x00, 0x00, 0xfd, 0x00, 0xe3, 0xfa, 0x19, 0x00, 0x00, 0x00,
  0x19, 0x00, 0xf7, 0xf9, 0x06, 0xfe, 0x0c, 0x00, 0x00, 0x00, 0x00, 0x00,
  0x00, 0x0c, 0x00, 0x23, 0x00, 0x0d, 0xed, 0x22, 0x00, 0x04, 0x01, 0x0d,
  0x00, 0x00, 0xe7, 0xe1, 0x08, 0xee, 0x00, 0x15, 0x00, 0x09, 0x08, 0x00,
  0x00, 0x04, 0xe5, 0x00, 0xf0, 0x22, 0x04, 0x00, 0xe6, 0x28, 0x00, 0x08,
  0x00, 0x05, 0x00, 0x00, 0x00, 0x00, 0x0a, 0xff, 0x03, 0x05, 0x00, 0x00,
  0x00, 0x04, 0x00, 0xe6, 0x07, 0x00, 0x06, 0x00, 0x10, 0x2a, 0x04, 0xe8,
  0x00, 0x00, 0x00, 0x00, 0x00, 0x04, 0x00, 0xe9, 0x00, 0x01, 0x00, 0x06,
  0xe8, 0x41, 0x00, 0x00, 0x00, 0x0e, 0xff, 0x0b, 0x26, 0x0a, 0xfc, 0x00,
  0x0a, 0x00, 0x00, 0x21, 0x00, 0x00, 0xf1, 0x0c, 0x0c, 0x02, 0xfe, 0x00,
  0xe6, 0x00, 0x00, 0xff, 0x00, 0xfe, 0x00, 0x22, 0x01, 0x03, 0x18, 0x00,
  0x03, 0xe9, 0x0d, 0x06, 0x00, 0x00, 0x00, 0x1a, 0x00, 0xec, 0x11, 0xf0,
  0x01, 0x08, 0xf6, 0xe7, 0x00, 0x00, 0xe8, 0x00, 0x00, 0x03, 0x00, 0xb7,
  0x00, 0xc4, 0x0a, 0xfd, 0x00, 0xde, 0x00, 0xe4, 0xe8, 0x00, 0x00, 0x00,
  0xfe, 0x2f, 0x00, 0xf2, 0x00, 0xfd, 0xfb, 0x00, 0x00, 0xfd, 0x00, 0x00,
  0x06, 0xc9, 0x03, 0x00, 0xff, 0xfa, 0xe7, 0x20, 0x00, 0x00, 0x00, 0x00,
  0x17, 0x00, 0x01, 0xff, 0x00, 0x13, 0x00, 0x00, 0x00, 0xfc, 0x00, 0x00,
  0xfd, 0x00, 0xe2, 0x00, 0xfb, 0xfc, 0x19, 0x01, 0x00, 0x00, 0x00, 0x00,
  0x19, 0xd5, 0x1a, 0x00, 0x00, 0x01, 0x00, 0xf8, 0x00, 0x28, 0x00, 0x01,
  0x00, 0xfb, 0xff, 0xfb, 0xea, 0x15, 0xfc, 0x17, 0xf6, 0x00, 0x00, 0xf3,
  0x01, 0x00, 0x1b, 0xfa, 0xf5, 0xfd, 0xff, 0x00, 0x05, 0xdf, 0x00, 0xff,
  0x00, 0xc6, 0x00, 0xfb, 0x01, 0x01, 0x00, 0x00, 0x02, 0x01, 0xf9, 0xfb,
  0x00, 0x00, 0x00, 0x00, 0x00, 0x1a, 0xff, 0xfe, 0x02, 0xfb, 0x25, 0x01,
  0x00, 0x00, 0x00, 0x00, 0x00, 0xe8, 0x00, 0x19, 0x00, 0xe6, 0xe8, 0xe7,
  0x00, 0x00, 0x00, 0x00, 0x00, 0x00, 0x00, 0x00, 0x00, 0x00, 0x00, 0x00,
  0x00, 0x00, 0x00, 0x00, 0x00, 0x00, 0x00, 0x00, 0x00, 0x00, 0x00, 0x00,
  0x00, 0x00, 0x00, 0x00, 0x00, 0x00, 0x00, 0x00, 0xe4, 0x00, 0x00, 0x00,
  0x00, 0x00, 0x00, 0x00, 0x00, 0x00, 0x00, 0x00, 0x00, 0x00, 0x00, 0x00,
  0x00, 0x00, 0x00, 0x00, 0x00, 0x00, 0x00, 0xe9, 0x00, 0x00, 0x00, 0x1a,
  0x00, 0xe8, 0xe8, 0x00, 0x00, 0x00, 0x00, 0xe2, 0x00, 0xe5, 0x00, 0x00,
  0x00, 0x1a, 0xe8, 0x00, 0x00, 0x00, 0x00, 0x00, 0x00, 0x00, 0xe1, 0x00,
  0x00, 0x00, 0x00, 0x00, 0x00, 0x00, 0x17, 0x00, 0x00, 0x00, 0x00, 0x00,
  0x00, 0x00, 0x00, 0x00, 0x00, 0x00, 0x00, 0x00, 0x1b, 0xe1, 0xe7, 0x00,
  0x00, 0x00, 0x00, 0xdf, 0xe7, 0x00, 0xdf, 0x18, 0x00, 0x19, 0x00, 0x00,
  0x00, 0xe3, 0x00, 0x39, 0x00, 0xfc, 0xf5, 0x00, 0x00, 0xff, 0xff, 0x13,
  0x00, 0x00, 0xff, 0x00, 0xfa, 0x18, 0x00, 0xff, 0x00, 0xf9, 0xe6, 0x00,
  0x00, 0x00, 0x00, 0x00, 0xf0, 0xe4, 0x0b, 0xde, 0x02, 0x1d, 0x00, 0xff,
  0x00, 0xfd, 0x00, 0x00, 0x00, 0x00, 0x23, 0x01, 0x00, 0xe2, 0xe6, 0x00,
  0x00, 0x1b, 0xe3, 0xe7, 0xf7, 0x00, 0x00, 0x00, 0xfd, 0xfc, 0xff, 0x00,
  0x00, 0xe3, 0x00, 0xe1, 0x00, 0xfa, 0x00, 0x00, 0xdf, 0xff, 0x00, 0xe2,
  0xe3, 0xc5, 0x00, 0x1b, 0x00, 0xfe, 0xff, 0xfc, 0xde, 0xf9, 0x30, 0x00,
  0x00, 0x00, 0x17, 0xfc, 0x01, 0x00, 0x21, 0xfb, 0xfc, 0xfd, 0x00, 0x00,
  0xf7, 0x00, 0x00, 0xff, 0xd3, 0x00, 0x00, 0xfc, 0xff, 0xf7, 0x00, 0x19,
  0xff, 0xff, 0xfe, 0x26, 0x00, 0x00, 0x00, 0x00, 0x00, 0xf6, 0x1b, 0x05,
  0xff, 0x2c, 0x02, 0x01, 0x00, 0x00, 0x00, 0x00, 0x00, 0x00, 0x00, 0x00,
  0x00, 0x00, 0x00, 0x00, 0x00, 0x00, 0x00, 0x00, 0x00, 0x00, 0x00, 0x1d,
  0x00, 0x00, 0x00, 0x00, 0x00, 0xe8, 0xe7, 0x00, 0x00, 0x00, 0xe6, 0x00,
  0x00, 0x00, 0x00, 0xe6, 0x00, 0xda, 0xe4, 0x00, 0x00, 0x00, 0x00, 0x00,
  0x18, 0x00, 0x00, 0x00, 0x2e, 0x00, 0x00, 0x00, 0x00, 0x00, 0x00, 0x00,
  0xe2, 0x00, 0x18, 0x00, 0x00, 0xe8, 0x00, 0xe7, 0x00, 0x19, 0x00, 0x00,
  0x00, 0x00, 0x00, 0xe9, 0x00, 0x00, 0x00, 0x00, 0x00, 0x00, 0x1b, 0xe0,
  0x1e, 0x00, 0x00, 0x00, 0x00, 0x00, 0x00, 0x00, 0xdb, 0x00, 0x1d, 0x00,
  0xe3, 0x00, 0xe2, 0x00, 0x19, 0x00, 0x17, 0x00, 0x00, 0x00, 0x00, 0x00,
  0x00, 0xe1, 0x00, 0x00, 0x00, 0x00, 0x1f, 0x00, 0x00, 0x00, 0xe3, 0x00,
  0x00, 0x00, 0x00, 0x00, 0x00, 0x00, 0x00, 0x1d, 0xe4, 0x00, 0xca, 0x00,
  0x00, 0x00, 0x00, 0x00, 0x00, 0xdf, 0x00, 0x00, 0x00, 0x00, 0x00, 0x00,
  0x00, 0x00, 0x00, 0x00, 0x00, 0x00, 0x00, 0x00, 0x00, 0x00, 0x00, 0x00,
  0x00, 0x00, 0x00, 0x00, 0xe8, 0x00, 0x00, 0x00, 0x00, 0x00, 0x00, 0x00,
  0x00, 0x00, 0x00, 0x00, 0x00, 0xe2, 0x00, 0x00, 0xe6, 0xe5, 0x00, 0x00,
  0x00, 0x00, 0xe3, 0xe5, 0x00, 0x00, 0x00, 0x00, 0x00, 0x00, 0x00, 0x00,
  0x00, 0x00, 0x18, 0x00, 0xe5, 0x00, 0x00, 0x00, 0xe5, 0xde, 0x00, 0x1b,
  0x00, 0x00, 0x00, 0x00, 0xe1, 0x00, 0x00, 0x00, 0xe8, 0x1b, 0x00, 0x00,
  0x00, 0x00, 0x00, 0x00, 0x00, 0x00, 0x00, 0x00, 0x00, 0x00, 0x00, 0x00,
  0x00, 0x00, 0x00, 0xe0, 0x00, 0x00, 0x00, 0x00, 0x00, 0x00, 0x00, 0x00,
  0x00, 0x00, 0x00, 0x00, 0x00, 0xe4, 0x00, 0x00, 0x00, 0x00, 0x00, 0x00,
  0x00, 0xe1, 0x00, 0x00, 0x00, 0x00, 0x00, 0x00, 0xe8, 0x00, 0x00, 0xe6,
  0x00, 0x00, 0x00, 0x00, 0x00, 0x19, 0xfe, 0xff, 0x00, 0xe2, 0x00, 0x00,
  0x18, 0x00, 0x00, 0x00, 0xff, 0xe3, 0x00, 0xe4, 0x00, 0xff, 0xff, 0x00,
  0x00, 0xff, 0x00, 0x00, 0x00, 0xe7, 0x00, 0x00, 0x00, 0x19, 0x00, 0xe6,
  0x00, 0xe7, 0xe0, 0x00, 0x00, 0x00, 0xff, 0x00, 0x00, 0xff, 0x00, 0x00,
  0x00, 0x00, 0x00, 0xe9, 0xff, 0xe6, 0xff, 0x00, 0xff, 0xff, 0xff, 0x00,
  0x00, 0x00, 0x00, 0x00, 0x19, 0x00, 0x00, 0x00, 0xe3, 0x00, 0x00, 0xff,
  0xe5, 0xff, 0x00, 0x00, 0x00, 0x00, 0x00, 0xff, 0x00, 0x00, 0xe6, 0x00,
  0xfe, 0x00, 0x00, 0x01, 0x00, 0x00, 0xde, 0xff, 0xff, 0xe5, 0x00, 0x00,
  0xff, 0x00, 0x00, 0x00, 0x00, 0x00, 0x00, 0xff, 0x00, 0xff, 0x00, 0x00,
  0x00, 0x00, 0xff, 0xff, 0xe5, 0x00, 0x00, 0x00, 0x00, 0xff, 0xff, 0x00,
  0x00, 0x1d, 0x00, 0x00, 0x00, 0x00, 0x00, 0x00, 0x1e, 0x7f, 0x00, 0x4b,
  0xe6, 0xfa, 0x75, 0xde, 0x00, 0xfa, 0x03, 0xdd, 0x00, 0xff, 0x01, 0x00,
  0x24, 0x08, 0x00, 0xe6, 0x00, 0x07, 0xed, 0x00, 0x00, 0x03, 0xe2, 0x00,
  0x10, 0x07, 0x13, 0x1a, 0x00, 0x07, 0x00, 0xe8, 0x00, 0x0d, 0x18, 0x00,
  0x00, 0x00, 0x12, 0xff, 0xde, 0x09, 0x00, 0x00, 0x00, 0x25, 0x00, 0x00,
  0xec, 0x00, 0x02, 0xe5, 0x0c, 0x3e, 0x04, 0x00, 0x00, 0x00, 0x00, 0x00,
  0x00, 0x1e, 0x00, 0x00, 0x00, 0xff, 0x00, 0x09, 0x00, 0xe0, 0x00, 0xff,
  0x00, 0x08, 0x00, 0xea, 0xf1, 0x05, 0xf2, 0x00, 0x09, 0x00, 0x00, 0xe9,
  0x00, 0x18, 0x21, 0x23, 0x07, 0x04, 0xf9, 0x00, 0x10, 0x00, 0x00, 0x01,
  0x00, 0x00, 0x00, 0x08, 0xff, 0xef, 0xdc, 0x00, 0xff, 0x01, 0x07, 0x0d,
  0x00, 0x00, 0x00, 0x00, 0xe3, 0xe5, 0x09, 0xf3, 0x01, 0xe4, 0x03, 0x00,
  0x00, 0x00, 0x00, 0x00, 0xe1, 0xe2, 0xe6, 0x00, 0x00, 0x00, 0x00, 0x00,
  0x1a, 0x00, 0x00, 0x00, 0x00, 0x00, 0x00, 0x00, 0x00, 0x00, 0x00, 0x00,
  0xe9, 0x00, 0x00, 0x00, 0x00, 0x00, 0x00, 0xe4, 0xe8, 0x00, 0xe1, 0x00,
  0x17, 0x00, 0x00, 0x00, 0x00, 0x00, 0x00, 0x00, 0x00, 0x00, 0x00, 0xe8,
  0xc3, 0x00, 0xdc, 0x00, 0x00, 0xe8, 0x00, 0x00, 0xd2, 0x00, 0x00, 0x00,
  0x00, 0x00, 0x00, 0xc8, 0x00, 0x00, 0x00, 0x00, 0x00, 0x00, 0x00, 0x18,
  0xe2, 0x00, 0x00, 0x00, 0x00, 0x00, 0x00, 0xdf, 0x00, 0xe6, 0x00, 0xe9,
  0x00, 0x00, 0x00, 0x00, 0x00, 0x1b, 0x00, 0x00, 0x1b, 0x00, 0x1c, 0x18,
  0x00, 0x00, 0x00, 0x00, 0x00, 0x18, 0x19, 0x00, 0x00, 0x00, 0x00, 0x00,
  0x00, 0x00, 0xe7, 0x00, 0x00, 0x00, 0x00, 0x00, 0x00, 0x00, 0x00, 0x00,
  0x00, 0x00, 0x00, 0x00, 0x00, 0x00, 0x00, 0x00, 0x00, 0x00, 0x00, 0x00,
  0x00, 0x12, 0x00, 0xff, 0x00, 0xfb, 0xf9, 0xfc, 0x00, 0xfc, 0x00, 0xfa,
  0x00, 0xd0, 0xe6, 0x00, 0xfb, 0xf9, 0x00, 0xfe, 0x00, 0xfa, 0xfc, 0x00,
  0x00, 0x00, 0x00, 0xe9, 0x01, 0xfb, 0xff, 0x00, 0x00, 0xfb, 0xe6, 0xfb,
  0x00, 0xfb, 0x00, 0x00, 0x00, 0x00, 0xfe, 0x00, 0xff, 0xd8, 0x00, 0x19,
  0x00, 0xfa, 0x00, 0x18, 0xf9, 0x00, 0x00, 0x00, 0xe1, 0xe1, 0xff, 0xff,
  0x00, 0x00, 0x00, 0x00, 0x00, 0xda, 0x00, 0x00, 0x24, 0x00, 0x00, 0xfa,
  0x00, 0xe0, 0x00, 0x00, 0x18, 0xfa, 0x00, 0x12, 0x28, 0xfd, 0xd8, 0x00,
  0xfc, 0x18, 0x00, 0xfb, 0xff, 0x00, 0x12, 0xfb, 0xf9, 0xfc, 0xff, 0x00,
  0xfe, 0x00, 0x00, 0x00, 0x00, 0x00, 0x00, 0xfb, 0xe6, 0xfa, 0x00, 0x00,
  0x00, 0xe3, 0xfc, 0xf9, 0x00, 0x00, 0xe7, 0xe5, 0x00, 0x15, 0xfc, 0xf5,
  0xff, 0xfa, 0xd2, 0x00, 0xe8, 0x00, 0x00, 0x00, 0x21, 0xd5, 0x00, 0xc7,
  0x00, 0xe8, 0x1b, 0x03, 0xe6, 0x04, 0xff, 0xed, 0x00, 0x00, 0x01, 0x00,
  0xe4, 0x1d, 0x00, 0x00, 0x00, 0x01, 0x04, 0x00, 0x00, 0x02, 0x00, 0x00,
  0xef, 0xea, 0x05, 0x00, 0xd8, 0x07, 0x00, 0x0a, 0xe6, 0xfe, 0x00, 0x00,
  0x00, 0x00, 0x06, 0x00, 0x01, 0x02, 0x00, 0x00, 0x19, 0x02, 0xe4, 0x00,
  0xff, 0x00, 0x1e, 0xdc, 0x04, 0x04, 0x02, 0x01, 0x00, 0x00, 0x00, 0xe7,
  0x17, 0x01, 0x00, 0x00, 0x00, 0x01, 0x00, 0x04, 0x00, 0x0b, 0x00, 0x01,
  0x00, 0x06, 0xff, 0xee, 0x15, 0xfb, 0xf4, 0x00, 0x07, 0x18, 0x19, 0x09,
  0x00, 0xe8, 0x02, 0x03, 0x06, 0x15, 0x00, 0x00, 0x04, 0xe7, 0x00, 0x01,
  0x00, 0xd9, 0x00, 0x04, 0xdf, 0xff, 0x00, 0x00, 0x02, 0xe5, 0x2d, 0x1f,
  0x00, 0x00, 0x00, 0x00, 0x00, 0xfe, 0x06, 0x1c, 0x00, 0x22, 0xfd, 0x01,
  0x00, 0x00, 0xe5, 0x00, 0xe3, 0x00, 0xe8, 0x00, 0x00, 0xe3, 0x00, 0x00,
  0x00, 0xd6, 0xdd, 0x00, 0x00, 0xe0, 0xe1, 0x00, 0x00, 0x00, 0x00, 0x00,
  0x00, 0x00, 0x19, 0x00, 0x00, 0x00, 0x00, 0x00, 0xc9, 0x00, 0x00, 0xe8,
  0x00, 0xe5, 0x00, 0x00, 0x00, 0x00, 0x00, 0x00, 0xe9, 0xe6, 0x00, 0x00,
  0x00, 0x00, 0x00, 0x00, 0xe6, 0x00, 0x00, 0x00, 0x00, 0xe7, 0x00, 0x00,
  0xe2, 0x00, 0x19, 0x00, 0x00, 0xe9, 0xe9, 0x00, 0xe0, 0xe6, 0x00, 0x00,
  0x1f, 0x00, 0x00, 0x00, 0x00, 0xe7, 0x00, 0x00, 0x00, 0xe7, 0xe1, 0x00,
  0x1f, 0x00, 0x00, 0x00, 0x00, 0x00, 0x00, 0x00, 0x00, 0x00, 0x00, 0x00,
  0x00, 0x00, 0x00, 0x00, 0x00, 0x00, 0x00, 0x00, 0x00, 0x00, 0x00, 0x00,
  0xe8, 0x00, 0x00, 0x00, 0x00, 0x00, 0x00, 0x1b, 0x00, 0x00, 0x00, 0x00,
  0x00, 0x00, 0x00, 0x00, 0x00, 0x00, 0xe1, 0x00, 0xe5, 0x00, 0xe5, 0x00,
  0x00, 0x3f, 0x00, 0x0e, 0x00, 0xd5, 0x19, 0x19, 0xe8, 0xfe, 0x02, 0xd9,
  0x00, 0x01, 0x01, 0xd4, 0xfb, 0xff, 0x00, 0xd7, 0x00, 0x1f, 0xfd, 0x00,
  0x00, 0x00, 0x00, 0xe7, 0xfa, 0xfc, 0xfd, 0x00, 0x21, 0xf6, 0x00, 0xcb,
  0x00, 0xfc, 0x00, 0x00, 0x00, 0x1a, 0xfd, 0x00, 0xfc, 0xfb, 0x00, 0x2a,
  0x00, 0x03, 0x00, 0x00, 0x17, 0xdb, 0x18, 0x00, 0xf5, 0xf6, 0x19, 0xff,
  0x00, 0x00, 0x00, 0x00, 0x00, 0xdc, 0x00, 0x00, 0x00, 0xff, 0x00, 0x1a,
  0x00, 0xc6, 0xe2, 0xc7, 0x00, 0xce, 0xdd, 0xfa, 0xbc, 0x2e, 0x20, 0x00,
  0xd4, 0x00, 0x00, 0xf8, 0xff, 0x00, 0xfc, 0x1e, 0xdf, 0x1b, 0x01, 0x00,
  0x1f, 0x00, 0x00, 0x01, 0xe1, 0x00, 0x00, 0xfb, 0xff, 0x04, 0x99, 0x00,
  0x18, 0xfe, 0xf7, 0x00, 0x00, 0x00, 0x00, 0x00, 0x00, 0x18, 0xf8, 0x1b,
  0x00, 0xfa, 0x0b, 0xff, 0xe6, 0x00, 0x00, 0x00, 0x00, 0xff, 0x00, 0x00,
  0x00, 0x00, 0xfb, 0xff, 0x00, 0xff, 0xfe, 0xe7, 0x00, 0x00, 0xe6, 0x00,
  0x01, 0xfe, 0x00, 0x00, 0x00, 0xfe, 0xff, 0x1a, 0x00, 0x00, 0x00, 0xe7,
  0x00, 0xff, 0x00, 0x00, 0x00, 0xff, 0x00, 0x00, 0x00, 0x01, 0x00, 0x00,
  0x18, 0xe7, 0x01, 0x00, 0x00, 0x00, 0x00, 0x00, 0x00, 0xe7, 0x00, 0x00,
  0xfe, 0x00, 0x00, 0x00, 0xfe, 0xff, 0x00, 0x00, 0x17, 0x00, 0x19, 0x00,
  0x1b, 0xfe, 0x00, 0x00, 0x00, 0x00, 0x17, 0xe7, 0x00, 0x00, 0x00, 0x00,
  0x00, 0xff, 0x00, 0x17, 0x00, 0x00, 0x00, 0x00, 0xff, 0x1a, 0x00, 0x00,
  0x00, 0x00, 0xfe, 0xff, 0xff, 0x00, 0xff, 0x00, 0xe2, 0x00, 0x00, 0xe6,
  0x00, 0x00, 0x17, 0xff, 0x00, 0xff, 0xe8, 0x00, 0x00, 0x00, 0xff, 0x00,
  0x00, 0xe6, 0x00, 0x00, 0x00, 0xfe, 0x00, 0x00, 0xe6, 0xfe, 0x02, 0x00,
  0x00, 0x00, 0x00, 0x00, 0x00, 0x07, 0x00, 0xe4, 0x00, 0xfc, 0xfe, 0xfd,
  0x00, 0x00, 0x00, 0xff, 0x00, 0x00, 0xff, 0x00, 0xfd, 0xfe, 0x00, 0x00,
  0x18, 0xfd, 0x00, 0x00, 0x00, 0xfe, 0xe7, 0x00, 0x03, 0xfe, 0xfe, 0x00,
  0xfd, 0x16, 0x00, 0xff, 0x00, 0xfc, 0x00, 0x00, 0x00, 0x00, 0x16, 0x00,
  0xff, 0xfd, 0x00, 0x00, 0x00, 0x03, 0x00, 0x00, 0xfd, 0xe7, 0xfe, 0x00,
  0xfd, 0xfd, 0xfe, 0xff, 0x00, 0x00, 0x00, 0x00, 0xe7, 0x01, 0x00, 0x17,
  0x00, 0xff, 0xe7, 0xfd, 0x00, 0xfc, 0x00, 0xe6, 0x00, 0xe2, 0x1b, 0xe5,
  0xfc, 0xfe, 0x03, 0xe6, 0x01, 0x00, 0x00, 0xff, 0x1a, 0x00, 0xfd, 0xe3,
  0x00, 0xfd, 0x02, 0x00, 0xfe, 0x00, 0x00, 0xff, 0x00, 0xfd, 0xe5, 0xfe,
  0xff, 0xfd, 0xe4, 0x00, 0xff, 0xe6, 0xe5, 0xe9, 0x1b, 0xe5, 0x00, 0x00,
  0xe3, 0xfe, 0xfc, 0x02, 0xe5, 0x15, 0xff, 0xe7, 0x19, 0x00, 0x00, 0x00,
  0x00, 0xef, 0xe5, 0x18, 0x00, 0x05, 0xf8, 0xec, 0x19, 0xfd, 0x1d, 0x38,
  0x00, 0x1a, 0x00, 0x00, 0x07, 0xfd, 0x00, 0x0d, 0x00, 0x1f, 0x08, 0x18,
  0x19, 0x03, 0x00, 0x00, 0xde, 0x07, 0x0e, 0x00, 0x04, 0x28, 0x00, 0xda,
  0x00, 0x04, 0x00, 0x00, 0x00, 0xe7, 0x12, 0xff, 0x03, 0x01, 0x00, 0x00,
  0x00, 0x05, 0x00, 0x00, 0x00, 0x00, 0x03, 0xe7, 0x11, 0x3f, 0x03, 0x01,
  0x00, 0x00, 0x00, 0x00, 0x17, 0x1e, 0xd2, 0x00, 0x00, 0x00, 0x00, 0x00,
  0x00, 0x23, 0x00, 0x01, 0x00, 0x0f, 0xff, 0x09, 0x38, 0xf4, 0xfb, 0xe8,
  0x08, 0x00, 0x00, 0x04, 0x19, 0x00, 0x03, 0x0b, 0x0b, 0xff, 0xfd, 0x00,
  0x11, 0xe7, 0x00, 0xff, 0x00, 0xe9, 0x00, 0xef, 0xe2, 0x01, 0xe8, 0x00,
  0x02, 0x02, 0x0a, 0x0c, 0x00, 0x00, 0x00, 0x00, 0x00, 0x00, 0x15, 0x05,
  0xe6, 0x23, 0xf3, 0x01, 0xe0, 0x00, 0x00, 0x1b, 0x00, 0x00, 0x00, 0x00,
  0x00, 0x00, 0x00, 0x00, 0x00, 0x00, 0x00, 0xe7, 0x00, 0x00, 0x00, 0xe6,
  0x00, 0xe8, 0x00, 0x00, 0xe5, 0x00, 0x00, 0x00, 0x00, 0x00, 0x00, 0x00,
  0x00, 0x00, 0x00, 0x00, 0x00, 0x00, 0x00, 0x00, 0x00, 0x00, 0x00, 0xe7,
  0x00, 0x00, 0x00, 0x00, 0x00, 0x00, 0x00, 0x00, 0x00, 0x00, 0x00, 0x00,
  0x00, 0x00, 0x00, 0xe4, 0xe8, 0xe8, 0x00, 0x00, 0x00, 0x00, 0x00, 0x00,
  0x00, 0xe4, 0x00, 0x00, 0x00, 0x00, 0x00, 0xdf, 0x00, 0x00, 0x00, 0x00,
  0x00, 0x00, 0x00, 0x00, 0x00, 0x00, 0x00, 0x00, 0x00, 0x00, 0x00, 0x00,
  0x00, 0xe7, 0x00, 0x00, 0x00, 0x1b, 0x00, 0x00, 0xe4, 0x00, 0x17, 0x00,
  0x00, 0x00, 0x00, 0x00, 0x00, 0x00, 0x00, 0x00, 0x00, 0x00, 0x00, 0x00,
  0xe8, 0x00, 0x00, 0x00, 0x00, 0x00, 0x00, 0x00, 0x00, 0x1a, 0x00, 0x00,
  0x00, 0x00, 0x00, 0x00, 0x00, 0x1e, 0x00, 0x20, 0x00, 0xff, 0xff, 0x1b,
  0x00, 0x00, 0x01, 0x00, 0x00, 0x01, 0x01, 0x00, 0x00, 0x00, 0x00, 0x00,
  0x00, 0x00, 0x00, 0x00, 0x00, 0x00, 0x00, 0x00, 0x00, 0x00, 0x00, 0x00,
  0x00, 0x00, 0x00, 0x00, 0x00, 0x00, 0xde, 0x00, 0x00, 0x00, 0xe3, 0x00,
  0x00, 0x00, 0x00, 0x00, 0x00, 0x00, 0x00, 0x00, 0x00, 0x00, 0x01, 0xe6,
  0x00, 0x00, 0x00, 0x00, 0x00, 0x00, 0x00, 0x00, 0x00, 0x1b, 0x00, 0x00,
  0x00, 0x17, 0x00, 0x00, 0x00, 0xff, 0x00, 0x00, 0x00, 0xff, 0x00, 0x00,
  0x00, 0x01, 0xe6, 0x00, 0x00, 0x00, 0x00, 0x00, 0x00, 0x19, 0xde, 0x00,
  0xe8, 0x00, 0x01, 0x00, 0xe7, 0x00, 0x00, 0x00, 0x00, 0x00, 0x00, 0x00,
  0x00, 0xff, 0x00, 0x00, 0x01, 0x00, 0x1e, 0x00, 0x00, 0x00, 0x00, 0x00,
  0xe8, 0xdb, 0x00, 0x00, 0x00, 0x00, 0xff, 0x19, 0x00, 0xe6, 0x00, 0x00,
  0x00, 0xf7, 0x1a, 0x26, 0x00, 0xf0, 0xef, 0x04, 0xe9, 0x18, 0x01, 0xfe,
  0x00, 0x02, 0x00, 0x00, 0x06, 0xfe, 0x00, 0x20, 0x00, 0xff, 0x04, 0x00,
  0x00, 0xec, 0x00, 0x00, 0xff, 0x03, 0x05, 0x00, 0x00, 0x06, 0x00, 0x19,
  0x00, 0x06, 0x00, 0x00, 0x00, 0x1b, 0x06, 0x00, 0x04, 0xeb, 0x00, 0x00,
  0x00, 0x01, 0x00, 0x00, 0xfe, 0x00, 0x05, 0x00, 0x08, 0x08, 0xeb, 0x00,
  0x00, 0x00, 0x00, 0xe9, 0x00, 0x1f, 0x00, 0x00, 0x00, 0x00, 0x1b, 0x02,
  0x00, 0xfc, 0xe8, 0x01, 0x00, 0xeb, 0x00, 0x02, 0x07, 0xf9, 0xe1, 0xe9,
  0x03, 0x19, 0x00, 0xe3, 0x00, 0x00, 0x00, 0x03, 0x02, 0x03, 0x01, 0x00,
  0x00, 0x00, 0x00, 0x00, 0x00, 0x17, 0x00, 0x03, 0x00, 0xdd, 0x00, 0x00,
  0x04, 0x01, 0x05, 0x02, 0x00, 0x00, 0x00, 0x00, 0x00, 0xfe, 0x08, 0x07,
  0xff, 0x00, 0xfa, 0x00, 0xe5, 0x00, 0x00, 0xe7, 0x00, 0x09, 0x00, 0x04,
  0xe8, 0x05, 0x06, 0x03, 0x17, 0xd6, 0xda, 0xf8, 0x00, 0x99, 0x01, 0x00,
  0x03, 0x37, 0x00, 0x05, 0x00, 0x09, 0x02, 0x00, 0x00, 0x01, 0x00, 0x00,
  0x0a, 0x06, 0xd7, 0x00, 0xfd, 0xec, 0xc3, 0x02, 0x00, 0xe9, 0x00, 0x00,
  0x00, 0xe5, 0x03, 0xe6, 0x01, 0x02, 0x00, 0x00, 0xe6, 0x00, 0x00, 0x00,
  0x0a, 0x00, 0x01, 0x00, 0xe2, 0x02, 0x1b, 0x01, 0xde, 0x00, 0x00, 0xe6,
  0x00, 0xde, 0x00, 0x00, 0x00, 0x01, 0x00, 0x01, 0x00, 0xdb, 0x00, 0x01,
  0x00, 0x04, 0xff, 0x06, 0xf3, 0xee, 0xda, 0x19, 0x02, 0x00, 0x00, 0x02,
  0x01, 0x00, 0x25, 0x07, 0x03, 0x02, 0x03, 0xcf, 0x03, 0x00, 0x00, 0xe6,
  0x00, 0xd4, 0x00, 0x06, 0x01, 0x08, 0x00, 0x00, 0x01, 0x02, 0x1d, 0x15,
  0x00, 0x00, 0x00, 0x00, 0x00, 0x21, 0x07, 0x19, 0x00, 0x06, 0xc7, 0x01,
  0x00, 0x00, 0x00, 0x00, 0x00, 0xe8, 0x00, 0xe8, 0x00, 0xff, 0xff, 0xfe,
  0x00, 0xfe, 0xfe, 0xff, 0xe8, 0xfe, 0xff, 0x00, 0xfe, 0xfe, 0x00, 0xff,
  0x00, 0xfe, 0xfe, 0x00, 0x00, 0xfe, 0xe1, 0x00, 0x00, 0xfe, 0x00, 0x18,
  0x19, 0xfe, 0x00, 0xff, 0x18, 0xfe, 0x00, 0x00, 0x00, 0x00, 0xff, 0x00,
  0xff, 0xfe, 0x00, 0x00, 0x00, 0xff, 0x00, 0x00, 0xfe, 0x00, 0xfe, 0x00,
  0xfe, 0xfe, 0xfe, 0xff, 0xe7, 0x00, 0x00, 0x00, 0x00, 0xff, 0x00, 0x00,
  0xe9, 0xe4, 0x00, 0xe2, 0xe8, 0x18, 0x00, 0x00, 0x00, 0xff, 0x00, 0xfe,
  0x00, 0x16, 0xe5, 0x19, 0x19, 0x00, 0x00, 0xff, 0x00, 0x19, 0xfe, 0x15,
  0xff, 0xfe, 0xfe, 0x00, 0xfe, 0x00, 0x00, 0xff, 0x00, 0x18, 0x00, 0xfe,
  0xe6, 0xff, 0x00, 0x00, 0xfe, 0xff, 0xfe, 0xff, 0x00, 0x00, 0x00, 0x00,
  0x00, 0xfe, 0xff, 0xff, 0x00, 0xfe, 0xe2, 0x00, 0x00, 0x00, 0x00, 0x00,
  0x00, 0xe4, 0x00, 0x00, 0x00, 0xdf, 0x00, 0xff, 0x00, 0xd8, 0x01, 0xe3,
  0x18, 0xff, 0x00, 0x00, 0xff, 0xff, 0xe8, 0xd5, 0x00, 0xff, 0xe7, 0x00,
  0xe6, 0xff, 0x00, 0x00, 0x00, 0xff, 0x18, 0x00, 0x00, 0xff, 0x00, 0xe7,
  0x19, 0xff, 0x00, 0x00, 0x00, 0x00, 0xff, 0xe5, 0x00, 0xff, 0x00, 0x00,
  0x00, 0xd6, 0x00, 0x00, 0xe1, 0x00, 0xff, 0x00, 0x22, 0xff, 0xff, 0x00,
  0x00, 0x00, 0x00, 0xe4, 0x00, 0x17, 0x00, 0x00, 0x00, 0xe7, 0x00, 0xe8,
  0x00, 0xff, 0x00, 0x00, 0x00, 0xe1, 0x17, 0xff, 0x00, 0x01, 0xd1, 0x00,
  0x00, 0x00, 0x00, 0xff, 0x00, 0x00, 0xff, 0x18, 0xfe, 0x01, 0xe5, 0xe3,
  0x1a, 0x00, 0xe9, 0x01, 0xe5, 0x00, 0x00, 0xdf, 0x00, 0xff, 0x00, 0xe9,
  0xd9, 0x00, 0xff, 0xbf, 0x00, 0x00, 0x00, 0x00, 0x00, 0xff, 0xff, 0x00,
  0x01, 0x1f, 0x00, 0x00, 0x00, 0x00, 0x00, 0x00, 0xda, 0xd5, 0x00, 0x08,
  0x00, 0x01, 0xf2, 0xeb, 0x00, 0xac, 0xf7, 0x1a, 0x00, 0xfe, 0x01, 0x00,
  0xf7, 0xf7, 0x00, 0x26, 0x00, 0xfc, 0x02, 0x00, 0xe3, 0xff, 0x00, 0x00,
  0xdf, 0xe5, 0x09, 0xdf, 0x04, 0x06, 0x00, 0xe2, 0x00, 0xf2, 0x00, 0x00,
  0x00, 0x00, 0x29, 0xff, 0x02, 0xf6, 0x00, 0x00, 0x00, 0x1b, 0x00, 0x00,
  0xf9, 0x00, 0xfe, 0x00, 0x03, 0x01, 0x00, 0x01, 0x00, 0x00, 0x00, 0x00,
  0x00, 0x0a, 0x00, 0x00, 0x1b, 0x00, 0x00, 0xf0, 0xe1, 0x20, 0xe3, 0xd0,
  0xda, 0x06, 0xe4, 0x03, 0x1a, 0xfc, 0xe7, 0x00, 0x02, 0x00, 0x00, 0xf0,
  0x20, 0x00, 0x20, 0x00, 0x05, 0xef, 0xf5, 0xe2, 0x0b, 0x00, 0x00, 0xff,
  0x00, 0x23, 0x00, 0x03, 0x1a, 0x2b, 0xd2, 0x00, 0x00, 0x1e, 0x03, 0x06,
  0x00, 0x00, 0x00, 0x00, 0xe6, 0xf9, 0x32, 0x19, 0x01, 0x1c, 0xf3, 0x01,
  0x00, 0x00, 0x00, 0xe1, 0x00, 0x00, 0x00, 0x00, 0x00, 0xe0, 0x00, 0x00,
  0x00, 0x00, 0x00, 0x00, 0x00, 0x00, 0x00, 0x00, 0x00, 0x00, 0x00, 0x00,
  0x00, 0xe8, 0x00, 0x00, 0x00, 0x00, 0x00, 0x00, 0x00, 0xe7, 0x00, 0x00,
  0x19, 0x00, 0x00, 0x00, 0x00, 0x00, 0x00, 0x00, 0x00, 0x00, 0x00, 0x00,
  0x00, 0x00, 0x00, 0xe6, 0x00, 0x00, 0x00, 0x00, 0x00, 0x00, 0x00, 0xe7,
  0xe7, 0xd7, 0xe3, 0xe6, 0x00, 0x00, 0x00, 0x00, 0x00, 0x00, 0x00, 0x00,
  0x00, 0xe5, 0x00, 0x00, 0x00, 0x00, 0x00, 0x00, 0x00, 0x00, 0x00, 0xe2,
  0x00, 0x00, 0x00, 0x00, 0x00, 0x00, 0x00, 0xe7, 0x00, 0x00, 0x00, 0x00,
  0x00, 0x00, 0x00, 0xe7, 0x00, 0x00, 0x00, 0x00, 0x00, 0xe4, 0x00, 0x00,
  0x00, 0x00, 0x00, 0x00, 0xe6, 0x00, 0x00, 0x00, 0x00, 0x00, 0x00, 0xe9,
  0x00, 0x00, 0x00, 0x00, 0x00, 0x00, 0x00, 0x00, 0x00, 0x00, 0x1b, 0x00,
  0x00, 0x00, 0x00, 0x1a, 0x00, 0x26, 0x00, 0x00, 0x00, 0x00, 0x00, 0x00,
  0x00, 0x18, 0x00, 0x00, 0xe6, 0xb1, 0x00, 0xc2, 0xe0, 0x00, 0x00, 0x00,
  0x00, 0x00, 0xe7, 0x00, 0x00, 0x00, 0x00, 0x00, 0x00, 0x00, 0x00, 0xb9,
  0x00, 0xe6, 0xdd, 0x00, 0x00, 0x00, 0x00, 0x00, 0x18, 0x00, 0x00, 0x00,
  0x17, 0x1d, 0x00, 0x00, 0x00, 0x00, 0x00, 0x00, 0x00, 0xdb, 0x00, 0x00,
  0x00, 0x00, 0x17, 0x00, 0x00, 0x00, 0x00, 0x00, 0x00, 0x00, 0x00, 0x00,
  0x00, 0x00, 0x00, 0x00, 0x00, 0x00, 0x19, 0x00, 0x00, 0x00, 0xe1, 0x00,
  0x00, 0x00, 0x00, 0x00, 0x00, 0x00, 0xd3, 0x00, 0x19, 0xe2, 0x00, 0x00,
  0x00, 0x1e, 0x00, 0x00, 0x00, 0x1d, 0x19, 0x22, 0x00, 0xe7, 0x24, 0x00,
  0x00, 0x18, 0x00, 0xe4, 0x00, 0xe6, 0x00, 0x00, 0x00, 0xcd, 0x00, 0x1b,
  0x00, 0x1b, 0x00, 0x00, 0x00, 0x00, 0x00, 0x00, 0xe1, 0xfa, 0x00, 0xfa,
  0xe4, 0xfd, 0xf5, 0xff, 0x00, 0xd4, 0xfd, 0xdf, 0x18, 0xc4, 0x00, 0x00,
  0xfb, 0x14, 0x00, 0x10, 0x00, 0xf3, 0x16, 0x00, 0x00, 0x00, 0xe4, 0x00,
  0x05, 0xfb, 0xe5, 0xe4, 0x04, 0xfe, 0xd9, 0x02, 0x00, 0xfd, 0x00, 0xe9,
  0x00, 0x19, 0x1f, 0xe2, 0x03, 0xf8, 0x00, 0x00, 0x00, 0xfa, 0x00, 0x00,
  0xf3, 0x00, 0x00, 0x00, 0xe7, 0xcf, 0x01, 0x01, 0xe7, 0x00, 0x00, 0x00,
  0x00, 0xf0, 0x00, 0x00, 0x00, 0x00, 0x00, 0xfa, 0x00, 0xe3, 0x00, 0x01,
  0x00, 0x00, 0x00, 0xe0, 0x12, 0x06, 0xdc, 0x00, 0xfe, 0x00, 0x00, 0x00,
  0xff, 0x00, 0xf6, 0xfc, 0xfe, 0xfe, 0xf9, 0x00, 0xfd, 0x00, 0x00, 0xdf,
  0x00, 0x01, 0x00, 0xff, 0x01, 0xf9, 0x00, 0xe5, 0x02, 0x01, 0xfd, 0xfa,
  0x00, 0x00, 0x1a, 0x00, 0x00, 0x0e, 0x1d, 0x00, 0x01, 0xf7, 0xd0, 0x01,
  0x00, 0x00, 0x00, 0x00, 0x00, 0xf3, 0x00, 0xcd, 0x00, 0xfc, 0x0a, 0xfb,
  0x19, 0xfd, 0x00, 0xd8, 0x1a, 0xff, 0xfe, 0x00, 0xf8, 0x36, 0x00, 0xf6,
  0xe7, 0xfb, 0xf9, 0x00, 0x00, 0xfd, 0x00, 0x00, 0x0d, 0xf8, 0xd5, 0x00,
  0xff, 0xf1, 0x00, 0xf8, 0x00, 0x15, 0x00, 0x00, 0x00, 0x00, 0xf9, 0x1c,
  0xfe, 0xfb, 0x00, 0x00, 0x00, 0xfd, 0x00, 0x00, 0xfc, 0x00, 0xfc, 0x00,
  0xf1, 0xf2, 0xe3, 0x22, 0xe5, 0xe9, 0x00, 0xd7, 0x00, 0xf0, 0x00, 0x00,
  0x00, 0x00, 0x00, 0xfd, 0x00, 0xd6, 0x00, 0x00, 0x00, 0xf0, 0x00, 0xf7,
  0xe0, 0x0d, 0x08, 0x00, 0xf6, 0x00, 0x00, 0xf8, 0x00, 0x00, 0xdc, 0xf4,
  0xf8, 0xff, 0xe5, 0x00, 0xf1, 0x00, 0x18, 0xff, 0x00, 0x02, 0x00, 0xf6,
  0x00, 0xe4, 0xd0, 0x00, 0xfe, 0x00, 0xf3, 0xfc, 0x00, 0x00, 0x00, 0x00,
  0x00, 0xfc, 0xf3, 0x01, 0x00, 0xfb, 0x0d, 0xff, 0x00, 0x00, 0xe3, 0xe6,
  0xe8, 0x23, 0x00, 0x0c, 0x00, 0xfd, 0x1c, 0x07, 0x00, 0xfd, 0xfd, 0xf5,
  0x19, 0x00, 0xff, 0xe7, 0x15, 0x22, 0x00, 0xdf, 0x1a, 0x03, 0x04, 0x00,
  0x00, 0x02, 0x00, 0x00, 0xc5, 0x03, 0x0b, 0x00, 0x00, 0x06, 0x00, 0x0c,
  0x00, 0xf6, 0xdc, 0x00, 0x00, 0x00, 0x07, 0xe5, 0x01, 0x01, 0x00, 0x00,
  0x00, 0x0a, 0x00, 0x00, 0x00, 0xe4, 0x02, 0x00, 0x26, 0x51, 0x02, 0x01,
  0xe3, 0x00, 0xe4, 0x00, 0x00, 0x19, 0x00, 0x00, 0xe8, 0x01, 0x1b, 0x14,
  0x00, 0xd4, 0x00, 0x01, 0x00, 0xe7, 0x00, 0x07, 0xee, 0xf7, 0xd4, 0x00,
  0x02, 0x00, 0x00, 0x0b, 0x01, 0xe6, 0x1d, 0x05, 0x07, 0x0d, 0x02, 0x00,
  0x06, 0x00, 0x00, 0xff, 0x00, 0x00, 0x00, 0x06, 0x01, 0x04, 0x00, 0x00,
  0x02, 0x02, 0x07, 0xff, 0x00, 0x00, 0xe9, 0x00, 0x00, 0x20, 0xdf, 0x0f,
  0x00, 0xd8, 0xef, 0x00, 0xd3, 0x00, 0x00, 0x00, 0x00, 0xf3, 0x00, 0x00,
  0xdc, 0x01, 0xfb, 0x05, 0x00, 0x04, 0xda, 0xe5, 0x19, 0xff, 0x00, 0x00,
  0x04, 0xff, 0x00, 0x08, 0x00, 0xff, 0x06, 0xe7, 0x00, 0x01, 0x00, 0x00,
  0xdc, 0xdd, 0x1c, 0x00, 0x03, 0x04, 0x00, 0x09, 0x00, 0x03, 0x00, 0x00,
  0x00, 0xe7, 0x26, 0xff, 0x01, 0x04, 0x00, 0x00, 0x00, 0x01, 0x00, 0x00,
  0xff, 0xe7, 0x03, 0x00, 0x04, 0xe9, 0x01, 0x01, 0xe6, 0x00, 0x00, 0x00,
  0x00, 0xf6, 0xe8, 0x00, 0x17, 0xff, 0x00, 0x01, 0x00, 0x06, 0x00, 0x01,
  0x00, 0x05, 0x00, 0x05, 0x12, 0x00, 0xc9, 0x00, 0x06, 0x18, 0x00, 0x09,
  0x00, 0x00, 0xe6, 0x05, 0x06, 0x03, 0xff, 0x00, 0x1e, 0x00, 0x00, 0x00,
  0x00, 0x01, 0x00, 0xe1, 0x00, 0x16, 0x00, 0x00, 0x00, 0x01, 0x04, 0x04,
  0x00, 0x00, 0x00, 0x00, 0x00, 0xff, 0x02, 0x1d, 0x00, 0xff, 0xdc, 0x01,
  0x00, 0x00, 0x00, 0x00, 0x72, 0xf3, 0xff, 0xff, 0x00, 0x00, 0x00, 0x09,
  0x10, 0x00, 0x00, 0x00, 0x09, 0x00, 0x00, 0x00, 0x14, 0x00, 0x00, 0x00,
  0x78, 0x00, 0x00, 0x00, 0x02, 0x00, 0x00, 0x00, 0x40, 0x00, 0x00, 0x00,
  0x80, 0x00, 0x00, 0x00, 0x63, 0x00, 0x00, 0x00, 0x73, 0x65, 0x71, 0x75,
  0x65, 0x6e, 0x74, 0x69, 0x61, 0x6c, 0x5f, 0x32, 0x2f, 0x71, 0x75, 0x61,
  0x6e, 0x74, 0x5f, 0x64, 0x65, 0x6e, 0x73, 0x65, 0x5f, 0x39, 0x2f, 0x4d,
  0x61, 0x74, 0x4d, 0x75, 0x6c, 0x3b, 0x73, 0x65, 0x71, 0x75, 0x65, 0x6e,
  0x74, 0x69, 0x61, 0x6c, 0x5f, 0x32, 0x2f, 0x71, 0x75, 0x61, 0x6e, 0x74,
  0x5f, 0x64, 0x65, 0x6e, 0x73, 0x65, 0x5f, 0x39, 0x2f, 0x4c, 0x61, 0x73,
  0x74, 0x56, 0x61, 0x6c, 0x75, 0x65, 0x51, 0x75, 0x61, 0x6e, 0x74, 0x2f,
  0x46, 0x61, 0x6b, 0x65, 0x51, 0x75, 0x61, 0x6e, 0x74, 0x57, 0x69, 0x74,
  0x68, 0x4d, 0x69, 0x6e, 0x4d, 0x61, 0x78, 0x56, 0x61, 0x72, 0x73, 0x00,
  0xbc, 0xf3, 0xff, 0xff, 0x08, 0x00, 0x00, 0x00, 0x0c, 0x00, 0x00, 0x00,
  0x01, 0x00, 0x00, 0x00, 0x2b, 0x93, 0xd7, 0x3b, 0x01, 0x00, 0x00, 0x00,
  0x00, 0x00, 0x00, 0x00, 0x00, 0x00, 0x00, 0x00, 0x00, 0x00, 0x0e, 0x00,
  0x1a, 0x00, 0x08, 0x00, 0x0c, 0x00, 0x10, 0x00, 0x07, 0x00, 0x14, 0x00,
  0x0e, 0x00, 0x00, 0x00, 0x00, 0x00, 0x00, 0x08, 0x01, 0x00, 0x00, 0x00,
  0x24, 0x00, 0x00, 0x00, 0x18, 0x00, 0x00, 0x00, 0x0c, 0x00, 0x00, 0x00,
  0x00, 0x00, 0x06, 0x00, 0x08, 0x00, 0x07, 0x00, 0x06, 0x00, 0x00, 0x00,
  0x00, 0x00, 0x00, 0x01, 0x01, 0x00, 0x00, 0x00, 0x07, 0x00, 0x00, 0x00,
  0x03, 0x00, 0x00, 0x00, 0x05, 0x00, 0x00, 0x00, 0x06, 0x00, 0x00, 0x00,
  0x03, 0x00, 0x00, 0x00, 0x4c, 0xfa, 0xff, 0xff, 0x09, 0x00, 0x00, 0x00,
  0x00, 0x00, 0x00, 0x09, 0x04, 0x00, 0x00, 0x00, 0x40, 0xfa, 0xff, 0xff,
  0x00, 0x00, 0x00, 0x09, 0x14, 0x00, 0x00, 0x00, 0x08, 0x00, 0x00, 0x00,
  0x18, 0x00, 0x00, 0x00, 0x8c, 0x00, 0x00, 0x00, 0x7c, 0x00, 0x00, 0x00,
  0x02, 0x00, 0x00, 0x00, 0x01, 0x00, 0x00, 0x00, 0x80, 0x00, 0x00, 0x00,
  0x64, 0x00, 0x00, 0x00, 0x73, 0x65, 0x71, 0x75, 0x65, 0x6e, 0x74, 0x69,
  0x61, 0x6c, 0x5f, 0x32, 0x2f, 0x71, 0x75, 0x61, 0x6e, 0x74, 0x5f, 0x64,
  0x65, 0x6e, 0x73, 0x65, 0x5f, 0x38, 0x2f, 0x4d, 0x61, 0x74, 0x4d, 0x75,
  0x6c, 0x3b, 0x73, 0x65, 0x71, 0x75, 0x65, 0x6e, 0x74, 0x69, 0x61, 0x6c,
  0x5f, 0x32, 0x2f, 0x71, 0x75, 0x61, 0x6e, 0x74, 0x5f, 0x64, 0x65, 0x6e,
  0x73, 0x65, 0x5f, 0x38, 0x2f, 0x52, 0x65, 0x6c, 0x75, 0x3b, 0x73, 0x65,
  0x71, 0x75, 0x65, 0x6e, 0x74, 0x69, 0x61, 0x6c, 0x5f, 0x32, 0x2f, 0x71,
  0x75, 0x61, 0x6e, 0x74, 0x5f, 0x64, 0x65, 0x6e, 0x73, 0x65, 0x5f, 0x38,
  0x2f, 0x42, 0x69, 0x61, 0x73, 0x41, 0x64, 0x64, 0x00, 0x00, 0x00, 0x00,
  0x02, 0x00, 0x00, 0x00, 0xff, 0xff, 0xff, 0xff, 0x80, 0x00, 0x00, 0x00,
  0xdc, 0xf4, 0xff, 0xff, 0x08, 0x00, 0x00, 0x00, 0x0c, 0x00, 0x00, 0x00,
  0x01, 0x00, 0x00, 0x00, 0x24, 0xc5, 0x45, 0x3f, 0x01, 0x00, 0x00, 0x00,
  0x81, 0xff, 0xff, 0xff, 0xff, 0xff, 0xff, 0xff, 0xd2, 0xf5, 0xff, 0xff,
  0x04, 0x00, 0x00, 0x00, 0x00, 0x04, 0x00, 0x00, 0xd6, 0x00, 0x00, 0xce,
  0x00, 0x00, 0x00, 0x00, 0x0f, 0x07, 0xeb, 0xd6, 0xfd, 0xeb, 0xbe, 0x15,
  0x00, 0x00, 0x00, 0x00, 0x00, 0xe7, 0x00, 0x00, 0x45, 0x00, 0xff, 0xf5,
  0x00, 0xff, 0xa2, 0x09, 0xd6, 0x00, 0x00, 0x00, 0x00, 0x00, 0x00, 0xe6,
  0x00, 0x06, 0x1a, 0x09, 0xd2, 0xff, 0xe7, 0xfe, 0x07, 0xfd, 0xfc, 0x0c,
  0xfd, 0xe6, 0x0b, 0x25, 0xef, 0x00, 0x00, 0xfa, 0xfd, 0x17, 0xf6, 0xf6,
  0x00, 0x00, 0x00, 0x00, 0x00, 0x00, 0x00, 0x00, 0xdc, 0xfe, 0x06, 0x05,
  0x05, 0xfe, 0xfb, 0xff, 0xea, 0x00, 0xfe, 0x14, 0x00, 0xe5, 0xe3, 0xff,
  0x1c, 0x03, 0x07, 0xef, 0xfc, 0xcb, 0xfa, 0x05, 0x00, 0x00, 0x00, 0x00,
  0x00, 0x00, 0x00, 0x00, 0xd8, 0xff, 0xff, 0xfe, 0x00, 0xff, 0xe3, 0xff,
  0xff, 0xff, 0xff, 0xff, 0x00, 0xff, 0x24, 0xff, 0xd6, 0x00, 0x00, 0xe8,
  0x00, 0xe8, 0xe8, 0xe1, 0x0f, 0x03, 0xfe, 0x1c, 0xfe, 0x07, 0xfc, 0x0e,
  0x74, 0x4d, 0x50, 0x40, 0x23, 0x54, 0xea, 0x7f, 0x00, 0x00, 0xe7, 0x00,
  0x00, 0x00, 0x00, 0x00, 0x28, 0x15, 0xe7, 0x06, 0xff, 0x04, 0xf6, 0xe6,
  0x00, 0x00, 0xe4, 0xe2, 0x00, 0x00, 0xd8, 0x00, 0x3a, 0x2d, 0x29, 0x20,
  0x14, 0x29, 0xec, 0x44, 0xfe, 0x03, 0x02, 0x00, 0xff, 0x03, 0xfe, 0xfe,
  0x00, 0x00, 0x00, 0x00, 0x00, 0x00, 0x00, 0x00, 0x00, 0xdf, 0x00, 0x00,
  0x00, 0x00, 0x00, 0x00, 0xfe, 0xff, 0x00, 0x00, 0xff, 0xff, 0x00, 0xff,
  0x00, 0x00, 0x00, 0x00, 0x00, 0x00, 0x00, 0x00, 0x1c, 0x00, 0x00, 0x00,
  0x00, 0x00, 0x00, 0xea, 0xcd, 0xe7, 0x03, 0x03, 0x09, 0x03, 0x09, 0xfe,
  0x05, 0x04, 0x02, 0x04, 0xfe, 0x04, 0xfe, 0x06, 0x26, 0xff, 0x00, 0xfd,
  0xe2, 0x00, 0xc5, 0x04, 0xcf, 0x00, 0x00, 0xd9, 0x00, 0x00, 0x00, 0x00,
  0x17, 0xe4, 0xff, 0xff, 0x02, 0xff, 0x16, 0xff, 0x2b, 0x09, 0x03, 0x03,
  0xff, 0x09, 0xd8, 0x08, 0x00, 0x00, 0x00, 0x00, 0x00, 0x00, 0x00, 0x00,
  0x08, 0x08, 0x01, 0x03, 0x09, 0x20, 0x4d, 0xea, 0x00, 0x00, 0x00, 0x00,
  0x00, 0x00, 0x00, 0x00, 0x02, 0xfe, 0x01, 0x20, 0xfe, 0x00, 0x11, 0x04,
  0xe9, 0x00, 0x00, 0x00, 0x00, 0x00, 0xde, 0x00, 0x00, 0x00, 0x00, 0x00,
  0x00, 0x00, 0x00, 0x00, 0xe8, 0x00, 0x00, 0x00, 0x00, 0x00, 0x00, 0x00,
  0x00, 0x00, 0x00, 0x00, 0x00, 0x00, 0x00, 0x00, 0x46, 0xfa, 0xff, 0x00,
  0xd7, 0xfc, 0xfe, 0x18, 0xcd, 0x00, 0xff, 0xff, 0x00, 0x00, 0x00, 0xff,
  0xfe, 0xfe, 0xff, 0xea, 0x00, 0xff, 0x3a, 0xff, 0x09, 0x06, 0x05, 0x17,
  0x09, 0x07, 0xf9, 0x09, 0x00, 0xde, 0x00, 0x00, 0x00, 0x00, 0x00, 0x00,
  0x00, 0x00, 0x00, 0x00, 0xe6, 0xe5, 0x00, 0xe7, 0x00, 0xea, 0x00, 0x00,
  0x00, 0x00, 0x00, 0x00, 0x2c, 0x02, 0xfc, 0x0a, 0xdd, 0xeb, 0xd2, 0x09,
  0x00, 0x00, 0x00, 0x00, 0x00, 0x00, 0x00, 0xe8, 0x00, 0x00, 0x00, 0x00,
  0x00, 0x00, 0x00, 0x00, 0x21, 0x2d, 0x35, 0x33, 0x12, 0x34, 0x09, 0x56,
  0x00, 0x00, 0x00, 0x00, 0x00, 0x00, 0x00, 0x00, 0xfe, 0xff, 0x01, 0xff,
  0xff, 0xff, 0x17, 0xff, 0x00, 0x00, 0x00, 0xe9, 0x00, 0x00, 0x00, 0x00,
  0x0a, 0x08, 0x00, 0x04, 0xff, 0x09, 0xf7, 0x25, 0x0e, 0x07, 0x02, 0x06,
  0xfe, 0x0a, 0xd6, 0x2f, 0x14, 0xfe, 0x00, 0xfe, 0xff, 0xfe, 0xdf, 0xff,
  0x00, 0xff, 0xff, 0xe9, 0x00, 0xff, 0x00, 0xff, 0x00, 0x00, 0x00, 0x00,
  0x00, 0x00, 0xe0, 0xe9, 0x00, 0x00, 0x00, 0x00, 0x00, 0xe8, 0xdb, 0xe8,
  0xe0, 0x00, 0x00, 0x00, 0x00, 0x00, 0x00, 0xe8, 0x1f, 0x00, 0x00, 0x00,
  0x00, 0xdd, 0x00, 0xe9, 0xe0, 0x00, 0x00, 0x00, 0x00, 0x00, 0x00, 0x00,
  0xc5, 0x03, 0xf5, 0xf6, 0xfc, 0x08, 0xe9, 0xf6, 0xdc, 0x00, 0x00, 0x00,
  0x00, 0x00, 0xdf, 0x00, 0x00, 0x00, 0x00, 0x00, 0x00, 0x00, 0x00, 0x00,
  0x28, 0x00, 0x00, 0x00, 0x00, 0x00, 0x00, 0xea, 0xff, 0xff, 0xff, 0xff,
  0xff, 0xff, 0xff, 0xff, 0x00, 0x00, 0x00, 0x00, 0x00, 0x00, 0x00, 0x00,
  0x04, 0x00, 0x03, 0x27, 0x12, 0x01, 0xe7, 0x04, 0xe4, 0x00, 0xe5, 0xe6,
  0x00, 0x00, 0x00, 0xe6, 0xc1, 0xfb, 0x08, 0xf3, 0x03, 0xdb, 0xe4, 0x1a,
  0x00, 0x00, 0x00, 0x00, 0x00, 0xea, 0x2c, 0xe3, 0xe6, 0xff, 0xe8, 0x00,
  0x00, 0xff, 0xe6, 0xff, 0x00, 0x00, 0x00, 0x00, 0x00, 0x00, 0x40, 0xe9,
  0x28, 0x06, 0x02, 0x05, 0xfc, 0x07, 0x0f, 0x06, 0x00, 0xe5, 0xff, 0xff,
  0xff, 0xff, 0x00, 0xff, 0x03, 0x07, 0x03, 0x02, 0xff, 0x07, 0xd7, 0x03,
  0x4c, 0xcd, 0x0b, 0x08, 0xca, 0x0d, 0x21, 0x0d, 0x08, 0xfe, 0x03, 0x1c,
  0xf8, 0xfd, 0xd0, 0xe5, 0x16, 0x02, 0xf7, 0xff, 0x00, 0xe8, 0x19, 0xff,
  0xe8, 0x00, 0x00, 0x00, 0x00, 0x00, 0x00, 0x00, 0x08, 0x04, 0x00, 0x03,
  0xff, 0x05, 0x1a, 0x06, 0x00, 0x00, 0xea, 0x00, 0x00, 0x00, 0x00, 0x00,
  0x00, 0x00, 0x00, 0x00, 0x00, 0x00, 0x00, 0x00, 0x08, 0x0a, 0x03, 0xff,
  0x0a, 0x21, 0x1d, 0xeb, 0xff, 0xff, 0xff, 0x00, 0xe7, 0xff, 0xdf, 0xff,
  0x00, 0x00, 0xea, 0x00, 0x00, 0x00, 0x00, 0x00, 0x48, 0x0e, 0x10, 0x35,
  0x06, 0x0f, 0x3a, 0x36, 0x0b, 0x05, 0x01, 0x06, 0xff, 0x07, 0xfb, 0x0a,
  0x08, 0x08, 0x03, 0x03, 0xfe, 0x09, 0xf5, 0x07, 0xd3, 0x01, 0x01, 0x1a,
  0xff, 0x02, 0x0b, 0xfe, 0xeb, 0xfb, 0x00, 0xfe, 0x01, 0xfc, 0xe0, 0xfa,
  0x00, 0x00, 0x00, 0x00, 0x00, 0x00, 0x00, 0xdf, 0x07, 0xfc, 0x00, 0xf9,
  0xfd, 0xff, 0x24, 0x1d, 0x00, 0xe3, 0x00, 0x00, 0x00, 0x00, 0x19, 0x00,
  0x00, 0x00, 0x00, 0x00, 0x00, 0x00, 0x00, 0x00, 0x00, 0xff, 0xff, 0xff,
  0xff, 0xff, 0x1e, 0xff, 0x00, 0x00, 0x00, 0x00, 0x00, 0x00, 0x00, 0x00,
  0xfd, 0xe2, 0xff, 0xff, 0x01, 0xff, 0x00, 0xff, 0x00, 0x00, 0x00, 0x00,
  0x00, 0x00, 0x00, 0xea, 0x05, 0x06, 0x01, 0x04, 0xff, 0x07, 0xfb, 0x05,
  0xff, 0xff, 0xff, 0xff, 0x00, 0xff, 0x00, 0xff, 0x38, 0x07, 0x1e, 0xf3,
  0xe3, 0x06, 0x18, 0x20, 0xe9, 0x00, 0x00, 0x00, 0x00, 0x00, 0xe9, 0xe9,
  0x00, 0x00, 0x00, 0x00, 0x00, 0x00, 0x00, 0x00, 0xff, 0xff, 0xff, 0x00,
  0x00, 0xff, 0x01, 0xff, 0x00, 0x00, 0x00, 0xea, 0x00, 0x00, 0xff, 0xff,
  0x29, 0x07, 0x04, 0x02, 0x06, 0x08, 0xfa, 0x06, 0x3b, 0x02, 0xfd, 0xff,
  0xe0, 0xe4, 0x00, 0x0a, 0x00, 0x00, 0x00, 0x00, 0x00, 0x00, 0x00, 0x00,
  0x00, 0x00, 0x00, 0x00, 0x00, 0x00, 0x00, 0x00, 0x00, 0xea, 0x00, 0x00,
  0x00, 0x00, 0x00, 0x00, 0x00, 0x00, 0x00, 0x00, 0x00, 0x00, 0x00, 0x00,
  0x00, 0x00, 0x00, 0x00, 0x00, 0x00, 0x00, 0x00, 0x47, 0x2a, 0x46, 0x3d,
  0x26, 0x35, 0xd6, 0x5e, 0x06, 0x09, 0x01, 0xfe, 0xd0, 0x0a, 0xee, 0x1b,
  0xd9, 0x03, 0x00, 0xf6, 0xfb, 0x05, 0xef, 0xfd, 0x19, 0xfe, 0xe7, 0x00,
  0x00, 0xfe, 0x00, 0xff, 0x18, 0x0a, 0x0d, 0x27, 0x15, 0x31, 0x40, 0x01,
  0x13, 0xfe, 0xff, 0x1d, 0xfd, 0xe6, 0x1e, 0xff, 0x14, 0xea, 0xfe, 0xfe,
  0x00, 0xfe, 0xea, 0xfe, 0x00, 0x00, 0x00, 0x00, 0x00, 0x00, 0x00, 0xe5,
  0x00, 0xea, 0x00, 0x00, 0x00, 0x00, 0x00, 0x00, 0x00, 0x00, 0x00, 0x00,
  0x00, 0x00, 0x00, 0xe8, 0x00, 0xe7, 0x00, 0x00, 0x00, 0x00, 0x00, 0x00,
  0x4a, 0xf9, 0xff, 0xff, 0x00, 0x00, 0x00, 0x09, 0x10, 0x00, 0x00, 0x00,
  0x07, 0x00, 0x00, 0x00, 0x14, 0x00, 0x00, 0x00, 0x78, 0x00, 0x00, 0x00,
  0x02, 0x00, 0x00, 0x00, 0x80, 0x00, 0x00, 0x00, 0x08, 0x00, 0x00, 0x00,
  0x63, 0x00, 0x00, 0x00, 0x73, 0x65, 0x71, 0x75, 0x65, 0x6e, 0x74, 0x69,
  0x61, 0x6c, 0x5f, 0x32, 0x2f, 0x71, 0x75, 0x61, 0x6e, 0x74, 0x5f, 0x64,
  0x65, 0x6e, 0x73, 0x65, 0x5f, 0x38, 0x2f, 0x4d, 0x61, 0x74, 0x4d, 0x75,
  0x6c, 0x3b, 0x73, 0x65, 0x71, 0x75, 0x65, 0x6e, 0x74, 0x69, 0x61, 0x6c,
  0x5f, 0x32, 0x2f, 0x71, 0x75, 0x61, 0x6e, 0x74, 0x5f, 0x64, 0x65, 0x6e,
  0x73, 0x65, 0x5f, 0x38, 0x2f, 0x4c, 0x61, 0x73, 0x74, 0x56, 0x61, 0x6c,
  0x75, 0x65, 0x51, 0x75, 0x61, 0x6e, 0x74, 0x2f, 0x46, 0x61, 0x6b, 0x65,
  0x51, 0x75, 0x61, 0x6e, 0x74, 0x57, 0x69, 0x74, 0x68, 0x4d, 0x69, 0x6e,
  0x4d, 0x61, 0x78, 0x56, 0x61, 0x72, 0x73, 0x00, 0x94, 0xf9, 0xff, 0xff,
  0x08, 0x00, 0x00, 0x00, 0x0c, 0x00, 0x00, 0x00, 0x01, 0x00, 0x00, 0x00,
  0x29, 0xfa, 0x18, 0x3c, 0x01, 0x00, 0x00, 0x00, 0x00, 0x00, 0x00, 0x00,
  0x00, 0x00, 0x00, 0x00, 0x00, 0x00, 0x00, 0x00, 0x00, 0x00, 0x0a, 0x00,
  0x0c, 0x00, 0x00, 0x00, 0x04, 0x00, 0x08, 0x00, 0x0a, 0x00, 0x00, 0x00,
  0x10, 0x00, 0x00, 0x00, 0x04, 0x00, 0x00, 0x00, 0x01, 0x00, 0x00, 0x00,
  0x05, 0x00, 0x00, 0x00, 0x01, 0x00, 0x00, 0x00, 0x00, 0x00, 0x00, 0x00,
  0x0c, 0x00, 0x10, 0x00, 0x0b, 0x00, 0x00, 0x00, 0x0c, 0x00, 0x04, 0x00,
  0x0c, 0x00, 0x00, 0x00, 0x72, 0x00, 0x00, 0x00, 0x00, 0x00, 0x00, 0x72,
  0x01, 0x00, 0x00, 0x00, 0x14, 0x00, 0x1c, 0x00, 0x08, 0x00, 0x07, 0x00,
  0x0c, 0x00, 0x10, 0x00, 0x14, 0x00, 0x00, 0x00, 0x00, 0x00, 0x18, 0x00,
  0x14, 0x00, 0x00, 0x00, 0x00, 0x00, 0x00, 0x09, 0x14, 0x00, 0x00, 0x00,
  0x06, 0x00, 0x00, 0x00, 0x18, 0x00, 0x00, 0x00, 0xb8, 0x00, 0x00, 0x00,
  0xa8, 0x00, 0x00, 0x00, 0x02, 0x00, 0x00, 0x00, 0x01, 0x00, 0x00, 0x00,
  0x08, 0x00, 0x00, 0x00, 0x93, 0x00, 0x00, 0x00, 0x73, 0x65, 0x71, 0x75,
  0x65, 0x6e, 0x74, 0x69, 0x61, 0x6c, 0x5f, 0x32, 0x2f, 0x71, 0x75, 0x61,
  0x6e, 0x74, 0x69, 0x7a, 0x65, 0x5f, 0x6c, 0x61, 0x79, 0x65, 0x72, 0x5f,
  0x32, 0x2f, 0x41, 0x6c, 0x6c, 0x56, 0x61, 0x6c, 0x75, 0x65, 0x73, 0x51,
  0x75, 0x61, 0x6e, 0x74, 0x69, 0x7a, 0x65, 0x2f, 0x46, 0x61, 0x6b, 0x65,
  0x51, 0x75, 0x61, 0x6e, 0x74, 0x57, 0x69, 0x74, 0x68, 0x4d, 0x69, 0x6e,
  0x4d, 0x61, 0x78, 0x56, 0x61, 0x72, 0x73, 0x3b, 0x71, 0x75, 0x61, 0x6e,
  0x74, 0x69, 0x7a, 0x65, 0x5f, 0x6c, 0x61, 0x79, 0x65, 0x72, 0x5f, 0x32,
  0x2f, 0x71, 0x75, 0x61, 0x6e, 0x74, 0x69, 0x7a, 0x65, 0x5f, 0x6c, 0x61,
  0x79, 0x65, 0x72, 0x5f, 0x32, 0x5f, 0x6d, 0x69, 0x6e, 0x3b, 0x71, 0x75,
  0x61, 0x6e, 0x74, 0x69, 0x7a, 0x65, 0x5f, 0x6c, 0x61, 0x79, 0x65, 0x72,
  0x5f, 0x32, 0x2f, 0x71, 0x75, 0x61, 0x6e, 0x74, 0x69, 0x7a, 0x65, 0x5f,
  0x6c, 0x61, 0x79, 0x65, 0x72, 0x5f, 0x32, 0x5f, 0x6d, 0x61, 0x78, 0x00,
  0x02, 0x00, 0x00, 0x00, 0xff, 0xff, 0xff, 0xff, 0x08, 0x00, 0x00, 0x00,
  0xdc, 0xfa, 0xff, 0xff, 0x08, 0x00, 0x00, 0x00, 0x0c, 0x00, 0x00, 0x00,
  0x01, 0x00, 0x00, 0x00, 0x54, 0x54, 0x54, 0x40, 0x01, 0x00, 0x00, 0x00,
  0x80, 0xff, 0xff, 0xff, 0xff, 0xff, 0xff, 0xff, 0xd2, 0xfb, 0xff, 0xff,
  0x04, 0x00, 0x00, 0x00, 0x00, 0x01, 0x00, 0x00, 0xdb, 0xff, 0xff, 0xff,
  0xb9, 0xff, 0xff, 0xff, 0x1f, 0x00, 0x00, 0x00, 0xe3, 0xff, 0xff, 0xff,
  0xe6, 0xff, 0xff, 0xff, 0xf6, 0xff, 0xff, 0xff, 0x07, 0x00, 0x00, 0x00,
  0xfc, 0xff, 0xff, 0xff, 0x20, 0x00, 0x00, 0x00, 0x2c, 0x00, 0x00, 0x00,
  0xfe, 0xff, 0xff, 0xff, 0xfb, 0xff, 0xff, 0xff, 0x0c, 0x00, 0x00, 0x00,
  0x0e, 0x00, 0x00, 0x00, 0x5e, 0x00, 0x00, 0x00, 0xf2, 0xff, 0xff, 0xff,
  0xfc, 0xff, 0xff, 0xff, 0xf1, 0xff, 0xff, 0xff, 0x05, 0x00, 0x00, 0x00,
  0xf5, 0xff, 0xff, 0xff, 0x16, 0x00, 0x00, 0x00, 0xb6, 0xff, 0xff, 0xff,
  0xfe, 0xff, 0xff, 0xff, 0x07, 0x00, 0x00, 0x00, 0xee, 0xff, 0xff, 0xff,
  0xb5, 0xff, 0xff, 0xff, 0xf7, 0xff, 0xff, 0xff, 0xc0, 0xff, 0xff, 0xff,
  0xdd, 0xff, 0xff, 0xff, 0x00, 0x00, 0x00, 0x00, 0x34, 0x00, 0x00, 0x00,
  0xb5, 0xff, 0xff, 0xff, 0xba, 0xff, 0xff, 0xff, 0x01, 0x00, 0x00, 0x00,
  0xab, 0xff, 0xff, 0xff, 0x0d, 0x00, 0x00, 0x00, 0x9d, 0xff, 0xff, 0xff,
  0x03, 0x00, 0x00, 0x00, 0x28, 0x00, 0x00, 0x00, 0x29, 0x00, 0x00, 0x00,
  0xf5, 0xff, 0xff, 0xff, 0x00, 0x00, 0x00, 0x00, 0x00, 0x00, 0x00, 0x00,
  0xc1, 0xff, 0xff, 0xff, 0xe9, 0xff, 0xff, 0xff, 0xdc, 0xff, 0xff, 0xff,
  0xdb, 0xff, 0xff, 0xff, 0x2d, 0x00, 0x00, 0x00, 0xfe, 0xff, 0xff, 0xff,
  0xf9, 0xff, 0xff, 0xff, 0xed, 0xff, 0xff, 0xff, 0xfd, 0xff, 0xff, 0xff,
  0x4e, 0x00, 0x00, 0x00, 0xf8, 0xff, 0xff, 0xff, 0xe4, 0xff, 0xff, 0xff,
  0xf8, 0xff, 0xff, 0xff, 0x01, 0x00, 0x00, 0x00, 0xd8, 0xff, 0xff, 0xff,
  0xd3, 0xff, 0xff, 0xff, 0x54, 0x00, 0x00, 0x00, 0xd8, 0xff, 0xff, 0xff,
  0x23, 0x00, 0x00, 0x00, 0x38, 0x00, 0x00, 0x00, 0xcf, 0xff, 0xff, 0xff,
  0x4a, 0xfc, 0xff, 0xff, 0x00, 0x00, 0x00, 0x02, 0x10, 0x00, 0x00, 0x00,
  0x05, 0x00, 0x00, 0x00, 0x10, 0x00, 0x00, 0x00, 0x20, 0x00, 0x00, 0x00,
  0x01, 0x00, 0x00, 0x00, 0x40, 0x00, 0x00, 0x00, 0x0c, 0x00, 0x00, 0x00,
  0x64, 0x65, 0x6e, 0x73, 0x65, 0x5f, 0x39, 0x2f, 0x62, 0x69, 0x61, 0x73,
  0x00, 0x00, 0x00, 0x00, 0x3c, 0xfc, 0xff, 0xff, 0x08, 0x00, 0x00, 0x00,
  0x0c, 0x00, 0x00, 0x00, 0x01, 0x00, 0x00, 0x00, 0x43, 0x8a, 0xa6, 0x3b,
  0x01, 0x00, 0x00, 0x00, 0x00, 0x00, 0x00, 0x00, 0x00, 0x00, 0x00, 0x00,
  0x32, 0xfd, 0xff, 0xff, 0x04, 0x00, 0x00, 0x00, 0x00, 0x02, 0x00, 0x00,
  0xfc, 0xff, 0xff, 0xff, 0x0d, 0x00, 0x00, 0x00, 0xfd, 0xff, 0xff, 0xff,
  0x05, 0x00, 0x00, 0x00, 0x05, 0x00, 0x00, 0x00, 0x09, 0x00, 0x00, 0x00,
  0x04, 0x00, 0x00, 0x00, 0x06, 0x00, 0x00, 0x00, 0x00, 0x00, 0x00, 0x00,
  0x11, 0x00, 0x00, 0x00, 0x08, 0x00, 0x00, 0x00, 0xf5, 0xff, 0xff, 0xff,
  0x00, 0x00, 0x00, 0x00, 0x0e, 0x00, 0x00, 0x00, 0xf3, 0xff, 0xff, 0xff,
  0x0a, 0x00, 0x00, 0x00, 0xff, 0xff, 0xff, 0xff, 0x20, 0x00, 0x00, 0x00,
  0xf9, 0xff, 0xff, 0xff, 0xf6, 0xff, 0xff, 0xff, 0xfe, 0xff, 0xff, 0xff,
  0x0b, 0x00, 0x00, 0x00, 0xfe, 0xff, 0xff, 0xff, 0x00, 0x00, 0x00, 0x00,
  0xfd, 0xff, 0xff, 0xff, 0x00, 0x00, 0x00, 0x00, 0xf4, 0xff, 0xff, 0xff,
  0xf4, 0xff, 0xff, 0xff, 0x08, 0x00, 0x00, 0x00, 0x0a, 0x00, 0x00, 0x00,
  0xfc, 0xff, 0xff, 0xff, 0xf9, 0xff, 0xff, 0xff, 0x01, 0x00, 0x00, 0x00,
  0xf6, 0xff, 0xff, 0xff, 0xf9, 0xff, 0xff, 0xff, 0xf5, 0xff, 0xff, 0xff,
  0x00, 0x00, 0x00, 0x00, 0xfe, 0xff, 0xff, 0xff, 0xfd, 0xff, 0xff, 0xff,
  0x00, 0x00, 0x00, 0x00, 0xfd, 0xff, 0xff, 0xff, 0x00, 0x00, 0x00, 0x00,
  0xf9, 0xff, 0xff, 0xff, 0x04, 0x00, 0x00, 0x00, 0x09, 0x00, 0x00, 0x00,
  0xf2, 0xff, 0xff, 0xff, 0xff, 0xff, 0xff, 0xff, 0x00, 0x00, 0x00, 0x00,
  0x00, 0x00, 0x00, 0x00, 0x05, 0x00, 0x00, 0x00, 0xf4, 0xff, 0xff, 0xff,
  0x00, 0x00, 0x00, 0x00, 0x0b, 0x00, 0x00, 0x00, 0xfc, 0xff, 0xff, 0xff,
  0x00, 0x00, 0x00, 0x00, 0xfb, 0xff, 0xff, 0xff, 0x02, 0x00, 0x00, 0x00,
  0x08, 0x00, 0x00, 0x00, 0x01, 0x00, 0x00, 0x00, 0x08, 0x00, 0x00, 0x00,
  0x08, 0x00, 0x00, 0x00, 0x00, 0x00, 0x00, 0x00, 0x03, 0x00, 0x00, 0x00,
  0x07, 0x00, 0x00, 0x00, 0xff, 0xff, 0xff, 0xff, 0x04, 0x00, 0x00, 0x00,
  0xfd, 0xff, 0xff, 0xff, 0x00, 0x00, 0x00, 0x00, 0xf9, 0xff, 0xff, 0xff,
  0x02, 0x00, 0x00, 0x00, 0x00, 0x00, 0x00, 0x00, 0x0f, 0x00, 0x00, 0x00,
  0xfc, 0xff, 0xff, 0xff, 0xfc, 0xff, 0xff, 0xff, 0xf8, 0xff, 0xff, 0xff,
  0x07, 0x00, 0x00, 0x00, 0xfa, 0xff, 0xff, 0xff, 0xf7, 0xff, 0xff, 0xff,
  0x03, 0x00, 0x00, 0x00, 0x04, 0x00, 0x00, 0x00, 0xfd, 0xff, 0xff, 0xff,
  0x04, 0x00, 0x00, 0x00, 0xf8, 0xff, 0xff, 0xff, 0x00, 0x00, 0x00, 0x00,
  0xf3, 0xff, 0xff, 0xff, 0x00, 0x00, 0x00, 0x00, 0xfe, 0xff, 0xff, 0xff,
  0xf4, 0xff, 0xff, 0xff, 0x03, 0x00, 0x00, 0x00, 0x00, 0x00, 0x00, 0x00,
  0xf7, 0xff, 0xff, 0xff, 0x00, 0x00, 0x00, 0x00, 0xff, 0xff, 0xff, 0xff,
  0x06, 0x00, 0x00, 0x00, 0x0b, 0x00, 0x00, 0x00, 0x04, 0x00, 0x00, 0x00,
  0xff, 0xff, 0xff, 0xff, 0x00, 0x00, 0x00, 0x00, 0x00, 0x00, 0x00, 0x00,
  0xf1, 0xff, 0xff, 0xff, 0xfa, 0xff, 0xff, 0xff, 0x04, 0x00, 0x00, 0x00,
  0x00, 0x00, 0x00, 0x00, 0x06, 0x00, 0x00, 0x00, 0x08, 0x00, 0x00, 0x00,
  0x00, 0x00, 0x00, 0x00, 0x0e, 0x00, 0x00, 0x00, 0x00, 0x00, 0x00, 0x00,
  0x04, 0x00, 0x00, 0x00, 0x0b, 0x00, 0x00, 0x00, 0xff, 0xff, 0xff, 0xff,
  0xfe, 0xff, 0xff, 0xff, 0x00, 0x00, 0x00, 0x00, 0xf0, 0xff, 0xff, 0xff,
  0x00, 0x00, 0x00, 0x00, 0x00, 0x00, 0x00, 0x00, 0xf1, 0xff, 0xff, 0xff,
  0x0c, 0x00, 0x00, 0x00, 0xfa, 0xff, 0xff, 0xff, 0x06, 0x00, 0x00, 0x00,
  0xfb, 0xff, 0xff, 0xff, 0x09, 0x00, 0x00, 0x00, 0x00, 0x00, 0x00, 0x00,
  0x00, 0x00, 0x00, 0x00, 0x03, 0x00, 0x00, 0x00, 0xfe, 0xff, 0xff, 0xff,
  0xf5, 0xff, 0xff, 0xff, 0xfc, 0xff, 0xff, 0xff, 0xaa, 0xfe, 0xff, 0xff,
  0x00, 0x00, 0x00, 0x02, 0x10, 0x00, 0x00, 0x00, 0x04, 0x00, 0x00, 0x00,
  0x10, 0x00, 0x00, 0x00, 0x20, 0x00, 0x00, 0x00, 0x01, 0x00, 0x00, 0x00,
  0x80, 0x00, 0x00, 0x00, 0x0c, 0x00, 0x00, 0x00, 0x64, 0x65, 0x6e, 0x73,
  0x65, 0x5f, 0x38, 0x2f, 0x62, 0x69, 0x61, 0x73, 0x00, 0x00, 0x00, 0x00,
  0x9c, 0xfe, 0xff, 0xff, 0x08, 0x00, 0x00, 0x00, 0x0c, 0x00, 0x00, 0x00,
  0x01, 0x00, 0x00, 0x00, 0x1d, 0xc3, 0xfd, 0x3c, 0x01, 0x00, 0x00, 0x00,
  0x00, 0x00, 0x00, 0x00, 0x00, 0x00, 0x00, 0x00, 0x00, 0x00, 0x00, 0x00,
  0x96, 0xff, 0xff, 0xff, 0x04, 0x00, 0x00, 0x00, 0x04, 0x00, 0x00, 0x00,
  0xa4, 0xfa, 0xff, 0xff, 0x12, 0xff, 0xff, 0xff, 0x00, 0x00, 0x00, 0x02,
  0x10, 0x00, 0x00, 0x00, 0x03, 0x00, 0x00, 0x00, 0x10, 0x00, 0x00, 0x00,
  0x20, 0x00, 0x00, 0x00, 0x01, 0x00, 0x00, 0x00, 0x01, 0x00, 0x00, 0x00,
  0x0d, 0x00, 0x00, 0x00, 0x64, 0x65, 0x6e, 0x73, 0x65, 0x5f, 0x31, 0x31,
  0x2f, 0x62, 0x69, 0x61, 0x73, 0x00, 0x00, 0x00, 0x04, 0xff, 0xff, 0xff,
  0x08, 0x00, 0x00, 0x00, 0x0c, 0x00, 0x00, 0x00, 0x01, 0x00, 0x00, 0x00,
  0xb8, 0xfc, 0xbb, 0x39, 0x01, 0x00, 0x00, 0x00, 0x00, 0x00, 0x00, 0x00,
  0x00, 0x00, 0x00, 0x00, 0x00, 0x00, 0x00, 0x00, 0x00, 0x00, 0x06, 0x00,
  0x08, 0x00, 0x04, 0x00, 0x06, 0x00, 0x00, 0x00, 0x04, 0x00, 0x00, 0x00,
  0x80, 0x00, 0x00, 0x00, 0x0a, 0x01, 0x00, 0x00, 0x2b, 0x00, 0x00, 0x00,
  0xc4, 0x00, 0x00, 0x00, 0xfe, 0xfe, 0xff, 0xff, 0x08, 0xff, 0xff, 0xff,
  0x39, 0x00, 0x00, 0x00, 0xb9, 0xff, 0xff, 0xff, 0xe1, 0xff, 0xff, 0xff,
  0xf7, 0x00, 0x00, 0x00, 0x2a, 0x01, 0x00, 0x00, 0xfe, 0x00, 0x00, 0x00,
  0xcc, 0xff, 0xff, 0xff, 0x1b, 0xff, 0xff, 0xff, 0xd8, 0xfe, 0xff, 0xff,
  0x93, 0xff, 0xff, 0xff, 0xb7, 0xff, 0xff, 0xff, 0x96, 0xff, 0xff, 0xff,
  0xf4, 0x00, 0x00, 0x00, 0x19, 0x00, 0x00, 0x00, 0x18, 0xff, 0xff, 0xff,
  0xd3, 0xff, 0xff, 0xff, 0xf3, 0xfe, 0xff, 0xff, 0xd9, 0xff, 0xff, 0xff,
  0xc4, 0xff, 0xff, 0xff, 0x13, 0xff, 0xff, 0xff, 0x02, 0xff, 0xff, 0xff,
  0x8b, 0xff, 0xff, 0xff, 0xac, 0xff, 0xff, 0xff, 0x18, 0xff, 0xff, 0xff,
  0x2e, 0x00, 0x00, 0x00, 0xf5, 0x00, 0x00, 0x00, 0x40, 0x00, 0x00, 0x00,
  0x00, 0x00, 0x0e, 0x00, 0x18, 0x00, 0x08, 0x00, 0x07, 0x00, 0x0c, 0x00,
  0x10, 0x00, 0x14, 0x00, 0x0e, 0x00, 0x00, 0x00, 0x00, 0x00, 0x00, 0x02,
  0x10, 0x00, 0x00, 0x00, 0x02, 0x00, 0x00, 0x00, 0x10, 0x00, 0x00, 0x00,
  0x2c, 0x00, 0x00, 0x00, 0x01, 0x00, 0x00, 0x00, 0x20, 0x00, 0x00, 0x00,
  0x0d, 0x00, 0x00, 0x00, 0x64, 0x65, 0x6e, 0x73, 0x65, 0x5f, 0x31, 0x30,
  0x2f, 0x62, 0x69, 0x61, 0x73, 0x00, 0x00, 0x00, 0x0c, 0x00, 0x0c, 0x00,
  0x00, 0x00, 0x00, 0x00, 0x04, 0x00, 0x08, 0x00, 0x0c, 0x00, 0x00, 0x00,
  0x08, 0x00, 0x00, 0x00, 0x0c, 0x00, 0x00, 0x00, 0x01, 0x00, 0x00, 0x00,
  0xa1, 0x95, 0xf4, 0x3a, 0x01, 0x00, 0x00, 0x00, 0x00, 0x00, 0x00, 0x00,
  0x00, 0x00, 0x00, 0x00, 0x00, 0x00, 0x00, 0x00, 0x14, 0x00, 0x18, 0x00,
  0x04, 0x00, 0x00, 0x00, 0x08, 0x00, 0x0c, 0x00, 0x10, 0x00, 0x00, 0x00,
  0x00, 0x00, 0x14, 0x00, 0x14, 0x00, 0x00, 0x00, 0x14, 0x00, 0x00, 0x00,
  0x01, 0x00, 0x00, 0x00, 0x18, 0x00, 0x00, 0x00, 0x44, 0x00, 0x00, 0x00,
  0x34, 0x00, 0x00, 0x00, 0x02, 0x00, 0x00, 0x00, 0x01, 0x00, 0x00, 0x00,
  0x08, 0x00, 0x00, 0x00, 0x1f, 0x00, 0x00, 0x00, 0x73, 0x65, 0x72, 0x76,
  0x69, 0x6e, 0x67, 0x5f, 0x64, 0x65, 0x66, 0x61, 0x75, 0x6c, 0x74, 0x5f,
  0x64, 0x65, 0x6e, 0x73, 0x65, 0x5f, 0x38, 0x5f, 0x69, 0x6e, 0x70, 0x75,
  0x74, 0x3a, 0x30, 0x00, 0x02, 0x00, 0x00, 0x00, 0xff, 0xff, 0xff, 0xff,
  0x08, 0x00, 0x00, 0x00, 0xfc, 0xff, 0xff, 0xff, 0x04, 0x00, 0x04, 0x00,
  0x04, 0x00, 0x00, 0x00
};

#endif //ANN_PRUNED_H