#ifndef ANN_CLUSTERED_H
#define ANN_CLUSTERED_H


unsigned int ANN_clustered_len = 14736;
unsigned char ANN_clustered[] = {
 0x28, 0x00, 0x00, 0x00, 0x54, 0x46, 0x4c, 0x33, 0x00, 0x00, 0x00, 0x00,
  0x00, 0x00, 0x00, 0x00, 0x00, 0x00, 0x00, 0x00, 0x14, 0x00, 0x20, 0x00,
  0x04, 0x00, 0x08, 0x00, 0x0c, 0x00, 0x10, 0x00, 0x14, 0x00, 0x00, 0x00,
  0x18, 0x00, 0x1c, 0x00, 0x14, 0x00, 0x00, 0x00, 0x03, 0x00, 0x00, 0x00,
  0x20, 0x39, 0x00, 0x00, 0x30, 0x32, 0x00, 0x00, 0x18, 0x32, 0x00, 0x00,
  0xb4, 0x00, 0x00, 0x00, 0x7c, 0x00, 0x00, 0x00, 0x04, 0x00, 0x00, 0x00,
  0x01, 0x00, 0x00, 0x00, 0x04, 0x00, 0x00, 0x00, 0x96, 0xcd, 0xff, 0xff,
  0x44, 0x00, 0x00, 0x00, 0x1c, 0x00, 0x00, 0x00, 0x04, 0x00, 0x00, 0x00,
  0x0f, 0x00, 0x00, 0x00, 0x73, 0x65, 0x72, 0x76, 0x69, 0x6e, 0x67, 0x5f,
  0x64, 0x65, 0x66, 0x61, 0x75, 0x6c, 0x74, 0x00, 0x01, 0x00, 0x00, 0x00,
  0x04, 0x00, 0x00, 0x00, 0xb8, 0xff, 0xff, 0xff, 0x08, 0x00, 0x00, 0x00,
  0x0d, 0x00, 0x00, 0x00, 0x08, 0x00, 0x00, 0x00, 0x64, 0x65, 0x6e, 0x73,
  0x65, 0x5f, 0x31, 0x31, 0x00, 0x00, 0x00, 0x00, 0x01, 0x00, 0x00, 0x00,
  0x04, 0x00, 0x00, 0x00, 0x82, 0xce, 0xff, 0xff, 0x04, 0x00, 0x00, 0x00,
  0x0d, 0x00, 0x00, 0x00, 0x64, 0x65, 0x6e, 0x73, 0x65, 0x5f, 0x38, 0x5f,
  0x69, 0x6e, 0x70, 0x75, 0x74, 0x00, 0x00, 0x00, 0x01, 0x00, 0x00, 0x00,
  0x0c, 0x00, 0x00, 0x00, 0x08, 0x00, 0x0c, 0x00, 0x04, 0x00, 0x08, 0x00,
  0x08, 0x00, 0x00, 0x00, 0x08, 0x00, 0x00, 0x00, 0x0f, 0x00, 0x00, 0x00,
  0x13, 0x00, 0x00, 0x00, 0x6d, 0x69, 0x6e, 0x5f, 0x72, 0x75, 0x6e, 0x74,
  0x69, 0x6d, 0x65, 0x5f, 0x76, 0x65, 0x72, 0x73, 0x69, 0x6f, 0x6e, 0x00,
  0x10, 0x00, 0x00, 0x00, 0x58, 0x31, 0x00, 0x00, 0x44, 0x31, 0x00, 0x00,
  0x28, 0x31, 0x00, 0x00, 0x84, 0x30, 0x00, 0x00, 0x70, 0x2f, 0x00, 0x00,
  0x5c, 0x2d, 0x00, 0x00, 0x48, 0x29, 0x00, 0x00, 0x34, 0x09, 0x00, 0x00,
  0x20, 0x01, 0x00, 0x00, 0x8c, 0x00, 0x00, 0x00, 0x80, 0x00, 0x00, 0x00,
  0x6c, 0x00, 0x00, 0x00, 0x58, 0x00, 0x00, 0x00, 0x44, 0x00, 0x00, 0x00,
  0x30, 0x00, 0x00, 0x00, 0x04, 0x00, 0x00, 0x00, 0x16, 0xcf, 0xff, 0xff,
  0x04, 0x00, 0x00, 0x00, 0x10, 0x00, 0x00, 0x00, 0x31, 0x2e, 0x31, 0x34,
  0x2e, 0x30, 0x00, 0x00, 0x00, 0x00, 0x00, 0x00, 0x00, 0x00, 0x00, 0x00,
  0x00, 0x00, 0x00, 0x00, 0x00, 0x00, 0x00, 0x00, 0x00, 0x00, 0x00, 0x00,
  0x44, 0xc8, 0xff, 0xff, 0x00, 0x00, 0x00, 0x00, 0x00, 0x00, 0x00, 0x00,
  0x00, 0x00, 0x00, 0x00, 0x54, 0xc8, 0xff, 0xff, 0x00, 0x00, 0x00, 0x00,
  0x00, 0x00, 0x00, 0x00, 0x00, 0x00, 0x00, 0x00, 0x64, 0xc8, 0xff, 0xff,
  0x00, 0x00, 0x00, 0x00, 0x00, 0x00, 0x00, 0x00, 0x00, 0x00, 0x00, 0x00,
  0x74, 0xc8, 0xff, 0xff, 0x00, 0x00, 0x00, 0x00, 0x00, 0x00, 0x00, 0x00,
  0x00, 0x00, 0x00, 0x00, 0x84, 0xc8, 0xff, 0xff, 0x00, 0x00, 0x00, 0x00,
  0x86, 0xcf, 0xff, 0xff, 0x04, 0x00, 0x00, 0x00, 0x80, 0x00, 0x00, 0x00,
  0x9e, 0x92, 0x37, 0xbe, 0xa8, 0x43, 0x89, 0xbe, 0x61, 0xfb, 0x08, 0xbe,
  0x87, 0xef, 0x61, 0x3e, 0x55, 0xfc, 0xb3, 0x3d, 0x24, 0xb6, 0x9f, 0xbe,
  0xf4, 0x23, 0x32, 0x3d, 0x87, 0xef, 0x61, 0x3e, 0x9e, 0x92, 0x37, 0xbe,
  0x82, 0x45, 0xb6, 0xbe, 0xa8, 0x43, 0x89, 0xbe, 0x6e, 0xf3, 0x06, 0x3e,
  0xf4, 0x23, 0x32, 0x3d, 0x87, 0xef, 0x61, 0x3e, 0xb9, 0xae, 0x34, 0x3e,
  0x78, 0x79, 0xd2, 0xba, 0x2f, 0x1d, 0x9f, 0x3e, 0x9e, 0x92, 0x37, 0xbe,
  0x61, 0xfb, 0x08, 0xbe, 0x55, 0xfc, 0xb3, 0x3d, 0x6e, 0xf3, 0x06, 0x3e,
  0x87, 0xef, 0x61, 0x3e, 0x2f, 0x1d, 0x9f, 0x3e, 0x78, 0x79, 0xd2, 0xba,
  0x78, 0x79, 0xd2, 0xba, 0xb9, 0xae, 0x34, 0x3e, 0xf4, 0x23, 0x32, 0x3d,
  0xb9, 0xae, 0x34, 0x3e, 0x55, 0xfc, 0xb3, 0x3d, 0x24, 0xb6, 0x9f, 0xbe,
  0xc6, 0x50, 0xb8, 0xbd, 0xe8, 0x04, 0x3a, 0xbd, 0x00, 0x00, 0x00, 0x00,
  0x16, 0xd0, 0xff, 0xff, 0x04, 0x00, 0x00, 0x00, 0x00, 0x08, 0x00, 0x00,
  0xd0, 0xd0, 0xc0, 0x2f, 0xe0, 0xe0, 0xff, 0x0f, 0x1f, 0x2f, 0x0f, 0x0f,
  0x2f, 0xc0, 0x1f, 0xe0, 0xff, 0x4f, 0x1f, 0xff, 0xc0, 0x3f, 0xb1, 0x3f,
  0xff, 0x1f, 0xe0, 0xe0, 0xd0, 0x0f, 0x5f, 0xe0, 0x4f, 0x4f, 0x0f, 0x3f,
  0xd0, 0x0f, 0xa1, 0x4f, 0x1f, 0x3f, 0xb1, 0xc0, 0xd0, 0xd0, 0x3f, 0xe0,
  0xc0, 0x3f, 0xc0, 0x4f, 0x1f, 0xf0, 0x3f, 0xff, 0x4f, 0xc0, 0x1f, 0x3f,
  0xc0, 0x2f, 0xb1, 0xf0, 0xff, 0x4f, 0xb1, 0x4f, 0x4f, 0xb1, 0xff, 0xc0,
  0xff, 0x4f, 0x0f, 0xf0, 0x1f, 0x5f, 0x0f, 0xd0, 0xff, 0xc0, 0xd0, 0xa1,
  0x2f, 0x0f, 0x4f, 0x4f, 0xd0, 0xf0, 0xb1, 0xe0, 0x4f, 0x3f, 0xc0, 0x0f,
  0x2f, 0x1f, 0xff, 0x0f, 0xf0, 0x0f, 0x4f, 0x3f, 0xb1, 0xff, 0xe0, 0xff,
  0x91, 0xc0, 0xc0, 0x2f, 0xff, 0x4f, 0xe0, 0xe0, 0xd0, 0xc0, 0xa1, 0xb1,
  0x1f, 0x3f, 0x2f, 0xa1, 0x0f, 0xff, 0xe0, 0x2f, 0xf0, 0xf0, 0xd0, 0x2f,
  0x2f, 0xf0, 0x3f, 0x3f, 0x1f, 0xe0, 0x2f, 0xff, 0x4f, 0xd0, 0x0f, 0x3f,
  0xff, 0x3f, 0xc0, 0x5f, 0xd0, 0xff, 0x5f, 0xe0, 0xc0, 0xc0, 0x1f, 0xd0,
  0x4f, 0xc0, 0xb1, 0xe0, 0xff, 0x1f, 0x0f, 0x2f, 0xd0, 0xff, 0xb1, 0xe0,
  0x2f, 0xa1, 0x5f, 0x4f, 0x4f, 0xd0, 0xff, 0xd0, 0xd0, 0x4f, 0x1f, 0xf0,
  0x1f, 0x0f, 0xd0, 0xc0, 0xf0, 0xa1, 0xb1, 0x4f, 0x2f, 0x1f, 0xe0, 0x3f,
  0xff, 0x1f, 0xf0, 0x4f, 0xf0, 0x3f, 0x3f, 0x1f, 0x4f, 0x0f, 0xc0, 0x0f,
  0xe0, 0xd0, 0x0f, 0x4f, 0xc0, 0x2f, 0x3f, 0x4f, 0xb1, 0xf0, 0xff, 0xe0,
  0xff, 0xd0, 0xc0, 0x0f, 0x2f, 0xc0, 0xd0, 0x0f, 0x3f, 0xe0, 0x1f, 0xe0,
  0x2f, 0xb1, 0x4f, 0xf0, 0x4f, 0x4f, 0x1f, 0xe0, 0xb1, 0xb1, 0x0f, 0xf0,
  0xd0, 0xe0, 0xff, 0x0f, 0xff, 0xb1, 0x3f, 0x3f, 0x2f, 0x0f, 0xb1, 0x4f,
  0xf0, 0x1f, 0xb1, 0x4f, 0x1f, 0xd0, 0x0f, 0xd0, 0x6e, 0xd0, 0x91, 0xe0,
  0x1f, 0xb1, 0xd0, 0xf0, 0x4f, 0xf0, 0x1f, 0xe0, 0xb1, 0x1f, 0x2f, 0x1f,
  0x2f, 0xc0, 0x2f, 0x0f, 0xf0, 0x2f, 0xf0, 0x91, 0x5f, 0xd0, 0xf0, 0xd0,
  0x0f, 0x3f, 0x1f, 0x4f, 0x1f, 0xff, 0xd0, 0x0f, 0x2f, 0x2f, 0xc0, 0xe0,
  0x2f, 0x3f, 0x4f, 0xb1, 0x2f, 0x1f, 0xc0, 0xe0, 0x1f, 0xd0, 0xa1, 0xe0,
  0xd0, 0xb1, 0x0f, 0x6e, 0xf0, 0xe0, 0xa1, 0x3f, 0xf0, 0xf0, 0x2f, 0x0f,
  0x2f, 0x1f, 0x3f, 0x4f, 0xf0, 0xd0, 0x2f, 0xb1, 0xff, 0x5f, 0xff, 0xc0,
  0xc0, 0xff, 0xe0, 0xff, 0x1f, 0x2f, 0xe0, 0xc0, 0x1f, 0x1f, 0x1f, 0x2f,
  0x2f, 0xe0, 0xff, 0xb1, 0x0f, 0x1f, 0xb1, 0xff, 0xc0, 0x4f, 0xd0, 0x4f,
  0x1f, 0xf0, 0xa1, 0x1f, 0x4f, 0xa1, 0xff, 0xff, 0xe0, 0x1f, 0xe0, 0x1f,
  0xe0, 0xb1, 0xd0, 0x3f, 0x2f, 0x1f, 0xe0, 0x1f, 0xc0, 0xe0, 0xf0, 0xc0,
  0x2f, 0xb1, 0xa1, 0xe0, 0x1f, 0xf0, 0x2f, 0xd0, 0xe0, 0xc0, 0xc0, 0xf0,
  0xf0, 0xc0, 0xff, 0x2f, 0x1f, 0xf0, 0x3f, 0x3f, 0xe0, 0x4f, 0xf0, 0xa1,
  0xf0, 0x0f, 0xc0, 0x2f, 0xb1, 0xe0, 0x1f, 0xc0, 0x1f, 0xb1, 0xd0, 0x3f,
  0xc0, 0x0f, 0x1f, 0xc0, 0xb1, 0xff, 0xc0, 0xff, 0xb1, 0xe0, 0x3f, 0x2f,
  0x5f, 0x1f, 0xb1, 0xe0, 0xb1, 0x0f, 0x3f, 0x3f, 0x3f, 0x0f, 0x3f, 0x2f,
  0xff, 0xf0, 0xff, 0x3f, 0xa1, 0xf0, 0xff, 0x3f, 0xff, 0x4f, 0xe0, 0x0f,
  0xb1, 0xb1, 0xb1, 0xff, 0xc0, 0xd0, 0xb1, 0x3f, 0xc0, 0x2f, 0x4f, 0xb1,
  0x2f, 0xf0, 0x4f, 0xff, 0x1f, 0xd0, 0x1f, 0xa1, 0x4f, 0xe0, 0x0f, 0x2f,
  0xd0, 0x4f, 0xd0, 0x4f, 0xd0, 0xff, 0xf0, 0xb1, 0xff, 0xe0, 0xa1, 0x4f,
  0x2f, 0xe0, 0xe0, 0x0f, 0x0f, 0x1f, 0xd0, 0x4f, 0xf0, 0xd0, 0xb1, 0x0f,
  0xc0, 0xc0, 0xd0, 0xd0, 0xd0, 0x0f, 0x0f, 0x2f, 0x0f, 0xe0, 0x1f, 0x1f,
  0x2f, 0xb1, 0xe0, 0xf0, 0x4f, 0x2f, 0x1f, 0xf0, 0x4f, 0x0f, 0xe0, 0x1f,
  0x3f, 0xe0, 0xe0, 0xf0, 0x5f, 0xb1, 0xf0, 0xd0, 0xb1, 0xd0, 0x0f, 0x3f,
  0xf0, 0xc0, 0xb1, 0x4f, 0xff, 0x0f, 0x1f, 0xd0, 0x2f, 0xd0, 0xa1, 0x0f,
  0x4f, 0x0f, 0x0f, 0xd0, 0x2f, 0x5f, 0xc0, 0x4f, 0x1f, 0xd0, 0x3f, 0x5f,
  0x3f, 0xff, 0xb1, 0xd0, 0xff, 0xa1, 0xff, 0x2f, 0xf0, 0x0f, 0x4f, 0xd0,
  0xff, 0xf0, 0x3f, 0x1f, 0xe0, 0x0f, 0x0f, 0x2f, 0xf0, 0x4f, 0xe0, 0xe0,
  0x1f, 0x5f, 0x0f, 0xb1, 0xb1, 0xe0, 0x1f, 0x0f, 0xc0, 0xf0, 0x0f, 0xff,
  0x3f, 0xe0, 0xb1, 0xd0, 0xf0, 0x1f, 0x1f, 0x3f, 0x1f, 0xe0, 0xe0, 0x2f,
  0xd0, 0x2f, 0x3f, 0xe0, 0xff, 0x3f, 0x3f, 0xf0, 0xd0, 0xc0, 0xf0, 0x2f,
  0xd0, 0x0f, 0x2f, 0xf0, 0x4f, 0xff, 0x1f, 0x1f, 0xf0, 0xff, 0xf0, 0x2f,
  0xe0, 0x3f, 0xb1, 0x3f, 0x2f, 0x1f, 0x0f, 0xf0, 0x0f, 0xf0, 0xe0, 0x4f,
  0x2f, 0xf0, 0x4f, 0xe0, 0xff, 0x5f, 0x3f, 0x3f, 0xb1, 0xc0, 0x2f, 0xf0,
  0xf0, 0xf0, 0x3f, 0xd0, 0xf0, 0xb1, 0xd0, 0x0f, 0xc0, 0x3f, 0x1f, 0x2f,
  0xc0, 0xa1, 0x2f, 0xff, 0x4f, 0x2f, 0x4f, 0x2f, 0xd0, 0xff, 0xe0, 0xff,
  0xd0, 0x4f, 0x0f, 0x0f, 0x0f, 0xff, 0xe0, 0xff, 0xf0, 0xc0, 0xd0, 0xf0,
  0xb1, 0x0f, 0xff, 0x3f, 0xf0, 0x0f, 0x2f, 0xff, 0x3f, 0x2f, 0xe0, 0xc0,
  0x0f, 0xc0, 0xf0, 0xb1, 0xff, 0x0f, 0x4f, 0xc0, 0xff, 0x1f, 0xf0, 0x1f,
  0xf0, 0x3f, 0x0f, 0xe0, 0xa1, 0x0f, 0xb1, 0xd0, 0xff, 0xb1, 0xf0, 0xff,
  0x1f, 0xb1, 0xd0, 0xa1, 0xc0, 0xd0, 0xc0, 0xd0, 0xa1, 0xf0, 0xf0, 0xa1,
  0xb1, 0xc0, 0x0f, 0x0f, 0xff, 0xb1, 0xd0, 0xc0, 0x3f, 0xd0, 0x3f, 0xc0,
  0x2f, 0x1f, 0xff, 0x2f, 0x0f, 0x1f, 0xff, 0xf0, 0x2f, 0x5f, 0xd0, 0x0f,
  0xe0, 0x2f, 0x3f, 0xff, 0xe0, 0x2f, 0xc0, 0x3f, 0xc0, 0x2f, 0x4f, 0xe0,
  0xc0, 0xe0, 0x3f, 0x0f, 0xff, 0xa1, 0x1f, 0xe0, 0xff, 0xff, 0xe0, 0x0f,
  0xb1, 0xff, 0x1f, 0x0f, 0xf0, 0x4f, 0x1f, 0xe0, 0x4f, 0xc0, 0xd0, 0x2f,
  0x0f, 0xf0, 0x2f, 0x1f, 0xe0, 0x0f, 0xe0, 0x2f, 0x0f, 0x2f, 0x0f, 0xe0,
  0x4f, 0xb1, 0xff, 0xf0, 0xf0, 0x0f, 0xff, 0xd0, 0xff, 0xe0, 0x2f, 0x4f,
  0xff, 0x2f, 0xf0, 0x0f, 0x0f, 0xf0, 0x1f, 0x1f, 0x4f, 0xe0, 0xc0, 0x2f,
  0xf0, 0xd0, 0xe0, 0x1f, 0x5f, 0xd0, 0x3f, 0xb1, 0xe0, 0xff, 0x2f, 0x3f,
  0xe0, 0x1f, 0xc0, 0xe0, 0x1f, 0xff, 0xc0, 0x4f, 0xb1, 0x4f, 0x2f, 0x2f,
  0x2f, 0xe0, 0x1f, 0x4f, 0x2f, 0x3f, 0x4f, 0x1f, 0x2f, 0x5f, 0x1f, 0x1f,
  0x4f, 0x4f, 0xff, 0x2f, 0x1f, 0x4f, 0x4f, 0x2f, 0xff, 0xff, 0x3f, 0xff,
  0xf0, 0xc0, 0x4f, 0xd0, 0x2f, 0x1f, 0x0f, 0xc0, 0x0f, 0x0f, 0xe0, 0xff,
  0x3f, 0xc0, 0x2f, 0xe0, 0xb1, 0x2f, 0x4f, 0x1f, 0x6e, 0xff, 0xc0, 0xe0,
  0x1f, 0xb1, 0x2f, 0xa1, 0x1f, 0xc0, 0xb1, 0xd0, 0x0f, 0xe0, 0xe0, 0x0f,
  0xf0, 0x2f, 0x1f, 0xd0, 0x2f, 0xb1, 0xf0, 0x1f, 0x1f, 0xe0, 0xc0, 0x4f,
  0xff, 0xc0, 0xf0, 0x2f, 0x1f, 0x3f, 0x91, 0xb1, 0x2f, 0xc0, 0xb1, 0x3f,
  0xff, 0x3f, 0x1f, 0x3f, 0x91, 0xa1, 0xf0, 0x2f, 0xc0, 0x0f, 0xd0, 0x0f,
  0xf0, 0xf0, 0xff, 0xb1, 0x2f, 0xb1, 0x3f, 0x1f, 0xf0, 0x3f, 0x1f, 0x3f,
  0xb1, 0x6e, 0xd0, 0xc0, 0xb1, 0xb1, 0x2f, 0xff, 0xc0, 0x3f, 0x0f, 0xd0,
  0x0f, 0x1f, 0xd0, 0x1f, 0x1f, 0x0f, 0x0f, 0xc0, 0x4f, 0xe0, 0xd0, 0xf0,
  0x1f, 0x2f, 0x0f, 0x4f, 0x3f, 0xd0, 0xb1, 0x1f, 0x4f, 0xd0, 0x2f, 0xd0,
  0xc0, 0xb1, 0xc0, 0x4f, 0x1f, 0xe0, 0xc0, 0xe0, 0x0f, 0xe0, 0xe0, 0x0f,
  0x3f, 0xf0, 0xc0, 0xb1, 0x1f, 0xff, 0xc0, 0xd0, 0xe0, 0x0f, 0xe0, 0x2f,
  0xe0, 0xb1, 0x1f, 0xc0, 0xc0, 0x1f, 0xc0, 0xe0, 0xc0, 0xf0, 0x1f, 0xc0,
  0xff, 0x3f, 0x1f, 0xf0, 0xb1, 0x0f, 0x4f, 0xa1, 0x1f, 0x4f, 0x0f, 0x4f,
  0x5f, 0x4f, 0xd0, 0xf0, 0xff, 0xb1, 0xb1, 0xb1, 0x4f, 0x4f, 0xd0, 0xc0,
  0x4f, 0xf0, 0xf0, 0x1f, 0xd0, 0x0f, 0xf0, 0x1f, 0x0f, 0xd0, 0x2f, 0x0f,
  0x1f, 0xb1, 0x0f, 0xf0, 0x1f, 0xf0, 0x4f, 0xc0, 0xd0, 0xe0, 0x2f, 0x4f,
  0xf0, 0x1f, 0xc0, 0x0f, 0x1f, 0x0f, 0xd0, 0xb1, 0x3f, 0xff, 0xf0, 0x2f,
  0x2f, 0xf0, 0xd0, 0x3f, 0x3f, 0xc0, 0xe0, 0x0f, 0xb1, 0x3f, 0x4f, 0x3f,
  0xe0, 0xd0, 0x0f, 0xd0, 0xb1, 0x3f, 0xe0, 0x4f, 0xd0, 0xd0, 0x0f, 0x2f,
  0x4f, 0xff, 0xb1, 0xf0, 0xd0, 0xff, 0xe0, 0xb1, 0xe0, 0x0f, 0x3f, 0xff,
  0x3f, 0x0f, 0xb1, 0xd0, 0xf0, 0x3f, 0xf0, 0x3f, 0x1f, 0xd0, 0x5f, 0xc0,
  0xff, 0x3f, 0x91, 0x0f, 0xd0, 0xc0, 0x1f, 0xa1, 0x4f, 0x2f, 0xc0, 0xc0,
  0x2f, 0x5f, 0xc0, 0xd0, 0x4f, 0xf0, 0xd0, 0x5f, 0xe0, 0xb1, 0xc0, 0xb1,
  0x3f, 0xb1, 0xd0, 0xd0, 0xff, 0x0f, 0xf0, 0xe0, 0xc0, 0xb1, 0xe0, 0xff,
  0xff, 0x3f, 0x0f, 0x4f, 0x0f, 0xf0, 0x4f, 0x4f, 0x0f, 0xc0, 0xd0, 0x0f,
  0x4f, 0x2f, 0x1f, 0x2f, 0x0f, 0xb1, 0x6e, 0x5f, 0xff, 0x3f, 0xf0, 0x3f,
  0xff, 0xd0, 0x4f, 0xff, 0x4f, 0xd0, 0x1f, 0x0f, 0xff, 0x0f, 0x4f, 0x2f,
  0x1f, 0x1f, 0xff, 0xd0, 0x2f, 0x2f, 0xc0, 0xb1, 0xe0, 0xf0, 0xe0, 0xd0,
  0xa1, 0xf0, 0x3f, 0x4f, 0x1f, 0x3f, 0xc0, 0x2f, 0xf0, 0xc0, 0x2f, 0xf0,
  0x1f, 0xc0, 0x0f, 0xd0, 0x1f, 0xb1, 0xd0, 0xd0, 0xb1, 0x3f, 0x4f, 0x0f,
  0xff, 0x0f, 0xd0, 0xd0, 0x3f, 0x2f, 0x4f, 0xff, 0xf0, 0xd0, 0xd0, 0x2f,
  0xd0, 0x0f, 0x1f, 0xb1, 0x2f, 0xc0, 0xe0, 0x2f, 0x0f, 0x3f, 0xc0, 0x1f,
  0x0f, 0x4f, 0xb1, 0xf0, 0xb1, 0xb1, 0x1f, 0x4f, 0x0f, 0xb1, 0xc0, 0xb1,
  0xff, 0xd0, 0xd0, 0xb1, 0xe0, 0x4f, 0xff, 0x3f, 0xf0, 0xf0, 0x4f, 0x91,
  0xe0, 0xe0, 0xd0, 0x0f, 0x1f, 0xe0, 0xd0, 0xc0, 0xb1, 0x0f, 0x2f, 0xc0,
  0x4f, 0x2f, 0xff, 0xf0, 0xd0, 0xe0, 0xc0, 0xd0, 0x4f, 0x3f, 0x2f, 0xb1,
  0xf0, 0xb1, 0xf0, 0x0f, 0x4f, 0x1f, 0xc0, 0xa1, 0x3f, 0x4f, 0xff, 0xff,
  0xd0, 0x2f, 0x1f, 0x2f, 0x5f, 0xc0, 0xd0, 0x2f, 0x1f, 0xf0, 0xe0, 0x3f,
  0x1f, 0x1f, 0xc0, 0x2f, 0x2f, 0xa1, 0xb1, 0x0f, 0x2f, 0xd0, 0x5f, 0xff,
  0x0f, 0xff, 0xd0, 0xff, 0xe0, 0x3f, 0x1f, 0x2f, 0xff, 0xc0, 0xd0, 0x1f,
  0x2f, 0x0f, 0xf0, 0x4f, 0x2f, 0x1f, 0xb1, 0xd0, 0xd0, 0x4f, 0xff, 0xe0,
  0x1f, 0x1f, 0x3f, 0x3f, 0x2f, 0x0f, 0x3f, 0xa1, 0xf0, 0x1f, 0x1f, 0xff,
  0x1f, 0x2f, 0x1f, 0x1f, 0xb1, 0xb1, 0xe0, 0xb1, 0xc0, 0xf0, 0x1f, 0xd0,
  0xe0, 0xff, 0xc0, 0x4f, 0x3f, 0x1f, 0xf0, 0xf0, 0xb1, 0x2f, 0xe0, 0x0f,
  0x1f, 0x1f, 0xc0, 0xa1, 0xf0, 0xc0, 0x1f, 0xb1, 0xff, 0xa1, 0xd0, 0xe0,
  0x3f, 0xf0, 0xff, 0xd0, 0xd0, 0xb1, 0x0f, 0xd0, 0xc0, 0xff, 0x2f, 0xb1,
  0xe0, 0xd0, 0x2f, 0x3f, 0x1f, 0xd0, 0xf0, 0x1f, 0x4f, 0xc0, 0x4f, 0xd0,
  0xf0, 0xe0, 0x0f, 0xff, 0xd0, 0x1f, 0xf0, 0xb1, 0xff, 0x2f, 0xd0, 0xc0,
  0xc0, 0xc0, 0x3f, 0xe0, 0x4f, 0xe0, 0xb1, 0x3f, 0x1f, 0xb1, 0x2f, 0x1f,
  0x4f, 0xb1, 0x2f, 0xd0, 0xe0, 0x3f, 0x1f, 0x3f, 0xd0, 0x4f, 0xe0, 0xa1,
  0xf0, 0x1f, 0xc0, 0xb1, 0x0f, 0x0f, 0x2f, 0xe0, 0xc0, 0xb1, 0xd0, 0xa1,
  0xf0, 0x5f, 0x1f, 0x1f, 0xb1, 0x0f, 0x0f, 0xb1, 0x1f, 0x2f, 0xd0, 0xe0,
  0xe0, 0x4f, 0xb1, 0xff, 0x0f, 0xff, 0x0f, 0xc0, 0x1f, 0x2f, 0xc0, 0xd0,
  0x2f, 0x4f, 0xf0, 0x2f, 0xf0, 0xf0, 0x0f, 0x2f, 0xff, 0xff, 0xf0, 0xf0,
  0x4f, 0x0f, 0xf0, 0x3f, 0x1f, 0xa1, 0xf0, 0xc0, 0xe0, 0xd0, 0x2f, 0xe0,
  0xf0, 0x3f, 0x4f, 0xe0, 0xc0, 0xe0, 0x3f, 0x3f, 0xb1, 0xf0, 0xf0, 0xe0,
  0x0f, 0xd0, 0x0f, 0x4f, 0x4f, 0xb1, 0xd0, 0xff, 0x4f, 0x0f, 0xe0, 0xf0,
  0x1f, 0x0f, 0xe0, 0xe0, 0xe0, 0xe0, 0xc0, 0xd0, 0xff, 0x3f, 0x4f, 0xf0,
  0x0f, 0x2f, 0xe0, 0x1f, 0xe0, 0xd0, 0x5f, 0x1f, 0xe0, 0xc0, 0xf0, 0x3f,
  0xff, 0x3f, 0x0f, 0xf0, 0xd0, 0xff, 0xe0, 0xe0, 0xff, 0xc0, 0xff, 0xff,
  0x0f, 0x3f, 0xe0, 0x1f, 0xb1, 0xd0, 0x4f, 0xe0, 0xf0, 0x2f, 0x1f, 0x4f,
  0x3f, 0x1f, 0x3f, 0x2f, 0xb1, 0x3f, 0xb1, 0x1f, 0xd0, 0xb1, 0xf0, 0xff,
  0x4f, 0xd0, 0x2f, 0xe0, 0x0f, 0x3f, 0xf0, 0x1f, 0x3f, 0xff, 0xe0, 0x0f,
  0xe0, 0x1f, 0xf0, 0x0f, 0x4f, 0x3f, 0xf0, 0xf0, 0x2f, 0xa1, 0x0f, 0x2f,
  0x3f, 0xf0, 0x1f, 0x4f, 0x3f, 0x1f, 0xff, 0xf0, 0xff, 0x3f, 0xf0, 0xa1,
  0x0f, 0xa1, 0xc0, 0xa1, 0xe0, 0x1f, 0xf0, 0x3f, 0x1f, 0x3f, 0xf0, 0xff,
  0x0f, 0xc0, 0xff, 0xf0, 0xf0, 0x4f, 0xd0, 0xe0, 0xe0, 0x3f, 0xd0, 0x1f,
  0x2f, 0xd0, 0x0f, 0xf0, 0x3f, 0x0f, 0x4f, 0xe0, 0x3f, 0x1f, 0xf0, 0xe0,
  0xff, 0xe0, 0xf0, 0x4f, 0x3f, 0x0f, 0xf0, 0xf0, 0x1f, 0xe0, 0x0f, 0xe0,
  0x3f, 0x4f, 0xf0, 0xa1, 0x1f, 0xd0, 0xc0, 0xb1, 0x1f, 0x4f, 0x4f, 0x1f,
  0xff, 0x3f, 0x0f, 0x4f, 0xff, 0x0f, 0x0f, 0x3f, 0xc0, 0x0f, 0xff, 0x4f,
  0x1f, 0x1f, 0xe0, 0xd0, 0x0f, 0x4f, 0xa1, 0xd0, 0xb1, 0x0f, 0xb1, 0xf0,
  0x2f, 0x1f, 0xa1, 0xc0, 0x0f, 0x1f, 0x0f, 0x2f, 0x1f, 0x4f, 0xff, 0x1f,
  0xff, 0x1f, 0xff, 0xc0, 0xa1, 0x1f, 0x1f, 0xf0, 0xc0, 0x4f, 0xd0, 0xb1,
  0x2f, 0xd0, 0xd0, 0xff, 0x1f, 0xff, 0x0f, 0x2f, 0x1f, 0x0f, 0xe0, 0x0f,
  0x4f, 0x81, 0xf0, 0xf0, 0xc0, 0xf0, 0xff, 0x3f, 0x0f, 0x3f, 0x2f, 0xe0,
  0xb1, 0xe0, 0xb1, 0xf0, 0xff, 0x1f, 0x2f, 0xd0, 0x3f, 0xff, 0xc0, 0x3f,
  0x3f, 0x4f, 0x1f, 0xf0, 0x0f, 0x3f, 0xf0, 0xc0, 0xd0, 0xe0, 0xf0, 0x4f,
  0x4f, 0x1f, 0xf0, 0xd0, 0x2f, 0x3f, 0xb1, 0xf0, 0x5f, 0xe0, 0xf0, 0xc0,
  0xf0, 0x4f, 0xc0, 0x2f, 0x2f, 0xc0, 0xd0, 0xff, 0xb1, 0xf0, 0x1f, 0x0f,
  0xd0, 0xc0, 0x2f, 0xff, 0xff, 0xff, 0x2f, 0x4f, 0xf0, 0x3f, 0xff, 0xc0,
  0xf0, 0x3f, 0x1f, 0xb1, 0x0f, 0xe0, 0xf0, 0x2f, 0xb1, 0xd0, 0xe0, 0xf0,
  0x1f, 0x1f, 0xd0, 0x1f, 0xc0, 0xf0, 0xa1, 0x2f, 0xf0, 0xa1, 0xc0, 0x2f,
  0x1f, 0xc0, 0x2f, 0x2f, 0xff, 0x2f, 0x0f, 0xff, 0x0f, 0xc0, 0xf0, 0xe0,
  0xff, 0x1f, 0xb1, 0x3f, 0xf0, 0xe0, 0x0f, 0x0f, 0xff, 0xb1, 0xa1, 0xe0,
  0xe0, 0xc0, 0xff, 0x3f, 0x2f, 0xb1, 0xff, 0x1f, 0xff, 0x5f, 0x0f, 0x1f,
  0x3f, 0x0f, 0x1f, 0xd0, 0xb1, 0xd0, 0xd0, 0x3f, 0x1f, 0x1f, 0x4f, 0xf0,
  0xff, 0xff, 0xa1, 0xf0, 0xd0, 0xf0, 0xff, 0xc0, 0x1f, 0x0f, 0xff, 0xc0,
  0xf0, 0xc0, 0x2f, 0x0f, 0xb1, 0xc0, 0xe0, 0xff, 0x4f, 0x1f, 0xb1, 0xff,
  0x0f, 0xf0, 0xff, 0xf0, 0x4f, 0x4f, 0x1f, 0x0f, 0xf0, 0x4f, 0x3f, 0xd0,
  0x2f, 0xf0, 0xff, 0xe0, 0x3f, 0x1f, 0x3f, 0xff, 0xc0, 0xf0, 0x2f, 0x0f,
  0xe0, 0x0f, 0xd0, 0xd0, 0xa1, 0x3f, 0x4f, 0x1f, 0x2f, 0x2f, 0xe0, 0x1f,
  0x0f, 0x91, 0x0f, 0x1f, 0xc0, 0xd0, 0xc0, 0xd0, 0xb1, 0x1f, 0xb1, 0xd0,
  0x1f, 0xd0, 0x3f, 0xb1, 0xd0, 0x3f, 0xe0, 0xc0, 0xf0, 0xf0, 0xc0, 0xb1,
  0xff, 0xd0, 0x3f, 0x3f, 0xe0, 0x1f, 0xa1, 0xc0, 0xb1, 0x0f, 0xd0, 0xd0,
  0x5f, 0xc0, 0x4f, 0x0f, 0xf0, 0x4f, 0x1f, 0xb1, 0x00, 0x00, 0x00, 0x00,
  0x26, 0xd8, 0xff, 0xff, 0x04, 0x00, 0x00, 0x00, 0x00, 0x20, 0x00, 0x00,
  0x2c, 0xd8, 0xe9, 0x1b, 0x2c, 0xb7, 0x1b, 0x3c, 0xfa, 0x0a, 0x0a, 0xc8,
  0x2c, 0x2c, 0x1b, 0xe9, 0x1b, 0x0a, 0xd8, 0x1b, 0xe9, 0xd8, 0x2c, 0x1b,
  0x1b, 0xe9, 0xfa, 0xe9, 0x1b, 0xc8, 0x3c, 0xd8, 0x1b, 0x1b, 0x2c, 0x0a,
  0x1b, 0xfa, 0x0a, 0x3c, 0x1b, 0x0a, 0x2c, 0xd8, 0xe9, 0xd8, 0x0a, 0xd8,
  0xe9, 0x2c, 0xfa, 0xc8, 0x1b, 0x2c, 0xfa, 0x1b, 0x2c, 0x4d, 0xb7, 0xfa,
  0x0a, 0xc8, 0xc8, 0xe9, 0x2c, 0xfa, 0x1b, 0xd8, 0xfa, 0xe9, 0xfa, 0xd8,
  0x1b, 0xfa, 0xd8, 0x1b, 0x0a, 0xe9, 0x2c, 0x0a, 0xe9, 0x0a, 0xd8, 0x1b,
  0x1b, 0xd8, 0x0a, 0x0a, 0xfa, 0xfa, 0x1b, 0x2c, 0xd8, 0x0a, 0x0a, 0xe9,
  0xc8, 0xfa, 0x1b, 0xd8, 0x1b, 0xd8, 0xc8, 0x1b, 0xfa, 0x1b, 0xa7, 0xd8,
  0xc8, 0x1b, 0x0a, 0xfa, 0xe9, 0x2c, 0x1b, 0x1b, 0x2c, 0x0a, 0x2c, 0xd8,
  0xc8, 0xd8, 0x2c, 0xd8, 0x1b, 0xfa, 0xfa, 0xfa, 0xe9, 0xd8, 0x3c, 0xfa,
  0xfa, 0xd8, 0xe9, 0x2c, 0xd8, 0xd8, 0xd8, 0xe9, 0xfa, 0xe9, 0x1b, 0xd8,
  0x2c, 0x1b, 0x0a, 0x1b, 0xe9, 0x2c, 0xfa, 0xe9, 0xfa, 0xfa, 0xe9, 0x2c,
  0xfa, 0xfa, 0xfa, 0x2c, 0xc8, 0x2c, 0xfa, 0x3c, 0xd8, 0xc8, 0xfa, 0xd8,
  0xe9, 0xe9, 0x5d, 0xe9, 0xfa, 0x1b, 0xd8, 0xe9, 0xfa, 0xfa, 0xc8, 0x0a,
  0x1b, 0x1b, 0x2c, 0xb7, 0x3c, 0x2c, 0x0a, 0xfa, 0xe9, 0x0a, 0x2c, 0x1b,
  0xe9, 0x0a, 0x3c, 0xfa, 0xfa, 0xfa, 0xe9, 0xc8, 0xfa, 0xe9, 0x1b, 0xc8,
  0xc8, 0xe9, 0x0a, 0xfa, 0xfa, 0xe9, 0xe9, 0x1b, 0x4d, 0x3c, 0xc8, 0x1b,
  0x1b, 0x2c, 0x3c, 0x0a, 0xfa, 0xfa, 0xd8, 0x2c, 0x2c, 0x0a, 0xe9, 0xe9,
  0xd8, 0xc8, 0xfa, 0x1b, 0xd8, 0x2c, 0x0a, 0x2c, 0xe9, 0xb7, 0x1b, 0xe9,
  0x2c, 0x1b, 0x3c, 0x1b, 0x2c, 0x5d, 0xe9, 0xfa, 0x1b, 0x1b, 0xd8, 0x1b,
  0xc8, 0x2c, 0x0a, 0x2c, 0x2c, 0x2c, 0x1b, 0xd8, 0x1b, 0x0a, 0x1b, 0x1b,
  0xc8, 0x0a, 0xe9, 0x1b, 0x0a, 0x1b, 0xe9, 0xe9, 0xfa, 0x1b, 0x3c, 0x0a,
  0x2c, 0xc8, 0x3c, 0x0a, 0x0a, 0x1b, 0x0a, 0xc8, 0x0a, 0x3c, 0xc8, 0x0a,
  0x0a, 0x2c, 0xc8, 0xb7, 0xe9, 0x3c, 0xc8, 0xe9, 0x2c, 0x1b, 0x0a, 0x2c,
  0xe9, 0x1b, 0xfa, 0x0a, 0xfa, 0xe9, 0xfa, 0xe9, 0x0a, 0xc8, 0x0a, 0xd8,
  0xe9, 0xfa, 0xfa, 0xd8, 0xd8, 0xfa, 0x3c, 0xd8, 0x2c, 0x1b, 0x0a, 0xe9,
  0x2c, 0x1b, 0x1b, 0x1b, 0x0a, 0x0a, 0xe9, 0xfa, 0xe9, 0xd8, 0x2c, 0xe9,
  0x1b, 0x3c, 0x1b, 0x3c, 0xfa, 0x2c, 0xfa, 0xe9, 0xd8, 0xd8, 0x0a, 0x0a,
  0x2c, 0x0a, 0x2c, 0xd8, 0x0a, 0x1b, 0xd8, 0xfa, 0xe9, 0xfa, 0xfa, 0xe9,
  0x2c, 0xb7, 0x3c, 0x2c, 0xe9, 0x1b, 0xfa, 0xc8, 0xfa, 0x2c, 0xc8, 0xfa,
  0x1b, 0xfa, 0x1b, 0x1b, 0x1b, 0x2c, 0xe9, 0xd8, 0xd8, 0xe9, 0xfa, 0x1b,
  0x0a, 0xd8, 0xe9, 0xc8, 0x2c, 0x2c, 0x0a, 0xe9, 0xe9, 0x0a, 0x1b, 0x2c,
  0xe9, 0xfa, 0xfa, 0x0a, 0xfa, 0xd8, 0xfa, 0x2c, 0x1b, 0xfa, 0xe9, 0xfa,
  0x1b, 0xfa, 0x0a, 0x2c, 0xfa, 0x0a, 0xe9, 0x2c, 0x0a, 0x0a, 0x0a, 0xd8,
  0x0a, 0x1b, 0xd8, 0xc8, 0x1b, 0xe9, 0xe9, 0x1b, 0xfa, 0xfa, 0x3c, 0xe9,
  0x1b, 0x1b, 0x1b, 0x3c, 0xc8, 0xfa, 0xd8, 0xd8, 0x0a, 0x95, 0x2c, 0xfa,
  0x0a, 0x1b, 0xfa, 0x2c, 0x0a, 0xfa, 0xfa, 0xc8, 0x1b, 0xfa, 0xc8, 0x2c,
  0x1b, 0xd8, 0xfa, 0xd8, 0xfa, 0x1b, 0x0a, 0xfa, 0x3c, 0x0a, 0xfa, 0x1b,
  0xfa, 0xc8, 0xe9, 0xd8, 0xd8, 0x2c, 0xc8, 0x3c, 0x0a, 0xfa, 0xfa, 0xe9,
  0xfa, 0x0a, 0xd8, 0x1b, 0xd8, 0x0a, 0x2c, 0x0a, 0xe9, 0xe9, 0xfa, 0xd8,
  0x3c, 0x2c, 0xd8, 0xd8, 0xd8, 0x0a, 0xd8, 0xe9, 0x0a, 0x5d, 0x2c, 0xfa,
  0x0a, 0x1b, 0x1b, 0x2c, 0x0a, 0x3c, 0x3c, 0x2c, 0x3c, 0xfa, 0x2c, 0xa7,
  0xe9, 0x1b, 0xc8, 0xc8, 0x0a, 0xd8, 0xfa, 0x2c, 0xd8, 0xd8, 0x2c, 0xc8,
  0xd8, 0x0a, 0x0a, 0xfa, 0x2c, 0xc8, 0xc8, 0x1b, 0xc8, 0xfa, 0x1b, 0xfa,
  0xc8, 0x0a, 0xfa, 0x3c, 0xfa, 0xe9, 0x1b, 0x0a, 0x1b, 0xc8, 0xc8, 0x1b,
  0xfa, 0xfa, 0x1b, 0x2c, 0x0a, 0xfa, 0xfa, 0xfa, 0xd8, 0x2c, 0x1b, 0xe9,
  0xe9, 0xfa, 0xfa, 0xc8, 0x2c, 0xd8, 0x1b, 0x1b, 0x2c, 0x0a, 0xd8, 0xd8,
  0x0a, 0xe9, 0x0a, 0xfa, 0xfa, 0x0a, 0x1b, 0xfa, 0x0a, 0xc8, 0xfa, 0x1b,
  0x1b, 0x1b, 0x3c, 0x1b, 0x0a, 0xfa, 0xfa, 0x1b, 0x0a, 0xc8, 0xc8, 0x0a,
  0xa7, 0xc8, 0xe9, 0x1b, 0x0a, 0x1b, 0xd8, 0xe9, 0x1b, 0xfa, 0x1b, 0xe9,
  0xc8, 0xd8, 0x1b, 0x1b, 0x3c, 0xfa, 0xe9, 0xfa, 0xfa, 0x1b, 0xe9, 0xfa,
  0xe9, 0xd8, 0x0a, 0xfa, 0x2c, 0x1b, 0x1b, 0xc8, 0xc8, 0x3c, 0xe9, 0xc8,
  0xe9, 0x1b, 0x0a, 0x1b, 0x0a, 0x2c, 0x0a, 0xc8, 0x1b, 0x1b, 0x1b, 0xe9,
  0xd8, 0xfa, 0xe9, 0xfa, 0xc8, 0x0a, 0xe9, 0x0a, 0xfa, 0x5d, 0x1b, 0x2c,
  0xc8, 0x3c, 0xe9, 0xe9, 0x1b, 0x0a, 0xe9, 0xfa, 0xc8, 0x1b, 0x2c, 0x0a,
  0xe9, 0xd8, 0xd8, 0x0a, 0x2c, 0xd8, 0x0a, 0x0a, 0xd8, 0xfa, 0xc8, 0xe9,
  0x0a, 0x1b, 0x0a, 0x0a, 0xe9, 0xfa, 0xfa, 0xc8, 0x0a, 0xd8, 0xd8, 0xfa,
  0xd8, 0x1b, 0x2c, 0xfa, 0xd8, 0xfa, 0xd8, 0x2c, 0xc8, 0xd8, 0xe9, 0xfa,
  0x0a, 0x0a, 0x3c, 0xd8, 0x2c, 0x0a, 0xd8, 0x2c, 0x1b, 0xd8, 0xfa, 0x1b,
  0xe9, 0x1b, 0x3c, 0x0a, 0x0a, 0xd8, 0xd8, 0xe9, 0x1b, 0xd8, 0x2c, 0x3c,
  0xd8, 0xd8, 0xfa, 0xfa, 0x3c, 0x1b, 0x1b, 0xd8, 0xe9, 0xd8, 0x0a, 0xc8,
  0xe9, 0xe9, 0x0a, 0x2c, 0xd8, 0xc8, 0x1b, 0xd8, 0x1b, 0xfa, 0x0a, 0x1b,
  0xe9, 0x2c, 0xd8, 0x0a, 0xd8, 0xd8, 0xd8, 0xc8, 0xc8, 0x1b, 0x2c, 0xd8,
  0x2c, 0x0a, 0x2c, 0x2c, 0xc8, 0x2c, 0xe9, 0xc8, 0xd8, 0xc8, 0xd8, 0x2c,
  0xfa, 0x2c, 0x1b, 0x1b, 0xfa, 0xe9, 0xc8, 0xfa, 0x2c, 0xe9, 0xe9, 0xfa,
  0xc8, 0xfa, 0xc8, 0xd8, 0x2c, 0xe9, 0xc8, 0xfa, 0x0a, 0xfa, 0xd8, 0x0a,
  0xe9, 0xfa, 0x1b, 0xfa, 0x1b, 0xe9, 0x2c, 0xd8, 0x1b, 0xd8, 0x3c, 0xfa,
  0xfa, 0xd8, 0xfa, 0xd8, 0xc8, 0xd8, 0xe9, 0x3c, 0x2c, 0xc8, 0xfa, 0xe9,
  0x0a, 0xe9, 0x0a, 0x2c, 0x1b, 0xe9, 0xfa, 0x2c, 0xe9, 0x2c, 0x2c, 0x0a,
  0xc8, 0xe9, 0x1b, 0x1b, 0xd8, 0x0a, 0xfa, 0x1b, 0x0a, 0x0a, 0xc8, 0x2c,
  0x0a, 0xfa, 0xe9, 0xe9, 0xe9, 0xfa, 0xc8, 0x0a, 0xc8, 0x0a, 0x2c, 0xfa,
  0xc8, 0x2c, 0xe9, 0xd8, 0xd8, 0xfa, 0x1b, 0xfa, 0xfa, 0xfa, 0xfa, 0xe9,
  0x0a, 0xfa, 0xe9, 0xe9, 0x1b, 0xe9, 0x2c, 0x1b, 0xc8, 0x3c, 0x2c, 0xd8,
  0x0a, 0xc8, 0x0a, 0xfa, 0x2c, 0xfa, 0xd8, 0xd8, 0x0a, 0x1b, 0x1b, 0x4d,
  0x4d, 0x3c, 0x2c, 0xd8, 0x2c, 0xe9, 0x2c, 0x1b, 0xfa, 0xd8, 0xe9, 0x0a,
  0xe9, 0xe9, 0x2c, 0xe9, 0x0a, 0xd8, 0xe9, 0xd8, 0x5d, 0xe9, 0xfa, 0x2c,
  0x0a, 0x4d, 0xd8, 0x2c, 0x0a, 0x0a, 0xfa, 0xe9, 0xc8, 0xe9, 0xe9, 0x3c,
  0xe9, 0xe9, 0xfa, 0x0a, 0xfa, 0x0a, 0x4d, 0xd8, 0xe9, 0xe9, 0x0a, 0xfa,
  0xe9, 0x4d, 0xfa, 0x0a, 0x0a, 0x4d, 0xb7, 0xc8, 0xfa, 0x2c, 0x0a, 0x1b,
  0xfa, 0xd8, 0x1b, 0x0a, 0x1b, 0x0a, 0xe9, 0xe9, 0xe9, 0x3c, 0x1b, 0x1b,
  0x1b, 0x0a, 0x2c, 0x1b, 0x1b, 0x0a, 0x1b, 0xd8, 0xc8, 0x2c, 0xfa, 0xe9,
  0x2c, 0x1b, 0xe9, 0x3c, 0xc8, 0x1b, 0xc8, 0xfa, 0x2c, 0xfa, 0xe9, 0xfa,
  0x2c, 0xe9, 0x1b, 0x1b, 0x1b, 0xfa, 0x0a, 0x3c, 0xfa, 0xfa, 0xc8, 0x2c,
  0x0a, 0x0a, 0xe9, 0x3c, 0xd8, 0x2c, 0xd8, 0xe9, 0x2c, 0x1b, 0x0a, 0x1b,
  0x1b, 0xfa, 0xfa, 0x2c, 0xe9, 0x4d, 0x1b, 0x0a, 0xfa, 0x0a, 0xfa, 0x1b,
  0xd8, 0xd8, 0x3c, 0x3c, 0x1b, 0xe9, 0xd8, 0x2c, 0xc8, 0xc8, 0x1b, 0x0a,
  0x2c, 0xc8, 0xd8, 0xd8, 0x1b, 0xe9, 0x2c, 0x0a, 0xc8, 0xe9, 0xe9, 0x3c,
  0xe9, 0xc8, 0x0a, 0xe9, 0x0a, 0xc8, 0xd8, 0xd8, 0xe9, 0x0a, 0x0a, 0xfa,
  0xe9, 0xc8, 0xe9, 0x0a, 0x1b, 0xc8, 0xd8, 0xfa, 0x1b, 0xe9, 0x1b, 0x0a,
  0xfa, 0x2c, 0x2c, 0x3c, 0xe9, 0x3c, 0x1b, 0xd8, 0x3c, 0xd8, 0xc8, 0x2c,
  0x0a, 0x1b, 0x2c, 0x2c, 0xe9, 0xe9, 0x1b, 0x2c, 0xe9, 0xfa, 0xc8, 0x1b,
  0xd8, 0x2c, 0xc8, 0xe9, 0xc8, 0x3c, 0xd8, 0xe9, 0x1b, 0x1b, 0x0a, 0x5d,
  0x1b, 0xfa, 0xe9, 0x0a, 0x1b, 0xc8, 0xe9, 0x1b, 0xd8, 0x3c, 0xfa, 0xe9,
  0x2c, 0x2c, 0x1b, 0x1b, 0xc8, 0x0a, 0x1b, 0xfa, 0xd8, 0x1b, 0xfa, 0xc8,
  0xe9, 0x2c, 0xfa, 0xd8, 0x0a, 0x0a, 0x1b, 0x0a, 0x0a, 0x1b, 0xd8, 0x1b,
  0x95, 0xc8, 0xfa, 0xb7, 0x1b, 0xc8, 0xd8, 0x0a, 0xe9, 0xd8, 0xd8, 0xc8,
  0xfa, 0xd8, 0x1b, 0xfa, 0xc8, 0x5d, 0x1b, 0x2c, 0x3c, 0x1b, 0xfa, 0xfa,
  0x0a, 0xe9, 0xe9, 0xfa, 0x2c, 0x2c, 0xe9, 0x95, 0x1b, 0xc8, 0xd8, 0xb7,
  0x2c, 0xe9, 0x3c, 0xe9, 0xe9, 0xe9, 0x3c, 0x1b, 0x2c, 0x0a, 0xc8, 0x0a,
  0x1b, 0x4d, 0xd8, 0x1b, 0x1b, 0xfa, 0x0a, 0xe9, 0xc8, 0xfa, 0xe9, 0xfa,
  0xc8, 0xe9, 0x0a, 0x0a, 0xb7, 0xc8, 0xd8, 0x1b, 0x1b, 0x3c, 0x1b, 0x0a,
  0xc8, 0xfa, 0xe9, 0x0a, 0xd8, 0x0a, 0x0a, 0xc8, 0xd8, 0x4d, 0x1b, 0xfa,
  0x2c, 0x1b, 0x3c, 0xd8, 0xfa, 0xc8, 0x0a, 0xc8, 0xd8, 0x0a, 0x0a, 0xd8,
  0x1b, 0x2c, 0xfa, 0x2c, 0xc8, 0x3c, 0x3c, 0xc8, 0x1b, 0x3c, 0x0a, 0xe9,
  0xe9, 0x0a, 0x0a, 0x4d, 0x2c, 0xe9, 0x3c, 0x0a, 0xd8, 0x3c, 0x1b, 0x1b,
  0xfa, 0x3c, 0x1b, 0x0a, 0x0a, 0xfa, 0xc8, 0xe9, 0xc8, 0xfa, 0xb7, 0xfa,
  0xc8, 0x0a, 0x1b, 0xd8, 0x0a, 0x2c, 0xe9, 0xfa, 0xd8, 0xe9, 0xe9, 0xe9,
  0x2c, 0xc8, 0xe9, 0xc8, 0xc8, 0x2c, 0xc8, 0x0a, 0x0a, 0xfa, 0xe9, 0xe9,
  0xd8, 0xd8, 0xc8, 0xc8, 0xc8, 0x0a, 0x1b, 0x2c, 0x2c, 0x3c, 0x1b, 0x3c,
  0xc8, 0x2c, 0xfa, 0x1b, 0xe9, 0x1b, 0xe9, 0xc8, 0xd8, 0x0a, 0x2c, 0xe9,
  0xe9, 0x0a, 0x1b, 0xe9, 0xd8, 0xc8, 0xe9, 0xc8, 0xfa, 0xfa, 0x1b, 0x0a,
  0x3c, 0xe9, 0x2c, 0xfa, 0xe9, 0x0a, 0xd8, 0x2c, 0xc8, 0x3c, 0xc8, 0x1b,
  0x0a, 0x2c, 0xfa, 0x0a, 0x3c, 0xfa, 0x0a, 0xfa, 0x0a, 0xe9, 0x1b, 0x0a,
  0x0a, 0xfa, 0xfa, 0x0a, 0xd8, 0xc8, 0x2c, 0xc8, 0xe9, 0x1b, 0x3c, 0xd8,
  0xc8, 0xe9, 0x1b, 0xd8, 0xd8, 0x1b, 0xfa, 0x1b, 0x1b, 0x2c, 0xc8, 0x1b,
  0xd8, 0xfa, 0xfa, 0x3c, 0x0a, 0xe9, 0x3c, 0x0a, 0xd8, 0xd8, 0xe9, 0xe9,
  0xd8, 0xfa, 0xd8, 0xe9, 0xc8, 0x1b, 0x3c, 0x3c, 0x1b, 0xe9, 0xfa, 0xc8,
  0x0a, 0x2c, 0xfa, 0xe9, 0x1b, 0x1b, 0xe9, 0x1b, 0x0a, 0xfa, 0xe9, 0xc8,
  0xd8, 0xc8, 0x1b, 0xd8, 0x2c, 0x2c, 0x0a, 0xe9, 0xd8, 0xd8, 0xe9, 0xfa,
  0x2c, 0xe9, 0xc8, 0xd8, 0xe9, 0xfa, 0xfa, 0x1b, 0x1b, 0x0a, 0x3c, 0xfa,
  0x3c, 0x2c, 0xc8, 0xe9, 0x0a, 0xe9, 0xe9, 0x2c, 0xe9, 0xe9, 0x1b, 0xc8,
  0x1b, 0xc8, 0x0a, 0xd8, 0xd8, 0xe9, 0x0a, 0x0a, 0x3c, 0xd8, 0x1b, 0x0a,
  0xd8, 0x2c, 0xd8, 0xfa, 0x1b, 0xc8, 0xd8, 0x2c, 0x1b, 0xc8, 0xc8, 0xc8,
  0x1b, 0xc8, 0x2c, 0xfa, 0xfa, 0xe9, 0xfa, 0xc8, 0xe9, 0x2c, 0xd8, 0x3c,
  0xe9, 0x2c, 0xd8, 0xfa, 0xfa, 0x0a, 0x2c, 0x2c, 0xc8, 0xe9, 0x2c, 0x1b,
  0xfa, 0xc8, 0xd8, 0x1b, 0xd8, 0x0a, 0x1b, 0xd8, 0x1b, 0xfa, 0xd8, 0xc8,
  0xd8, 0xd8, 0x2c, 0xe9, 0x3c, 0xfa, 0xe9, 0xd8, 0x2c, 0x1b, 0x0a, 0x1b,
  0xe9, 0x1b, 0xd8, 0x0a, 0x4d, 0x2c, 0x1b, 0xe9, 0x2c, 0xfa, 0xd8, 0x0a,
  0x2c, 0xc8, 0x2c, 0xc8, 0x2c, 0xb7, 0xd8, 0xd8, 0xc8, 0x1b, 0xc8, 0x1b,
  0x0a, 0xfa, 0xd8, 0x2c, 0x2c, 0x1b, 0x2c, 0x3c, 0x1b, 0x0a, 0x2c, 0xfa,
  0xfa, 0x3c, 0xc8, 0xe9, 0x1b, 0x1b, 0xe9, 0x4d, 0xfa, 0xfa, 0x1b, 0xd8,
  0x2c, 0xe9, 0x2c, 0xc8, 0xfa, 0xe9, 0x3c, 0xe9, 0x2c, 0x2c, 0xe9, 0x0a,
  0xfa, 0xd8, 0x3c, 0xc8, 0x0a, 0xe9, 0xc8, 0xe9, 0x2c, 0x1b, 0xd8, 0xd8,
  0x0a, 0xd8, 0xd8, 0xd8, 0x0a, 0x3c, 0xfa, 0xd8, 0x2c, 0x0a, 0x0a, 0x1b,
  0xfa, 0xfa, 0x1b, 0x4d, 0xe9, 0xd8, 0xb7, 0xd8, 0xe9, 0x0a, 0xd8, 0x0a,
  0xe9, 0xe9, 0x1b, 0x1b, 0x0a, 0x2c, 0xfa, 0xfa, 0xc8, 0xd8, 0x0a, 0xe9,
  0xc8, 0xd8, 0xfa, 0xd8, 0xd8, 0xfa, 0x1b, 0xfa, 0x0a, 0xe9, 0x1b, 0xe9,
  0x2c, 0xd8, 0x0a, 0xd8, 0x2c, 0x2c, 0xc8, 0xe9, 0xd8, 0x2c, 0xc8, 0x1b,
  0xe9, 0x3c, 0x0a, 0x1b, 0xfa, 0xfa, 0xc8, 0xd8, 0xe9, 0xfa, 0xe9, 0xd8,
  0xc8, 0x1b, 0x3c, 0x1b, 0x1b, 0x0a, 0xd8, 0x0a, 0xb7, 0x0a, 0xc8, 0x0a,
  0xfa, 0x1b, 0xe9, 0xfa, 0xe9, 0xc8, 0xfa, 0x0a, 0x0a, 0xd8, 0x1b, 0x2c,
  0xe9, 0xd8, 0x0a, 0xd8, 0xfa, 0xc8, 0xe9, 0xe9, 0xe9, 0xd8, 0x1b, 0xd8,
  0xe9, 0xfa, 0xe9, 0xc8, 0x0a, 0xa7, 0xfa, 0xd8, 0x1b, 0x3c, 0x2c, 0xfa,
  0xe9, 0x0a, 0xe9, 0x1b, 0xb7, 0x1b, 0xe9, 0xd8, 0xe9, 0xb7, 0xfa, 0x2c,
  0xe9, 0x1b, 0xd8, 0xd8, 0x1b, 0xc8, 0x0a, 0x2c, 0xe9, 0xc8, 0x2c, 0xb7,
  0x1b, 0x2c, 0x0a, 0xe9, 0xc8, 0xfa, 0x0a, 0x2c, 0x2c, 0xfa, 0x0a, 0xc8,
  0xc8, 0xb7, 0x3c, 0x3c, 0x3c, 0x2c, 0x1b, 0xd8, 0x0a, 0x0a, 0x2c, 0x3c,
  0x0a, 0x0a, 0x1b, 0xd8, 0xe9, 0xfa, 0xfa, 0xe9, 0xe9, 0xfa, 0xe9, 0x1b,
  0x2c, 0x0a, 0x0a, 0xc8, 0x0a, 0x5d, 0x2c, 0x2c, 0xfa, 0x0a, 0xc8, 0xfa,
  0x1b, 0x1b, 0x0a, 0x0a, 0xd8, 0x1b, 0xfa, 0x0a, 0xd8, 0xe9, 0xd8, 0xfa,
  0x2c, 0x1b, 0x2c, 0xd8, 0xd8, 0x2c, 0x2c, 0xc8, 0xe9, 0x0a, 0xfa, 0xfa,
  0x3c, 0x0a, 0x0a, 0xe9, 0x0a, 0x1b, 0xfa, 0x2c, 0x3c, 0x1b, 0xfa, 0x1b,
  0x1b, 0x2c, 0xc8, 0x3c, 0x0a, 0x0a, 0x0a, 0x0a, 0xc8, 0xfa, 0x1b, 0x0a,
  0xfa, 0x0a, 0x1b, 0xd8, 0x2c, 0xfa, 0xd8, 0xfa, 0xc8, 0x2c, 0xd8, 0x3c,
  0xc8, 0x0a, 0x2c, 0xfa, 0xd8, 0xb7, 0xe9, 0x2c, 0x1b, 0xc8, 0x2c, 0x1b,
  0xd8, 0x0a, 0xc8, 0x0a, 0xb7, 0xe9, 0xd8, 0xd8, 0x2c, 0x2c, 0xd8, 0x0a,
  0xc8, 0x0a, 0xe9, 0x1b, 0x2c, 0xfa, 0x2c, 0xd8, 0xd8, 0x2c, 0x0a, 0x1b,
  0xfa, 0xe9, 0x2c, 0xd8, 0x1b, 0x0a, 0xfa, 0xe9, 0x2c, 0xd8, 0xe9, 0xe9,
  0xc8, 0x1b, 0x1b, 0xe9, 0xe9, 0x2c, 0x3c, 0xd8, 0xe9, 0xfa, 0x0a, 0x0a,
  0xe9, 0xfa, 0xfa, 0xfa, 0x1b, 0xd8, 0xd8, 0xfa, 0xc8, 0xd8, 0xfa, 0x1b,
  0xd8, 0xe9, 0xd8, 0x3c, 0x0a, 0x0a, 0x1b, 0x0a, 0x0a, 0xd8, 0x1b, 0xc8,
  0xe9, 0xc8, 0xc8, 0xfa, 0x1b, 0x0a, 0x0a, 0x3c, 0xe9, 0xe9, 0x2c, 0x1b,
  0x0a, 0xe9, 0x1b, 0x2c, 0x0a, 0xd8, 0xe9, 0xfa, 0xb7, 0xd8, 0xe9, 0x1b,
  0xfa, 0x1b, 0x2c, 0x3c, 0x1b, 0xe9, 0x1b, 0xd8, 0x3c, 0x2c, 0x2c, 0xe9,
  0x0a, 0xe9, 0x0a, 0xc8, 0x1b, 0x3c, 0xfa, 0x1b, 0xc8, 0xd8, 0xd8, 0x0a,
  0x2c, 0x2c, 0xe9, 0xfa, 0x3c, 0xe9, 0x2c, 0x2c, 0x3c, 0x0a, 0x0a, 0x0a,
  0xd8, 0xd8, 0xd8, 0xfa, 0x1b, 0x2c, 0x1b, 0xd8, 0xd8, 0x1b, 0x2c, 0x0a,
  0xe9, 0x0a, 0x0a, 0x1b, 0xe9, 0xc8, 0x1b, 0x2c, 0xe9, 0xfa, 0x2c, 0xfa,
  0x1b, 0xfa, 0x1b, 0xc8, 0xd8, 0xd8, 0x2c, 0x1b, 0xc8, 0xfa, 0xe9, 0x3c,
  0x1b, 0x1b, 0xfa, 0xd8, 0x2c, 0x0a, 0x1b, 0x2c, 0xd8, 0x2c, 0xfa, 0xc8,
  0x2c, 0x2c, 0x1b, 0x2c, 0xc8, 0xc8, 0x3c, 0x3c, 0x1b, 0x1b, 0x0a, 0xc8,
  0xfa, 0x2c, 0xc8, 0xe9, 0xfa, 0xfa, 0x2c, 0xc8, 0x1b, 0x0a, 0xc8, 0x1b,
  0x2c, 0x1b, 0x1b, 0x1b, 0xfa, 0xd8, 0xc8, 0x2c, 0x2c, 0xc8, 0xc8, 0xe9,
  0xd8, 0xfa, 0xfa, 0xe9, 0xd8, 0xc8, 0xd8, 0x0a, 0x0a, 0x0a, 0x1b, 0x3c,
  0xe9, 0x2c, 0x2c, 0x1b, 0x2c, 0xd8, 0x1b, 0x2c, 0xfa, 0xfa, 0x1b, 0xd8,
  0x0a, 0xd8, 0x2c, 0x0a, 0xfa, 0x3c, 0xe9, 0xd8, 0x2c, 0x0a, 0x0a, 0xd8,
  0xd8, 0xe9, 0x1b, 0xfa, 0xfa, 0xfa, 0x0a, 0x2c, 0x0a, 0xe9, 0xe9, 0xd8,
  0xc8, 0x1b, 0xd8, 0x1b, 0x0a, 0x1b, 0xfa, 0xc8, 0xfa, 0xd8, 0x1b, 0x1b,
  0xfa, 0xe9, 0xfa, 0xd8, 0xc8, 0x1b, 0xc8, 0x0a, 0x1b, 0xe9, 0xd8, 0xc8,
  0xe9, 0xfa, 0xe9, 0x1b, 0xd8, 0x2c, 0xe9, 0xfa, 0xe9, 0xd8, 0x1b, 0xe9,
  0xfa, 0xd8, 0xe9, 0x0a, 0x1b, 0x1b, 0x2c, 0xd8, 0x0a, 0x1b, 0xfa, 0x1b,
  0xe9, 0xd8, 0x1b, 0xd8, 0x1b, 0x1b, 0x0a, 0xe9, 0xfa, 0xc8, 0x2c, 0xd8,
  0x1b, 0xd8, 0xd8, 0x0a, 0xfa, 0xfa, 0xfa, 0xfa, 0xb7, 0xfa, 0x1b, 0x0a,
  0xe9, 0xd8, 0xe9, 0x3c, 0xfa, 0x0a, 0xd8, 0x1b, 0xfa, 0xfa, 0xd8, 0x1b,
  0xe9, 0xc8, 0x2c, 0x3c, 0x1b, 0xb7, 0x0a, 0xd8, 0xb7, 0xfa, 0xc8, 0x2c,
  0x1b, 0xa7, 0xfa, 0xfa, 0xc8, 0xe9, 0x0a, 0xc8, 0xc8, 0x0a, 0xd8, 0xe9,
  0x0a, 0xe9, 0x1b, 0x0a, 0x1b, 0xd8, 0x0a, 0x0a, 0x3c, 0xc8, 0xfa, 0x1b,
  0xe9, 0x1b, 0x0a, 0x1b, 0xfa, 0xd8, 0x3c, 0x0a, 0x1b, 0x2c, 0xfa, 0xe9,
  0xc8, 0xfa, 0xd8, 0x3c, 0xc8, 0xe9, 0x2c, 0x2c, 0xd8, 0x0a, 0x2c, 0x2c,
  0xd8, 0xd8, 0x1b, 0xe9, 0x1b, 0x1b, 0x1b, 0xc8, 0x1b, 0x0a, 0x3c, 0xe9,
  0xc8, 0x1b, 0x2c, 0xe9, 0x2c, 0xc8, 0x2c, 0xe9, 0xc8, 0x2c, 0xc8, 0xe9,
  0x1b, 0xb7, 0x1b, 0x0a, 0xc8, 0x0a, 0xd8, 0xe9, 0x2c, 0x2c, 0xe9, 0xe9,
  0xd8, 0x2c, 0xe9, 0xe9, 0x1b, 0xfa, 0xfa, 0xc8, 0x1b, 0xe9, 0xd8, 0xd8,
  0x0a, 0x0a, 0x3c, 0xc8, 0xe9, 0x3c, 0xc8, 0xe9, 0xd8, 0x1b, 0xe9, 0x1b,
  0x0a, 0x1b, 0xd8, 0xd8, 0xe9, 0xfa, 0x2c, 0xe9, 0x1b, 0x2c, 0xe9, 0xd8,
  0xe9, 0xe9, 0xe9, 0x2c, 0x3c, 0x0a, 0xfa, 0xe9, 0x1b, 0xd8, 0xe9, 0xd8,
  0xe9, 0xd8, 0xb7, 0xfa, 0xfa, 0xfa, 0x1b, 0x0a, 0xe9, 0xd8, 0xfa, 0x2c,
  0x0a, 0x0a, 0xe9, 0x3c, 0xfa, 0xe9, 0x1b, 0xe9, 0x0a, 0xd8, 0xc8, 0x2c,
  0x1b, 0x3c, 0xe9, 0xfa, 0xfa, 0xe9, 0x0a, 0xfa, 0x0a, 0x3c, 0x1b, 0xe9,
  0x0a, 0xc8, 0xd8, 0x1b, 0xc8, 0x1b, 0xd8, 0x3c, 0xfa, 0xd8, 0xfa, 0xc8,
  0xd8, 0x2c, 0x1b, 0xfa, 0xd8, 0x0a, 0xfa, 0xd8, 0x2c, 0xd8, 0xe9, 0x1b,
  0xe9, 0x0a, 0x0a, 0x2c, 0xe9, 0xd8, 0xfa, 0x1b, 0x2c, 0xd8, 0x3c, 0xd8,
  0x2c, 0x3c, 0xd8, 0xc8, 0xfa, 0x0a, 0xfa, 0xfa, 0x0a, 0xd8, 0xe9, 0x1b,
  0x2c, 0xe9, 0xc8, 0xd8, 0xe9, 0xd8, 0x0a, 0x0a, 0xfa, 0xc8, 0xc8, 0x1b,
  0xe9, 0xe9, 0xe9, 0xfa, 0xd8, 0x2c, 0xb7, 0x0a, 0x0a, 0x0a, 0x2c, 0xd8,
  0x2c, 0x3c, 0x0a, 0xfa, 0x2c, 0xe9, 0xfa, 0x2c, 0xc8, 0xe9, 0xc8, 0xfa,
  0x2c, 0x2c, 0x0a, 0xfa, 0x2c, 0xd8, 0xfa, 0x0a, 0xfa, 0xd8, 0x2c, 0xe9,
  0xc8, 0x0a, 0x1b, 0x2c, 0xc8, 0x2c, 0xd8, 0xd8, 0x2c, 0x3c, 0x2c, 0xc8,
  0xb7, 0xe9, 0x1b, 0xd8, 0x1b, 0x2c, 0x1b, 0xfa, 0xe9, 0x1b, 0x3c, 0xfa,
  0x0a, 0x0a, 0xd8, 0x0a, 0xfa, 0x2c, 0xd8, 0xc8, 0xd8, 0x1b, 0x0a, 0x1b,
  0x1b, 0xb7, 0xfa, 0xfa, 0xd8, 0xe9, 0xc8, 0xc8, 0x0a, 0xe9, 0xd8, 0x0a,
  0x0a, 0xfa, 0xc8, 0xc8, 0xe9, 0xe9, 0xe9, 0x2c, 0xd8, 0x3c, 0xd8, 0xe9,
  0xe9, 0xd8, 0xc8, 0xe9, 0x2c, 0x4d, 0xfa, 0xfa, 0xe9, 0x0a, 0x6e, 0xe9,
  0xfa, 0x0a, 0xb7, 0x0a, 0xc8, 0xc8, 0x1b, 0xc8, 0xe9, 0x3c, 0x0a, 0xfa,
  0xfa, 0xd8, 0xd8, 0xc8, 0x1b, 0xe9, 0xc8, 0x95, 0xe9, 0x1b, 0x2c, 0xc8,
  0xc8, 0x0a, 0x2c, 0xb7, 0xe9, 0x2c, 0x0a, 0xe9, 0x2c, 0x0a, 0xfa, 0xfa,
  0xe9, 0xc8, 0xfa, 0x0a, 0xe9, 0x1b, 0x1b, 0xd8, 0x0a, 0x1b, 0x1b, 0xd8,
  0x2c, 0x0a, 0x2c, 0x1b, 0xe9, 0x2c, 0x2c, 0x1b, 0x3c, 0x0a, 0x0a, 0x2c,
  0xd8, 0x0a, 0xfa, 0x1b, 0xe9, 0xc8, 0xc8, 0x0a, 0xc8, 0x3c, 0xfa, 0xc8,
  0xfa, 0x3c, 0x0a, 0xd8, 0xfa, 0xfa, 0x0a, 0xd8, 0xfa, 0xe9, 0x3c, 0x2c,
  0x2c, 0xc8, 0xfa, 0xc8, 0xe9, 0xd8, 0x0a, 0xc8, 0xb7, 0x3c, 0xc8, 0x1b,
  0x3c, 0xe9, 0xfa, 0xd8, 0xd8, 0xfa, 0xb7, 0x3c, 0x1b, 0x3c, 0xd8, 0x1b,
  0xfa, 0x1b, 0xc8, 0xd8, 0x1b, 0x0a, 0xfa, 0xfa, 0xe9, 0xd8, 0xfa, 0xd8,
  0xd8, 0xfa, 0x2c, 0xfa, 0x0a, 0xa7, 0x0a, 0xfa, 0xfa, 0xfa, 0xfa, 0x2c,
  0x2c, 0x2c, 0x0a, 0xfa, 0xe9, 0x0a, 0x2c, 0xfa, 0xc8, 0xfa, 0xe9, 0x0a,
  0xc8, 0x0a, 0x1b, 0xe9, 0xfa, 0xb7, 0xd8, 0xe9, 0x2c, 0x2c, 0xfa, 0xfa,
  0xfa, 0xfa, 0x0a, 0xd8, 0xfa, 0x1b, 0xb7, 0x0a, 0x1b, 0x2c, 0x0a, 0x1b,
  0x0a, 0x1b, 0x1b, 0xe9, 0x0a, 0x2c, 0xe9, 0xd8, 0xb7, 0xd8, 0xd8, 0x0a,
  0xe9, 0x2c, 0xe9, 0xe9, 0xe9, 0x0a, 0x1b, 0x1b, 0xfa, 0xe9, 0x2c, 0xfa,
  0x0a, 0xd8, 0x0a, 0x0a, 0xfa, 0xfa, 0x2c, 0xfa, 0xd8, 0xfa, 0xd8, 0x0a,
  0x1b, 0x0a, 0xc8, 0x3c, 0x2c, 0xfa, 0x0a, 0x0a, 0xc8, 0xfa, 0xe9, 0x2c,
  0x2c, 0xfa, 0x1b, 0x0a, 0xfa, 0xb7, 0x0a, 0xc8, 0x3c, 0x2c, 0x1b, 0xfa,
  0x1b, 0xd8, 0x1b, 0xd8, 0x3c, 0xc8, 0x1b, 0x2c, 0xc8, 0x0a, 0x1b, 0xe9,
  0x1b, 0x2c, 0x3c, 0x1b, 0xc8, 0xd8, 0x0a, 0xfa, 0x1b, 0xfa, 0x0a, 0x0a,
  0x3c, 0xfa, 0xfa, 0xc8, 0xc8, 0x1b, 0x1b, 0x0a, 0x2c, 0x0a, 0xc8, 0x1b,
  0xc8, 0xd8, 0xc8, 0x1b, 0x3c, 0x0a, 0xe9, 0x1b, 0x0a, 0xe9, 0x2c, 0x1b,
  0xd8, 0x0a, 0xfa, 0xe9, 0x0a, 0x1b, 0xd8, 0x1b, 0x0a, 0x1b, 0xfa, 0x0a,
  0x1b, 0x0a, 0x2c, 0x1b, 0xc8, 0xe9, 0x3c, 0x3c, 0x1b, 0x0a, 0xc8, 0x2c,
  0x2c, 0xe9, 0xfa, 0xc8, 0x2c, 0xfa, 0xd8, 0xc8, 0xd8, 0xe9, 0x3c, 0xfa,
  0xd8, 0x0a, 0xc8, 0x0a, 0xfa, 0xc8, 0xe9, 0xc8, 0xe9, 0x0a, 0xe9, 0xe9,
  0x1b, 0xc8, 0x1b, 0xd8, 0xe9, 0x3c, 0xb7, 0x2c, 0xfa, 0x1b, 0x0a, 0x0a,
  0x1b, 0x2c, 0xe9, 0x1b, 0x2c, 0xfa, 0xc8, 0xd8, 0xd8, 0x2c, 0xe9, 0x2c,
  0xfa, 0x0a, 0xd8, 0xe9, 0x0a, 0xd8, 0xd8, 0x2c, 0xc8, 0x1b, 0x0a, 0x2c,
  0x0a, 0x2c, 0xd8, 0x2c, 0xc8, 0x1b, 0x2c, 0xe9, 0xfa, 0x0a, 0xfa, 0x1b,
  0xfa, 0xd8, 0xfa, 0xfa, 0x0a, 0x2c, 0xd8, 0xd8, 0xd8, 0xd8, 0xe9, 0xfa,
  0x1b, 0xa7, 0xd8, 0xfa, 0xd8, 0xc8, 0x1b, 0x0a, 0x3c, 0x1b, 0x1b, 0x0a,
  0xfa, 0x0a, 0xd8, 0xd8, 0x2c, 0xc8, 0x2c, 0x2c, 0xc8, 0xb7, 0xc8, 0x0a,
  0x1b, 0xfa, 0xfa, 0xe9, 0x2c, 0x1b, 0xd8, 0x1b, 0xd8, 0xd8, 0x3c, 0x0a,
  0x1b, 0xc8, 0xfa, 0xe9, 0x3c, 0xe9, 0x2c, 0x0a, 0x2c, 0xe9, 0x0a, 0x1b,
  0xe9, 0xfa, 0xfa, 0x1b, 0xd8, 0x2c, 0x0a, 0x0a, 0x2c, 0xfa, 0x1b, 0x1b,
  0xd8, 0xe9, 0x2c, 0x0a, 0xe9, 0x0a, 0x1b, 0x2c, 0xe9, 0x0a, 0xe9, 0xfa,
  0xe9, 0xe9, 0xfa, 0x0a, 0xb7, 0x0a, 0xe9, 0xd8, 0xd8, 0xe9, 0x1b, 0x0a,
  0x1b, 0xe9, 0xfa, 0x0a, 0xfa, 0xd8, 0xe9, 0xe9, 0x0a, 0xa7, 0x2c, 0x2c,
  0x2c, 0xe9, 0xc8, 0x0a, 0xd8, 0xfa, 0xd8, 0x3c, 0xc8, 0xfa, 0xfa, 0x0a,
  0xb7, 0xd8, 0x3c, 0x2c, 0xd8, 0x1b, 0xc8, 0x0a, 0xc8, 0xd8, 0xc8, 0xc8,
  0xd8, 0xb7, 0x0a, 0xc8, 0xd8, 0xa7, 0x0a, 0xe9, 0x3c, 0x1b, 0x1b, 0xd8,
  0xd8, 0xd8, 0x1b, 0x1b, 0xfa, 0x1b, 0x0a, 0x0a, 0xd8, 0xe9, 0xfa, 0xfa,
  0xe9, 0xc8, 0x2c, 0x3c, 0x1b, 0x0a, 0xc8, 0xb7, 0x1b, 0xfa, 0xd8, 0x2c,
  0xc8, 0x2c, 0x1b, 0xd8, 0x1b, 0x1b, 0xfa, 0xd8, 0x0a, 0xe9, 0xfa, 0xfa,
  0xfa, 0xd8, 0xb7, 0xe9, 0xe9, 0xe9, 0xe9, 0xc8, 0x3c, 0x2c, 0xc8, 0xe9,
  0xe9, 0x1b, 0x1b, 0x1b, 0xfa, 0x0a, 0xe9, 0xe9, 0xc8, 0xe9, 0x2c, 0x2c,
  0x1b, 0xe9, 0x2c, 0xfa, 0x0a, 0x2c, 0xe9, 0x0a, 0x0a, 0x2c, 0xfa, 0x2c,
  0xe9, 0xfa, 0x2c, 0xb7, 0x1b, 0xfa, 0xe9, 0xa7, 0xd8, 0xc8, 0x1b, 0xe9,
  0xfa, 0x3c, 0x0a, 0xc8, 0xe9, 0xd8, 0x0a, 0xe9, 0x0a, 0x1b, 0xb7, 0xfa,
  0x1b, 0x1b, 0xfa, 0xc8, 0xfa, 0x1b, 0x1b, 0x3c, 0x2c, 0xe9, 0xfa, 0xe9,
  0x3c, 0x3c, 0x1b, 0xd8, 0xfa, 0x0a, 0x2c, 0x0a, 0x0a, 0xfa, 0xfa, 0xa7,
  0x0a, 0xa7, 0xa7, 0x1b, 0xfa, 0xe9, 0xd8, 0xfa, 0x3c, 0x0a, 0x1b, 0x0a,
  0xc8, 0xfa, 0xb7, 0x0a, 0xc8, 0x0a, 0xc8, 0xd8, 0x2c, 0xe9, 0xfa, 0x0a,
  0xb7, 0xd8, 0xd8, 0x0a, 0xfa, 0x2c, 0x3c, 0x0a, 0xd8, 0x2c, 0x1b, 0xd8,
  0xfa, 0xe9, 0xfa, 0xe9, 0x0a, 0xfa, 0xfa, 0x1b, 0xfa, 0xd8, 0x2c, 0xfa,
  0xfa, 0x0a, 0xe9, 0xe9, 0x0a, 0xa7, 0x3c, 0xfa, 0x0a, 0xfa, 0xfa, 0x0a,
  0xc8, 0x2c, 0xe9, 0x3c, 0xfa, 0x3c, 0x1b, 0xe9, 0x2c, 0x4d, 0x2c, 0xe9,
  0x4d, 0xb7, 0xd8, 0xc8, 0x2c, 0xc8, 0x1b, 0xd8, 0x2c, 0x1b, 0xe9, 0xfa,
  0x2c, 0x0a, 0xfa, 0x2c, 0x2c, 0x1b, 0xfa, 0x0a, 0xc8, 0x3c, 0xfa, 0xe9,
  0xfa, 0x2c, 0x1b, 0xe9, 0xd8, 0x0a, 0xd8, 0xfa, 0xd8, 0xc8, 0xfa, 0x3c,
  0x0a, 0xe9, 0x1b, 0x0a, 0xd8, 0xe9, 0x2c, 0x1b, 0x1b, 0x2c, 0x1b, 0xd8,
  0xfa, 0x1b, 0xe9, 0x0a, 0x3c, 0xfa, 0x2c, 0x2c, 0xd8, 0xc8, 0xfa, 0xd8,
  0xc8, 0xd8, 0xfa, 0xfa, 0xd8, 0xfa, 0x1b, 0x2c, 0x3c, 0xe9, 0xd8, 0x0a,
  0x0a, 0xd8, 0x0a, 0xc8, 0x3c, 0x2c, 0xfa, 0xc8, 0x2c, 0x1b, 0xd8, 0x0a,
  0xe9, 0xd8, 0xc8, 0xd8, 0x1b, 0x2c, 0x2c, 0xd8, 0xd8, 0x0a, 0xd8, 0x2c,
  0x2c, 0xd8, 0xfa, 0xd8, 0x2c, 0xc8, 0x0a, 0x0a, 0xfa, 0xc8, 0xe9, 0xc8,
  0x1b, 0xc8, 0x1b, 0xd8, 0x2c, 0xc8, 0xd8, 0xc8, 0x2c, 0xc8, 0x3c, 0xe9,
  0xfa, 0x0a, 0xe9, 0xfa, 0xd8, 0x2c, 0xfa, 0x0a, 0x0a, 0xc8, 0x0a, 0xc8,
  0xfa, 0x2c, 0xfa, 0xd8, 0x0a, 0xd8, 0x0a, 0xfa, 0x1b, 0x3c, 0xc8, 0xe9,
  0x1b, 0xe9, 0x0a, 0xfa, 0x2c, 0x1b, 0xfa, 0x2c, 0xd8, 0x2c, 0xfa, 0x1b,
  0xd8, 0x2c, 0xc8, 0x1b, 0x3c, 0x1b, 0x0a, 0x0a, 0x2c, 0x1b, 0xc8, 0xe9,
  0x2c, 0x0a, 0x2c, 0x1b, 0x1b, 0xc8, 0xe9, 0xfa, 0xe9, 0x1b, 0xfa, 0x2c,
  0xd8, 0x95, 0x2c, 0x95, 0xfa, 0x0a, 0xe9, 0x1b, 0x2c, 0x0a, 0x0a, 0x0a,
  0xfa, 0xe9, 0xfa, 0x2c, 0x2c, 0x1b, 0xfa, 0xe9, 0x1b, 0x2c, 0xc8, 0x2c,
  0x3c, 0x1b, 0xe9, 0xd8, 0xc8, 0x1b, 0xfa, 0x1b, 0x1b, 0x0a, 0x2c, 0xe9,
  0xe9, 0x2c, 0x2c, 0xd8, 0x1b, 0xe9, 0x0a, 0x0a, 0xa7, 0x0a, 0x2c, 0x0a,
  0xd8, 0x2c, 0xe9, 0xe9, 0x0a, 0xc8, 0xfa, 0xc8, 0x1b, 0xfa, 0x3c, 0xe9,
  0xd8, 0x2c, 0x1b, 0x2c, 0x2c, 0xd8, 0x0a, 0xc8, 0xc8, 0x3c, 0xd8, 0x2c,
  0x2c, 0xd8, 0xe9, 0xfa, 0xc8, 0xe9, 0x1b, 0xfa, 0x0a, 0xd8, 0x1b, 0x1b,
  0xd8, 0x0a, 0xfa, 0x1b, 0x3c, 0x1b, 0x1b, 0x2c, 0x2c, 0xd8, 0xe9, 0xd8,
  0x2c, 0xe9, 0x3c, 0xd8, 0xfa, 0xfa, 0xd8, 0xd8, 0xfa, 0x0a, 0xfa, 0x0a,
  0xd8, 0xfa, 0x0a, 0xc8, 0xe9, 0x2c, 0xe9, 0x2c, 0x0a, 0x1b, 0x2c, 0xfa,
  0x3c, 0x2c, 0x2c, 0x1b, 0x2c, 0xfa, 0xc8, 0xd8, 0xd8, 0x1b, 0x0a, 0x3c,
  0xc8, 0x2c, 0x1b, 0xb7, 0xc8, 0xc8, 0xfa, 0x3c, 0x1b, 0xc8, 0xfa, 0xc8,
  0x2c, 0xfa, 0xe9, 0x1b, 0xfa, 0xfa, 0x1b, 0x1b, 0xfa, 0xe9, 0x1b, 0xe9,
  0xfa, 0x2c, 0xe9, 0x3c, 0x3c, 0x0a, 0xfa, 0xd8, 0x1b, 0x2c, 0x3c, 0x1b,
  0xfa, 0x2c, 0x0a, 0x0a, 0xe9, 0xe9, 0xfa, 0x0a, 0x2c, 0xe9, 0x0a, 0x0a,
  0xfa, 0x1b, 0xfa, 0xe9, 0x1b, 0x0a, 0xc8, 0x1b, 0x0a, 0xd8, 0xe9, 0x0a,
  0x1b, 0x2c, 0x1b, 0x2c, 0xd8, 0x1b, 0xfa, 0xfa, 0x2c, 0x0a, 0xe9, 0x3c,
  0x2c, 0xe9, 0xfa, 0x0a, 0x2c, 0x1b, 0xc8, 0x2c, 0x1b, 0x1b, 0x0a, 0x0a,
  0xc8, 0xe9, 0xd8, 0x1b, 0x0a, 0x2c, 0x2c, 0xe9, 0x0a, 0x0a, 0x2c, 0x0a,
  0xc8, 0xd8, 0x0a, 0xfa, 0xe9, 0xc8, 0x2c, 0xd8, 0x0a, 0xd8, 0x1b, 0xe9,
  0xe9, 0xfa, 0xc8, 0x0a, 0x2c, 0xfa, 0x0a, 0xe9, 0x0a, 0xe9, 0xc8, 0xfa,
  0xc8, 0x1b, 0x1b, 0xe9, 0x0a, 0x2c, 0xe9, 0x0a, 0x1b, 0x1b, 0x0a, 0xd8,
  0x1b, 0x3c, 0x1b, 0x0a, 0xfa, 0xc8, 0xd8, 0x0a, 0x2c, 0xfa, 0x1b, 0xc8,
  0x2c, 0x2c, 0xe9, 0x2c, 0x0a, 0xd8, 0x2c, 0xe9, 0xfa, 0xfa, 0x3c, 0xd8,
  0x0a, 0x2c, 0x1b, 0x2c, 0xd8, 0x0a, 0xd8, 0xfa, 0xc8, 0x0a, 0xe9, 0x3c,
  0xd8, 0xfa, 0xe9, 0xfa, 0x2c, 0xc8, 0x3c, 0xe9, 0xfa, 0xc8, 0x2c, 0xfa,
  0x1b, 0x1b, 0x0a, 0xe9, 0xc8, 0xc8, 0xd8, 0xd8, 0xd8, 0xfa, 0x1b, 0xc8,
  0x1b, 0xe9, 0xe9, 0xe9, 0x0a, 0x0a, 0x2c, 0xfa, 0x1b, 0xd8, 0xfa, 0x2c,
  0xfa, 0xd8, 0xc8, 0xd8, 0x0a, 0x1b, 0xd8, 0x2c, 0x2c, 0x3c, 0x0a, 0x2c,
  0xfa, 0xfa, 0xd8, 0xd8, 0x0a, 0xe9, 0xe9, 0xe9, 0x1b, 0xc8, 0x0a, 0xd8,
  0xe9, 0x1b, 0x3c, 0x3c, 0xe9, 0xc8, 0x1b, 0xfa, 0xfa, 0x2c, 0xd8, 0xe9,
  0x2c, 0x1b, 0x0a, 0xc8, 0xc8, 0x0a, 0xc8, 0x1b, 0x2c, 0x2c, 0xe9, 0x1b,
  0xfa, 0xb7, 0xd8, 0xd8, 0x2c, 0xfa, 0xc8, 0xfa, 0xfa, 0xfa, 0x0a, 0xd8,
  0x0a, 0xe9, 0xfa, 0x1b, 0x2c, 0xe9, 0xd8, 0xd8, 0xc8, 0xfa, 0x1b, 0x0a,
  0xe9, 0x1b, 0x1b, 0xd8, 0x2c, 0xe9, 0xfa, 0x3c, 0x2c, 0xd8, 0xd8, 0xfa,
  0x2c, 0x2c, 0xe9, 0xe9, 0x3c, 0x1b, 0xe9, 0x3c, 0x4d, 0x1b, 0x1b, 0x3c,
  0x1b, 0x0a, 0x2c, 0x0a, 0xe9, 0xd8, 0x1b, 0x2c, 0x3c, 0xc8, 0xe9, 0x1b,
  0x2c, 0x0a, 0x3c, 0x0a, 0x3c, 0x0a, 0xfa, 0xe9, 0x0a, 0x1b, 0xc8, 0x1b,
  0xe9, 0xe9, 0x3c, 0xe9, 0x1b, 0xd8, 0xfa, 0x0a, 0x0a, 0xe9, 0xc8, 0xfa,
  0x2c, 0xfa, 0x0a, 0xd8, 0xe9, 0x0a, 0xe9, 0xd8, 0x2c, 0x0a, 0xe9, 0x3c,
  0x3c, 0xe9, 0xd8, 0xe9, 0x2c, 0xe9, 0xd8, 0x1b, 0x2c, 0xe9, 0xfa, 0xc8,
  0x0a, 0xfa, 0xd8, 0xfa, 0x1b, 0x2c, 0xfa, 0xe9, 0x2c, 0xb7, 0xc8, 0xe9,
  0x2c, 0x3c, 0xd8, 0x0a, 0xe9, 0xfa, 0xd8, 0x0a, 0x2c, 0xc8, 0x1b, 0xfa,
  0xa7, 0x85, 0xe9, 0xfa, 0xd8, 0x2c, 0x0a, 0xc8, 0xe9, 0x1b, 0xfa, 0xc8,
  0xd8, 0xe9, 0x1b, 0x0a, 0x1b, 0xfa, 0xe9, 0xfa, 0x0a, 0x1b, 0x2c, 0xd8,
  0xfa, 0x0a, 0x0a, 0xd8, 0x2c, 0x0a, 0xe9, 0x3c, 0xe9, 0x2c, 0x3c, 0x1b,
  0xfa, 0x2c, 0xd8, 0xfa, 0xe9, 0x2c, 0xe9, 0xd8, 0x2c, 0x0a, 0x0a, 0xc8,
  0xc8, 0x0a, 0xd8, 0xfa, 0xe9, 0xa7, 0xd8, 0x0a, 0x2c, 0x0a, 0x1b, 0x1b,
  0xe9, 0x0a, 0xc8, 0x1b, 0xc8, 0xfa, 0x2c, 0xfa, 0xfa, 0x4d, 0xfa, 0xe9,
  0x0a, 0xfa, 0xfa, 0x2c, 0xd8, 0x2c, 0x1b, 0x0a, 0x1b, 0x2c, 0xc8, 0x2c,
  0xd8, 0x2c, 0x3c, 0x0a, 0x1b, 0x0a, 0xe9, 0x1b, 0xfa, 0xfa, 0xd8, 0xfa,
  0x2c, 0x2c, 0x0a, 0xfa, 0x1b, 0x3c, 0xd8, 0x2c, 0xe9, 0x2c, 0xd8, 0xe9,
  0xfa, 0x1b, 0xc8, 0xfa, 0xc8, 0x5d, 0xfa, 0xc8, 0x2c, 0xc8, 0x0a, 0x1b,
  0x2c, 0xe9, 0xe9, 0x0a, 0x2c, 0xd8, 0x0a, 0xb7, 0xfa, 0xc8, 0xc8, 0x0a,
  0x1b, 0xd8, 0xfa, 0xd8, 0x2c, 0xd8, 0x2c, 0xfa, 0x1b, 0xd8, 0x1b, 0xe9,
  0x3c, 0x1b, 0xfa, 0xe9, 0x2c, 0xd8, 0xd8, 0x0a, 0xd8, 0xe9, 0xfa, 0x2c,
  0x1b, 0x1b, 0x0a, 0x5d, 0xe9, 0x0a, 0xd8, 0xc8, 0x1b, 0x0a, 0x0a, 0xe9,
  0xb7, 0xe9, 0xfa, 0xc8, 0x1b, 0x0a, 0x1b, 0x2c, 0xd8, 0x2c, 0x2c, 0x2c,
  0xfa, 0xc8, 0x0a, 0xc8, 0xe9, 0x0a, 0x2c, 0xe9, 0x0a, 0x3c, 0x0a, 0x1b,
  0x1b, 0x0a, 0xc8, 0xe9, 0x0a, 0x2c, 0x2c, 0x0a, 0x1b, 0xfa, 0x2c, 0xe9,
  0x4d, 0x1b, 0xfa, 0x1b, 0x1b, 0x0a, 0x0a, 0xfa, 0xe9, 0x0a, 0xd8, 0x2c,
  0x0a, 0x2c, 0xc8, 0xfa, 0xfa, 0x1b, 0x2c, 0xfa, 0x0a, 0x2c, 0x1b, 0x0a,
  0x0a, 0xfa, 0xe9, 0xfa, 0x0a, 0xfa, 0xfa, 0x0a, 0xd8, 0x3c, 0x2c, 0x2c,
  0x2c, 0xe9, 0x2c, 0x1b, 0xfa, 0xd8, 0xe9, 0xc8, 0xe9, 0x2c, 0x2c, 0x2c,
  0xc8, 0x2c, 0xe9, 0xc8, 0x1b, 0xd8, 0xe9, 0xc8, 0x0a, 0x0a, 0xe9, 0xd8,
  0x1b, 0xc8, 0xc8, 0x2c, 0x1b, 0x3c, 0xc8, 0xfa, 0xd8, 0xd8, 0xd8, 0x1b,
  0xd8, 0xd8, 0xd8, 0xfa, 0xe9, 0x2c, 0x1b, 0xd8, 0xe9, 0x2c, 0xe9, 0x0a,
  0x1b, 0x0a, 0x0a, 0x3c, 0x0a, 0xd8, 0xd8, 0xe9, 0xd8, 0x0a, 0xc8, 0xc8,
  0x1b, 0x0a, 0x0a, 0xfa, 0xfa, 0x2c, 0x1b, 0x2c, 0xc8, 0xd8, 0x2c, 0xd8,
  0x1b, 0xe9, 0x2c, 0xe9, 0xe9, 0xfa, 0x2c, 0xd8, 0x0a, 0x0a, 0xd8, 0xe9,
  0x1b, 0xe9, 0x0a, 0xc8, 0xc8, 0xe9, 0x1b, 0xe9, 0x1b, 0x2c, 0x1b, 0xd8,
  0x0a, 0xd8, 0xe9, 0x1b, 0x2c, 0xd8, 0x2c, 0xfa, 0x0a, 0x1b, 0x1b, 0xe9,
  0xd8, 0xfa, 0xe9, 0x1b, 0xfa, 0x1b, 0xc8, 0x2c, 0xfa, 0xe9, 0xfa, 0xfa,
  0x1b, 0x0a, 0x0a, 0x1b, 0xd8, 0x0a, 0xc8, 0x1b, 0x2c, 0x2c, 0xe9, 0x0a,
  0xd8, 0x2c, 0x1b, 0xfa, 0xfa, 0x1b, 0x2c, 0xfa, 0x1b, 0xd8, 0x0a, 0xfa,
  0xa7, 0x2c, 0x3c, 0xfa, 0xd8, 0x1b, 0x1b, 0xfa, 0xfa, 0x1b, 0x0a, 0xc8,
  0x0a, 0xd8, 0xd8, 0xe9, 0x2c, 0x3c, 0x2c, 0x1b, 0xc8, 0xe9, 0x2c, 0xe9,
  0xd8, 0xfa, 0x0a, 0x2c, 0xfa, 0xfa, 0x1b, 0xd8, 0x3c, 0xfa, 0x2c, 0xe9,
  0x0a, 0xd8, 0xd8, 0x2c, 0xfa, 0x0a, 0x3c, 0xe9, 0x1b, 0xb7, 0x0a, 0xc8,
  0xfa, 0xd8, 0xe9, 0xe9, 0x1b, 0xb7, 0xe9, 0xfa, 0x0a, 0xfa, 0x1b, 0xfa,
  0x3c, 0xd8, 0xfa, 0xc8, 0x3c, 0x0a, 0x1b, 0xe9, 0xe9, 0x0a, 0xe9, 0x1b,
  0x2c, 0xd8, 0xfa, 0xd8, 0x3c, 0xc8, 0xe9, 0xc8, 0x0a, 0xc8, 0x2c, 0xe9,
  0xfa, 0x1b, 0x3c, 0x2c, 0xd8, 0xd8, 0x0a, 0xfa, 0x1b, 0x3c, 0xe9, 0x2c,
  0xe9, 0xc8, 0x0a, 0x0a, 0xfa, 0x0a, 0xfa, 0xd8, 0xfa, 0xfa, 0xd8, 0x1b,
  0x3c, 0x2c, 0x0a, 0x0a, 0x3c, 0x0a, 0x2c, 0xe9, 0xe9, 0x1b, 0xe9, 0x0a,
  0x0a, 0x2c, 0xe9, 0x1b, 0xe9, 0x3c, 0x1b, 0x3c, 0x0a, 0x2c, 0x2c, 0x3c,
  0x0a, 0xd8, 0xd8, 0xc8, 0x1b, 0xe9, 0xc8, 0xc8, 0x0a, 0xd8, 0x1b, 0x0a,
  0xfa, 0x2c, 0xfa, 0xd8, 0xfa, 0x2c, 0xc8, 0x0a, 0xe9, 0x3c, 0xfa, 0x1b,
  0xc8, 0x3c, 0x2c, 0xc8, 0xe9, 0x0a, 0xe9, 0xe9, 0xfa, 0x0a, 0xe9, 0xe9,
  0xfa, 0xe9, 0xfa, 0xfa, 0x1b, 0xd8, 0x1b, 0xc8, 0xd8, 0xd8, 0xd8, 0xd8,
  0x1b, 0x2c, 0xe9, 0xc8, 0x1b, 0xfa, 0x0a, 0xd8, 0x2c, 0xc8, 0xe9, 0xc8,
  0x3c, 0xe9, 0x0a, 0xe9, 0xc8, 0x3c, 0x1b, 0x1b, 0xe9, 0xd8, 0xe9, 0xd8,
  0x2c, 0x3c, 0x1b, 0x0a, 0xd8, 0xfa, 0x2c, 0x3c, 0x1b, 0xd8, 0xe9, 0x1b,
  0xe9, 0x1b, 0x0a, 0xe9, 0xc8, 0x0a, 0x2c, 0x2c, 0x1b, 0xfa, 0x0a, 0x3c,
  0xe9, 0xe9, 0x3c, 0xfa, 0xfa, 0xc8, 0xe9, 0x2c, 0x1b, 0x2c, 0xe9, 0x3c,
  0xfa, 0xc8, 0xd8, 0xc8, 0x1b, 0x1b, 0xe9, 0xc8, 0xd8, 0x1b, 0xd8, 0x2c,
  0xfa, 0xc8, 0x0a, 0xa7, 0x1b, 0xa7, 0x0a, 0xc8, 0xe9, 0xc8, 0xfa, 0x1b,
  0xc8, 0xe9, 0xfa, 0x1b, 0xfa, 0x4d, 0xe9, 0x1b, 0x2c, 0xd8, 0xfa, 0x0a,
  0xe9, 0x1b, 0x1b, 0x0a, 0x2c, 0xa7, 0x1b, 0x0a, 0xfa, 0xfa, 0xc8, 0x4d,
  0x1b, 0xd8, 0x1b, 0xd8, 0x3c, 0x1b, 0x1b, 0xc8, 0x0a, 0x3c, 0xfa, 0xfa,
  0x1b, 0xd8, 0x0a, 0xe9, 0x1b, 0xd8, 0xc8, 0x2c, 0xfa, 0xfa, 0x2c, 0xe9,
  0xfa, 0xc8, 0xd8, 0xe9, 0x2c, 0xc8, 0x3c, 0x1b, 0xfa, 0xfa, 0xe9, 0xd8,
  0xfa, 0x5d, 0x0a, 0x2c, 0x0a, 0x1b, 0xfa, 0x0a, 0xfa, 0x1b, 0x1b, 0x2c,
  0x0a, 0xd8, 0xfa, 0x0a, 0x2c, 0xe9, 0x2c, 0xd8, 0x1b, 0xd8, 0xe9, 0x1b,
  0xe9, 0xd8, 0xfa, 0x2c, 0x1b, 0xb7, 0x1b, 0x0a, 0xd8, 0x1b, 0xe9, 0x2c,
  0x1b, 0xd8, 0xfa, 0x0a, 0x1b, 0x1b, 0x0a, 0xfa, 0x2c, 0x2c, 0x1b, 0xe9,
  0xd8, 0x1b, 0x2c, 0x2c, 0xe9, 0xe9, 0x0a, 0xe9, 0x0a, 0xc8, 0x1b, 0x3c,
  0xd8, 0xc8, 0xc8, 0xc8, 0xd8, 0xe9, 0x0a, 0x2c, 0x1b, 0x1b, 0x0a, 0x0a,
  0xd8, 0xe9, 0xfa, 0xe9, 0x1b, 0x1b, 0xe9, 0x0a, 0x0a, 0xd8, 0xfa, 0x2c,
  0x0a, 0xe9, 0x1b, 0xe9, 0x2c, 0xe9, 0x1b, 0xd8, 0x1b, 0x1b, 0xe9, 0xe9,
  0xc8, 0x2c, 0x2c, 0xd8, 0xc8, 0xd8, 0xd8, 0x2c, 0xd8, 0x1b, 0x2c, 0xd8,
  0x0a, 0x2c, 0x2c, 0xd8, 0xe9, 0x1b, 0x1b, 0x2c, 0xfa, 0x1b, 0x2c, 0xd8,
  0xe9, 0x2c, 0xd8, 0x3c, 0x3c, 0xc8, 0xc8, 0x2c, 0x0a, 0x0a, 0x0a, 0xc8,
  0xd8, 0xc8, 0xfa, 0x1b, 0xd8, 0x3c, 0xd8, 0xc8, 0xe9, 0x1b, 0x0a, 0xd8,
  0xfa, 0xe9, 0xc8, 0x0a, 0x0a, 0xe9, 0xfa, 0x2c, 0x0a, 0x0a, 0x2c, 0xe9,
  0x1b, 0x1b, 0xd8, 0xe9, 0xe9, 0xe9, 0xe9, 0xfa, 0x2c, 0xd8, 0x3c, 0xfa,
  0x3c, 0xc8, 0xc8, 0xd8, 0x0a, 0x0a, 0x1b, 0xb7, 0xc8, 0x0a, 0xb7, 0x3c,
  0x0a, 0x3c, 0xd8, 0x2c, 0xe9, 0x1b, 0xe9, 0x4d, 0x1b, 0x1b, 0x2c, 0xe9,
  0xfa, 0xfa, 0x0a, 0xe9, 0xe9, 0x0a, 0xd8, 0x2c, 0xd8, 0x3c, 0xfa, 0x0a,
  0x1b, 0xfa, 0xc8, 0xfa, 0x0a, 0xd8, 0x0a, 0xc8, 0x2c, 0xc8, 0xd8, 0xc8,
  0x3c, 0x4d, 0xe9, 0xd8, 0xd8, 0xfa, 0xd8, 0x2c, 0x2c, 0xe9, 0x4d, 0x1b,
  0x0a, 0xc8, 0xd8, 0xd8, 0xe9, 0x2c, 0xc8, 0xc8, 0xe9, 0xfa, 0x1b, 0x1b,
  0xe9, 0x2c, 0xe9, 0x0a, 0x1b, 0xd8, 0x0a, 0xc8, 0xfa, 0x0a, 0xe9, 0xe9,
  0xc8, 0x0a, 0x1b, 0xc8, 0xd8, 0xa7, 0xe9, 0x3c, 0x1b, 0xd8, 0xd8, 0x1b,
  0xc8, 0xfa, 0x5d, 0x0a, 0xfa, 0x0a, 0x2c, 0xfa, 0x0a, 0xe9, 0x4d, 0x0a,
  0xe9, 0xd8, 0xd8, 0xfa, 0x1b, 0xe9, 0x0a, 0x0a, 0xa7, 0xd8, 0x0a, 0x0a,
  0xfa, 0x0a, 0x0a, 0x3c, 0x0a, 0xe9, 0x0a, 0x3c, 0x2c, 0x1b, 0xfa, 0x0a,
  0xfa, 0xfa, 0x3c, 0xfa, 0x0a, 0x4d, 0xd8, 0x2c, 0xe9, 0xfa, 0x1b, 0x2c,
  0xe9, 0x1b, 0x0a, 0xd8, 0x1b, 0x1b, 0xfa, 0x0a, 0x0a, 0x2c, 0xfa, 0x1b,
  0x1b, 0x1b, 0xe9, 0x3c, 0x0a, 0x0a, 0xe9, 0xfa, 0xe9, 0xc8, 0xc8, 0x0a,
  0xe9, 0xfa, 0xd8, 0xe9, 0x0a, 0x0a, 0xfa, 0xd8, 0xe9, 0xd8, 0xc8, 0x0a,
  0x2c, 0x0a, 0xfa, 0x0a, 0x2c, 0x0a, 0xd8, 0xe9, 0x4d, 0xe9, 0x2c, 0xe9,
  0x0a, 0x0a, 0x0a, 0x2c, 0xc8, 0xfa, 0x3c, 0xd8, 0x2c, 0xc8, 0xfa, 0xd8,
  0x1b, 0x1b, 0xc8, 0xe9, 0x2c, 0x1b, 0xfa, 0xc8, 0x1b, 0xe9, 0x0a, 0x0a,
  0x1b, 0x1b, 0x3c, 0xc8, 0x3c, 0x2c, 0xe9, 0xfa, 0x0a, 0x0a, 0x0a, 0xe9,
  0xc8, 0xd8, 0x3c, 0xe9, 0xc8, 0xfa, 0xfa, 0xfa, 0x3c, 0x1b, 0x3c, 0xfa,
  0x2c, 0x1b, 0x1b, 0x0a, 0x1b, 0xd8, 0x1b, 0xd8, 0x2c, 0xd8, 0x3c, 0xfa,
  0x0a, 0xe9, 0xe9, 0xe9, 0x1b, 0xd8, 0x1b, 0xe9, 0x3c, 0x0a, 0xe9, 0x3c,
  0xd8, 0x1b, 0xb7, 0x2c, 0x1b, 0x1b, 0xfa, 0x1b, 0x1b, 0xc8, 0x0a, 0x1b,
  0x0a, 0xe9, 0xd8, 0xfa, 0x1b, 0xc8, 0x1b, 0x1b, 0x2c, 0xe9, 0xe9, 0xd8,
  0x1b, 0x2c, 0xd8, 0x0a, 0x1b, 0x1b, 0x0a, 0xfa, 0xc8, 0xd8, 0x0a, 0xc8,
  0xfa, 0xfa, 0xd8, 0xfa, 0xfa, 0xe9, 0x2c, 0x1b, 0x2c, 0xc8, 0xd8, 0x1b,
  0xc8, 0xc8, 0x2c, 0x2c, 0xd8, 0xfa, 0xc8, 0xc8, 0x2c, 0xfa, 0xfa, 0xe9,
  0x1b, 0xd8, 0x1b, 0x1b, 0xfa, 0xfa, 0x2c, 0x1b, 0xc8, 0x2c, 0xe9, 0xfa,
  0xc8, 0xb7, 0xe9, 0x3c, 0xc8, 0xfa, 0x0a, 0x1b, 0xc8, 0xe9, 0x2c, 0xfa,
  0xd8, 0x2c, 0x1b, 0xd8, 0x0a, 0x0a, 0x1b, 0x2c, 0xe9, 0xfa, 0x1b, 0xfa,
  0x2c, 0xfa, 0x0a, 0xd8, 0x2c, 0x2c, 0xd8, 0xc8, 0xe9, 0xe9, 0xe9, 0x1b,
  0xd8, 0xc8, 0x2c, 0x1b, 0x2c, 0xd8, 0xd8, 0x1b, 0xfa, 0xd8, 0x0a, 0x0a,
  0x1b, 0xd8, 0x0a, 0xe9, 0x0a, 0xc8, 0x0a, 0xd8, 0x2c, 0x1b, 0xfa, 0xe9,
  0xc8, 0xd8, 0x0a, 0xc8, 0x1b, 0x1b, 0xfa, 0xe9, 0x2c, 0x3c, 0x0a, 0xe9,
  0xe9, 0xc8, 0x1b, 0x2c, 0x3c, 0xd8, 0xe9, 0xe9, 0x1b, 0xc8, 0x1b, 0xc8,
  0x0a, 0x0a, 0x2c, 0x2c, 0x1b, 0xd8, 0xe9, 0x1b, 0xd8, 0xc8, 0xd8, 0xe9,
  0x1b, 0x3c, 0x1b, 0xc8, 0x2c, 0xc8, 0xb7, 0xd8, 0x0a, 0xd8, 0x0a, 0xe9,
  0xe9, 0xd8, 0x2c, 0xe9, 0xfa, 0xe9, 0x2c, 0xc8, 0x0a, 0xc8, 0xe9, 0xe9,
  0x1b, 0x0a, 0xfa, 0x2c, 0x0a, 0x1b, 0xd8, 0x0a, 0x3c, 0xfa, 0xfa, 0xd8,
  0xc8, 0xd8, 0x0a, 0x1b, 0xc8, 0xfa, 0x2c, 0xc8, 0xd8, 0xfa, 0xfa, 0x1b,
  0x2c, 0x1b, 0xc8, 0xe9, 0xe9, 0xe9, 0x1b, 0x0a, 0xfa, 0xe9, 0xb7, 0x0a,
  0xe9, 0xc8, 0x2c, 0x2c, 0xfa, 0x2c, 0x0a, 0x0a, 0xe9, 0xd8, 0xfa, 0x0a,
  0x1b, 0x0a, 0x1b, 0xfa, 0x0a, 0xd8, 0x1b, 0x0a, 0xc8, 0xd8, 0x2c, 0xe9,
  0x2c, 0xe9, 0xd8, 0xd8, 0xe9, 0x3c, 0xd8, 0xd8, 0xfa, 0x1b, 0x0a, 0x0a,
  0x2c, 0x3c, 0xc8, 0x1b, 0xc8, 0x1b, 0x4d, 0xc8, 0xfa, 0x1b, 0xd8, 0x1b,
  0xfa, 0x3c, 0xfa, 0x0a, 0x3c, 0x0a, 0x0a, 0xc8, 0x0a, 0xd8, 0xc8, 0xe9,
  0x2c, 0x1b, 0xc8, 0xfa, 0xd8, 0xe9, 0x1b, 0x2c, 0x2c, 0xe9, 0x2c, 0x1b,
  0x0a, 0xfa, 0x3c, 0x1b, 0xe9, 0x0a, 0x2c, 0x2c, 0xc8, 0xe9, 0x2c, 0x2c,
  0x0a, 0x2c, 0x1b, 0x2c, 0xc8, 0xe9, 0xe9, 0xd8, 0x0a, 0x5d, 0xd8, 0xc8,
  0x0a, 0x2c, 0xd8, 0xd8, 0xe9, 0x2c, 0xfa, 0x0a, 0x2c, 0x0a, 0xd8, 0x0a,
  0xc8, 0xe9, 0x1b, 0xd8, 0x0a, 0x0a, 0x2c, 0xc8, 0xfa, 0xe9, 0xc8, 0x1b,
  0xfa, 0x1b, 0x2c, 0x0a, 0xfa, 0x3c, 0x3c, 0x1b, 0xfa, 0x2c, 0x1b, 0x1b,
  0x0a, 0x1b, 0xfa, 0xfa, 0xe9, 0xd8, 0x1b, 0x3c, 0x1b, 0xd8, 0xb7, 0xe9,
  0x0a, 0xe9, 0xfa, 0x2c, 0x0a, 0x1b, 0x0a, 0xe9, 0xc8, 0xb7, 0xe9, 0xe9,
  0xc8, 0xb7, 0xfa, 0xe9, 0xe9, 0xe9, 0xe9, 0x0a, 0xb7, 0xc8, 0xc8, 0x1b,
  0xe9, 0xd8, 0xd8, 0x1b, 0x3c, 0xd8, 0xd8, 0x0a, 0xfa, 0x2c, 0xfa, 0xfa,
  0xc8, 0xd8, 0x1b, 0x0a, 0xc8, 0xe9, 0xd8, 0x1b, 0x2c, 0xfa, 0xfa, 0xd8,
  0xc8, 0x1b, 0xc8, 0x0a, 0x2c, 0xfa, 0xd8, 0xfa, 0xd8, 0xc8, 0x1b, 0x0a,
  0x1b, 0xe9, 0x2c, 0xc8, 0x95, 0xfa, 0xb7, 0xe9, 0x0a, 0xc8, 0x1b, 0xfa,
  0xc8, 0x1b, 0x2c, 0xd8, 0x1b, 0x1b, 0xe9, 0xb7, 0xd8, 0xd8, 0xe9, 0x1b,
  0xd8, 0xd8, 0x0a, 0x2c, 0xe9, 0x1b, 0xe9, 0x2c, 0x1b, 0x0a, 0xfa, 0xc8,
  0x2c, 0xd8, 0x1b, 0xc8, 0xe9, 0xe9, 0xfa, 0x0a, 0xe9, 0x3c, 0x0a, 0xd8,
  0x3c, 0xe9, 0x2c, 0x2c, 0xd8, 0xe9, 0x1b, 0x1b, 0xe9, 0x2c, 0x3c, 0x2c,
  0xe9, 0xfa, 0xd8, 0x1b, 0x0a, 0xfa, 0xc8, 0xd8, 0xfa, 0x1b, 0x0a, 0xd8,
  0xfa, 0x2c, 0x1b, 0x0a, 0xd8, 0xfa, 0xd8, 0x2c, 0xd8, 0x2c, 0x1b, 0xe9,
  0x1b, 0xe9, 0x1b, 0x1b, 0xfa, 0x3c, 0xd8, 0x1b, 0x2c, 0xfa, 0x2c, 0xe9,
  0xd8, 0x2c, 0x1b, 0x2c, 0xe9, 0xd8, 0xc8, 0x0a, 0x2c, 0xfa, 0x0a, 0x2c,
  0x0a, 0xd8, 0x0a, 0x0a, 0x2c, 0xc8, 0xd8, 0xd8, 0xfa, 0xe9, 0xe9, 0xe9,
  0x1b, 0x2c, 0xd8, 0xd8, 0xd8, 0x2c, 0x1b, 0x0a, 0x0a, 0x2c, 0xd8, 0xd8,
  0xe9, 0xc8, 0x0a, 0x3c, 0x1b, 0xfa, 0xd8, 0x2c, 0x1b, 0x0a, 0xe9, 0x0a,
  0xc8, 0xfa, 0xfa, 0xfa, 0x1b, 0xd8, 0xfa, 0x2c, 0x2c, 0xc8, 0x1b, 0xfa,
  0x2c, 0xe9, 0xd8, 0x1b, 0x2c, 0xc8, 0xd8, 0xe9, 0x2c, 0x0a, 0x1b, 0x2c,
  0x4d, 0x0a, 0xd8, 0x1b, 0xfa, 0x2c, 0x1b, 0x0a, 0x2c, 0xd8, 0x2c, 0x0a,
  0xfa, 0x2c, 0xe9, 0xd8, 0x1b, 0x1b, 0xfa, 0x1b, 0xd8, 0x1b, 0xfa, 0x0a,
  0xc8, 0xd8, 0xfa, 0x0a, 0xd8, 0xc8, 0xe9, 0x1b, 0xfa, 0x2c, 0xc8, 0xc8,
  0xe9, 0x3c, 0xfa, 0x1b, 0x0a, 0xfa, 0xc8, 0x1b, 0xc8, 0x1b, 0x0a, 0x0a,
  0x2c, 0x0a, 0xfa, 0xa7, 0xe9, 0xd8, 0x3c, 0xfa, 0xc8, 0x1b, 0x0a, 0xc8,
  0xd8, 0x0a, 0xe9, 0x2c, 0xc8, 0x2c, 0x2c, 0xe9, 0xd8, 0xe9, 0xd8, 0xfa,
  0x1b, 0xfa, 0x2c, 0xd8, 0xfa, 0xd8, 0x1b, 0xe9, 0xb7, 0x0a, 0xfa, 0xfa,
  0xc8, 0xd8, 0x0a, 0xd8, 0xe9, 0x0a, 0x1b, 0xd8, 0xc8, 0x1b, 0xe9, 0x1b,
  0x3c, 0xfa, 0xd8, 0x1b, 0x0a, 0xe9, 0x3c, 0xc8, 0xd8, 0xe9, 0x0a, 0x0a,
  0xfa, 0x1b, 0xfa, 0xd8, 0x3c, 0x2c, 0xe9, 0x2c, 0xd8, 0xfa, 0xe9, 0xfa,
  0x2c, 0x0a, 0xfa, 0x0a, 0x1b, 0x2c, 0x2c, 0xc8, 0xc8, 0x2c, 0xfa, 0x2c,
  0x0a, 0x3c, 0x2c, 0xfa, 0xe9, 0xc8, 0x0a, 0xd8, 0xe9, 0x2c, 0xfa, 0x3c,
  0xfa, 0xe9, 0xc8, 0x1b, 0x0a, 0xd8, 0x3c, 0x2c, 0xc8, 0x1b, 0xe9, 0x2c,
  0x2c, 0xd8, 0x3c, 0x2c, 0x2c, 0xd8, 0xd8, 0x1b, 0xe9, 0xfa, 0xfa, 0x3c,
  0xfa, 0x1b, 0x2c, 0x0a, 0x3c, 0xe9, 0xc8, 0x1b, 0xc8, 0xc8, 0xc8, 0x0a,
  0xe9, 0xc8, 0xe9, 0x0a, 0xd8, 0xd8, 0xc8, 0x0a, 0x1b, 0xfa, 0xb7, 0xe9,
  0x1b, 0x0a, 0x1b, 0xd8, 0xd8, 0x1b, 0x3c, 0xfa, 0x2c, 0xfa, 0xd8, 0x2c,
  0xa7, 0x1b, 0x2c, 0xc8, 0xfa, 0xc8, 0xe9, 0xfa, 0xfa, 0x1b, 0x1b, 0x2c,
  0xd8, 0xc8, 0x1b, 0x1b, 0xe9, 0x1b, 0x0a, 0x1b, 0xc8, 0x0a, 0xe9, 0xd8,
  0x0a, 0xc8, 0xfa, 0x1b, 0xd8, 0xfa, 0x2c, 0xe9, 0x2c, 0xc8, 0xd8, 0xfa,
  0xb7, 0xd8, 0x1b, 0x1b, 0x1b, 0x0a, 0xfa, 0x2c, 0xe9, 0xd8, 0xd8, 0xe9,
  0xfa, 0xc8, 0xb7, 0x0a, 0x3c, 0x0a, 0x1b, 0x0a, 0x2c, 0xe9, 0x2c, 0xe9,
  0x1b, 0xd8, 0x0a, 0xe9, 0x2c, 0xd8, 0x2c, 0xe9, 0xc8, 0xd8, 0xe9, 0xe9,
  0x0a, 0x0a, 0x1b, 0xe9, 0xc8, 0x0a, 0xd8, 0xd8, 0x0a, 0x2c, 0xfa, 0x3c,
  0xfa, 0xfa, 0x2c, 0xfa, 0x1b, 0xfa, 0x0a, 0x0a, 0xe9, 0x0a, 0xc8, 0xd8,
  0xc8, 0x2c, 0xc8, 0xfa, 0x1b, 0x4d, 0xfa, 0x3c, 0x1b, 0xb7, 0x0a, 0x3c,
  0xc8, 0xe9, 0x3c, 0xfa, 0xe9, 0xfa, 0x2c, 0xc8, 0xfa, 0x2c, 0xfa, 0xc8,
  0xc8, 0x3c, 0xc8, 0xfa, 0x0a, 0xd8, 0xfa, 0xe9, 0xd8, 0xe9, 0x0a, 0xfa,
  0x1b, 0x3c, 0x2c, 0xc8, 0xfa, 0x2c, 0x3c, 0xd8, 0xc8, 0x3c, 0xfa, 0xe9,
  0xe9, 0xe9, 0x0a, 0x3c, 0xfa, 0x2c, 0x3c, 0x2c, 0x2c, 0xb7, 0x3c, 0xd8,
  0xfa, 0x3c, 0x3c, 0x1b, 0xfa, 0xe9, 0x0a, 0xe9, 0xe9, 0xd8, 0x1b, 0xd8,
  0x0a, 0xd8, 0xe9, 0x3c, 0xe9, 0xe9, 0xd8, 0xa7, 0xd8, 0xc8, 0xb7, 0xd8,
  0xb7, 0x2c, 0x4d, 0x1b, 0xc8, 0xfa, 0x0a, 0x0a, 0x1b, 0x0a, 0x1b, 0x5d,
  0xc8, 0x2c, 0x0a, 0xd8, 0x3c, 0xe9, 0x0a, 0x0a, 0xd8, 0xfa, 0xfa, 0xe9,
  0xd8, 0x1b, 0x85, 0xfa, 0x3c, 0xd8, 0xc8, 0xd8, 0xe9, 0xd8, 0x1b, 0xd8,
  0xe9, 0x1b, 0x2c, 0x3c, 0x1b, 0x1b, 0xe9, 0x1b, 0xe9, 0x0a, 0x1b, 0x0a,
  0x1b, 0x1b, 0x0a, 0xe9, 0x1b, 0xc8, 0xd8, 0xe9, 0xd8, 0x0a, 0x0a, 0xc8,
  0x2c, 0x1b, 0xc8, 0x1b, 0xd8, 0x2c, 0xe9, 0xfa, 0x2c, 0xe9, 0x2c, 0x3c,
  0x1b, 0x1b, 0xd8, 0xc8, 0x2c, 0xe9, 0x2c, 0xd8, 0xd8, 0x2c, 0xe9, 0x2c,
  0xe9, 0x1b, 0x0a, 0x1b, 0x3c, 0xc8, 0x0a, 0xfa, 0x0a, 0xfa, 0xfa, 0xd8,
  0xe9, 0xc8, 0x0a, 0x2c, 0xfa, 0xfa, 0xfa, 0xd8, 0x1b, 0x0a, 0xc8, 0xd8,
  0x2c, 0x2c, 0x3c, 0xfa, 0x3c, 0xfa, 0x0a, 0x0a, 0x0a, 0xfa, 0x2c, 0xc8,
  0x0a, 0xe9, 0x2c, 0xfa, 0x0a, 0xd8, 0xfa, 0x3c, 0xfa, 0x1b, 0xfa, 0x1b,
  0x0a, 0x3c, 0xfa, 0x2c, 0xfa, 0xd8, 0xfa, 0x0a, 0x1b, 0xe9, 0xfa, 0xfa,
  0xc8, 0xe9, 0x2c, 0xc8, 0x1b, 0xfa, 0x2c, 0x0a, 0xfa, 0x1b, 0xc8, 0xfa,
  0x2c, 0x0a, 0xe9, 0x0a, 0xfa, 0xc8, 0xe9, 0xfa, 0x0a, 0x1b, 0xe9, 0xc8,
  0xc8, 0x1b, 0xfa, 0x0a, 0xc8, 0x1b, 0xfa, 0x0a, 0xe9, 0xfa, 0x1b, 0xc8,
  0x2c, 0xd8, 0x0a, 0xd8, 0xe9, 0xd8, 0xe9, 0x1b, 0x0a, 0x0a, 0x0a, 0x2c,
  0x0a, 0xe9, 0xfa, 0xfa, 0x3c, 0xfa, 0x1b, 0x1b, 0xe9, 0x1b, 0xd8, 0x0a,
  0x0a, 0xfa, 0xc8, 0x2c, 0x2c, 0x3c, 0xfa, 0x1b, 0xfa, 0xe9, 0x0a, 0xfa,
  0x1b, 0x0a, 0x3c, 0x0a, 0x0a, 0x2c, 0xc8, 0xfa, 0xd8, 0xe9, 0xfa, 0xfa,
  0xe9, 0xc8, 0xe9, 0xfa, 0x1b, 0x2c, 0x1b, 0x2c, 0xfa, 0xd8, 0x0a, 0xe9,
  0xc8, 0x2c, 0x0a, 0x2c, 0xd8, 0xe9, 0xc8, 0xe9, 0x1b, 0xe9, 0xe9, 0xd8,
  0xd8, 0xc8, 0x3c, 0xc8, 0x1b, 0xfa, 0xe9, 0xc8, 0x0a, 0xfa, 0xd8, 0xd8,
  0x3c, 0x2c, 0xe9, 0xc8, 0xfa, 0xfa, 0x1b, 0x1b, 0xfa, 0x0a, 0x1b, 0xfa,
  0x1b, 0x1b, 0xc8, 0xe9, 0xfa, 0xe9, 0xc8, 0xe9, 0x2c, 0xd8, 0xc8, 0xc8,
  0x3c, 0xc8, 0xd8, 0xe9, 0xc8, 0xfa, 0xd8, 0x1b, 0xc8, 0x2c, 0x3c, 0xc8,
  0x3c, 0x1b, 0xfa, 0xd8, 0x2c, 0x2c, 0xd8, 0x2c, 0xfa, 0xfa, 0x0a, 0xd8,
  0x3c, 0x0a, 0x2c, 0x2c, 0x1b, 0x3c, 0x1b, 0x2c, 0x0a, 0xfa, 0x2c, 0x1b,
  0x0a, 0x1b, 0x0a, 0x2c, 0x2c, 0x2c, 0xd8, 0xe9, 0xfa, 0x2c, 0x0a, 0xd8,
  0x2c, 0x3c, 0xfa, 0xc8, 0x2c, 0xfa, 0x0a, 0x0a, 0x1b, 0xc8, 0x2c, 0xe9,
  0x1b, 0xfa, 0x0a, 0xd8, 0x0a, 0xe9, 0x1b, 0x1b, 0x0a, 0xc8, 0xfa, 0xc8,
  0x2c, 0x6e, 0xd8, 0x0a, 0xe9, 0x0a, 0x0a, 0xc8, 0x2c, 0x1b, 0xb7, 0x0a,
  0xe9, 0x0a, 0xe9, 0xfa, 0xfa, 0xc8, 0x2c, 0x0a, 0x1b, 0xfa, 0x0a, 0xfa,
  0x3c, 0xfa, 0x1b, 0xc8, 0x1b, 0xfa, 0xe9, 0xfa, 0x3c, 0xfa, 0xe9, 0xfa,
  0xfa, 0x1b, 0x0a, 0xe9, 0x1b, 0xc8, 0xe9, 0x0a, 0xe9, 0xc8, 0xe9, 0xb7,
  0xc8, 0x0a, 0xc8, 0xd8, 0x0a, 0xd8, 0x1b, 0xfa, 0xe9, 0x1b, 0xe9, 0x2c,
  0xc8, 0xc8, 0x2c, 0xfa, 0xc8, 0x2c, 0x2c, 0xfa, 0xc8, 0xc8, 0x1b, 0x2c,
  0x1b, 0x0a, 0xfa, 0x0a, 0x0a, 0xd8, 0x0a, 0xd8, 0x0a, 0xe9, 0x0a, 0xc8,
  0xd8, 0xc8, 0xc8, 0xc8, 0xfa, 0xc8, 0x1b, 0x0a, 0xc8, 0xd8, 0xd8, 0x0a,
  0x1b, 0x1b, 0xe9, 0xfa, 0x1b, 0xd8, 0x2c, 0x1b, 0x2c, 0xfa, 0x2c, 0x0a,
  0xfa, 0x1b, 0xe9, 0xc8, 0xe9, 0x1b, 0xd8, 0xd8, 0x0a, 0x1b, 0xfa, 0xd8,
  0xc8, 0x1b, 0x1b, 0x0a, 0x0a, 0xfa, 0x1b, 0xc8, 0xc8, 0xc8, 0x1b, 0x1b,
  0x0a, 0xe9, 0x1b, 0xfa, 0x2c, 0xc8, 0x1b, 0x0a, 0x0a, 0x0a, 0x1b, 0xb7,
  0xd8, 0xfa, 0xc8, 0xd8, 0xd8, 0x1b, 0x1b, 0x0a, 0xe9, 0x1b, 0xc8, 0xe9,
  0xe9, 0xfa, 0xe9, 0x1b, 0x1b, 0xc8, 0xfa, 0xc8, 0x2c, 0x3c, 0x0a, 0x1b,
  0xc8, 0x0a, 0x2c, 0x2c, 0xfa, 0x2c, 0xd8, 0xe9, 0xd8, 0xfa, 0xfa, 0xe9,
  0x1b, 0xe9, 0x2c, 0xc8, 0xc8, 0x0a, 0x1b, 0xe9, 0x0a, 0x2c, 0xc8, 0x0a,
  0xd8, 0x3c, 0xe9, 0xe9, 0x0a, 0xfa, 0xd8, 0xc8, 0xfa, 0x3c, 0x1b, 0x3c,
  0x1b, 0xe9, 0xfa, 0x3c, 0xfa, 0x0a, 0x0a, 0xc8, 0x2c, 0x2c, 0xe9, 0x0a,
  0x1b, 0xfa, 0x2c, 0xfa, 0x2c, 0xe9, 0x2c, 0xfa, 0xd8, 0x1b, 0xe9, 0xd8,
  0x2c, 0x1b, 0xfa, 0xd8, 0xe9, 0xfa, 0xfa, 0x2c, 0xfa, 0x2c, 0xc8, 0xfa,
  0xfa, 0x1b, 0xd8, 0xd8, 0x1b, 0x0a, 0xe9, 0xe9, 0x1b, 0xe9, 0x0a, 0x0a,
  0x2c, 0x1b, 0xd8, 0xc8, 0xd8, 0x1b, 0x0a, 0x2c, 0xe9, 0x2c, 0x1b, 0xe9,
  0xd8, 0x3c, 0xd8, 0xfa, 0xfa, 0x2c, 0xd8, 0x2c, 0x3c, 0xc8, 0x1b, 0x0a,
  0xd8, 0xfa, 0xfa, 0xe9, 0xfa, 0xe9, 0xd8, 0xe9, 0xfa, 0xe9, 0xfa, 0xe9,
  0x0a, 0x3c, 0xb7, 0x0a, 0xc8, 0x2c, 0x2c, 0x2c, 0xc8, 0xd8, 0xfa, 0x2c,
  0xe9, 0x2c, 0x2c, 0x1b, 0xe9, 0x0a, 0x0a, 0x0a, 0x1b, 0x3c, 0x2c, 0xfa,
  0x0a, 0xd8, 0x1b, 0xd8, 0xc8, 0xb7, 0x1b, 0x2c, 0x2c, 0xd8, 0x1b, 0x3c,
  0x1b, 0xc8, 0x0a, 0xe9, 0x3c, 0xfa, 0x3c, 0x3c, 0x0a, 0xc8, 0x0a, 0x1b,
  0xc8, 0x2c, 0x0a, 0xe9, 0x1b, 0x0a, 0x1b, 0xd8, 0xfa, 0xd8, 0xd8, 0x2c,
  0xfa, 0xfa, 0xd8, 0xfa, 0x0a, 0xc8, 0x1b, 0x1b, 0xfa, 0x1b, 0x1b, 0xe9,
  0xe9, 0xd8, 0xe9, 0x3c, 0x0a, 0xfa, 0xd8, 0xd8, 0x2c, 0x3c, 0xd8, 0xe9,
  0xe9, 0xd8, 0x0a, 0xd8, 0xe9, 0xe9, 0x1b, 0xe9, 0xfa, 0x1b, 0x1b, 0x1b,
  0xfa, 0x1b, 0xc8, 0x3c, 0xc8, 0x1b, 0x1b, 0xc8, 0xe9, 0xd8, 0xfa, 0xd8,
  0xe9, 0xd8, 0x3c, 0x0a, 0x0a, 0xfa, 0xc8, 0x1b, 0xe9, 0xc8, 0x1b, 0xfa,
  0x2c, 0x0a, 0xc8, 0xc8, 0xe9, 0x3c, 0xfa, 0xc8, 0xfa, 0x2c, 0x2c, 0xe9,
  0xd8, 0xe9, 0x2c, 0xe9, 0xe9, 0xe9, 0xd8, 0xe9, 0xc8, 0x2c, 0x1b, 0xfa,
  0xe9, 0xc8, 0x2c, 0xe9, 0xd8, 0x3c, 0xd8, 0xfa, 0x1b, 0xfa, 0x0a, 0x1b,
  0x0a, 0xe9, 0x1b, 0xfa, 0xe9, 0x3c, 0xe9, 0xd8, 0xc8, 0x0a, 0x1b, 0xc8,
  0xd8, 0x1b, 0x2c, 0xfa, 0xd8, 0xfa, 0x0a, 0x0a, 0x2c, 0xd8, 0xb7, 0xe9,
  0x1b, 0x85, 0x2c, 0x0a, 0xd8, 0x4d, 0xe9, 0xfa, 0x0a, 0xd8, 0x1b, 0xe9,
  0x2c, 0x1b, 0xfa, 0xd8, 0x0a, 0xfa, 0xc8, 0xe9, 0xfa, 0xc8, 0x95, 0x2c,
  0x2c, 0xc8, 0xd8, 0xe9, 0xfa, 0xc8, 0x0a, 0xd8, 0x1b, 0x2c, 0x1b, 0x0a,
  0xc8, 0x0a, 0x1b, 0x2c, 0x0a, 0x0a, 0xd8, 0xfa, 0xd8, 0x0a, 0x2c, 0x2c,
  0xd8, 0xe9, 0xe9, 0xd8, 0xfa, 0xc8, 0x1b, 0xe9, 0xfa, 0x2c, 0x2c, 0x2c,
  0xfa, 0xd8, 0x2c, 0xe9, 0xd8, 0xfa, 0xc8, 0xfa, 0x2c, 0xc8, 0x0a, 0x3c,
  0xfa, 0x2c, 0x2c, 0x0a, 0xd8, 0x1b, 0x1b, 0x1b, 0xe9, 0xfa, 0xe9, 0xa7,
  0xfa, 0x2c, 0xfa, 0xc8, 0x2c, 0x95, 0xe9, 0x2c, 0xfa, 0xfa, 0x2c, 0xe9,
  0xe9, 0xfa, 0x2c, 0x2c, 0xd8, 0xd8, 0xd8, 0xe9, 0xfa, 0x2c, 0x0a, 0x3c,
  0x3c, 0x1b, 0xd8, 0x2c, 0x2c, 0x0a, 0xfa, 0x2c, 0xd8, 0xc8, 0xd8, 0xc8,
  0x1b, 0x0a, 0xe9, 0x0a, 0xd8, 0x2c, 0x1b, 0x1b, 0xc8, 0xfa, 0x1b, 0x1b,
  0x2c, 0x1b, 0xfa, 0xe9, 0xd8, 0xe9, 0x2c, 0x0a, 0x0a, 0xe9, 0xb7, 0xc8,
  0x0a, 0x2c, 0xfa, 0x3c, 0x3c, 0x1b, 0xe9, 0xe9, 0x3c, 0x1b, 0xe9, 0x2c,
  0xe9, 0x1b, 0xfa, 0x0a, 0x0a, 0xd8, 0xd8, 0x0a, 0x1b, 0x1b, 0x0a, 0x1b,
  0xfa, 0xfa, 0xfa, 0xfa, 0x0a, 0x1b, 0x2c, 0xfa, 0xc8, 0xfa, 0x2c, 0xfa,
  0xd8, 0x1b, 0x2c, 0xfa, 0xc8, 0xc8, 0xfa, 0xc8, 0xc8, 0x3c, 0x0a, 0xe9,
  0xd8, 0xd8, 0x0a, 0xe9, 0xd8, 0x2c, 0xc8, 0x3c, 0x3c, 0x2c, 0xe9, 0xe9,
  0xe9, 0x3c, 0xe9, 0x2c, 0x0a, 0xe9, 0xd8, 0xe9, 0xe9, 0xd8, 0xd8, 0xfa,
  0x2c, 0x3c, 0x0a, 0xc8, 0xc8, 0xfa, 0x0a, 0xe9, 0xfa, 0xe9, 0x1b, 0xfa,
  0x1b, 0xfa, 0xe9, 0x1b, 0x2c, 0xfa, 0x1b, 0xd8, 0xfa, 0xd8, 0xc8, 0xfa,
  0xd8, 0x2c, 0xe9, 0xe9, 0x2c, 0xd8, 0xd8, 0xe9, 0xfa, 0xd8, 0x2c, 0xe9,
  0x1b, 0xe9, 0xfa, 0xc8, 0x3c, 0xe9, 0xe9, 0x0a, 0x0a, 0xe9, 0xc8, 0xe9,
  0x0a, 0x2c, 0xc8, 0x1b, 0xc8, 0x1b, 0xe9, 0xe9, 0xe9, 0x0a, 0x2c, 0x1b,
  0xd8, 0xfa, 0x1b, 0xd8, 0x3c, 0xe9, 0x0a, 0x2c, 0x1b, 0xc8, 0xfa, 0xc8,
  0x2c, 0xd8, 0xd8, 0xfa, 0xe9, 0xc8, 0xfa, 0xfa, 0xfa, 0x0a, 0x0a, 0xe9,
  0x3c, 0x0a, 0x0a, 0x0a, 0xfa, 0xd8, 0xd8, 0xd8, 0x2c, 0x2c, 0x1b, 0xe9,
  0xc8, 0xc8, 0xe9, 0xc8, 0xe9, 0x0a, 0xe9, 0xe9, 0x0a, 0xd8, 0x2c, 0xe9,
  0x1b, 0x2c, 0xd8, 0x2c, 0x0a, 0xe9, 0xe9, 0xe9, 0xd8, 0x0a, 0x1b, 0x2c,
  0x2c, 0x1b, 0xc8, 0xc8, 0x3c, 0x0a, 0xc8, 0xfa, 0xc8, 0x2c, 0xe9, 0xe9,
  0xe9, 0x1b, 0xe9, 0xc8, 0xfa, 0x2c, 0xe9, 0xc8, 0xfa, 0x2c, 0x1b, 0x2c,
  0xfa, 0xfa, 0x1b, 0x1b, 0xfa, 0x2c, 0xe9, 0xfa, 0xe9, 0x0a, 0x2c, 0xfa,
  0xc8, 0xc8, 0x2c, 0x0a, 0xe9, 0x2c, 0x2c, 0xd8, 0x0a, 0xb7, 0xfa, 0xe9,
  0x0a, 0xfa, 0x0a, 0xd8, 0xd8, 0x0a, 0xfa, 0x3c, 0xe9, 0x0a, 0xd8, 0x2c,
  0xc8, 0xfa, 0x1b, 0xe9, 0x1b, 0xc8, 0x2c, 0xd8, 0x1b, 0xfa, 0xfa, 0xc8,
  0x2c, 0x0a, 0x2c, 0xe9, 0x1b, 0x0a, 0x2c, 0xfa, 0xe9, 0xfa, 0xd8, 0xd8,
  0xe9, 0x3c, 0xfa, 0xe9, 0x2c, 0x1b, 0x2c, 0xc8, 0xc8, 0x0a, 0xe9, 0xe9,
  0xd8, 0x1b, 0x2c, 0x1b, 0x2c, 0x1b, 0xfa, 0x0a, 0x2c, 0xfa, 0x0a, 0x1b,
  0xfa, 0x1b, 0xc8, 0xb7, 0xb7, 0x0a, 0xc8, 0x1b, 0xd8, 0xe9, 0xfa, 0xe9,
  0x1b, 0x0a, 0xe9, 0xd8, 0x3c, 0xe9, 0x3c, 0x0a, 0xd8, 0xfa, 0x1b, 0xc8,
  0x2c, 0xd8, 0xd8, 0x1b, 0xfa, 0x4d, 0x1b, 0xfa, 0x3c, 0x3c, 0xa7, 0xe9,
  0xfa, 0x3c, 0x2c, 0xe9, 0x2c, 0xd8, 0x1b, 0xe9, 0xc8, 0xd8, 0x3c, 0x3c,
  0x0a, 0x3c, 0x1b, 0x0a, 0xe9, 0xfa, 0xd8, 0xc8, 0xe9, 0xe9, 0x1b, 0x0a,
  0xe9, 0xd8, 0xe9, 0xe9, 0xd8, 0xe9, 0xd8, 0xe9, 0xfa, 0x1b, 0xe9, 0xfa,
  0x0a, 0xd8, 0x1b, 0xd8, 0x2c, 0xd8, 0x0a, 0xd8, 0xfa, 0xfa, 0xd8, 0x0a,
  0x2c, 0xd8, 0xfa, 0x2c, 0x3c, 0x0a, 0x0a, 0xd8, 0x0a, 0xfa, 0x2c, 0xe9,
  0x0a, 0x1b, 0x0a, 0xe9, 0xd8, 0x1b, 0x1b, 0xd8, 0x2c, 0x0a, 0xe9, 0x2c,
  0x2c, 0xfa, 0x2c, 0xc8, 0xd8, 0xa7, 0xc8, 0xd8, 0x1b, 0x2c, 0xe9, 0x0a,
  0xe9, 0x1b, 0x1b, 0x0a, 0xd8, 0xc8, 0x1b, 0x0a, 0xd8, 0xe9, 0x2c, 0x0a,
  0x1b, 0xfa, 0x2c, 0xc8, 0xfa, 0xd8, 0x1b, 0x0a, 0x0a, 0x1b, 0x1b, 0xc8,
  0xfa, 0x2c, 0xfa, 0xd8, 0xe9, 0x2c, 0xfa, 0xd8, 0xe9, 0x1b, 0xfa, 0x0a,
  0x2c, 0xc8, 0x0a, 0x1b, 0x1b, 0x0a, 0x1b, 0xfa, 0xd8, 0xc8, 0xe9, 0x1b,
  0xd8, 0x1b, 0xe9, 0xc8, 0x1b, 0xe9, 0x0a, 0x1b, 0x1b, 0x0a, 0x1b, 0xfa,
  0x2c, 0xe9, 0x3c, 0x1b, 0x0a, 0x0a, 0xe9, 0x3c, 0xe9, 0x2c, 0x2c, 0xd8,
  0xd8, 0x2c, 0xfa, 0xe9, 0x0a, 0x3c, 0xe9, 0x1b, 0xc8, 0x95, 0xd8, 0xa7,
  0xc8, 0xc8, 0xd8, 0xe9, 0x1b, 0xe9, 0xc8, 0x0a, 0x2c, 0x1b, 0xc8, 0x0a,
  0x0a, 0xe9, 0xe9, 0xc8, 0x2c, 0xd8, 0xc8, 0x0a, 0x1b, 0x1b, 0xe9, 0xfa,
  0x2c, 0xd8, 0xfa, 0x1b, 0x3c, 0x1b, 0xc8, 0x0a, 0xd8, 0x0a, 0xfa, 0x0a,
  0xfa, 0xd8, 0x1b, 0x0a, 0x1b, 0xd8, 0x1b, 0x1b, 0xe9, 0xd8, 0xe9, 0xd8,
  0xfa, 0xfa, 0xfa, 0x0a, 0x1b, 0x1b, 0x0a, 0x1b, 0x2c, 0xfa, 0x2c, 0xfa,
  0x2c, 0xfa, 0xc8, 0x1b, 0xe9, 0xd8, 0xfa, 0xfa, 0x1b, 0x0a, 0xb7, 0x0a,
  0x3c, 0xd8, 0x2c, 0x0a, 0xfa, 0x3c, 0xfa, 0xc8, 0xfa, 0x1b, 0x3c, 0x3c,
  0x2c, 0xc8, 0x4d, 0x0a, 0xfa, 0x2c, 0xfa, 0xd8, 0x1b, 0xc8, 0xfa, 0x1b,
  0x0a, 0xa7, 0xe9, 0x2c, 0xd8, 0x3c, 0x1b, 0x0a, 0xfa, 0x0a, 0xfa, 0x0a,
  0xfa, 0x1b, 0x0a, 0x0a, 0xc8, 0x2c, 0xd8, 0xe9, 0x2c, 0xd8, 0xe9, 0xc8,
  0x3c, 0xe9, 0xd8, 0xd8, 0x1b, 0x3c, 0xd8, 0x1b, 0xd8, 0xfa, 0x3c, 0xfa,
  0xd8, 0xfa, 0xd8, 0x1b, 0x0a, 0x1b, 0x0a, 0xc8, 0xd8, 0xfa, 0xc8, 0xe9,
  0x0a, 0xfa, 0xe9, 0xc8, 0x1b, 0x3c, 0x3c, 0xc8, 0xe9, 0x0a, 0xd8, 0xe9,
  0x2c, 0x2c, 0xfa, 0xfa, 0x0a, 0x2c, 0x2c, 0x1b, 0xfa, 0xe9, 0xc8, 0x0a,
  0xd8, 0xd8, 0xe9, 0x0a, 0xfa, 0xfa, 0x0a, 0x2c, 0xd8, 0x1b, 0x2c, 0xe9,
  0xfa, 0xe9, 0xe9, 0xfa, 0x0a, 0x1b, 0x1b, 0xc8, 0x2c, 0xe9, 0x0a, 0xd8,
  0x2c, 0xfa, 0xe9, 0x2c, 0x1b, 0xd8, 0xfa, 0xd8, 0xfa, 0xe9, 0x2c, 0xd8,
  0xfa, 0x1b, 0x1b, 0xc8, 0x0a, 0xd8, 0xfa, 0xd8, 0xe9, 0x1b, 0x1b, 0xc8,
  0x1b, 0xd8, 0x0a, 0x1b, 0x0a, 0xfa, 0x3c, 0x0a, 0x1b, 0x3c, 0x3c, 0x2c,
  0x2c, 0x1b, 0xe9, 0xe9, 0x1b, 0x1b, 0x2c, 0xfa, 0xfa, 0xd8, 0x1b, 0xd8,
  0xe9, 0xfa, 0x2c, 0xd8, 0x3c, 0xfa, 0x2c, 0xe9, 0x3c, 0xe9, 0x1b, 0x1b,
  0xd8, 0x2c, 0x1b, 0x1b, 0xc8, 0xe9, 0xe9, 0x2c, 0xfa, 0x1b, 0xe9, 0x2c,
  0xfa, 0x0a, 0xc8, 0xfa, 0x0a, 0xfa, 0xfa, 0x0a, 0xd8, 0x3c, 0xfa, 0x0a,
  0xe9, 0x0a, 0xd8, 0x3c, 0x1b, 0xe9, 0xd8, 0xe9, 0xfa, 0xe9, 0x2c, 0xe9,
  0x0a, 0xd8, 0x1b, 0x0a, 0x0a, 0xe9, 0xc8, 0xfa, 0xd8, 0xd8, 0xfa, 0xc8,
  0x0a, 0xe9, 0x1b, 0xfa, 0x0a, 0xfa, 0x2c, 0xe9, 0x2c, 0xe9, 0xe9, 0x3c,
  0x2c, 0x3c, 0x1b, 0xfa, 0x0a, 0xe9, 0x1b, 0x0a, 0x1b, 0xfa, 0xd8, 0x2c,
  0xd8, 0xe9, 0xc8, 0x3c, 0xd8, 0xd8, 0xc8, 0x2c, 0xe9, 0x2c, 0x3c, 0x0a,
  0xfa, 0xfa, 0x2c, 0x0a, 0x2c, 0xd8, 0xc8, 0xd8, 0x1b, 0x2c, 0x0a, 0x0a,
  0xd8, 0x2c, 0xd8, 0xe9, 0x0a, 0x0a, 0xe9, 0x1b, 0xc8, 0xd8, 0xd8, 0x1b,
  0xfa, 0xfa, 0xd8, 0xc8, 0xd8, 0x4d, 0x0a, 0xe9, 0xfa, 0x1b, 0x4d, 0x1b,
  0x1b, 0xe9, 0xfa, 0xd8, 0x3c, 0x0a, 0x2c, 0xd8, 0x2c, 0x4d, 0xfa, 0xb7,
  0x3c, 0x1b, 0xd8, 0x0a, 0xe9, 0x2c, 0xe9, 0xfa, 0xd8, 0xe9, 0x2c, 0x1b,
  0x0a, 0x1b, 0xd8, 0x1b, 0x1b, 0xc8, 0xc8, 0xe9, 0xfa, 0xe9, 0xe9, 0xc8,
  0x1b, 0xd8, 0xfa, 0x1b, 0xfa, 0x2c, 0x1b, 0xfa, 0x0a, 0xd8, 0xfa, 0x0a,
  0x2c, 0x7f, 0xe9, 0xe9, 0xc8, 0xe9, 0xc8, 0x1b, 0x2c, 0x0a, 0xd8, 0xc8,
  0xe9, 0x0a, 0x3c, 0x2c, 0xfa, 0xe9, 0xfa, 0xd8, 0x0a, 0xc8, 0xfa, 0xfa,
  0xe9, 0x2c, 0x2c, 0x2c, 0xfa, 0x0a, 0xfa, 0xe9, 0x1b, 0xc8, 0x3c, 0x1b,
  0x2c, 0x2c, 0x0a, 0x0a, 0x0a, 0xfa, 0x2c, 0xfa, 0xfa, 0x1b, 0xe9, 0x1b,
  0x2c, 0xd8, 0xfa, 0xfa, 0x2c, 0xfa, 0xe9, 0x0a, 0xd8, 0x2c, 0xc8, 0xe9,
  0x2c, 0x2c, 0xb7, 0xd8, 0xd8, 0xc8, 0x0a, 0xd8, 0xc8, 0x1b, 0xe9, 0xe9,
  0xc8, 0x2c, 0x2c, 0xd8, 0xb7, 0x0a, 0x0a, 0xfa, 0xfa, 0x0a, 0xc8, 0xc8,
  0x3c, 0xfa, 0xe9, 0x0a, 0x1b, 0xe9, 0x1b, 0xd8, 0x1b, 0x0a, 0x1b, 0xc8,
  0x1b, 0x1b, 0xfa, 0x0a, 0xc8, 0xc8, 0x2c, 0x0a, 0x2c, 0x2c, 0x1b, 0x1b,
  0xd8, 0xd8, 0xfa, 0x2c, 0x2c, 0xc8, 0x3c, 0x0a, 0xfa, 0xe9, 0x0a, 0xe9,
  0x2c, 0x0a, 0x2c, 0xe9, 0xe9, 0xc8, 0xe9, 0xc8, 0x0a, 0xd8, 0xfa, 0xd8,
  0xd8, 0xd8, 0xe9, 0xd8, 0x1b, 0x1b, 0xd8, 0xe9, 0x1b, 0x1b, 0xfa, 0xfa,
  0x2c, 0xe9, 0xfa, 0x1b, 0x2c, 0xe9, 0xfa, 0xe9, 0x1b, 0xfa, 0xc8, 0x2c,
  0x0a, 0x2c, 0x1b, 0x0a, 0x1b, 0xe9, 0xd8, 0xfa, 0xe9, 0x1b, 0x1b, 0xe9,
  0x2c, 0x3c, 0xd8, 0x2c, 0xe9, 0xe9, 0xfa, 0xc8, 0xfa, 0x2c, 0x0a, 0xe9,
  0xd8, 0xe9, 0x2c, 0xfa, 0x2c, 0x0a, 0xfa, 0xfa, 0xe9, 0x1b, 0x1b, 0x3c,
  0xd8, 0xe9, 0xc8, 0x0a, 0x1b, 0x0a, 0x0a, 0x1b, 0x00, 0x00, 0x00, 0x00,
  0x36, 0xf8, 0xff, 0xff, 0x04, 0x00, 0x00, 0x00, 0x00, 0x04, 0x00, 0x00,
  0xb2, 0x14, 0xf3, 0xc3, 0xd3, 0xe3, 0xf3, 0x04, 0x14, 0x14, 0xc3, 0xc3,
  0xe3, 0xc3, 0x91, 0x14, 0x04, 0xe3, 0xe3, 0x04, 0x14, 0xc3, 0xe3, 0x24,
  0x65, 0x14, 0xe3, 0xe3, 0xd3, 0xf3, 0x81, 0xd3, 0xb2, 0xe3, 0x24, 0x04,
  0x04, 0x04, 0x24, 0xc3, 0xe3, 0xe3, 0x45, 0x24, 0xc3, 0xf3, 0xe3, 0xd3,
  0x14, 0x04, 0xe3, 0xf3, 0x14, 0xc3, 0x34, 0x34, 0x04, 0xe3, 0x14, 0x14,
  0x04, 0x34, 0x04, 0x14, 0x04, 0xe3, 0xe3, 0x14, 0xe3, 0x04, 0x24, 0x24,
  0xc3, 0x04, 0x04, 0x24, 0x24, 0x14, 0x04, 0xe3, 0xc3, 0x14, 0x14, 0x34,
  0x04, 0xc3, 0xf3, 0xe3, 0x34, 0x34, 0xf3, 0xe3, 0x04, 0xd3, 0xf3, 0xe3,
  0x04, 0x04, 0x04, 0xf3, 0x04, 0xe3, 0xd3, 0xd3, 0xb2, 0x34, 0x04, 0x24,
  0x34, 0xd3, 0xd3, 0x04, 0xf3, 0x14, 0x04, 0x14, 0xd3, 0x24, 0x34, 0x04,
  0xb2, 0x24, 0x24, 0xd3, 0x04, 0xc3, 0xf3, 0xc3, 0xf3, 0xd3, 0xd3, 0x34,
  0xe3, 0xd3, 0x04, 0x04, 0x65, 0xf3, 0xe3, 0xe3, 0x04, 0x24, 0xf3, 0x45,
  0x14, 0x14, 0xd3, 0xd3, 0x24, 0x14, 0x04, 0xf3, 0x45, 0x34, 0xc3, 0x04,
  0x04, 0xe3, 0xe3, 0xd3, 0xf3, 0xd3, 0xd3, 0xc3, 0x14, 0x34, 0xc3, 0xf3,
  0x34, 0xe3, 0x24, 0x04, 0x04, 0xd3, 0xe3, 0x24, 0x04, 0xe3, 0xe3, 0x14,
  0xf3, 0xe3, 0xe3, 0x24, 0xf3, 0xe3, 0xf3, 0x14, 0xd3, 0x14, 0x34, 0x04,
  0xf3, 0xc3, 0x14, 0x24, 0xc3, 0x14, 0x04, 0xf3, 0x04, 0xf3, 0xf3, 0x24,
  0xe3, 0xf3, 0x14, 0xf3, 0xd3, 0x24, 0xe3, 0x14, 0x14, 0x24, 0xf3, 0xf3,
  0x24, 0x04, 0xe3, 0x24, 0x24, 0x24, 0x04, 0xd3, 0xb2, 0xc3, 0xf3, 0x24,
  0x24, 0xf3, 0xf3, 0x04, 0xe3, 0xf3, 0x24, 0x34, 0xf3, 0xf3, 0xe3, 0x04,
  0x24, 0x14, 0x04, 0xd3, 0xc3, 0xe3, 0xc3, 0x04, 0xb2, 0x14, 0xf3, 0xd3,
  0xf3, 0xf3, 0x14, 0x04, 0x14, 0xc3, 0x04, 0xf3, 0x14, 0xf3, 0x24, 0xe3,
  0x45, 0x24, 0xd3, 0xf3, 0xd3, 0xf3, 0xd3, 0x04, 0xf3, 0x34, 0xf3, 0x24,
  0x24, 0xf3, 0x14, 0xf3, 0x14, 0x14, 0xd3, 0xe3, 0xf3, 0x34, 0x75, 0xc3,
  0x34, 0xd3, 0xe3, 0x24, 0xd3, 0xd3, 0x14, 0x14, 0x14, 0xe3, 0x14, 0x34,
  0xf3, 0x04, 0xd3, 0x24, 0xe3, 0xf3, 0xd3, 0x24, 0x14, 0xf3, 0xc3, 0xf3,
  0x14, 0xe3, 0x04, 0x04, 0xe3, 0x04, 0xe3, 0xd3, 0xc3, 0x14, 0x14, 0xe3,
  0x24, 0x24, 0x14, 0x04, 0x34, 0xf3, 0xe3, 0xd3, 0xf3, 0x14, 0x14, 0xf3,
  0x75, 0xe3, 0x14, 0xf3, 0xb2, 0x34, 0xd3, 0x34, 0xb2, 0xe3, 0x14, 0x24,
  0xe3, 0x14, 0x14, 0xd3, 0xf3, 0xd3, 0x24, 0xd3, 0xf3, 0x34, 0x34, 0x04,
  0xf3, 0x14, 0xd3, 0x34, 0x14, 0x34, 0xf3, 0xf3, 0x14, 0xc3, 0x14, 0x24,
  0xe3, 0xe3, 0xd3, 0x14, 0x04, 0x04, 0x14, 0x24, 0xd3, 0xc3, 0x24, 0xc3,
  0x04, 0xd3, 0xd3, 0xf3, 0x24, 0x34, 0xf3, 0x24, 0x45, 0x04, 0xe3, 0x14,
  0xd3, 0xd3, 0xb2, 0x34, 0x24, 0x24, 0x14, 0xf3, 0xe3, 0xd3, 0xf3, 0xd3,
  0xd3, 0xe3, 0xd3, 0x04, 0xd3, 0x04, 0xd3, 0xe3, 0xe3, 0xd3, 0xf3, 0x24,
  0x24, 0x24, 0x24, 0x34, 0x14, 0xd3, 0xf3, 0x34, 0xf3, 0xf3, 0x14, 0x04,
  0xe3, 0xe3, 0xf3, 0x04, 0xf3, 0x04, 0x34, 0xe3, 0xe3, 0x04, 0x24, 0xc3,
  0xe3, 0x04, 0x04, 0x14, 0xe3, 0x04, 0xe3, 0xe3, 0x04, 0x04, 0xe3, 0x34,
  0x14, 0x04, 0xd3, 0x24, 0x04, 0xd3, 0xd3, 0x45, 0x14, 0x04, 0x04, 0xf3,
  0x14, 0x14, 0xe3, 0xf3, 0xd3, 0x04, 0xe3, 0xc3, 0x34, 0x14, 0x14, 0x24,
  0x24, 0x24, 0x04, 0x04, 0xe3, 0xf3, 0xf3, 0xd3, 0xf3, 0x04, 0x14, 0xd3,
  0xf3, 0xd3, 0xe3, 0xc3, 0xc3, 0xd3, 0x24, 0x24, 0xe3, 0xe3, 0x04, 0xc3,
  0x24, 0x24, 0x14, 0xe3, 0x24, 0xc3, 0x04, 0xd3, 0xe3, 0x04, 0xf3, 0x04,
  0xe3, 0xe3, 0x04, 0x24, 0xb2, 0x34, 0xe3, 0xf3, 0xf3, 0x04, 0xd3, 0x14,
  0xd3, 0x04, 0xe3, 0x04, 0x04, 0xd3, 0xc3, 0xf3, 0x24, 0x04, 0xf3, 0xe3,
  0xe3, 0xf3, 0xe3, 0xe3, 0x34, 0xe3, 0x04, 0x24, 0x24, 0x04, 0x24, 0xd3,
  0xe3, 0x14, 0x14, 0xd3, 0xe3, 0x04, 0x04, 0x04, 0x04, 0xf3, 0xf3, 0x14,
  0xf3, 0xe3, 0xe3, 0x14, 0xe3, 0x14, 0x04, 0x24, 0xe3, 0xe3, 0xb2, 0x14,
  0xe3, 0x14, 0xc3, 0xd3, 0x24, 0xf3, 0x04, 0xc3, 0xb2, 0xf3, 0x14, 0x04,
  0xf3, 0xb2, 0x24, 0x34, 0xd3, 0x14, 0x24, 0xf3, 0x04, 0xd3, 0x55, 0xc3,
  0xc3, 0x24, 0xd3, 0xd3, 0x14, 0x24, 0xd3, 0xf3, 0x14, 0x04, 0xf3, 0x14,
  0x04, 0x24, 0x75, 0xd3, 0x34, 0xf3, 0xe3, 0xe3, 0x24, 0x14, 0x24, 0x14,
  0xe3, 0xc3, 0x04, 0x24, 0x04, 0xf3, 0x04, 0x04, 0xf3, 0xf3, 0x14, 0x14,
  0x24, 0xf3, 0xc3, 0x24, 0x55, 0xc3, 0xf3, 0x14, 0xc3, 0x04, 0x45, 0x24,
  0x14, 0xf3, 0x14, 0x34, 0x04, 0xd3, 0xd3, 0xc3, 0x45, 0x14, 0xf3, 0x24,
  0x04, 0xd3, 0x14, 0x14, 0xc3, 0xf3, 0xe3, 0x14, 0xf3, 0x14, 0xf3, 0x04,
  0x34, 0x14, 0xe3, 0xe3, 0xe3, 0x24, 0x45, 0xe3, 0xe3, 0xd3, 0xc3, 0x14,
  0xd3, 0x34, 0x24, 0xf3, 0x24, 0xf3, 0x14, 0x04, 0xf3, 0x14, 0xe3, 0x04,
  0x04, 0x04, 0x04, 0x24, 0xf3, 0x34, 0x55, 0xc3, 0xf3, 0x04, 0x04, 0x14,
  0xe3, 0xe3, 0xd3, 0x24, 0x14, 0xd3, 0xc3, 0xf3, 0x04, 0x24, 0x24, 0xe3,
  0x55, 0x04, 0xd3, 0x34, 0x04, 0xf3, 0x45, 0x34, 0xe3, 0xf3, 0xf3, 0x04,
  0xf3, 0xe3, 0xe3, 0x24, 0xd3, 0xd3, 0xd3, 0x34, 0xe3, 0xf3, 0x14, 0xf3,
  0xb2, 0xe3, 0x14, 0x34, 0x04, 0x24, 0xf3, 0x24, 0xd3, 0x04, 0x04, 0x14,
  0x14, 0x14, 0xd3, 0x14, 0xe3, 0x24, 0x14, 0xf3, 0x14, 0x14, 0xe3, 0xc3,
  0x14, 0xe3, 0x24, 0xc3, 0x24, 0x04, 0x14, 0x34, 0xd3, 0xc3, 0xe3, 0xf3,
  0x14, 0x04, 0x34, 0xe3, 0x24, 0xd3, 0xd3, 0x04, 0x04, 0x04, 0xf3, 0x34,
  0xf3, 0x34, 0x04, 0x24, 0xe3, 0x14, 0x14, 0xe3, 0x04, 0xe3, 0xe3, 0x24,
  0x24, 0x14, 0x04, 0x14, 0x14, 0xc3, 0x04, 0x24, 0x14, 0x14, 0xe3, 0xc3,
  0x04, 0x14, 0x24, 0xd3, 0xd3, 0x14, 0xe3, 0xc3, 0xf3, 0xe3, 0x24, 0x24,
  0xe3, 0xe3, 0xd3, 0x14, 0x04, 0x14, 0x24, 0xe3, 0xe3, 0xf3, 0xc3, 0x04,
  0x65, 0xd3, 0x34, 0xd3, 0xd3, 0xd3, 0x14, 0x34, 0xc3, 0x14, 0x04, 0xd3,
  0x04, 0xe3, 0xe3, 0xd3, 0x04, 0xe3, 0x04, 0xd3, 0xf3, 0x14, 0xd3, 0xe3,
  0xf3, 0x04, 0xe3, 0x24, 0x14, 0xf3, 0x04, 0x14, 0xf3, 0x14, 0x24, 0xd3,
  0xe3, 0xf3, 0xd3, 0x04, 0x34, 0xf3, 0xe3, 0x24, 0x04, 0xf3, 0xf3, 0x24,
  0x65, 0xe3, 0x24, 0x14, 0xd3, 0xc3, 0xe3, 0x24, 0xe3, 0xf3, 0xd3, 0x04,
  0xe3, 0xd3, 0xf3, 0xd3, 0x24, 0x24, 0x04, 0x14, 0x04, 0x04, 0x04, 0x24,
  0xf3, 0xd3, 0x04, 0xd3, 0xe3, 0xe3, 0x34, 0x24, 0x24, 0xf3, 0xf3, 0x24,
  0xe3, 0x04, 0x04, 0xd3, 0x04, 0x14, 0xd3, 0x14, 0x24, 0x24, 0xf3, 0xf3,
  0x34, 0xe3, 0x14, 0xf3, 0x04, 0xe3, 0xb2, 0x45, 0x14, 0xd3, 0x24, 0xf3,
  0xc3, 0x04, 0x04, 0x34, 0xc3, 0xf3, 0x34, 0x14, 0xe3, 0x14, 0xd3, 0x14,
  0x24, 0x24, 0xc3, 0xe3, 0x24, 0x14, 0xf3, 0x14, 0x45, 0xe3, 0xf3, 0xf3,
  0xf3, 0x45, 0x45, 0x24, 0x24, 0x24, 0xe3, 0x24, 0xf3, 0xc3, 0x34, 0x24,
  0x34, 0xc3, 0x04, 0x04, 0xe3, 0xe3, 0xc3, 0x14, 0x34, 0xf3, 0xf3, 0x14,
  0x14, 0x14, 0xf3, 0xc3, 0x24, 0xd3, 0x04, 0xe3, 0x14, 0xf3, 0x24, 0xf3,
  0x24, 0x14, 0x04, 0x04, 0xe3, 0xf3, 0x14, 0xd3, 0x04, 0xd3, 0x14, 0xd3,
  0xd3, 0x04, 0xd3, 0x04, 0x00, 0x00, 0x00, 0x00, 0x46, 0xfc, 0xff, 0xff,
  0x04, 0x00, 0x00, 0x00, 0x00, 0x02, 0x00, 0x00, 0x67, 0xa1, 0xdc, 0xbd,
  0x0f, 0x87, 0x21, 0x3e, 0x0e, 0x49, 0x5e, 0xbd, 0x53, 0x7d, 0x06, 0x3e,
  0x14, 0x1a, 0xd6, 0x3d, 0xaf, 0x7f, 0x43, 0x3e, 0x33, 0x25, 0x02, 0x3d,
  0xb3, 0x7b, 0x50, 0x3e, 0x00, 0x00, 0x00, 0x00, 0xc8, 0xc1, 0x50, 0x3e,
  0xab, 0x62, 0x4f, 0x3e, 0xeb, 0x64, 0x30, 0xbe, 0x4c, 0x34, 0x03, 0xbc,
  0x5a, 0x90, 0x6d, 0x3e, 0x60, 0xf8, 0x52, 0xbe, 0xd3, 0x60, 0x5b, 0x3e,
  0x00, 0x00, 0x00, 0x00, 0x04, 0xad, 0xdc, 0x3d, 0x01, 0x7e, 0xd7, 0xbd,
  0x9c, 0xfd, 0xd2, 0xbd, 0x34, 0x01, 0xca, 0xbc, 0x5c, 0x4d, 0xe6, 0xbd,
  0x00, 0x00, 0x00, 0x00, 0xbc, 0xb3, 0x41, 0xbb, 0x7f, 0x6e, 0xa0, 0xbd,
  0x00, 0x00, 0x00, 0x00, 0x3e, 0x41, 0x61, 0xbe, 0xe1, 0x60, 0x5d, 0xbe,
  0xc5, 0x25, 0xa0, 0x3d, 0xc5, 0xb3, 0x35, 0x3e, 0xbc, 0x2a, 0xd9, 0xbc,
  0x30, 0x75, 0x18, 0xbe, 0xee, 0xc1, 0xec, 0x3a, 0xec, 0x2e, 0x30, 0xbe,
  0x35, 0xd6, 0xe2, 0xbd, 0xe8, 0xba, 0x2c, 0xbe, 0x00, 0x00, 0x00, 0x00,
  0x0f, 0xcd, 0x96, 0xbd, 0xfc, 0xc7, 0x00, 0xbd, 0x00, 0x00, 0x00, 0x00,
  0x17, 0x1d, 0x2a, 0xbd, 0x2e, 0x23, 0xcc, 0xbb, 0x05, 0x03, 0x8b, 0xbd,
  0xe4, 0x49, 0x76, 0x3d, 0x7e, 0xb8, 0x31, 0x3e, 0x05, 0x8c, 0x7a, 0xbe,
  0x6d, 0x9e, 0xa4, 0xbc, 0xfc, 0xe3, 0x13, 0xbb, 0xf0, 0xcb, 0xe0, 0xbc,
  0x48, 0x75, 0x87, 0x3d, 0x40, 0x7a, 0x4c, 0xbe, 0x00, 0x00, 0x00, 0x00,
  0x48, 0xab, 0xf7, 0xbd, 0xc7, 0x1c, 0x5e, 0xbd, 0x00, 0x00, 0x00, 0x00,
  0x8c, 0x9c, 0xf2, 0xbd, 0x77, 0x7c, 0x72, 0x3d, 0x7c, 0x01, 0x5a, 0x3e,
  0xea, 0xbc, 0xfa, 0xbb, 0x92, 0x58, 0x1b, 0x3e, 0x98, 0x9b, 0x0c, 0x3e,
  0xd4, 0xa1, 0xfe, 0xbb, 0x30, 0xe4, 0x21, 0x3d, 0x8b, 0x53, 0xc0, 0x3d,
  0x1a, 0xcf, 0xeb, 0xbc, 0xd0, 0x6c, 0x03, 0x3e, 0x49, 0x7b, 0xc7, 0xbc,
  0x00, 0x00, 0x00, 0x00, 0xfc, 0xe6, 0xea, 0xbd, 0x12, 0xe9, 0xe5, 0x3d,
  0xcc, 0x45, 0xb3, 0xbb, 0xd2, 0x26, 0x5a, 0x3e, 0xc4, 0x07, 0x2a, 0xbd,
  0x3d, 0x5e, 0x09, 0xbd, 0xf8, 0x41, 0x35, 0xbe, 0x0d, 0x45, 0xd6, 0x3d,
  0xff, 0xee, 0xf3, 0xbd, 0x2f, 0xcc, 0x28, 0xbe, 0xf6, 0x73, 0xae, 0x3b,
  0xfa, 0x7d, 0x23, 0x3e, 0x75, 0xa5, 0x86, 0xbd, 0x5b, 0x5d, 0x94, 0x3c,
  0xe9, 0x33, 0x47, 0xbe, 0x62, 0x85, 0x49, 0xbc, 0xd4, 0xa0, 0x6d, 0xbe,
  0x00, 0x00, 0x00, 0x00, 0xb8, 0x04, 0x41, 0xbd, 0x3e, 0x40, 0x37, 0xbe,
  0x25, 0x57, 0xb9, 0x3d, 0x00, 0x00, 0x00, 0x00, 0x09, 0x96, 0x70, 0xbe,
  0x1c, 0x42, 0x48, 0x3c, 0x00, 0x00, 0x00, 0x00, 0xe5, 0xbb, 0x14, 0x3e,
  0xfd, 0x8d, 0x4e, 0x3e, 0x9d, 0x56, 0x01, 0x3e, 0x59, 0xb7, 0x1c, 0xbd,
  0x48, 0x79, 0x05, 0xbd, 0x88, 0x4f, 0x44, 0xbc, 0xcd, 0x73, 0x62, 0xbe,
  0xec, 0xcc, 0x10, 0xbe, 0x0e, 0x15, 0x48, 0x3d, 0x48, 0x70, 0x71, 0xbc,
  0xe7, 0x6a, 0xc0, 0x3d, 0xae, 0xac, 0x0f, 0x3e, 0x7b, 0x73, 0x60, 0xbd,
  0x63, 0x2f, 0x7f, 0x3e, 0x00, 0x00, 0x00, 0x00, 0x25, 0xa0, 0xc8, 0x3d,
  0x5a, 0xc8, 0x3e, 0x3e, 0x19, 0x50, 0x34, 0x3d, 0xa8, 0xc3, 0x74, 0xbd,
  0x00, 0x00, 0x00, 0x00, 0x0a, 0x39, 0x78, 0xbe, 0x00, 0x00, 0x00, 0x00,
  0x00, 0x00, 0x00, 0x00, 0xec, 0xd6, 0x86, 0xbe, 0xab, 0xea, 0x4a, 0xbd,
  0x16, 0x05, 0xde, 0xbd, 0xd7, 0xaf, 0x01, 0x3e, 0x50, 0xd3, 0xb6, 0xbd,
  0xf8, 0xed, 0x29, 0x3d, 0x7e, 0xfa, 0xe5, 0x3c, 0x39, 0x6b, 0xd1, 0xb9,
  0x0a, 0x61, 0x8a, 0x3c, 0x6c, 0x48, 0x4c, 0xbd, 0x9e, 0xd3, 0x51, 0xbe,
  0x4e, 0xb0, 0x99, 0xbd, 0x00, 0x00, 0x00, 0x00, 0x56, 0xfe, 0xff, 0xff,
  0x04, 0x00, 0x00, 0x00, 0x00, 0x01, 0x00, 0x00, 0xde, 0xd5, 0xcd, 0xbd,
  0xbf, 0x85, 0x15, 0xbe, 0x71, 0x90, 0xc3, 0x3d, 0xca, 0x93, 0x12, 0xbe,
  0xac, 0x69, 0x72, 0xbd, 0xd6, 0xb2, 0x09, 0xbb, 0xb2, 0xa6, 0x52, 0x3c,
  0xe5, 0x36, 0x4d, 0xbd, 0x3b, 0xfe, 0xe5, 0x3d, 0x7e, 0xb8, 0x14, 0x3e,
  0x8f, 0x5a, 0x1e, 0xbc, 0x5f, 0xc1, 0xf3, 0xbb, 0x3b, 0x62, 0xf4, 0x3c,
  0x5f, 0x51, 0x2a, 0x3d, 0xe9, 0xb9, 0x6e, 0x3e, 0x15, 0x00, 0x23, 0xbd,
  0x00, 0x00, 0x00, 0x00, 0xfc, 0xe5, 0xc7, 0xbd, 0x01, 0x18, 0x8a, 0x3d,
  0x8a, 0xf4, 0x0f, 0xbd, 0x00, 0xce, 0x77, 0x3d, 0xf4, 0x0e, 0x43, 0xbe,
  0x66, 0xc2, 0xc6, 0x3a, 0xdc, 0x96, 0x7a, 0xbc, 0x5a, 0xe1, 0x2d, 0xbd,
  0x3a, 0x5b, 0x4a, 0xbe, 0xe0, 0x42, 0xd7, 0xbc, 0xe9, 0xa2, 0x02, 0xbe,
  0x99, 0x3d, 0x6d, 0xbd, 0x53, 0xbd, 0xc4, 0xbb, 0x6e, 0x69, 0x1c, 0x3e,
  0xf2, 0x08, 0x71, 0xbe, 0x84, 0xf9, 0x47, 0xbe, 0xc6, 0xff, 0x37, 0x3c,
  0x9d, 0x4a, 0x67, 0xbe, 0xb5, 0xce, 0x2b, 0x3d, 0xe6, 0x73, 0x7d, 0xbe,
  0x96, 0x5c, 0xd8, 0x3c, 0xb8, 0x2f, 0x1e, 0x3e, 0xa2, 0xd8, 0x1f, 0x3e,
  0x6c, 0x63, 0x0f, 0xbd, 0xfb, 0xe3, 0xf0, 0x3b, 0xd2, 0x56, 0xba, 0xbc,
  0x8f, 0xf6, 0x33, 0xbe, 0xee, 0x99, 0x28, 0xbd, 0x06, 0x94, 0xe0, 0xbd,
  0x9d, 0x20, 0xc4, 0xbd, 0x03, 0x5f, 0x04, 0x3e, 0x00, 0x00, 0x00, 0x00,
  0xf7, 0x0c, 0x30, 0xba, 0xba, 0x5f, 0x6f, 0xbd, 0x21, 0x5e, 0x79, 0xbc,
  0x32, 0xa5, 0x6b, 0x3e, 0x45, 0xb7, 0x0f, 0xbc, 0x7f, 0x87, 0xb4, 0xbd,
  0xd5, 0x98, 0xe2, 0xbc, 0x1c, 0x78, 0x94, 0xbb, 0xcd, 0x9c, 0x0a, 0xbd,
  0x42, 0x24, 0x49, 0xbe, 0xd1, 0x49, 0x50, 0x3e, 0x8f, 0xa6, 0x94, 0xbd,
  0x7c, 0x94, 0xb9, 0x3d, 0x56, 0xc0, 0x49, 0x3e, 0x7a, 0x76, 0x03, 0xbe,
  0x00, 0x00, 0x00, 0x00, 0x66, 0xff, 0xff, 0xff, 0x04, 0x00, 0x00, 0x00,
  0x80, 0x00, 0x00, 0x00, 0x90, 0x6f, 0x87, 0x3e, 0x3c, 0x4a, 0x92, 0x3d,
  0x96, 0x94, 0x51, 0x3e, 0x4c, 0x1d, 0x8b, 0xbe, 0x1e, 0x89, 0x91, 0xbe,
  0x2a, 0x95, 0x49, 0x3d, 0x60, 0x0e, 0x99, 0xbd, 0xa1, 0xbe, 0xee, 0xbc,
  0x20, 0xa6, 0x8d, 0x3e, 0xf7, 0x40, 0x92, 0x3e, 0xfa, 0x9f, 0x90, 0x3e,
  0xb4, 0x0e, 0x90, 0xbd, 0x83, 0xab, 0x75, 0xbe, 0xa9, 0x8c, 0x92, 0xbe,
  0x43, 0x0b, 0xb9, 0xbd, 0xe8, 0x46, 0x87, 0x3c, 0xcf, 0x53, 0xb4, 0xbd,
  0x9b, 0x9b, 0x89, 0x3e, 0xbd, 0xcd, 0x04, 0x3d, 0xcf, 0x98, 0x87, 0xbe,
  0xa0, 0x32, 0x3c, 0xbd, 0x45, 0x84, 0x90, 0xbe, 0x66, 0x38, 0xc9, 0xbc,
  0x36, 0x5e, 0x8f, 0xbd, 0x67, 0x10, 0x76, 0xbe, 0xc9, 0x95, 0x91, 0xbe,
  0xe4, 0x11, 0x2f, 0xbe, 0xed, 0x44, 0x91, 0xbd, 0xb9, 0xfa, 0x89, 0xbe,
  0x40, 0xb3, 0x94, 0xbc, 0x5e, 0x1e, 0x88, 0x3e, 0xcc, 0x57, 0x92, 0xbc,
  0x00, 0x00, 0x00, 0x00, 0x00, 0x00, 0x00, 0x00, 0x00, 0x00, 0x00, 0x00,
  0x00, 0x00, 0x06, 0x00, 0x08, 0x00, 0x04, 0x00, 0x06, 0x00, 0x00, 0x00,
  0x04, 0x00, 0x00, 0x00, 0x04, 0x00, 0x00, 0x00, 0x46, 0x6b, 0x92, 0xbe,
  0x00, 0x00, 0x00, 0x00, 0x00, 0x00, 0x00, 0x00, 0x24, 0xf9, 0xff, 0xff,
  0x00, 0x00, 0x00, 0x00, 0x00, 0x00, 0x00, 0x00, 0x00, 0x00, 0x00, 0x00,
  0x34, 0xf9, 0xff, 0xff, 0x0f, 0x00, 0x00, 0x00, 0x4d, 0x4c, 0x49, 0x52,
  0x20, 0x43, 0x6f, 0x6e, 0x76, 0x65, 0x72, 0x74, 0x65, 0x64, 0x2e, 0x00,
  0x01, 0x00, 0x00, 0x00, 0x14, 0x00, 0x00, 0x00, 0x00, 0x00, 0x0e, 0x00,
  0x18, 0x00, 0x04, 0x00, 0x08, 0x00, 0x0c, 0x00, 0x10, 0x00, 0x14, 0x00,
  0x0e, 0x00, 0x00, 0x00, 0x5c, 0x01, 0x00, 0x00, 0x50, 0x01, 0x00, 0x00,
  0x44, 0x01, 0x00, 0x00, 0x14, 0x00, 0x00, 0x00, 0x04, 0x00, 0x00, 0x00,
  0x04, 0x00, 0x00, 0x00, 0x6d, 0x61, 0x69, 0x6e, 0x00, 0x00, 0x00, 0x00,
  0x05, 0x00, 0x00, 0x00, 0xe8, 0x00, 0x00, 0x00, 0xa0, 0x00, 0x00, 0x00,
  0x68, 0x00, 0x00, 0x00, 0x34, 0x00, 0x00, 0x00, 0x10, 0x00, 0x00, 0x00,
  0x00, 0x00, 0x0a, 0x00, 0x10, 0x00, 0x04, 0x00, 0x08, 0x00, 0x0c, 0x00,
  0x0a, 0x00, 0x00, 0x00, 0x01, 0x00, 0x00, 0x00, 0x10, 0x00, 0x00, 0x00,
  0x04, 0x00, 0x00, 0x00, 0x01, 0x00, 0x00, 0x00, 0x0d, 0x00, 0x00, 0x00,
  0x01, 0x00, 0x00, 0x00, 0x0c, 0x00, 0x00, 0x00, 0x66, 0xff, 0xff, 0xff,
  0x00, 0x00, 0x00, 0x08, 0x18, 0x00, 0x00, 0x00, 0x0c, 0x00, 0x00, 0x00,
  0x04, 0x00, 0x00, 0x00, 0xe0, 0xf9, 0xff, 0xff, 0x01, 0x00, 0x00, 0x00,
  0x0c, 0x00, 0x00, 0x00, 0x03, 0x00, 0x00, 0x00, 0x0b, 0x00, 0x00, 0x00,
  0x08, 0x00, 0x00, 0x00, 0x01, 0x00, 0x00, 0x00, 0x96, 0xff, 0xff, 0xff,
  0x00, 0x00, 0x00, 0x08, 0x1c, 0x00, 0x00, 0x00, 0x10, 0x00, 0x00, 0x00,
  0x04, 0x00, 0x00, 0x00, 0x88, 0xff, 0xff, 0xff, 0x00, 0x00, 0x01, 0x01,
  0x01, 0x00, 0x00, 0x00, 0x0b, 0x00, 0x00, 0x00, 0x03, 0x00, 0x00, 0x00,
  0x0a, 0x00, 0x00, 0x00, 0x07, 0x00, 0x00, 0x00, 0x02, 0x00, 0x00, 0x00,
  0xca, 0xff, 0xff, 0xff, 0x00, 0x00, 0x00, 0x08, 0x1c, 0x00, 0x00, 0x00,
  0x10, 0x00, 0x00, 0x00, 0x04, 0x00, 0x00, 0x00, 0xbc, 0xff, 0xff, 0xff,
  0x00, 0x00, 0x01, 0x01, 0x01, 0x00, 0x00, 0x00, 0x0a, 0x00, 0x00, 0x00,
  0x03, 0x00, 0x00, 0x00, 0x09, 0x00, 0x00, 0x00, 0x06, 0x00, 0x00, 0x00,
  0x03, 0x00, 0x00, 0x00, 0x00, 0x00, 0x0e, 0x00, 0x14, 0x00, 0x00, 0x00,
  0x08, 0x00, 0x0c, 0x00, 0x07, 0x00, 0x10, 0x00, 0x0e, 0x00, 0x00, 0x00,
  0x00, 0x00, 0x00, 0x08, 0x28, 0x00, 0x00, 0x00, 0x1c, 0x00, 0x00, 0x00,
  0x10, 0x00, 0x00, 0x00, 0x0c, 0x00, 0x08, 0x00, 0x06, 0x00, 0x00, 0x00,
  0x00, 0x00, 0x07, 0x00, 0x0c, 0x00, 0x00, 0x00, 0x00, 0x00, 0x01, 0x01,
  0x01, 0x00, 0x00, 0x00, 0x09, 0x00, 0x00, 0x00, 0x03, 0x00, 0x00, 0x00,
  0x00, 0x00, 0x00, 0x00, 0x05, 0x00, 0x00, 0x00, 0x04, 0x00, 0x00, 0x00,
  0x01, 0x00, 0x00, 0x00, 0x0d, 0x00, 0x00, 0x00, 0x01, 0x00, 0x00, 0x00,
  0x00, 0x00, 0x00, 0x00, 0x0e, 0x00, 0x00, 0x00, 0x14, 0x05, 0x00, 0x00,
  0xd0, 0x04, 0x00, 0x00, 0x90, 0x04, 0x00, 0x00, 0x60, 0x04, 0x00, 0x00,
  0x30, 0x04, 0x00, 0x00, 0xb8, 0x03, 0x00, 0x00, 0x40, 0x03, 0x00, 0x00,
  0xd4, 0x02, 0x00, 0x00, 0x88, 0x02, 0x00, 0x00, 0xf8, 0x01, 0x00, 0x00,
  0x68, 0x01, 0x00, 0x00, 0xd4, 0x00, 0x00, 0x00, 0x5c, 0x00, 0x00, 0x00,
  0x04, 0x00, 0x00, 0x00, 0x38, 0xfb, 0xff, 0xff, 0x44, 0x00, 0x00, 0x00,
  0x0e, 0x00, 0x00, 0x00, 0x1c, 0x00, 0x00, 0x00, 0x14, 0x00, 0x00, 0x00,
  0x04, 0x00, 0x00, 0x00, 0x02, 0x00, 0x00, 0x00, 0xff, 0xff, 0xff, 0xff,
  0x01, 0x00, 0x00, 0x00, 0x24, 0xfb, 0xff, 0xff, 0x19, 0x00, 0x00, 0x00,
  0x53, 0x74, 0x61, 0x74, 0x65, 0x66, 0x75, 0x6c, 0x50, 0x61, 0x72, 0x74,
  0x69, 0x74, 0x69, 0x6f, 0x6e, 0x65, 0x64, 0x43, 0x61, 0x6c, 0x6c, 0x3a,
  0x30, 0x00, 0x00, 0x00, 0x02, 0x00, 0x00, 0x00, 0x01, 0x00, 0x00, 0x00,
  0x01, 0x00, 0x00, 0x00, 0x8c, 0xfb, 0xff, 0xff, 0x64, 0x00, 0x00, 0x00,
  0x0d, 0x00, 0x00, 0x00, 0x1c, 0x00, 0x00, 0x00, 0x14, 0x00, 0x00, 0x00,
  0x04, 0x00, 0x00, 0x00, 0x02, 0x00, 0x00, 0x00, 0xff, 0xff, 0xff, 0xff,
  0x01, 0x00, 0x00, 0x00, 0x78, 0xfb, 0xff, 0xff, 0x3a, 0x00, 0x00, 0x00,
  0x73, 0x65, 0x71, 0x75, 0x65, 0x6e, 0x74, 0x69, 0x61, 0x6c, 0x5f, 0x32,
  0x2f, 0x64, 0x65, 0x6e, 0x73, 0x65, 0x5f, 0x31, 0x31, 0x2f, 0x4d, 0x61,
  0x74, 0x4d, 0x75, 0x6c, 0x3b, 0x73, 0x65, 0x71, 0x75, 0x65, 0x6e, 0x74,
  0x69, 0x61, 0x6c, 0x5f, 0x32, 0x2f, 0x64, 0x65, 0x6e, 0x73, 0x65, 0x5f,
  0x31, 0x31, 0x2f, 0x42, 0x69, 0x61, 0x73, 0x41, 0x64, 0x64, 0x00, 0x00,
  0x02, 0x00, 0x00, 0x00, 0x01, 0x00, 0x00, 0x00, 0x01, 0x00, 0x00, 0x00,
  0x00, 0xfc, 0xff, 0xff, 0x80, 0x00, 0x00, 0x00, 0x0c, 0x00, 0x00, 0x00,
  0x1c, 0x00, 0x00, 0x00, 0x14, 0x00, 0x00, 0x00, 0x04, 0x00, 0x00, 0x00,
  0x02, 0x00, 0x00, 0x00, 0xff, 0xff, 0xff, 0xff, 0x20, 0x00, 0x00, 0x00,
  0xec, 0xfb, 0xff, 0xff, 0x55, 0x00, 0x00, 0x00, 0x73, 0x65, 0x71, 0x75,
  0x65, 0x6e, 0x74, 0x69, 0x61, 0x6c, 0x5f, 0x32, 0x2f, 0x64, 0x65, 0x6e,
  0x73, 0x65, 0x5f, 0x31, 0x30, 0x2f, 0x4d, 0x61, 0x74, 0x4d, 0x75, 0x6c,
  0x3b, 0x73, 0x65, 0x71, 0x75, 0x65, 0x6e, 0x74, 0x69, 0x61, 0x6c, 0x5f,
  0x32, 0x2f, 0x64, 0x65, 0x6e, 0x73, 0x65, 0x5f, 0x31, 0x30, 0x2f, 0x52,
  0x65, 0x6c, 0x75, 0x3b, 0x73, 0x65, 0x71, 0x75, 0x65, 0x6e, 0x74, 0x69,
  0x61, 0x6c, 0x5f, 0x32, 0x2f, 0x64, 0x65, 0x6e, 0x73, 0x65, 0x5f, 0x31,
  0x30, 0x2f, 0x42, 0x69, 0x61, 0x73, 0x41, 0x64, 0x64, 0x00, 0x00, 0x00,
  0x02, 0x00, 0x00, 0x00, 0x01, 0x00, 0x00, 0x00, 0x20, 0x00, 0x00, 0x00,
  0x90, 0xfc, 0xff, 0xff, 0x7c, 0x00, 0x00, 0x00, 0x0b, 0x00, 0x00, 0x00,
  0x1c, 0x00, 0x00, 0x00, 0x14, 0x00, 0x00, 0x00, 0x04, 0x00, 0x00, 0x00,
  0x02, 0x00, 0x00, 0x00, 0xff, 0xff, 0xff, 0xff, 0x40, 0x00, 0x00, 0x00,
  0x7c, 0xfc, 0xff, 0xff, 0x52, 0x00, 0x00, 0x00, 0x73, 0x65, 0x71, 0x75,
  0x65, 0x6e, 0x74, 0x69, 0x61, 0x6c, 0x5f, 0x32, 0x2f, 0x64, 0x65, 0x6e,
  0x73, 0x65, 0x5f, 0x39, 0x2f, 0x4d, 0x61, 0x74, 0x4d, 0x75, 0x6c, 0x3b,
  0x73, 0x65, 0x71, 0x75, 0x65, 0x6e, 0x74, 0x69, 0x61, 0x6c, 0x5f, 0x32,
  0x2f, 0x64, 0x65, 0x6e, 0x73, 0x65, 0x5f, 0x39, 0x2f, 0x52, 0x65, 0x6c,
  0x75, 0x3b, 0x73, 0x65, 0x71, 0x75, 0x65, 0x6e, 0x74, 0x69, 0x61, 0x6c,
  0x5f, 0x32, 0x2f, 0x64, 0x65, 0x6e, 0x73, 0x65, 0x5f, 0x39, 0x2f, 0x42,
  0x69, 0x61, 0x73, 0x41, 0x64, 0x64, 0x00, 0x00, 0x02, 0x00, 0x00, 0x00,
  0x01, 0x00, 0x00, 0x00, 0x40, 0x00, 0x00, 0x00, 0x1c, 0xfd, 0xff, 0xff,
  0x7c, 0x00, 0x00, 0x00, 0x0a, 0x00, 0x00, 0x00, 0x1c, 0x00, 0x00, 0x00,
  0x14, 0x00, 0x00, 0x00, 0x04, 0x00, 0x00, 0x00, 0x02, 0x00, 0x00, 0x00,
  0xff, 0xff, 0xff, 0xff, 0x80, 0x00, 0x00, 0x00, 0x08, 0xfd, 0xff, 0xff,
  0x52, 0x00, 0x00, 0x00, 0x73, 0x65, 0x71, 0x75, 0x65, 0x6e, 0x74, 0x69,
  0x61, 0x6c, 0x5f, 0x32, 0x2f, 0x64, 0x65, 0x6e, 0x73, 0x65, 0x5f, 0x38,
  0x2f, 0x4d, 0x61, 0x74, 0x4d, 0x75, 0x6c, 0x3b, 0x73, 0x65, 0x71, 0x75,
  0x65, 0x6e, 0x74, 0x69, 0x61, 0x6c, 0x5f, 0x32, 0x2f, 0x64, 0x65, 0x6e,
  0x73, 0x65, 0x5f, 0x38, 0x2f, 0x52, 0x65, 0x6c, 0x75, 0x3b, 0x73, 0x65,
  0x71, 0x75, 0x65, 0x6e, 0x74, 0x69, 0x61, 0x6c, 0x5f, 0x32, 0x2f, 0x64,
  0x65, 0x6e, 0x73, 0x65, 0x5f, 0x38, 0x2f, 0x42, 0x69, 0x61, 0x73, 0x41,
  0x64, 0x64, 0x00, 0x00, 0x02, 0x00, 0x00, 0x00, 0x01, 0x00, 0x00, 0x00,
  0x80, 0x00, 0x00, 0x00, 0xe2, 0xfd, 0xff, 0xff, 0x38, 0x00, 0x00, 0x00,
  0x09, 0x00, 0x00, 0x00, 0x0c, 0x00, 0x00, 0x00, 0x04, 0x00, 0x00, 0x00,
  0x84, 0xfd, 0xff, 0xff, 0x1c, 0x00, 0x00, 0x00, 0x73, 0x65, 0x71, 0x75,
  0x65, 0x6e, 0x74, 0x69, 0x61, 0x6c, 0x5f, 0x32, 0x2f, 0x64, 0x65, 0x6e,
  0x73, 0x65, 0x5f, 0x31, 0x31, 0x2f, 0x4d, 0x61, 0x74, 0x4d, 0x75, 0x6c,
  0x00, 0x00, 0x00, 0x00, 0x02, 0x00, 0x00, 0x00, 0x01, 0x00, 0x00, 0x00,
  0x20, 0x00, 0x00, 0x00, 0x32, 0xff, 0xff, 0xff, 0x00, 0x00, 0x00, 0x09,
  0x54, 0x00, 0x00, 0x00, 0x08, 0x00, 0x00, 0x00, 0x28, 0x00, 0x00, 0x00,
  0x04, 0x00, 0x00, 0x00, 0x24, 0xff, 0xff, 0xff, 0x14, 0x00, 0x00, 0x00,
  0x04, 0x00, 0x00, 0x00, 0x01, 0x00, 0x00, 0x00, 0x00, 0x00, 0x00, 0x00,
  0x00, 0x00, 0x00, 0x00, 0x01, 0x00, 0x00, 0x00, 0xf4, 0xf2, 0x38, 0x3b,
  0x1c, 0x00, 0x00, 0x00, 0x73, 0x65, 0x71, 0x75, 0x65, 0x6e, 0x74, 0x69,
  0x61, 0x6c, 0x5f, 0x32, 0x2f, 0x64, 0x65, 0x6e, 0x73, 0x65, 0x5f, 0x31,
  0x30, 0x2f, 0x4d, 0x61, 0x74, 0x4d, 0x75, 0x6c, 0x00, 0x00, 0x00, 0x00,
  0x02, 0x00, 0x00, 0x00, 0x20, 0x00, 0x00, 0x00, 0x40, 0x00, 0x00, 0x00,
  0x9a, 0xff, 0xff, 0xff, 0x00, 0x00, 0x00, 0x09, 0x50, 0x00, 0x00, 0x00,
  0x07, 0x00, 0x00, 0x00, 0x28, 0x00, 0x00, 0x00, 0x04, 0x00, 0x00, 0x00,
  0x8c, 0xff, 0xff, 0xff, 0x14, 0x00, 0x00, 0x00, 0x04, 0x00, 0x00, 0x00,
  0x01, 0x00, 0x00, 0x00, 0x00, 0x00, 0x00, 0x00, 0x00, 0x00, 0x00, 0x00,
  0x01, 0x00, 0x00, 0x00, 0x9a, 0xa6, 0x45, 0x3b, 0x1b, 0x00, 0x00, 0x00,
  0x73, 0x65, 0x71, 0x75, 0x65, 0x6e, 0x74, 0x69, 0x61, 0x6c, 0x5f, 0x32,
  0x2f, 0x64, 0x65, 0x6e, 0x73, 0x65, 0x5f, 0x39, 0x2f, 0x4d, 0x61, 0x74,
  0x4d, 0x75, 0x6c, 0x00, 0x02, 0x00, 0x00, 0x00, 0x40, 0x00, 0x00, 0x00,
  0x80, 0x00, 0x00, 0x00, 0x00, 0x00, 0x0e, 0x00, 0x18, 0x00, 0x08, 0x00,
  0x07, 0x00, 0x0c, 0x00, 0x10, 0x00, 0x14, 0x00, 0x0e, 0x00, 0x00, 0x00,
  0x00, 0x00, 0x00, 0x09, 0x60, 0x00, 0x00, 0x00, 0x06, 0x00, 0x00, 0x00,
  0x38, 0x00, 0x00, 0x00, 0x10, 0x00, 0x00, 0x00, 0x0c, 0x00, 0x0c, 0x00,
  0x00, 0x00, 0x00, 0x00, 0x04, 0x00, 0x08, 0x00, 0x0c, 0x00, 0x00, 0x00,
  0x18, 0x00, 0x00, 0x00, 0x04, 0x00, 0x00, 0x00, 0x01, 0x00, 0x00, 0x00,
  0x00, 0x00, 0x00, 0x00, 0x00, 0x00, 0x00, 0x00, 0x00, 0x00, 0x00, 0x00,
  0x01, 0x00, 0x00, 0x00, 0xa5, 0x8a, 0x7a, 0x3b, 0x1b, 0x00, 0x00, 0x00,
  0x73, 0x65, 0x71, 0x75, 0x65, 0x6e, 0x74, 0x69, 0x61, 0x6c, 0x5f, 0x32,
  0x2f, 0x64, 0x65, 0x6e, 0x73, 0x65, 0x5f, 0x38, 0x2f, 0x4d, 0x61, 0x74,
  0x4d, 0x75, 0x6c, 0x00, 0x02, 0x00, 0x00, 0x00, 0x80, 0x00, 0x00, 0x00,
  0x08, 0x00, 0x00, 0x00, 0x7a, 0xff, 0xff, 0xff, 0x20, 0x00, 0x00, 0x00,
  0x05, 0x00, 0x00, 0x00, 0x0c, 0x00, 0x00, 0x00, 0x04, 0x00, 0x00, 0x00,
  0x1c, 0xff, 0xff, 0xff, 0x04, 0x00, 0x00, 0x00, 0x62, 0x69, 0x61, 0x73,
  0x00, 0x00, 0x00, 0x00, 0x01, 0x00, 0x00, 0x00, 0x80, 0x00, 0x00, 0x00,
  0xa6, 0xff, 0xff, 0xff, 0x20, 0x00, 0x00, 0x00, 0x04, 0x00, 0x00, 0x00,
  0x0c, 0x00, 0x00, 0x00, 0x04, 0x00, 0x00, 0x00, 0x48, 0xff, 0xff, 0xff,
  0x06, 0x00, 0x00, 0x00, 0x62, 0x69, 0x61, 0x73, 0x5f, 0x31, 0x00, 0x00,
  0x01, 0x00, 0x00, 0x00, 0x40, 0x00, 0x00, 0x00, 0xd2, 0xff, 0xff, 0xff,
  0x20, 0x00, 0x00, 0x00, 0x03, 0x00, 0x00, 0x00, 0x0c, 0x00, 0x00, 0x00,
  0x04, 0x00, 0x00, 0x00, 0x74, 0xff, 0xff, 0xff, 0x06, 0x00, 0x00, 0x00,
  0x62, 0x69, 0x61, 0x73, 0x5f, 0x32, 0x00, 0x00, 0x01, 0x00, 0x00, 0x00,
  0x20, 0x00, 0x00, 0x00, 0x00, 0x00, 0x0e, 0x00, 0x14, 0x00, 0x04, 0x00,
  0x00, 0x00, 0x08, 0x00, 0x0c, 0x00, 0x10, 0x00, 0x0e, 0x00, 0x00, 0x00,
  0x20, 0x00, 0x00, 0x00, 0x02, 0x00, 0x00, 0x00, 0x0c, 0x00, 0x00, 0x00,
  0x04, 0x00, 0x00, 0x00, 0xb0, 0xff, 0xff, 0xff, 0x06, 0x00, 0x00, 0x00,
  0x62, 0x69, 0x61, 0x73, 0x5f, 0x33, 0x00, 0x00, 0x01, 0x00, 0x00, 0x00,
  0x01, 0x00, 0x00, 0x00, 0x14, 0x00, 0x18, 0x00, 0x04, 0x00, 0x00, 0x00,
  0x08, 0x00, 0x0c, 0x00, 0x10, 0x00, 0x00, 0x00, 0x00, 0x00, 0x14, 0x00,
  0x14, 0x00, 0x00, 0x00, 0x4c, 0x00, 0x00, 0x00, 0x01, 0x00, 0x00, 0x00,
  0x20, 0x00, 0x00, 0x00, 0x18, 0x00, 0x00, 0x00, 0x04, 0x00, 0x00, 0x00,
  0x02, 0x00, 0x00, 0x00, 0xff, 0xff, 0xff, 0xff, 0x08, 0x00, 0x00, 0x00,
  0x04, 0x00, 0x04, 0x00, 0x04, 0x00, 0x00, 0x00, 0x1f, 0x00, 0x00, 0x00,
  0x73, 0x65, 0x72, 0x76, 0x69, 0x6e, 0x67, 0x5f, 0x64, 0x65, 0x66, 0x61,
  0x75, 0x6c, 0x74, 0x5f, 0x64, 0x65, 0x6e, 0x73, 0x65, 0x5f, 0x38, 0x5f,
  0x69, 0x6e, 0x70, 0x75, 0x74, 0x3a, 0x30, 0x00, 0x02, 0x00, 0x00, 0x00,
  0x01, 0x00, 0x00, 0x00, 0x08, 0x00, 0x00, 0x00, 0x02, 0x00, 0x00, 0x00,
  0x2c, 0x00, 0x00, 0x00, 0x10, 0x00, 0x00, 0x00, 0x0c, 0x00, 0x0c, 0x00,
  0x07, 0x00, 0x00, 0x00, 0x00, 0x00, 0x08, 0x00, 0x0c, 0x00, 0x00, 0x00,
  0x00, 0x00, 0x00, 0x0e, 0x0e, 0x00, 0x00, 0x00, 0x0c, 0x00, 0x10, 0x00,
  0x07, 0x00, 0x00, 0x00, 0x08, 0x00, 0x0c, 0x00, 0x0c, 0x00, 0x00, 0x00,
  0x00, 0x00, 0x00, 0x09, 0x09, 0x00, 0x00, 0x00, 0x09, 0x00, 0x00, 0x00
 
};

#endif //ANN_CLUSTERED_H