#ifndef C_MODEL4_CLUST_H
#define C_MODEL4_CLUST_H


unsigned int c_model4_clust_len = 5352;
unsigned char c_model4_clust[] = {
 0x1c, 0x00, 0x00, 0x00, 0x54, 0x46, 0x4c, 0x33, 0x14, 0x00, 0x20, 0x00,
  0x1c, 0x00, 0x18, 0x00, 0x14, 0x00, 0x10, 0x00, 0x0c, 0x00, 0x00, 0x00,
  0x08, 0x00, 0x04, 0x00, 0x14, 0x00, 0x00, 0x00, 0x1c, 0x00, 0x00, 0x00,
  0x8c, 0x00, 0x00, 0x00, 0xe4, 0x00, 0x00, 0x00, 0x4c, 0x0e, 0x00, 0x00,
  0x5c, 0x0e, 0x00, 0x00, 0x90, 0x14, 0x00, 0x00, 0x03, 0x00, 0x00, 0x00,
  0x01, 0x00, 0x00, 0x00, 0x10, 0x00, 0x00, 0x00, 0x00, 0x00, 0x0a, 0x00,
  0x10, 0x00, 0x0c, 0x00, 0x08, 0x00, 0x04, 0x00, 0x0a, 0x00, 0x00, 0x00,
  0x0c, 0x00, 0x00, 0x00, 0x1c, 0x00, 0x00, 0x00, 0x3c, 0x00, 0x00, 0x00,
  0x0f, 0x00, 0x00, 0x00, 0x73, 0x65, 0x72, 0x76, 0x69, 0x6e, 0x67, 0x5f,
  0x64, 0x65, 0x66, 0x61, 0x75, 0x6c, 0x74, 0x00, 0x01, 0x00, 0x00, 0x00,
  0x04, 0x00, 0x00, 0x00, 0x9c, 0xff, 0xff, 0xff, 0x0c, 0x00, 0x00, 0x00,
  0x04, 0x00, 0x00, 0x00, 0x08, 0x00, 0x00, 0x00, 0x6f, 0x75, 0x74, 0x70,
  0x75, 0x74, 0x5f, 0x30, 0x00, 0x00, 0x00, 0x00, 0x01, 0x00, 0x00, 0x00,
  0x04, 0x00, 0x00, 0x00, 0x4e, 0xf2, 0xff, 0xff, 0x04, 0x00, 0x00, 0x00,
  0x01, 0x00, 0x00, 0x00, 0x78, 0x00, 0x00, 0x00, 0x02, 0x00, 0x00, 0x00,
  0x34, 0x00, 0x00, 0x00, 0x04, 0x00, 0x00, 0x00, 0xdc, 0xff, 0xff, 0xff,
  0x0f, 0x00, 0x00, 0x00, 0x04, 0x00, 0x00, 0x00, 0x13, 0x00, 0x00, 0x00,
  0x43, 0x4f, 0x4e, 0x56, 0x45, 0x52, 0x53, 0x49, 0x4f, 0x4e, 0x5f, 0x4d,
  0x45, 0x54, 0x41, 0x44, 0x41, 0x54, 0x41, 0x00, 0x08, 0x00, 0x0c, 0x00,
  0x08, 0x00, 0x04, 0x00, 0x08, 0x00, 0x00, 0x00, 0x0e, 0x00, 0x00, 0x00,
  0x04, 0x00, 0x00, 0x00, 0x13, 0x00, 0x00, 0x00, 0x6d, 0x69, 0x6e, 0x5f,
  0x72, 0x75, 0x6e, 0x74, 0x69, 0x6d, 0x65, 0x5f, 0x76, 0x65, 0x72, 0x73,
  0x69, 0x6f, 0x6e, 0x00, 0x10, 0x00, 0x00, 0x00, 0x64, 0x0d, 0x00, 0x00,
  0x5c, 0x0d, 0x00, 0x00, 0x40, 0x0d, 0x00, 0x00, 0xa8, 0x0c, 0x00, 0x00,
  0x78, 0x0c, 0x00, 0x00, 0xe8, 0x0b, 0x00, 0x00, 0x58, 0x0a, 0x00, 0x00,
  0x48, 0x06, 0x00, 0x00, 0x38, 0x02, 0x00, 0x00, 0xa8, 0x00, 0x00, 0x00,
  0xa0, 0x00, 0x00, 0x00, 0x98, 0x00, 0x00, 0x00, 0x90, 0x00, 0x00, 0x00,
  0x88, 0x00, 0x00, 0x00, 0x68, 0x00, 0x00, 0x00, 0x04, 0x00, 0x00, 0x00,
  0xfe, 0xf2, 0xff, 0xff, 0x04, 0x00, 0x00, 0x00, 0x54, 0x00, 0x00, 0x00,
  0x0c, 0x00, 0x00, 0x00, 0x08, 0x00, 0x0e, 0x00, 0x08, 0x00, 0x04, 0x00,
  0x08, 0x00, 0x00, 0x00, 0x10, 0x00, 0x00, 0x00, 0x24, 0x00, 0x00, 0x00,
  0x00, 0x00, 0x06, 0x00, 0x08, 0x00, 0x04, 0x00, 0x06, 0x00, 0x00, 0x00,
  0x04, 0x00, 0x00, 0x00, 0x00, 0x00, 0x00, 0x00, 0x00, 0x00, 0x0a, 0x00,
  0x10, 0x00, 0x0c, 0x00, 0x08, 0x00, 0x04, 0x00, 0x0a, 0x00, 0x00, 0x00,
  0x01, 0x00, 0x00, 0x00, 0x02, 0x00, 0x00, 0x00, 0x04, 0x00, 0x00, 0x00,
  0x05, 0x00, 0x00, 0x00, 0x32, 0x2e, 0x39, 0x2e, 0x31, 0x00, 0x00, 0x00,
  0x5e, 0xf3, 0xff, 0xff, 0x04, 0x00, 0x00, 0x00, 0x10, 0x00, 0x00, 0x00,
  0x32, 0x2e, 0x30, 0x2e, 0x30, 0x00, 0x00, 0x00, 0x00, 0x00, 0x00, 0x00,
  0x00, 0x00, 0x00, 0x00, 0x38, 0xed, 0xff, 0xff, 0x3c, 0xed, 0xff, 0xff,
  0x40, 0xed, 0xff, 0xff, 0x44, 0xed, 0xff, 0xff, 0x8a, 0xf3, 0xff, 0xff,
  0x04, 0x00, 0x00, 0x00, 0x80, 0x01, 0x00, 0x00, 0xe1, 0x41, 0x6f, 0x3d,
  0xae, 0x57, 0xba, 0x3e, 0x0e, 0x75, 0x7c, 0xbe, 0x40, 0x0f, 0xa2, 0x3e,
  0xfd, 0xde, 0xa8, 0x3e, 0x06, 0x57, 0x09, 0x3f, 0xb9, 0x6a, 0xde, 0x3e,
  0xe1, 0x41, 0x6f, 0x3d, 0xc4, 0x6d, 0x57, 0x3e, 0x3c, 0x2c, 0x26, 0x3d,
  0xb3, 0xa4, 0x99, 0x3e, 0x4f, 0xe2, 0xaa, 0xbe, 0x16, 0xda, 0xb5, 0xbd,
  0xc2, 0xc4, 0x87, 0x3e, 0xc2, 0xc4, 0x87, 0x3e, 0x3c, 0x2c, 0x26, 0x3d,
  0x9f, 0xf5, 0x8c, 0x3e, 0x9f, 0xf5, 0x8c, 0x3e, 0xae, 0x57, 0xba, 0x3e,
  0x70, 0x42, 0x11, 0xbc, 0x40, 0x0f, 0xa2, 0x3e, 0x3b, 0x2c, 0x0b, 0x3e,
  0x3b, 0x2c, 0x0b, 0x3e, 0x3c, 0x2c, 0x26, 0x3d, 0xbe, 0x12, 0xe1, 0x3c,
  0xc4, 0x6d, 0x57, 0x3e, 0xcb, 0x99, 0xd3, 0x3e, 0x1b, 0x97, 0x13, 0xbe,
  0xdb, 0xc0, 0x24, 0xbe, 0xe8, 0x28, 0x26, 0x3e, 0xae, 0x57, 0xba, 0x3e,
  0x3b, 0x2c, 0x0b, 0x3e, 0x27, 0xef, 0xc9, 0xbe, 0xa5, 0x27, 0x40, 0xbe,
  0xae, 0xbe, 0xb9, 0x3d, 0xc4, 0x6d, 0x57, 0x3e, 0x51, 0x7a, 0x50, 0xbe,
  0x0e, 0x75, 0x7c, 0xbe, 0x22, 0x7a, 0x6d, 0x3e, 0x22, 0x7a, 0x6d, 0x3e,
  0x09, 0x4f, 0x8f, 0xbe, 0xbe, 0x12, 0xe1, 0x3c, 0x4f, 0xe2, 0xaa, 0xbe,
  0xae, 0xbe, 0xb9, 0x3d, 0xfd, 0xde, 0xa8, 0x3e, 0xe2, 0x92, 0x68, 0xbe,
  0xe8, 0x28, 0x26, 0x3e, 0x14, 0x23, 0xed, 0x3d, 0xe1, 0x41, 0x6f, 0x3d,
  0x09, 0x4f, 0x8f, 0xbe, 0x4f, 0xe2, 0xaa, 0xbe, 0x16, 0xda, 0xb5, 0xbd,
  0x09, 0x4f, 0x8f, 0xbe, 0x4f, 0xe2, 0xaa, 0xbe, 0xa5, 0x27, 0x40, 0xbe,
  0x9f, 0xf5, 0x8c, 0x3e, 0x75, 0x2d, 0xe5, 0xbe, 0x16, 0xda, 0xb5, 0xbd,
  0x4f, 0xe2, 0xaa, 0xbe, 0xae, 0xbe, 0xb9, 0x3d, 0xfd, 0xde, 0xa8, 0x3e,
  0x09, 0x4f, 0x8f, 0xbe, 0x3b, 0x2c, 0x0b, 0x3e, 0xb3, 0xa4, 0x99, 0x3e,
  0x27, 0xef, 0xc9, 0xbe, 0x4f, 0xe2, 0xaa, 0xbe, 0x40, 0x0f, 0xa2, 0x3e,
  0x70, 0x42, 0x11, 0xbc, 0xe2, 0x92, 0x68, 0xbe, 0x16, 0xda, 0xb5, 0xbd,
  0xdb, 0xc0, 0x24, 0xbe, 0xc8, 0x5b, 0xb9, 0xbe, 0x1b, 0x97, 0x13, 0xbe,
  0x40, 0x0f, 0xa2, 0x3e, 0xf0, 0x56, 0x00, 0xbe, 0xf0, 0x56, 0x00, 0xbe,
  0xb9, 0x6a, 0xde, 0x3e, 0x06, 0x57, 0x09, 0x3f, 0xc4, 0x6d, 0x57, 0x3e,
  0x09, 0x4f, 0x8f, 0xbe, 0xe8, 0x28, 0x26, 0x3e, 0xf0, 0x56, 0x00, 0xbe,
  0x14, 0x23, 0xed, 0x3d, 0x9f, 0xf5, 0x8c, 0x3e, 0xc8, 0x5b, 0xb9, 0xbe,
  0xae, 0x57, 0xba, 0x3e, 0x09, 0x4f, 0x8f, 0xbe, 0xe8, 0x28, 0x26, 0x3e,
  0x40, 0x0f, 0xa2, 0x3e, 0xe8, 0x28, 0x26, 0x3e, 0xe2, 0x92, 0x68, 0xbe,
  0xe1, 0x41, 0x6f, 0x3d, 0xb3, 0xa4, 0x99, 0x3e, 0x70, 0x42, 0x11, 0xbc,
  0x70, 0x42, 0x11, 0xbc, 0xc4, 0x6d, 0x57, 0x3e, 0x16, 0xf5, 0xff, 0xff,
  0x04, 0x00, 0x00, 0x00, 0x00, 0x04, 0x00, 0x00, 0x23, 0xc6, 0x29, 0xbe,
  0x73, 0x42, 0xa0, 0xbe, 0xad, 0xb6, 0x98, 0xbb, 0x84, 0xcb, 0xef, 0x3d,
  0x94, 0xa6, 0x88, 0xbe, 0xa6, 0xd0, 0xe1, 0xbd, 0x7e, 0xb8, 0xf2, 0xbc,
  0xdf, 0x63, 0xaf, 0xbe, 0x17, 0x54, 0x39, 0xbe, 0x23, 0xc6, 0x29, 0xbe,
  0x73, 0x42, 0xa0, 0xbe, 0xc8, 0x2e, 0x99, 0xbd, 0xe8, 0x76, 0x8a, 0x3e,
  0x4d, 0x08, 0x03, 0x3d, 0x94, 0xa6, 0x88, 0xbe, 0x5b, 0x2e, 0xc3, 0x3e,
  0xf8, 0x8c, 0xae, 0x3e, 0xc8, 0x2e, 0x99, 0xbd, 0x06, 0x00, 0x66, 0xbe,
  0xab, 0xab, 0x36, 0xbd, 0x23, 0xc6, 0x29, 0xbe, 0xa6, 0xd0, 0xe1, 0xbd,
  0x30, 0xb8, 0x36, 0x3e, 0x48, 0x03, 0x75, 0x3d, 0x84, 0xcb, 0xef, 0x3d,
  0x48, 0x03, 0x75, 0x3d, 0x7e, 0xb8, 0xf2, 0xbc, 0x7e, 0xb8, 0xf2, 0xbc,
  0x5b, 0x2e, 0xc3, 0x3e, 0xe8, 0x76, 0x8a, 0x3e, 0xae, 0x7b, 0x4c, 0xbe,
  0x94, 0x1e, 0xc1, 0xbe, 0x84, 0xcb, 0xef, 0x3d, 0xdf, 0x63, 0xaf, 0xbe,
  0x80, 0x1c, 0x0a, 0xbe, 0x30, 0xb8, 0x36, 0x3e, 0x23, 0xc6, 0x29, 0xbe,
  0x7e, 0xb8, 0xf2, 0xbc, 0x94, 0xa6, 0x88, 0xbe, 0xb9, 0x38, 0x7c, 0x3e,
  0x30, 0xb8, 0x36, 0x3e, 0x94, 0xa6, 0x88, 0xbe, 0x17, 0x54, 0x39, 0xbe,
  0x06, 0x00, 0x66, 0xbe, 0xac, 0xe8, 0x91, 0x3e, 0x94, 0x1e, 0xc1, 0xbe,
  0xa6, 0xd0, 0xe1, 0xbd, 0x23, 0xc6, 0x29, 0xbe, 0xa7, 0xf6, 0x63, 0x3e,
  0xc8, 0x2e, 0x99, 0xbd, 0x94, 0xa6, 0x88, 0xbe, 0x3f, 0x00, 0x78, 0xbe,
  0xce, 0xc6, 0xeb, 0x3e, 0xce, 0xc6, 0xeb, 0x3e, 0x94, 0x1e, 0xc1, 0xbe,
  0xc8, 0x2e, 0x99, 0xbd, 0xa7, 0xf6, 0x63, 0x3e, 0xad, 0xb6, 0x98, 0xbb,
  0x84, 0xcb, 0xef, 0x3d, 0x80, 0x1c, 0x0a, 0xbe, 0xab, 0xab, 0x36, 0xbd,
  0x80, 0x1c, 0x0a, 0xbe, 0xad, 0xb6, 0x98, 0xbb, 0x84, 0xcb, 0xef, 0x3d,
  0x17, 0x54, 0x39, 0xbe, 0x48, 0x03, 0x75, 0x3d, 0xa6, 0xd0, 0xe1, 0xbd,
  0x84, 0xcb, 0xef, 0x3d, 0xe8, 0x76, 0x8a, 0x3e, 0x73, 0x42, 0xa0, 0xbe,
  0xe8, 0x76, 0x8a, 0x3e, 0xa6, 0xd0, 0xe1, 0xbd, 0x94, 0xa6, 0x88, 0xbe,
  0x94, 0x1e, 0xc1, 0xbe, 0xab, 0xab, 0x36, 0xbd, 0x80, 0x1c, 0x0a, 0xbe,
  0xa7, 0xf6, 0x63, 0x3e, 0x5d, 0x91, 0xc8, 0x3d, 0xf8, 0x8c, 0xae, 0x3e,
  0x23, 0xc6, 0x29, 0xbe, 0xe8, 0x76, 0x8a, 0x3e, 0x94, 0xa6, 0x88, 0xbe,
  0x7e, 0xb8, 0xf2, 0xbc, 0xf8, 0x8c, 0xae, 0x3e, 0xdf, 0x63, 0xaf, 0xbe,
  0x94, 0x1e, 0xc1, 0xbe, 0xab, 0xab, 0x36, 0xbd, 0x73, 0x42, 0xa0, 0xbe,
  0xac, 0xe8, 0x91, 0x3e, 0xdf, 0x63, 0xaf, 0xbe, 0xb9, 0x38, 0x7c, 0x3e,
  0x17, 0x54, 0x39, 0xbe, 0x23, 0xc6, 0x29, 0xbe, 0x30, 0xb8, 0x36, 0x3e,
  0xad, 0xb6, 0x98, 0xbb, 0x48, 0x03, 0x75, 0x3d, 0xdf, 0x63, 0xaf, 0xbe,
  0x74, 0x9a, 0x45, 0x3e, 0x48, 0x03, 0x75, 0x3d, 0xac, 0xe8, 0x91, 0x3e,
  0x74, 0x9a, 0x45, 0x3e, 0x30, 0xb8, 0x36, 0x3e, 0xa6, 0xd0, 0xe1, 0xbd,
  0x94, 0x1e, 0xc1, 0xbe, 0x48, 0x03, 0x75, 0x3d, 0xab, 0xab, 0x36, 0xbd,
  0x74, 0x9a, 0x45, 0x3e, 0x73, 0x42, 0xa0, 0xbe, 0x84, 0xcb, 0xef, 0x3d,
  0x0e, 0x76, 0x09, 0xbf, 0xdf, 0x63, 0xaf, 0xbe, 0xdf, 0x63, 0xaf, 0xbe,
  0xab, 0xab, 0x36, 0xbd, 0x06, 0x00, 0x66, 0xbe, 0xa7, 0xf6, 0x63, 0x3e,
  0x7e, 0xb8, 0xf2, 0xbc, 0x80, 0x1c, 0x0a, 0xbe, 0x4d, 0x08, 0x03, 0x3d,
  0x84, 0xcb, 0xef, 0x3d, 0xa6, 0xd0, 0xe1, 0xbd, 0xf8, 0x8c, 0xae, 0x3e,
  0x73, 0x42, 0xa0, 0xbe, 0x48, 0x03, 0x75, 0x3d, 0x73, 0x42, 0xa0, 0xbe,
  0xa6, 0xd0, 0xe1, 0xbd, 0xac, 0xe8, 0x91, 0x3e, 0xae, 0x7b, 0x4c, 0xbe,
  0x23, 0xc6, 0x29, 0xbe, 0x23, 0xc6, 0x29, 0xbe, 0x74, 0x9a, 0x45, 0x3e,
  0x80, 0x1c, 0x0a, 0xbe, 0x7e, 0xb8, 0xf2, 0xbc, 0x5b, 0x2e, 0xc3, 0x3e,
  0x68, 0xdb, 0xa0, 0x3e, 0x94, 0xa6, 0x88, 0xbe, 0xb9, 0x38, 0x7c, 0x3e,
  0x94, 0xa6, 0x88, 0xbe, 0x48, 0x03, 0x75, 0x3d, 0x80, 0x1c, 0x0a, 0xbe,
  0x17, 0x54, 0x39, 0xbe, 0xac, 0xe8, 0x91, 0x3e, 0xae, 0x7b, 0x4c, 0xbe,
  0x68, 0xdb, 0xa0, 0x3e, 0x5d, 0x91, 0xc8, 0x3d, 0xe8, 0x76, 0x8a, 0x3e,
  0x68, 0xdb, 0xa0, 0x3e, 0x3f, 0x00, 0x78, 0xbe, 0xdf, 0x63, 0xaf, 0xbe,
  0x3f, 0x00, 0x78, 0xbe, 0x23, 0xc6, 0x29, 0xbe, 0x68, 0xdb, 0xa0, 0x3e,
  0x48, 0x03, 0x75, 0x3d, 0x17, 0x54, 0x39, 0xbe, 0xc8, 0x2e, 0x99, 0xbd,
  0xad, 0xb6, 0x98, 0xbb, 0x94, 0xa6, 0x88, 0xbe, 0x94, 0xa6, 0x88, 0xbe,
  0xe8, 0x76, 0x8a, 0x3e, 0x17, 0x54, 0x39, 0xbe, 0x06, 0x00, 0x66, 0xbe,
  0x06, 0x00, 0x66, 0xbe, 0xad, 0xb6, 0x98, 0xbb, 0xf8, 0x8c, 0xae, 0x3e,
  0x30, 0xb8, 0x36, 0x3e, 0x21, 0x5d, 0x11, 0x3e, 0xb9, 0x38, 0x7c, 0x3e,
  0x94, 0xa6, 0x88, 0xbe, 0xe8, 0x76, 0x8a, 0x3e, 0x5d, 0x91, 0xc8, 0x3d,
  0xe8, 0x76, 0x8a, 0x3e, 0xe8, 0x76, 0x8a, 0x3e, 0x68, 0xdb, 0xa0, 0x3e,
  0x94, 0x1e, 0xc1, 0xbe, 0xc8, 0x2e, 0x99, 0xbd, 0x94, 0x1e, 0xc1, 0xbe,
  0x21, 0x5d, 0x11, 0x3e, 0x7e, 0xb8, 0xf2, 0xbc, 0xac, 0xe8, 0x91, 0x3e,
  0x4d, 0x08, 0x03, 0x3d, 0x80, 0x1c, 0x0a, 0xbe, 0x74, 0x9a, 0x45, 0x3e,
  0xb9, 0x38, 0x7c, 0x3e, 0x30, 0xb8, 0x36, 0x3e, 0x94, 0xa6, 0x88, 0xbe,
  0x23, 0xc6, 0x29, 0xbe, 0x30, 0xb8, 0x36, 0x3e, 0x4d, 0x08, 0x03, 0x3d,
  0xa7, 0xf6, 0x63, 0x3e, 0x06, 0x00, 0x66, 0xbe, 0xac, 0xe8, 0x91, 0x3e,
  0x5d, 0x91, 0xc8, 0x3d, 0xae, 0x7b, 0x4c, 0xbe, 0x3f, 0x00, 0x78, 0xbe,
  0x80, 0x1c, 0x0a, 0xbe, 0xa7, 0xf6, 0x63, 0x3e, 0x21, 0x5d, 0x11, 0x3e,
  0xa7, 0xf6, 0x63, 0x3e, 0x5d, 0xbe, 0xe1, 0xbe, 0xae, 0x7b, 0x4c, 0xbe,
  0x48, 0x03, 0x75, 0x3d, 0xad, 0xb6, 0x98, 0xbb, 0x84, 0xcb, 0xef, 0x3d,
  0x80, 0x1c, 0x0a, 0xbe, 0xa6, 0xd0, 0xe1, 0xbd, 0x5b, 0x2e, 0xc3, 0x3e,
  0x7e, 0xb8, 0xf2, 0xbc, 0xb9, 0x38, 0x7c, 0x3e, 0xa7, 0xf6, 0x63, 0x3e,
  0x23, 0xc6, 0x29, 0xbe, 0x23, 0xc6, 0x29, 0xbe, 0xae, 0x7b, 0x4c, 0xbe,
  0xac, 0xe8, 0x91, 0x3e, 0x73, 0x42, 0xa0, 0xbe, 0xc8, 0x2e, 0x99, 0xbd,
  0x5b, 0x2e, 0xc3, 0x3e, 0x73, 0x42, 0xa0, 0xbe, 0x3f, 0x00, 0x78, 0xbe,
  0xdf, 0x63, 0xaf, 0xbe, 0x74, 0x9a, 0x45, 0x3e, 0x68, 0xdb, 0xa0, 0x3e,
  0xad, 0xb6, 0x98, 0xbb, 0x21, 0x5d, 0x11, 0x3e, 0x94, 0xa6, 0x88, 0xbe,
  0x21, 0x5d, 0x11, 0x3e, 0x74, 0x9a, 0x45, 0x3e, 0xae, 0x7b, 0x4c, 0xbe,
  0x4d, 0x08, 0x03, 0x3d, 0xdf, 0x63, 0xaf, 0xbe, 0x5d, 0x91, 0xc8, 0x3d,
  0x68, 0xdb, 0xa0, 0x3e, 0x3f, 0x00, 0x78, 0xbe, 0xac, 0xe8, 0x91, 0x3e,
  0xdf, 0x63, 0xaf, 0xbe, 0xe8, 0x76, 0x8a, 0x3e, 0xdf, 0x63, 0xaf, 0xbe,
  0x48, 0x03, 0x75, 0x3d, 0x30, 0xb8, 0x36, 0x3e, 0xa6, 0xd0, 0xe1, 0xbd,
  0xc8, 0x2e, 0x99, 0xbd, 0x17, 0x54, 0x39, 0xbe, 0x48, 0x03, 0x75, 0x3d,
  0x73, 0x42, 0xa0, 0xbe, 0x84, 0xcb, 0xef, 0x3d, 0x5b, 0x2e, 0xc3, 0x3e,
  0xac, 0xe8, 0x91, 0x3e, 0x5b, 0x2e, 0xc3, 0x3e, 0xac, 0xe8, 0x91, 0x3e,
  0xa7, 0xf6, 0x63, 0x3e, 0x73, 0x42, 0xa0, 0xbe, 0x06, 0x00, 0x66, 0xbe,
  0x06, 0x00, 0x66, 0xbe, 0x30, 0xb8, 0x36, 0x3e, 0xa6, 0xd0, 0xe1, 0xbd,
  0x68, 0xdb, 0xa0, 0x3e, 0x4d, 0x08, 0x03, 0x3d, 0xac, 0xe8, 0x91, 0x3e,
  0x22, 0xf9, 0xff, 0xff, 0x04, 0x00, 0x00, 0x00, 0x00, 0x04, 0x00, 0x00,
  0xc9, 0x6d, 0x93, 0xbe, 0x27, 0x14, 0x83, 0xbe, 0x3e, 0xa3, 0x9f, 0x3e,
  0x20, 0x97, 0xfa, 0xbc, 0x27, 0x14, 0x83, 0xbe, 0x20, 0x97, 0xfa, 0xbc,
  0x55, 0x00, 0xc2, 0x3e, 0x39, 0xdb, 0x52, 0x3e, 0x0d, 0xc6, 0x1b, 0xbe,
  0xc9, 0x6d, 0x93, 0xbe, 0x08, 0xd6, 0x55, 0xbe, 0x3e, 0xa3, 0x9f, 0x3e,
  0x64, 0xa4, 0x34, 0xbe, 0xc9, 0x6d, 0x93, 0xbe, 0x61, 0x4c, 0x50, 0xbd,
  0xdc, 0x7d, 0xb4, 0xbd, 0xdc, 0x7d, 0xb4, 0xbd, 0x0b, 0x7e, 0xb3, 0xbe,
  0x2f, 0x47, 0x17, 0x3c, 0x55, 0x00, 0xc2, 0x3e, 0x27, 0x14, 0x83, 0xbe,
  0x0d, 0xc6, 0x1b, 0xbe, 0x98, 0x89, 0xd2, 0x3d, 0xdc, 0x7d, 0xb4, 0xbd,
  0x0d, 0xc6, 0x1b, 0xbe, 0x39, 0xdb, 0x52, 0x3e, 0xc9, 0x6d, 0x93, 0xbe,
  0x18, 0xca, 0x92, 0x3d, 0xa6, 0xb6, 0xb2, 0x3e, 0xa6, 0xb6, 0xb2, 0x3e,
  0x61, 0x4c, 0x50, 0xbd, 0x39, 0xdb, 0x52, 0x3e, 0x47, 0x64, 0xc9, 0xbe,
  0x55, 0x00, 0xc2, 0x3e, 0x20, 0x97, 0xfa, 0xbc, 0x39, 0xdb, 0x52, 0x3e,
  0x68, 0x0b, 0x1c, 0x3e, 0xc1, 0xdf, 0xa1, 0xbe, 0x55, 0x00, 0xc2, 0x3e,
  0x98, 0x89, 0xd2, 0x3d, 0x39, 0xdb, 0x52, 0x3e, 0xdc, 0x7d, 0xb4, 0xbd,
  0x54, 0x19, 0xff, 0xbd, 0xc1, 0xdf, 0xa1, 0xbe, 0xc9, 0x6d, 0x93, 0xbe,
  0xdc, 0x7d, 0xb4, 0xbd, 0x08, 0xd6, 0x55, 0xbe, 0x20, 0x97, 0xfa, 0xbc,
  0x18, 0xca, 0x92, 0x3d, 0x2f, 0x47, 0x17, 0x3c, 0x20, 0x8c, 0x65, 0xbe,
  0x0b, 0x7e, 0xb3, 0xbe, 0x27, 0x14, 0x83, 0xbe, 0x20, 0x8c, 0x65, 0xbe,
  0x0b, 0x7e, 0xb3, 0xbe, 0x98, 0x89, 0xd2, 0x3d, 0x54, 0x19, 0xff, 0xbd,
  0xa6, 0xb6, 0xb2, 0x3e, 0x59, 0xa8, 0x86, 0x3e, 0x68, 0x0b, 0x1c, 0x3e,
  0x96, 0x20, 0x31, 0x3e, 0x2f, 0x47, 0x17, 0x3c, 0x18, 0xca, 0x92, 0x3d,
  0xdc, 0x7d, 0xb4, 0xbd, 0x8f, 0xa7, 0x94, 0x3e, 0x54, 0x19, 0xff, 0xbd,
  0x2f, 0x47, 0x17, 0x3c, 0x47, 0x64, 0xc9, 0xbe, 0xc1, 0xdf, 0xa1, 0xbe,
  0x20, 0x8c, 0x65, 0xbe, 0x3e, 0xa3, 0x9f, 0x3e, 0x61, 0x4c, 0x50, 0xbd,
  0x08, 0xd6, 0x55, 0xbe, 0x20, 0x97, 0xfa, 0xbc, 0x59, 0xa8, 0x86, 0x3e,
  0xac, 0xbd, 0x09, 0x3e, 0x54, 0x19, 0xff, 0xbd, 0x64, 0xa4, 0x34, 0xbe,
  0x39, 0xdb, 0x52, 0x3e, 0x60, 0x6f, 0x44, 0x3d, 0x08, 0xd6, 0x55, 0xbe,
  0xc9, 0x6d, 0x93, 0xbe, 0x59, 0xa8, 0x86, 0x3e, 0x8f, 0xa7, 0x94, 0x3e,
  0x8f, 0xa7, 0x94, 0x3e, 0x08, 0xd6, 0x55, 0xbe, 0x91, 0xbf, 0x7c, 0x3e,
  0xa6, 0xb6, 0xb2, 0x3e, 0x3e, 0xa3, 0x9f, 0x3e, 0x0d, 0xc6, 0x1b, 0xbe,
  0x2f, 0x47, 0x17, 0x3c, 0x0d, 0xc6, 0x1b, 0xbe, 0x59, 0xa8, 0x86, 0x3e,
  0x59, 0xa8, 0x86, 0x3e, 0x39, 0xdb, 0x52, 0x3e, 0x27, 0x14, 0x83, 0xbe,
  0x96, 0x20, 0x31, 0x3e, 0x59, 0xa8, 0x86, 0x3e, 0x0d, 0xc6, 0x1b, 0xbe,
  0x60, 0x6f, 0x44, 0x3d, 0x0d, 0xc6, 0x1b, 0xbe, 0xdc, 0x7d, 0xb4, 0xbd,
  0x20, 0x97, 0xfa, 0xbc, 0x3e, 0xa3, 0x9f, 0x3e, 0x54, 0x19, 0xff, 0xbd,
  0x47, 0x64, 0xc9, 0xbe, 0x47, 0x64, 0xc9, 0xbe, 0x2f, 0x47, 0x17, 0x3c,
  0x18, 0xca, 0x92, 0x3d, 0xa6, 0xb6, 0xb2, 0x3e, 0x2f, 0x47, 0x17, 0x3c,
  0x98, 0x89, 0xd2, 0x3d, 0x8f, 0xa7, 0x94, 0x3e, 0xc1, 0xdf, 0xa1, 0xbe,
  0x18, 0xca, 0x92, 0x3d, 0x59, 0xa8, 0x86, 0x3e, 0x68, 0x0b, 0x1c, 0x3e,
  0xc1, 0xdf, 0xa1, 0xbe, 0x08, 0xd6, 0x55, 0xbe, 0x59, 0xa8, 0x86, 0x3e,
  0x68, 0x0b, 0x1c, 0x3e, 0x39, 0xdb, 0x52, 0x3e, 0x91, 0xbf, 0x7c, 0x3e,
  0x3e, 0xa3, 0x9f, 0x3e, 0x39, 0xdb, 0x52, 0x3e, 0x20, 0x97, 0xfa, 0xbc,
  0x3e, 0xa3, 0x9f, 0x3e, 0x2f, 0x47, 0x17, 0x3c, 0xc1, 0xdf, 0xa1, 0xbe,
  0x96, 0x20, 0x31, 0x3e, 0x91, 0xbf, 0x7c, 0x3e, 0x47, 0x64, 0xc9, 0xbe,
  0xaa, 0xdd, 0x07, 0x3f, 0x59, 0xa8, 0x86, 0x3e, 0x55, 0x00, 0xc2, 0x3e,
  0x54, 0x19, 0xff, 0xbd, 0x20, 0x8c, 0x65, 0xbe, 0x59, 0xa8, 0x86, 0x3e,
  0x61, 0x4c, 0x50, 0xbd, 0x60, 0x6f, 0x44, 0x3d, 0x64, 0xa4, 0x34, 0xbe,
  0x91, 0xbf, 0x7c, 0x3e, 0x18, 0xca, 0x92, 0x3d, 0x54, 0x19, 0xff, 0xbd,
  0x5d, 0x0f, 0xef, 0x3e, 0x8a, 0x76, 0x00, 0x3f, 0x60, 0x6f, 0x44, 0x3d,
  0x08, 0xd6, 0x55, 0xbe, 0x20, 0x97, 0xfa, 0xbc, 0xc1, 0xdf, 0xa1, 0xbe,
  0x3e, 0xa3, 0x9f, 0x3e, 0x8a, 0x76, 0x00, 0x3f, 0x54, 0x19, 0xff, 0xbd,
  0x3e, 0xa3, 0x9f, 0x3e, 0x0d, 0xc6, 0x1b, 0xbe, 0x27, 0x14, 0x83, 0xbe,
  0x3e, 0xa3, 0x9f, 0x3e, 0x96, 0x20, 0x31, 0x3e, 0x39, 0xdb, 0x52, 0x3e,
  0x98, 0x89, 0xd2, 0x3d, 0xa6, 0xb6, 0xb2, 0x3e, 0xd4, 0x45, 0x23, 0x3f,
  0x18, 0xca, 0x92, 0x3d, 0xc9, 0x6d, 0x93, 0xbe, 0x55, 0x00, 0xc2, 0x3e,
  0x60, 0x6f, 0x44, 0x3d, 0x61, 0x4c, 0x50, 0xbd, 0x20, 0x97, 0xfa, 0xbc,
  0x0b, 0x7e, 0xb3, 0xbe, 0x18, 0xca, 0x92, 0x3d, 0xa6, 0xb6, 0xb2, 0x3e,
  0x20, 0x97, 0xfa, 0xbc, 0x68, 0x0b, 0x1c, 0x3e, 0x47, 0x64, 0xc9, 0xbe,
  0x5d, 0x0f, 0xef, 0x3e, 0x0d, 0xc6, 0x1b, 0xbe, 0x64, 0xa4, 0x34, 0xbe,
  0x39, 0xdb, 0x52, 0x3e, 0x2f, 0x47, 0x17, 0x3c, 0x39, 0xdb, 0x52, 0x3e,
  0x68, 0x0b, 0x1c, 0x3e, 0x27, 0x14, 0x83, 0xbe, 0x2f, 0x47, 0x17, 0x3c,
  0x61, 0x4c, 0x50, 0xbd, 0x91, 0xbf, 0x7c, 0x3e, 0xc9, 0x6d, 0x93, 0xbe,
  0x39, 0xdb, 0x52, 0x3e, 0xc9, 0x6d, 0x93, 0xbe, 0xac, 0xbd, 0x09, 0x3e,
  0x95, 0xb7, 0xe2, 0xbe, 0xc1, 0xdf, 0xa1, 0xbe, 0x54, 0x19, 0xff, 0xbd,
  0xc9, 0x6d, 0x93, 0xbe, 0x60, 0x6f, 0x44, 0x3d, 0x3e, 0xa3, 0x9f, 0x3e,
  0x0d, 0xc6, 0x1b, 0xbe, 0x27, 0x14, 0x83, 0xbe, 0x64, 0xa4, 0x34, 0xbe,
  0x64, 0xa4, 0x34, 0xbe, 0x54, 0x19, 0xff, 0xbd, 0xc1, 0xdf, 0xa1, 0xbe,
  0x20, 0x97, 0xfa, 0xbc, 0x64, 0xa4, 0x34, 0xbe, 0x64, 0xa4, 0x34, 0xbe,
  0x64, 0xa4, 0x34, 0xbe, 0x0d, 0xc6, 0x1b, 0xbe, 0x2f, 0x47, 0x17, 0x3c,
  0x39, 0xdb, 0x52, 0x3e, 0x0b, 0x7e, 0xb3, 0xbe, 0x59, 0xa8, 0x86, 0x3e,
  0x96, 0x20, 0x31, 0x3e, 0x60, 0x6f, 0x44, 0x3d, 0x39, 0xdb, 0x52, 0x3e,
  0xac, 0xbd, 0x09, 0x3e, 0x60, 0x6f, 0x44, 0x3d, 0x98, 0x89, 0xd2, 0x3d,
  0x2f, 0x47, 0x17, 0x3c, 0x60, 0x6f, 0x44, 0x3d, 0xdc, 0x7d, 0xb4, 0xbd,
  0x27, 0x14, 0x83, 0xbe, 0x3e, 0xa3, 0x9f, 0x3e, 0x20, 0x97, 0xfa, 0xbc,
  0x98, 0x89, 0xd2, 0x3d, 0x20, 0x97, 0xfa, 0xbc, 0x54, 0x19, 0xff, 0xbd,
  0x98, 0x89, 0xd2, 0x3d, 0x68, 0x0b, 0x1c, 0x3e, 0x27, 0x14, 0x83, 0xbe,
  0x0b, 0x7e, 0xb3, 0xbe, 0x20, 0x8c, 0x65, 0xbe, 0x60, 0x6f, 0x44, 0x3d,
  0xa6, 0xb6, 0xb2, 0x3e, 0xc1, 0xdf, 0xa1, 0xbe, 0x47, 0x64, 0xc9, 0xbe,
  0xc1, 0xdf, 0xa1, 0xbe, 0xac, 0xbd, 0x09, 0x3e, 0x54, 0x19, 0xff, 0xbd,
  0x20, 0x8c, 0x65, 0xbe, 0x0d, 0xc6, 0x1b, 0xbe, 0x68, 0x0b, 0x1c, 0x3e,
  0x20, 0x97, 0xfa, 0xbc, 0x0b, 0x7e, 0xb3, 0xbe, 0x59, 0xa8, 0x86, 0x3e,
  0x39, 0xdb, 0x52, 0x3e, 0x64, 0xa4, 0x34, 0xbe, 0x61, 0x4c, 0x50, 0xbd,
  0x68, 0x0b, 0x1c, 0x3e, 0x20, 0x8c, 0x65, 0xbe, 0x20, 0x8c, 0x65, 0xbe,
  0x59, 0xa8, 0x86, 0x3e, 0x2f, 0x47, 0x17, 0x3c, 0xa6, 0xb6, 0xb2, 0x3e,
  0x39, 0xdb, 0x52, 0x3e, 0xc1, 0xdf, 0xa1, 0xbe, 0xa6, 0xb6, 0xb2, 0x3e,
  0x0b, 0x7e, 0xb3, 0xbe, 0x2e, 0xfd, 0xff, 0xff, 0x04, 0x00, 0x00, 0x00,
  0x80, 0x01, 0x00, 0x00, 0xdf, 0x4b, 0x93, 0xbe, 0xf2, 0x51, 0x0e, 0x3d,
  0xe3, 0x1e, 0x0a, 0xbe, 0xcb, 0x15, 0x5e, 0x3e, 0x95, 0x83, 0x4a, 0x3f,
  0xdf, 0x4b, 0x93, 0xbe, 0x9d, 0x8a, 0x02, 0x3e, 0x53, 0x19, 0xbc, 0xbe,
  0x9d, 0x8a, 0x02, 0x3e, 0x7b, 0xbd, 0x32, 0xbe, 0xdf, 0x4b, 0x93, 0xbe,
  0xf2, 0x51, 0x0e, 0x3d, 0x21, 0x73, 0x8c, 0x3e, 0x25, 0x1d, 0x8a, 0x3c,
  0xf2, 0x83, 0x87, 0xbe, 0x8b, 0xf7, 0xe6, 0x3e, 0xb5, 0x79, 0xef, 0xbe,
  0xd5, 0xb2, 0x2a, 0x3e, 0x4e, 0xd3, 0xaa, 0xbe, 0xa7, 0x44, 0xbe, 0x3e,
  0xdf, 0x4b, 0x93, 0xbe, 0x6c, 0x1c, 0x10, 0xbc, 0x39, 0xf6, 0xc7, 0x3e,
  0xcb, 0x15, 0x5e, 0x3e, 0xe3, 0x6b, 0x76, 0xbe, 0x4b, 0xe2, 0x49, 0xbd,
  0xe3, 0x1e, 0x0a, 0xbe, 0x3c, 0xab, 0xa4, 0x3e, 0x6f, 0xb9, 0x84, 0x3d,
  0x5b, 0x26, 0x5b, 0xbe, 0x7b, 0xbd, 0x32, 0xbe, 0xcb, 0x15, 0x5e, 0x3e,
  0xd5, 0xb2, 0x2a, 0x3e, 0xde, 0xba, 0xc4, 0xbe, 0x3c, 0xab, 0xa4, 0x3e,
  0x6d, 0x65, 0xcc, 0xbd, 0x6d, 0x65, 0xcc, 0xbd, 0xe3, 0x1e, 0x0a, 0xbe,
  0x77, 0x70, 0xb2, 0x3e, 0x83, 0x29, 0x9c, 0xbe, 0xa7, 0x44, 0xbe, 0x3e,
  0xde, 0xba, 0xc4, 0xbe, 0x4a, 0x9b, 0xc4, 0x3d, 0x39, 0xf6, 0xc7, 0x3e,
  0x6f, 0xb9, 0x84, 0x3d, 0x4b, 0xe2, 0x49, 0xbd, 0x21, 0x73, 0x8c, 0x3e,
  0x53, 0x19, 0xbc, 0xbe, 0x3c, 0xab, 0xa4, 0x3e, 0x9d, 0x8a, 0x02, 0x3e,
  0x4b, 0xe2, 0x49, 0xbd, 0x21, 0x73, 0x8c, 0x3e, 0x87, 0xae, 0x82, 0x3e,
  0x87, 0xae, 0x82, 0x3e, 0x21, 0x73, 0x8c, 0x3e, 0xf2, 0x51, 0x0e, 0x3d,
  0xe3, 0x1e, 0x0a, 0xbe, 0x4e, 0xd3, 0xaa, 0xbe, 0xe3, 0x1e, 0x0a, 0xbe,
  0xde, 0xba, 0xc4, 0xbe, 0x6d, 0x65, 0xcc, 0xbd, 0xcb, 0x15, 0x5e, 0x3e,
  0xf2, 0xfa, 0xd3, 0xbe, 0xdf, 0x4b, 0x93, 0xbe, 0x6c, 0x1c, 0x10, 0xbc,
  0x25, 0x1d, 0x8a, 0x3c, 0x5b, 0x26, 0x5b, 0xbe, 0x4a, 0x9b, 0xc4, 0x3d,
  0xdf, 0x4b, 0x93, 0xbe, 0x68, 0x12, 0x42, 0x3e, 0xe3, 0x1e, 0x0a, 0xbe,
  0x77, 0x70, 0xb2, 0x3e, 0x7b, 0xbd, 0x32, 0xbe, 0x9d, 0x8a, 0x02, 0x3e,
  0x4a, 0x9b, 0xc4, 0x3d, 0x83, 0x29, 0x9c, 0xbe, 0x21, 0x73, 0x8c, 0x3e,
  0x21, 0x73, 0x8c, 0x3e, 0x6c, 0x1c, 0x10, 0xbc, 0x6d, 0x65, 0xcc, 0xbd,
  0x5b, 0x26, 0x5b, 0xbe, 0x25, 0x1d, 0x8a, 0x3c, 0x8b, 0xf7, 0xe6, 0x3e,
  0xcb, 0x15, 0x5e, 0x3e, 0x53, 0x19, 0xbc, 0xbe, 0x53, 0x19, 0xbc, 0xbe,
  0xf2, 0xfa, 0xd3, 0xbe, 0xcb, 0x15, 0x5e, 0x3e, 0x33, 0x6d, 0x41, 0xbf,
  0x4e, 0xd3, 0xaa, 0xbe, 0x9d, 0x8a, 0x02, 0x3e, 0x83, 0x29, 0x9c, 0xbe,
  0x5b, 0x26, 0x5b, 0xbe, 0xe3, 0x1e, 0x0a, 0xbe, 0x4e, 0xd3, 0xaa, 0xbe,
  0x3c, 0xab, 0xa4, 0x3e, 0xba, 0xfe, 0xff, 0xff, 0x04, 0x00, 0x00, 0x00,
  0x80, 0x00, 0x00, 0x00, 0x00, 0x00, 0x00, 0x00, 0x21, 0xd0, 0x3c, 0xbd,
  0x2d, 0x04, 0xea, 0xbb, 0x00, 0x00, 0x00, 0x00, 0x88, 0x3e, 0x2e, 0xbc,
  0x0b, 0x62, 0xe4, 0xbc, 0x00, 0x00, 0x00, 0x00, 0x0a, 0xd5, 0x00, 0xbd,
  0x00, 0x00, 0x00, 0x00, 0x2a, 0xc4, 0xe6, 0xbc, 0x00, 0x00, 0x00, 0x00,
  0x00, 0x00, 0x00, 0x00, 0x00, 0x00, 0x00, 0x00, 0x00, 0x00, 0x00, 0x00,
  0x81, 0xb9, 0xbd, 0xbc, 0xab, 0x56, 0x5c, 0xbc, 0x8f, 0xa2, 0x88, 0xbb,
  0x8d, 0xe2, 0x30, 0xbc, 0x6a, 0x39, 0x9e, 0xbd, 0x00, 0x00, 0x00, 0x00,
  0x00, 0x00, 0x00, 0x00, 0x00, 0x00, 0x00, 0x00, 0x00, 0x00, 0x00, 0x00,
  0x73, 0x5f, 0x4e, 0xbc, 0x00, 0x00, 0x00, 0x00, 0x00, 0x00, 0x00, 0x00,
  0xe9, 0x4d, 0xd5, 0xbc, 0x7c, 0xe9, 0x4f, 0xbd, 0x00, 0x00, 0x00, 0x00,
  0xcf, 0x66, 0xbc, 0xbd, 0x5a, 0x59, 0x17, 0xbd, 0x00, 0x00, 0x00, 0x00,
  0x46, 0xff, 0xff, 0xff, 0x04, 0x00, 0x00, 0x00, 0x20, 0x00, 0x00, 0x00,
  0x00, 0x00, 0x00, 0x00, 0x00, 0x00, 0x00, 0x00, 0xa7, 0xc9, 0x64, 0xbc,
  0xcb, 0xde, 0x5f, 0xbc, 0x3c, 0x33, 0x3f, 0x3b, 0x49, 0x68, 0xe2, 0xba,
  0x00, 0x00, 0x00, 0x00, 0x00, 0x00, 0x00, 0x00, 0x72, 0xff, 0xff, 0xff,
  0x04, 0x00, 0x00, 0x00, 0x80, 0x00, 0x00, 0x00, 0x00, 0x00, 0x00, 0x00,
  0xbb, 0x21, 0x8a, 0x3c, 0x00, 0x00, 0x00, 0x00, 0xa4, 0x25, 0x7a, 0x3c,
  0x00, 0x00, 0x00, 0x00, 0x2d, 0x75, 0xc8, 0x3c, 0x79, 0x5c, 0xa5, 0x3c,
  0xca, 0x5d, 0x16, 0xbc, 0x0f, 0xef, 0x30, 0xbd, 0xa2, 0x2d, 0x53, 0x3b,
  0x00, 0x00, 0x00, 0x00, 0x55, 0x00, 0x0f, 0xbc, 0x09, 0xb4, 0x1d, 0xbd,
  0xb2, 0xc5, 0xcd, 0x3c, 0x9e, 0x11, 0x1b, 0x3c, 0x00, 0x00, 0x00, 0x00,
  0x32, 0xe8, 0x8d, 0x3c, 0x93, 0xfb, 0x04, 0x3c, 0x00, 0x00, 0x00, 0x00,
  0x00, 0x00, 0x00, 0x00, 0x17, 0xb3, 0x0f, 0x3c, 0x00, 0x00, 0x00, 0x00,
  0x13, 0xfb, 0x5a, 0xbd, 0x00, 0x00, 0x00, 0x00, 0x04, 0x1d, 0x61, 0xbc,
  0xf6, 0x8d, 0x52, 0x3c, 0x00, 0x00, 0x00, 0x00, 0x85, 0x95, 0x03, 0xbd,
  0x6a, 0xc4, 0x31, 0xbd, 0xbb, 0x64, 0x8e, 0xbc, 0xb2, 0xfe, 0xb2, 0x3c,
  0x00, 0x00, 0x00, 0x00, 0x00, 0x00, 0x06, 0x00, 0x08, 0x00, 0x04, 0x00,
  0x06, 0x00, 0x00, 0x00, 0x04, 0x00, 0x00, 0x00, 0x0c, 0x00, 0x00, 0x00,
  0xe4, 0x35, 0xe3, 0x3c, 0x3d, 0x45, 0x1a, 0xbc, 0x00, 0x4e, 0xf3, 0x3c,
  0xdc, 0xf9, 0xff, 0xff, 0xe0, 0xf9, 0xff, 0xff, 0x0f, 0x00, 0x00, 0x00,
  0x4d, 0x4c, 0x49, 0x52, 0x20, 0x43, 0x6f, 0x6e, 0x76, 0x65, 0x72, 0x74,
  0x65, 0x64, 0x2e, 0x00, 0x01, 0x00, 0x00, 0x00, 0x14, 0x00, 0x00, 0x00,
  0x00, 0x00, 0x0e, 0x00, 0x18, 0x00, 0x14, 0x00, 0x10, 0x00, 0x0c, 0x00,
  0x08, 0x00, 0x04, 0x00, 0x0e, 0x00, 0x00, 0x00, 0x14, 0x00, 0x00, 0x00,
  0x1c, 0x00, 0x00, 0x00, 0x24, 0x01, 0x00, 0x00, 0x28, 0x01, 0x00, 0x00,
  0x2c, 0x01, 0x00, 0x00, 0x04, 0x00, 0x00, 0x00, 0x6d, 0x61, 0x69, 0x6e,
  0x00, 0x00, 0x00, 0x00, 0x04, 0x00, 0x00, 0x00, 0xc8, 0x00, 0x00, 0x00,
  0x80, 0x00, 0x00, 0x00, 0x48, 0x00, 0x00, 0x00, 0x04, 0x00, 0x00, 0x00,
  0x56, 0xff, 0xff, 0xff, 0x1c, 0x00, 0x00, 0x00, 0x00, 0x00, 0x00, 0x08,
  0x1c, 0x00, 0x00, 0x00, 0x20, 0x00, 0x00, 0x00, 0x00, 0x00, 0x0a, 0x00,
  0x08, 0x00, 0x00, 0x00, 0x00, 0x00, 0x07, 0x00, 0x0a, 0x00, 0x00, 0x00,
  0x00, 0x00, 0x00, 0x01, 0x01, 0x00, 0x00, 0x00, 0x0c, 0x00, 0x00, 0x00,
  0x03, 0x00, 0x00, 0x00, 0x0b, 0x00, 0x00, 0x00, 0x08, 0x00, 0x00, 0x00,
  0x01, 0x00, 0x00, 0x00, 0x96, 0xff, 0xff, 0xff, 0x10, 0x00, 0x00, 0x00,
  0x00, 0x00, 0x00, 0x08, 0x10, 0x00, 0x00, 0x00, 0x14, 0x00, 0x00, 0x00,
  0x86, 0xff, 0xff, 0xff, 0x00, 0x00, 0x01, 0x01, 0x01, 0x00, 0x00, 0x00,
  0x0b, 0x00, 0x00, 0x00, 0x03, 0x00, 0x00, 0x00, 0x0a, 0x00, 0x00, 0x00,
  0x07, 0x00, 0x00, 0x00, 0x02, 0x00, 0x00, 0x00, 0xca, 0xff, 0xff, 0xff,
  0x10, 0x00, 0x00, 0x00, 0x00, 0x00, 0x00, 0x08, 0x10, 0x00, 0x00, 0x00,
  0x14, 0x00, 0x00, 0x00, 0xba, 0xff, 0xff, 0xff, 0x00, 0x00, 0x01, 0x01,
  0x01, 0x00, 0x00, 0x00, 0x0a, 0x00, 0x00, 0x00, 0x03, 0x00, 0x00, 0x00,
  0x09, 0x00, 0x00, 0x00, 0x06, 0x00, 0x00, 0x00, 0x03, 0x00, 0x00, 0x00,
  0x00, 0x00, 0x0e, 0x00, 0x16, 0x00, 0x00, 0x00, 0x10, 0x00, 0x0c, 0x00,
  0x0b, 0x00, 0x04, 0x00, 0x0e, 0x00, 0x00, 0x00, 0x1c, 0x00, 0x00, 0x00,
  0x00, 0x00, 0x00, 0x08, 0x1c, 0x00, 0x00, 0x00, 0x20, 0x00, 0x00, 0x00,
  0x00, 0x00, 0x0a, 0x00, 0x08, 0x00, 0x07, 0x00, 0x00, 0x00, 0x06, 0x00,
  0x0a, 0x00, 0x00, 0x00, 0x00, 0x00, 0x01, 0x01, 0x01, 0x00, 0x00, 0x00,
  0x09, 0x00, 0x00, 0x00, 0x03, 0x00, 0x00, 0x00, 0x00, 0x00, 0x00, 0x00,
  0x05, 0x00, 0x00, 0x00, 0x04, 0x00, 0x00, 0x00, 0x01, 0x00, 0x00, 0x00,
  0x0c, 0x00, 0x00, 0x00, 0x01, 0x00, 0x00, 0x00, 0x00, 0x00, 0x00, 0x00,
  0x0d, 0x00, 0x00, 0x00, 0x98, 0x04, 0x00, 0x00, 0x34, 0x04, 0x00, 0x00,
  0xe0, 0x03, 0x00, 0x00, 0x8c, 0x03, 0x00, 0x00, 0x38, 0x03, 0x00, 0x00,
  0xe4, 0x02, 0x00, 0x00, 0x90, 0x02, 0x00, 0x00, 0x3c, 0x02, 0x00, 0x00,
  0xe8, 0x01, 0x00, 0x00, 0x60, 0x01, 0x00, 0x00, 0xd8, 0x00, 0x00, 0x00,
  0x50, 0x00, 0x00, 0x00, 0x04, 0x00, 0x00, 0x00, 0xaa, 0xfb, 0xff, 0xff,
  0x10, 0x00, 0x00, 0x00, 0x10, 0x00, 0x00, 0x00, 0x0d, 0x00, 0x00, 0x00,
  0x28, 0x00, 0x00, 0x00, 0x9c, 0xfb, 0xff, 0xff, 0x19, 0x00, 0x00, 0x00,
  0x53, 0x74, 0x61, 0x74, 0x65, 0x66, 0x75, 0x6c, 0x50, 0x61, 0x72, 0x74,
  0x69, 0x74, 0x69, 0x6f, 0x6e, 0x65, 0x64, 0x43, 0x61, 0x6c, 0x6c, 0x3a,
  0x30, 0x00, 0x00, 0x00, 0x03, 0x00, 0x00, 0x00, 0x01, 0x00, 0x00, 0x00,
  0x0f, 0x00, 0x00, 0x00, 0x03, 0x00, 0x00, 0x00, 0xf2, 0xfb, 0xff, 0xff,
  0x10, 0x00, 0x00, 0x00, 0x10, 0x00, 0x00, 0x00, 0x0c, 0x00, 0x00, 0x00,
  0x64, 0x00, 0x00, 0x00, 0xe4, 0xfb, 0xff, 0xff, 0x55, 0x00, 0x00, 0x00,
  0x73, 0x65, 0x71, 0x75, 0x65, 0x6e, 0x74, 0x69, 0x61, 0x6c, 0x5f, 0x31,
  0x2f, 0x64, 0x65, 0x6e, 0x73, 0x65, 0x5f, 0x35, 0x2f, 0x54, 0x65, 0x6e,
  0x73, 0x6f, 0x72, 0x64, 0x6f, 0x74, 0x3b, 0x73, 0x65, 0x71, 0x75, 0x65,
  0x6e, 0x74, 0x69, 0x61, 0x6c, 0x5f, 0x31, 0x2f, 0x64, 0x65, 0x6e, 0x73,
  0x65, 0x5f, 0x35, 0x2f, 0x52, 0x65, 0x6c, 0x75, 0x3b, 0x73, 0x65, 0x71,
  0x75, 0x65, 0x6e, 0x74, 0x69, 0x61, 0x6c, 0x5f, 0x31, 0x2f, 0x64, 0x65,
  0x6e, 0x73, 0x65, 0x5f, 0x35, 0x2f, 0x42, 0x69, 0x61, 0x73, 0x41, 0x64,
  0x64, 0x00, 0x00, 0x00, 0x03, 0x00, 0x00, 0x00, 0x01, 0x00, 0x00, 0x00,
  0x0f, 0x00, 0x00, 0x00, 0x20, 0x00, 0x00, 0x00, 0x76, 0xfc, 0xff, 0xff,
  0x10, 0x00, 0x00, 0x00, 0x10, 0x00, 0x00, 0x00, 0x0b, 0x00, 0x00, 0x00,
  0x64, 0x00, 0x00, 0x00, 0x68, 0xfc, 0xff, 0xff, 0x55, 0x00, 0x00, 0x00,
  0x73, 0x65, 0x71, 0x75, 0x65, 0x6e, 0x74, 0x69, 0x61, 0x6c, 0x5f, 0x31,
  0x2f, 0x64, 0x65, 0x6e, 0x73, 0x65, 0x5f, 0x34, 0x2f, 0x54, 0x65, 0x6e,
  0x73, 0x6f, 0x72, 0x64, 0x6f, 0x74, 0x3b, 0x73, 0x65, 0x71, 0x75, 0x65,
  0x6e, 0x74, 0x69, 0x61, 0x6c, 0x5f, 0x31, 0x2f, 0x64, 0x65, 0x6e, 0x73,
  0x65, 0x5f, 0x34, 0x2f, 0x52, 0x65, 0x6c, 0x75, 0x3b, 0x73, 0x65, 0x71,
  0x75, 0x65, 0x6e, 0x74, 0x69, 0x61, 0x6c, 0x5f, 0x31, 0x2f, 0x64, 0x65,
  0x6e, 0x73, 0x65, 0x5f, 0x34, 0x2f, 0x42, 0x69, 0x61, 0x73, 0x41, 0x64,
  0x64, 0x00, 0x00, 0x00, 0x03, 0x00, 0x00, 0x00, 0x01, 0x00, 0x00, 0x00,
  0x0f, 0x00, 0x00, 0x00, 0x08, 0x00, 0x00, 0x00, 0xfa, 0xfc, 0xff, 0xff,
  0x10, 0x00, 0x00, 0x00, 0x10, 0x00, 0x00, 0x00, 0x0a, 0x00, 0x00, 0x00,
  0x64, 0x00, 0x00, 0x00, 0xec, 0xfc, 0xff, 0xff, 0x55, 0x00, 0x00, 0x00,
  0x73, 0x65, 0x71, 0x75, 0x65, 0x6e, 0x74, 0x69, 0x61, 0x6c, 0x5f, 0x31,
  0x2f, 0x64, 0x65, 0x6e, 0x73, 0x65, 0x5f, 0x33, 0x2f, 0x54, 0x65, 0x6e,
  0x73, 0x6f, 0x72, 0x64, 0x6f, 0x74, 0x3b, 0x73, 0x65, 0x71, 0x75, 0x65,
  0x6e, 0x74, 0x69, 0x61, 0x6c, 0x5f, 0x31, 0x2f, 0x64, 0x65, 0x6e, 0x73,
  0x65, 0x5f, 0x33, 0x2f, 0x52, 0x65, 0x6c, 0x75, 0x3b, 0x73, 0x65, 0x71,
  0x75, 0x65, 0x6e, 0x74, 0x69, 0x61, 0x6c, 0x5f, 0x31, 0x2f, 0x64, 0x65,
  0x6e, 0x73, 0x65, 0x5f, 0x33, 0x2f, 0x42, 0x69, 0x61, 0x73, 0x41, 0x64,
  0x64, 0x00, 0x00, 0x00, 0x03, 0x00, 0x00, 0x00, 0x01, 0x00, 0x00, 0x00,
  0x0f, 0x00, 0x00, 0x00, 0x20, 0x00, 0x00, 0x00, 0x7e, 0xfd, 0xff, 0xff,
  0x10, 0x00, 0x00, 0x00, 0x10, 0x00, 0x00, 0x00, 0x09, 0x00, 0x00, 0x00,
  0x34, 0x00, 0x00, 0x00, 0x70, 0xfd, 0xff, 0xff, 0x24, 0x00, 0x00, 0x00,
  0x73, 0x65, 0x71, 0x75, 0x65, 0x6e, 0x74, 0x69, 0x61, 0x6c, 0x5f, 0x31,
  0x2f, 0x6f, 0x75, 0x74, 0x70, 0x75, 0x74, 0x2f, 0x54, 0x65, 0x6e, 0x73,
  0x6f, 0x72, 0x64, 0x6f, 0x74, 0x2f, 0x4d, 0x61, 0x74, 0x4d, 0x75, 0x6c,
  0x00, 0x00, 0x00, 0x00, 0x02, 0x00, 0x00, 0x00, 0x03, 0x00, 0x00, 0x00,
  0x20, 0x00, 0x00, 0x00, 0xce, 0xfd, 0xff, 0xff, 0x10, 0x00, 0x00, 0x00,
  0x10, 0x00, 0x00, 0x00, 0x08, 0x00, 0x00, 0x00, 0x34, 0x00, 0x00, 0x00,
  0xc0, 0xfd, 0xff, 0xff, 0x25, 0x00, 0x00, 0x00, 0x73, 0x65, 0x71, 0x75,
  0x65, 0x6e, 0x74, 0x69, 0x61, 0x6c, 0x5f, 0x31, 0x2f, 0x64, 0x65, 0x6e,
  0x73, 0x65, 0x5f, 0x35, 0x2f, 0x54, 0x65, 0x6e, 0x73, 0x6f, 0x72, 0x64,
  0x6f, 0x74, 0x2f, 0x4d, 0x61, 0x74, 0x4d, 0x75, 0x6c, 0x00, 0x00, 0x00,
  0x02, 0x00, 0x00, 0x00, 0x20, 0x00, 0x00, 0x00, 0x08, 0x00, 0x00, 0x00,
  0x1e, 0xfe, 0xff, 0xff, 0x10, 0x00, 0x00, 0x00, 0x10, 0x00, 0x00, 0x00,
  0x07, 0x00, 0x00, 0x00, 0x34, 0x00, 0x00, 0x00, 0x10, 0xfe, 0xff, 0xff,
  0x25, 0x00, 0x00, 0x00, 0x73, 0x65, 0x71, 0x75, 0x65, 0x6e, 0x74, 0x69,
  0x61, 0x6c, 0x5f, 0x31, 0x2f, 0x64, 0x65, 0x6e, 0x73, 0x65, 0x5f, 0x34,
  0x2f, 0x54, 0x65, 0x6e, 0x73, 0x6f, 0x72, 0x64, 0x6f, 0x74, 0x2f, 0x4d,
  0x61, 0x74, 0x4d, 0x75, 0x6c, 0x00, 0x00, 0x00, 0x02, 0x00, 0x00, 0x00,
  0x08, 0x00, 0x00, 0x00, 0x20, 0x00, 0x00, 0x00, 0x6e, 0xfe, 0xff, 0xff,
  0x10, 0x00, 0x00, 0x00, 0x10, 0x00, 0x00, 0x00, 0x06, 0x00, 0x00, 0x00,
  0x34, 0x00, 0x00, 0x00, 0x60, 0xfe, 0xff, 0xff, 0x25, 0x00, 0x00, 0x00,
  0x73, 0x65, 0x71, 0x75, 0x65, 0x6e, 0x74, 0x69, 0x61, 0x6c, 0x5f, 0x31,
  0x2f, 0x64, 0x65, 0x6e, 0x73, 0x65, 0x5f, 0x33, 0x2f, 0x54, 0x65, 0x6e,
  0x73, 0x6f, 0x72, 0x64, 0x6f, 0x74, 0x2f, 0x4d, 0x61, 0x74, 0x4d, 0x75,
  0x6c, 0x00, 0x00, 0x00, 0x02, 0x00, 0x00, 0x00, 0x20, 0x00, 0x00, 0x00,
  0x03, 0x00, 0x00, 0x00, 0xbe, 0xfe, 0xff, 0xff, 0x10, 0x00, 0x00, 0x00,
  0x10, 0x00, 0x00, 0x00, 0x05, 0x00, 0x00, 0x00, 0x38, 0x00, 0x00, 0x00,
  0xb0, 0xfe, 0xff, 0xff, 0x2b, 0x00, 0x00, 0x00, 0x73, 0x65, 0x71, 0x75,
  0x65, 0x6e, 0x74, 0x69, 0x61, 0x6c, 0x5f, 0x31, 0x2f, 0x64, 0x65, 0x6e,
  0x73, 0x65, 0x5f, 0x33, 0x2f, 0x42, 0x69, 0x61, 0x73, 0x41, 0x64, 0x64,
  0x2f, 0x52, 0x65, 0x61, 0x64, 0x56, 0x61, 0x72, 0x69, 0x61, 0x62, 0x6c,
  0x65, 0x4f, 0x70, 0x00, 0x01, 0x00, 0x00, 0x00, 0x20, 0x00, 0x00, 0x00,
  0x0e, 0xff, 0xff, 0xff, 0x10, 0x00, 0x00, 0x00, 0x10, 0x00, 0x00, 0x00,
  0x04, 0x00, 0x00, 0x00, 0x38, 0x00, 0x00, 0x00, 0x00, 0xff, 0xff, 0xff,
  0x2b, 0x00, 0x00, 0x00, 0x73, 0x65, 0x71, 0x75, 0x65, 0x6e, 0x74, 0x69,
  0x61, 0x6c, 0x5f, 0x31, 0x2f, 0x64, 0x65, 0x6e, 0x73, 0x65, 0x5f, 0x34,
  0x2f, 0x42, 0x69, 0x61, 0x73, 0x41, 0x64, 0x64, 0x2f, 0x52, 0x65, 0x61,
  0x64, 0x56, 0x61, 0x72, 0x69, 0x61, 0x62, 0x6c, 0x65, 0x4f, 0x70, 0x00,
  0x01, 0x00, 0x00, 0x00, 0x08, 0x00, 0x00, 0x00, 0x5e, 0xff, 0xff, 0xff,
  0x10, 0x00, 0x00, 0x00, 0x10, 0x00, 0x00, 0x00, 0x03, 0x00, 0x00, 0x00,
  0x38, 0x00, 0x00, 0x00, 0x50, 0xff, 0xff, 0xff, 0x2b, 0x00, 0x00, 0x00,
  0x73, 0x65, 0x71, 0x75, 0x65, 0x6e, 0x74, 0x69, 0x61, 0x6c, 0x5f, 0x31,
  0x2f, 0x64, 0x65, 0x6e, 0x73, 0x65, 0x5f, 0x35, 0x2f, 0x42, 0x69, 0x61,
  0x73, 0x41, 0x64, 0x64, 0x2f, 0x52, 0x65, 0x61, 0x64, 0x56, 0x61, 0x72,
  0x69, 0x61, 0x62, 0x6c, 0x65, 0x4f, 0x70, 0x00, 0x01, 0x00, 0x00, 0x00,
  0x20, 0x00, 0x00, 0x00, 0xae, 0xff, 0xff, 0xff, 0x10, 0x00, 0x00, 0x00,
  0x10, 0x00, 0x00, 0x00, 0x02, 0x00, 0x00, 0x00, 0x38, 0x00, 0x00, 0x00,
  0xa0, 0xff, 0xff, 0xff, 0x2a, 0x00, 0x00, 0x00, 0x73, 0x65, 0x71, 0x75,
  0x65, 0x6e, 0x74, 0x69, 0x61, 0x6c, 0x5f, 0x31, 0x2f, 0x6f, 0x75, 0x74,
  0x70, 0x75, 0x74, 0x2f, 0x42, 0x69, 0x61, 0x73, 0x41, 0x64, 0x64, 0x2f,
  0x52, 0x65, 0x61, 0x64, 0x56, 0x61, 0x72, 0x69, 0x61, 0x62, 0x6c, 0x65,
  0x4f, 0x70, 0x00, 0x00, 0x01, 0x00, 0x00, 0x00, 0x03, 0x00, 0x00, 0x00,
  0x00, 0x00, 0x0e, 0x00, 0x14, 0x00, 0x10, 0x00, 0x00, 0x00, 0x0c, 0x00,
  0x08, 0x00, 0x04, 0x00, 0x0e, 0x00, 0x00, 0x00, 0x14, 0x00, 0x00, 0x00,
  0x14, 0x00, 0x00, 0x00, 0x01, 0x00, 0x00, 0x00, 0x24, 0x00, 0x00, 0x00,
  0x04, 0x00, 0x04, 0x00, 0x04, 0x00, 0x00, 0x00, 0x13, 0x00, 0x00, 0x00,
  0x73, 0x65, 0x72, 0x76, 0x69, 0x6e, 0x67, 0x5f, 0x64, 0x65, 0x66, 0x61,
  0x75, 0x6c, 0x74, 0x5f, 0x78, 0x3a, 0x30, 0x00, 0x03, 0x00, 0x00, 0x00,
  0x01, 0x00, 0x00, 0x00, 0x0f, 0x00, 0x00, 0x00, 0x03, 0x00, 0x00, 0x00,
  0x01, 0x00, 0x00, 0x00, 0x10, 0x00, 0x00, 0x00, 0x0c, 0x00, 0x10, 0x00,
  0x0f, 0x00, 0x00, 0x00, 0x08, 0x00, 0x04, 0x00, 0x0c, 0x00, 0x00, 0x00,
  0x09, 0x00, 0x00, 0x00, 0x05, 0x00, 0x00, 0x00, 0x00, 0x00, 0x00, 0x09
 
};

#endif //C_MODEL4_CLUST_H