#ifndef C_MODEL4_PRUNE_H
#define C_MODEL4_PRUNE_H


unsigned int c_model4_prune_len = 5352;
unsigned char c_model4_prune[] = {
 0x1c, 0x00, 0x00, 0x00, 0x54, 0x46, 0x4c, 0x33, 0x14, 0x00, 0x20, 0x00,
  0x1c, 0x00, 0x18, 0x00, 0x14, 0x00, 0x10, 0x00, 0x0c, 0x00, 0x00, 0x00,
  0x08, 0x00, 0x04, 0x00, 0x14, 0x00, 0x00, 0x00, 0x1c, 0x00, 0x00, 0x00,
  0x8c, 0x00, 0x00, 0x00, 0xe4, 0x00, 0x00, 0x00, 0x4c, 0x0e, 0x00, 0x00,
  0x5c, 0x0e, 0x00, 0x00, 0x90, 0x14, 0x00, 0x00, 0x03, 0x00, 0x00, 0x00,
  0x01, 0x00, 0x00, 0x00, 0x10, 0x00, 0x00, 0x00, 0x00, 0x00, 0x0a, 0x00,
  0x10, 0x00, 0x0c, 0x00, 0x08, 0x00, 0x04, 0x00, 0x0a, 0x00, 0x00, 0x00,
  0x0c, 0x00, 0x00, 0x00, 0x1c, 0x00, 0x00, 0x00, 0x3c, 0x00, 0x00, 0x00,
  0x0f, 0x00, 0x00, 0x00, 0x73, 0x65, 0x72, 0x76, 0x69, 0x6e, 0x67, 0x5f,
  0x64, 0x65, 0x66, 0x61, 0x75, 0x6c, 0x74, 0x00, 0x01, 0x00, 0x00, 0x00,
  0x04, 0x00, 0x00, 0x00, 0x9c, 0xff, 0xff, 0xff, 0x0c, 0x00, 0x00, 0x00,
  0x04, 0x00, 0x00, 0x00, 0x08, 0x00, 0x00, 0x00, 0x6f, 0x75, 0x74, 0x70,
  0x75, 0x74, 0x5f, 0x30, 0x00, 0x00, 0x00, 0x00, 0x01, 0x00, 0x00, 0x00,
  0x04, 0x00, 0x00, 0x00, 0x4e, 0xf2, 0xff, 0xff, 0x04, 0x00, 0x00, 0x00,
  0x01, 0x00, 0x00, 0x00, 0x78, 0x00, 0x00, 0x00, 0x02, 0x00, 0x00, 0x00,
  0x34, 0x00, 0x00, 0x00, 0x04, 0x00, 0x00, 0x00, 0xdc, 0xff, 0xff, 0xff,
  0x0f, 0x00, 0x00, 0x00, 0x04, 0x00, 0x00, 0x00, 0x13, 0x00, 0x00, 0x00,
  0x43, 0x4f, 0x4e, 0x56, 0x45, 0x52, 0x53, 0x49, 0x4f, 0x4e, 0x5f, 0x4d,
  0x45, 0x54, 0x41, 0x44, 0x41, 0x54, 0x41, 0x00, 0x08, 0x00, 0x0c, 0x00,
  0x08, 0x00, 0x04, 0x00, 0x08, 0x00, 0x00, 0x00, 0x0e, 0x00, 0x00, 0x00,
  0x04, 0x00, 0x00, 0x00, 0x13, 0x00, 0x00, 0x00, 0x6d, 0x69, 0x6e, 0x5f,
  0x72, 0x75, 0x6e, 0x74, 0x69, 0x6d, 0x65, 0x5f, 0x76, 0x65, 0x72, 0x73,
  0x69, 0x6f, 0x6e, 0x00, 0x10, 0x00, 0x00, 0x00, 0x64, 0x0d, 0x00, 0x00,
  0x5c, 0x0d, 0x00, 0x00, 0x40, 0x0d, 0x00, 0x00, 0xa8, 0x0c, 0x00, 0x00,
  0x78, 0x0c, 0x00, 0x00, 0xe8, 0x0b, 0x00, 0x00, 0x58, 0x0a, 0x00, 0x00,
  0x48, 0x06, 0x00, 0x00, 0x38, 0x02, 0x00, 0x00, 0xa8, 0x00, 0x00, 0x00,
  0xa0, 0x00, 0x00, 0x00, 0x98, 0x00, 0x00, 0x00, 0x90, 0x00, 0x00, 0x00,
  0x88, 0x00, 0x00, 0x00, 0x68, 0x00, 0x00, 0x00, 0x04, 0x00, 0x00, 0x00,
  0xfe, 0xf2, 0xff, 0xff, 0x04, 0x00, 0x00, 0x00, 0x54, 0x00, 0x00, 0x00,
  0x0c, 0x00, 0x00, 0x00, 0x08, 0x00, 0x0e, 0x00, 0x08, 0x00, 0x04, 0x00,
  0x08, 0x00, 0x00, 0x00, 0x10, 0x00, 0x00, 0x00, 0x24, 0x00, 0x00, 0x00,
  0x00, 0x00, 0x06, 0x00, 0x08, 0x00, 0x04, 0x00, 0x06, 0x00, 0x00, 0x00,
  0x04, 0x00, 0x00, 0x00, 0x00, 0x00, 0x00, 0x00, 0x00, 0x00, 0x0a, 0x00,
  0x10, 0x00, 0x0c, 0x00, 0x08, 0x00, 0x04, 0x00, 0x0a, 0x00, 0x00, 0x00,
  0x01, 0x00, 0x00, 0x00, 0x02, 0x00, 0x00, 0x00, 0x04, 0x00, 0x00, 0x00,
  0x05, 0x00, 0x00, 0x00, 0x32, 0x2e, 0x39, 0x2e, 0x31, 0x00, 0x00, 0x00,
  0x5e, 0xf3, 0xff, 0xff, 0x04, 0x00, 0x00, 0x00, 0x10, 0x00, 0x00, 0x00,
  0x32, 0x2e, 0x30, 0x2e, 0x30, 0x00, 0x00, 0x00, 0x00, 0x00, 0x00, 0x00,
  0x00, 0x00, 0x00, 0x00, 0x38, 0xed, 0xff, 0xff, 0x3c, 0xed, 0xff, 0xff,
  0x40, 0xed, 0xff, 0xff, 0x44, 0xed, 0xff, 0xff, 0x8a, 0xf3, 0xff, 0xff,
  0x04, 0x00, 0x00, 0x00, 0x80, 0x01, 0x00, 0x00, 0xb7, 0x63, 0xac, 0x3e,
  0xc5, 0x3e, 0xbd, 0x3e, 0x7e, 0x6d, 0xd4, 0x3e, 0x45, 0xd1, 0x01, 0x3d,
  0x59, 0x1e, 0xcf, 0x3e, 0x9a, 0x53, 0x06, 0xbe, 0x4c, 0x50, 0x94, 0xbd,
  0xe8, 0x18, 0x69, 0xbd, 0x53, 0xc7, 0xcb, 0x3e, 0x8d, 0xc2, 0x88, 0xbe,
  0xdc, 0xf6, 0xa6, 0x3e, 0x35, 0x54, 0xc1, 0xbe, 0xc8, 0x08, 0x3a, 0x3d,
  0x85, 0xde, 0xa5, 0x3e, 0xa2, 0xa0, 0x38, 0x3e, 0x15, 0x02, 0x4d, 0x3e,
  0x38, 0x89, 0x7c, 0x3e, 0x9b, 0x7e, 0xa6, 0x3e, 0x4b, 0x4f, 0x6c, 0x3d,
  0x39, 0x35, 0xb4, 0x3d, 0x02, 0x4a, 0x1e, 0xbe, 0x0b, 0x1b, 0xb9, 0x3e,
  0x52, 0xaf, 0x32, 0x3e, 0xc0, 0xca, 0x1b, 0xbe, 0xce, 0xd8, 0xd8, 0x3d,
  0x7e, 0x8f, 0x8c, 0x3d, 0x31, 0x44, 0x82, 0x3e, 0x26, 0xe3, 0xda, 0x3e,
  0x8c, 0x15, 0x34, 0x3c, 0x11, 0xe4, 0xc3, 0x3e, 0x62, 0x55, 0x49, 0x3e,
  0xe0, 0x21, 0x57, 0x3c, 0x98, 0xc2, 0x6d, 0x3d, 0x64, 0x41, 0x4c, 0xbe,
  0xc6, 0x96, 0xb7, 0x3c, 0x1a, 0x8f, 0x83, 0xbe, 0x8f, 0x0c, 0x8e, 0xbe,
  0xc0, 0xeb, 0x01, 0xbc, 0xdc, 0x85, 0xa6, 0xbe, 0x56, 0xfb, 0x6b, 0x3e,
  0x58, 0x2d, 0xc8, 0xbd, 0x29, 0x8c, 0x8c, 0x3e, 0x75, 0x58, 0xc6, 0xbe,
  0x8f, 0x8b, 0x86, 0x3e, 0xb1, 0x5f, 0xa7, 0x3e, 0x56, 0x72, 0x6a, 0x3e,
  0xa2, 0x3b, 0xbd, 0x3e, 0xb6, 0x06, 0x0b, 0x3b, 0xad, 0xc7, 0x21, 0x3e,
  0x31, 0x2a, 0xd0, 0x3e, 0x01, 0x8c, 0xc3, 0x3d, 0xad, 0xde, 0x15, 0xbe,
  0x0f, 0x8b, 0x5d, 0xbe, 0xae, 0xbc, 0x8d, 0xbe, 0x0b, 0x6a, 0xb1, 0x3e,
  0x76, 0xa6, 0x1a, 0x3e, 0x3c, 0xd0, 0x96, 0xbe, 0xa1, 0xe0, 0xb4, 0xbd,
  0x99, 0xe8, 0x63, 0xbe, 0x91, 0x13, 0xc4, 0xbd, 0x9a, 0x18, 0x8f, 0x3e,
  0x65, 0xcf, 0xa9, 0x3d, 0x9d, 0x33, 0x7c, 0xbe, 0x3a, 0xad, 0x36, 0x3e,
  0x1c, 0x7c, 0x82, 0xbe, 0x57, 0x89, 0x9e, 0x3e, 0x6c, 0x4b, 0x78, 0xbe,
  0xa2, 0xed, 0x54, 0xbe, 0x56, 0xe5, 0x36, 0x3e, 0x1f, 0xa1, 0xb9, 0x3e,
  0xf8, 0x3d, 0x30, 0xbe, 0x53, 0x81, 0xc1, 0x3e, 0x05, 0xf3, 0x64, 0xbe,
  0x31, 0xf5, 0x13, 0x3f, 0x79, 0x74, 0xde, 0x3d, 0x98, 0x77, 0x14, 0xbe,
  0x90, 0x87, 0xe2, 0x3c, 0xe4, 0xf4, 0x9f, 0xbe, 0x58, 0x19, 0xc9, 0x3d,
  0xdd, 0xf0, 0x43, 0x3e, 0x53, 0x3d, 0x89, 0xbe, 0x45, 0xd2, 0xa4, 0xbe,
  0xe3, 0xd9, 0xa5, 0x3d, 0x2f, 0x4c, 0xc7, 0x3e, 0x02, 0x80, 0x4c, 0x3e,
  0x04, 0x93, 0xf6, 0x3c, 0xda, 0x8f, 0x3a, 0x3e, 0x63, 0x1e, 0x85, 0x3e,
  0x7c, 0xcb, 0x12, 0x3e, 0xdc, 0x14, 0xe9, 0x3e, 0xd6, 0x7c, 0x53, 0x3e,
  0x93, 0x20, 0x46, 0xbe, 0x12, 0xcd, 0x9c, 0x3d, 0x14, 0x5d, 0x04, 0xbe,
  0xdd, 0x3e, 0x2e, 0xbe, 0x36, 0xaf, 0x1a, 0xbe, 0x16, 0xf5, 0xff, 0xff,
  0x04, 0x00, 0x00, 0x00, 0x00, 0x04, 0x00, 0x00, 0x0a, 0x39, 0x01, 0xbe,
  0x77, 0x60, 0xc2, 0xbe, 0xa0, 0xfe, 0xbe, 0xbe, 0x40, 0x73, 0x78, 0x3e,
  0x6e, 0x0e, 0xb0, 0xbe, 0x6a, 0xd7, 0xbe, 0x3e, 0xd5, 0xcd, 0x51, 0xbe,
  0xc0, 0xbb, 0x97, 0xbd, 0xf0, 0xc6, 0x9a, 0xbd, 0x9d, 0xb8, 0x76, 0xbe,
  0xd4, 0x24, 0x87, 0x3e, 0xb6, 0xae, 0x99, 0xbe, 0xa4, 0x03, 0xae, 0xbd,
  0xf4, 0x41, 0x5f, 0x3e, 0x18, 0xe6, 0x2e, 0xbd, 0x57, 0xca, 0x72, 0xbe,
  0xaa, 0x25, 0x90, 0xbe, 0x39, 0x35, 0xbe, 0x3d, 0x4a, 0x76, 0x14, 0xbe,
  0xd0, 0xaf, 0xf8, 0x3d, 0xf0, 0x7d, 0x88, 0xbe, 0x88, 0x3e, 0xc1, 0xbd,
  0xdf, 0xfc, 0xad, 0x3d, 0x95, 0xa7, 0xee, 0x3e, 0x88, 0x96, 0x6f, 0x3e,
  0x4a, 0xaa, 0x27, 0x3d, 0x70, 0x52, 0x58, 0xbd, 0x88, 0x6e, 0x2c, 0xbd,
  0x69, 0xee, 0xbd, 0x3e, 0xbe, 0xd9, 0x5d, 0xbe, 0x49, 0xba, 0x8c, 0x3e,
  0xe7, 0xad, 0xcc, 0xbe, 0x80, 0x23, 0x46, 0xbd, 0xd8, 0x7f, 0x43, 0xbd,
  0x00, 0x84, 0xbe, 0x3e, 0x88, 0x0a, 0x62, 0x3d, 0xc7, 0x93, 0x49, 0xbe,
  0x08, 0x84, 0x02, 0xbe, 0x00, 0x28, 0xc1, 0x3b, 0xc6, 0x24, 0xb6, 0xbe,
  0xeb, 0x21, 0x17, 0xbe, 0x0c, 0xa5, 0x01, 0xbe, 0xb0, 0x9d, 0x5b, 0x3e,
  0x70, 0xf9, 0xb3, 0x3e, 0x7c, 0x96, 0x7c, 0x3e, 0x46, 0x06, 0x0b, 0xbe,
  0xe7, 0x05, 0xbd, 0xbe, 0xe8, 0x89, 0xe0, 0xbd, 0x64, 0xa6, 0xaf, 0x3e,
  0xaf, 0x07, 0xf6, 0x3d, 0x90, 0xad, 0x5f, 0x3d, 0x0f, 0xeb, 0xb9, 0xbe,
  0xbe, 0x92, 0x7d, 0x3e, 0x6e, 0xad, 0x97, 0xbe, 0x75, 0xca, 0x71, 0x3e,
  0xbf, 0x69, 0x07, 0x3e, 0x04, 0x2f, 0x55, 0x3e, 0x0c, 0x98, 0x84, 0xbe,
  0x40, 0xd6, 0x8b, 0xbe, 0xe5, 0xd6, 0x4d, 0xbe, 0x8c, 0xee, 0xa4, 0xbd,
  0x05, 0xc7, 0xac, 0xbe, 0x78, 0x28, 0x65, 0x3e, 0x2e, 0x98, 0x1a, 0xbe,
  0x98, 0x43, 0x9b, 0x3e, 0x20, 0xdf, 0x9d, 0xbe, 0xd7, 0x19, 0xa7, 0xbe,
  0x94, 0x26, 0x8e, 0x3e, 0x19, 0xac, 0x9c, 0xbe, 0xa0, 0xc9, 0x93, 0xbd,
  0xb0, 0x1e, 0x0a, 0xbd, 0x91, 0x53, 0x86, 0xbe, 0xd0, 0xf4, 0xb4, 0x3e,
  0x70, 0x7c, 0x7a, 0x3e, 0x20, 0x08, 0x83, 0x3e, 0x80, 0x2c, 0x00, 0x3d,
  0x27, 0xf2, 0x4a, 0xbe, 0x46, 0xbe, 0xac, 0x3e, 0x26, 0x0e, 0x15, 0x3d,
  0x91, 0xa6, 0x8b, 0xbe, 0x10, 0x81, 0x1d, 0x3d, 0x03, 0x95, 0xe9, 0x3e,
  0xe0, 0xbc, 0xb7, 0x3e, 0x68, 0xd6, 0x12, 0xbd, 0x00, 0x80, 0x26, 0x3e,
  0x80, 0x85, 0x31, 0xbd, 0x97, 0x3c, 0xb4, 0x3e, 0xd2, 0x85, 0x86, 0xbe,
  0x26, 0x19, 0x93, 0x3e, 0xe0, 0x61, 0xf9, 0xbc, 0xd6, 0xe3, 0xc2, 0x3e,
  0xbb, 0x2c, 0x77, 0xbe, 0xc0, 0xc5, 0x83, 0xbb, 0x90, 0x58, 0xb6, 0xbe,
  0x0c, 0x9f, 0x01, 0x3e, 0xcb, 0xed, 0xa8, 0xbe, 0x24, 0x8a, 0xc9, 0xbd,
  0x14, 0x7d, 0x9d, 0xbd, 0x58, 0x34, 0x98, 0x3e, 0x48, 0x92, 0xb4, 0xbd,
  0x40, 0x00, 0x0b, 0xbc, 0x2c, 0xc8, 0x50, 0x3e, 0xf0, 0x6c, 0xcf, 0x3c,
  0xf7, 0xd5, 0x5c, 0xbe, 0x5c, 0xbf, 0x35, 0x3e, 0xd4, 0x1a, 0xd1, 0xbd,
  0xe4, 0x74, 0xf7, 0xbd, 0xfa, 0xc7, 0xb2, 0x3e, 0x96, 0x83, 0x4a, 0xbe,
  0xf0, 0x09, 0x8a, 0x3e, 0x15, 0xb8, 0x5f, 0xbe, 0x58, 0x70, 0x91, 0x3d,
  0x20, 0x8f, 0xba, 0xbe, 0x69, 0x1f, 0x24, 0x3e, 0xf3, 0xbd, 0x91, 0xbe,
  0xbf, 0x57, 0x60, 0xbe, 0xa1, 0x17, 0x15, 0xbe, 0x46, 0x44, 0xb0, 0xbe,
  0xa3, 0x72, 0x21, 0x3e, 0x1a, 0x96, 0x81, 0x3e, 0xf0, 0xb0, 0x85, 0x3e,
  0x5a, 0x60, 0xf3, 0x3d, 0x7c, 0x8f, 0x2b, 0x3e, 0x00, 0xf8, 0x72, 0x3e,
  0x41, 0x1b, 0x7e, 0xbe, 0x3f, 0xb7, 0x28, 0xbe, 0x83, 0x10, 0x19, 0xbd,
  0x73, 0x12, 0x3a, 0xbd, 0xda, 0x2c, 0x93, 0x3e, 0x5e, 0x0c, 0x9d, 0x3e,
  0xc2, 0x00, 0xb1, 0xbe, 0x18, 0x4d, 0x2c, 0x3e, 0xce, 0x86, 0x7e, 0xbe,
  0xb2, 0x3d, 0x83, 0xbe, 0x4b, 0xdc, 0x4f, 0x3d, 0xbc, 0x78, 0x71, 0x3e,
  0x14, 0x5d, 0x04, 0x3e, 0xb4, 0xdc, 0x70, 0xbe, 0xc9, 0xa0, 0x3a, 0xbe,
  0xb4, 0x10, 0x78, 0xbe, 0xa4, 0xd9, 0x4f, 0x3e, 0xd8, 0xd4, 0xb8, 0xbe,
  0xa4, 0xfe, 0x29, 0x3e, 0x30, 0xe0, 0xc4, 0x3e, 0x00, 0x02, 0xc6, 0xbd,
  0x19, 0xd1, 0x65, 0x3d, 0x34, 0x17, 0xab, 0x3e, 0x51, 0xdf, 0x88, 0xbe,
  0xc8, 0x80, 0xd2, 0x3c, 0x44, 0x72, 0x5e, 0x3e, 0x56, 0xf4, 0xa0, 0x3e,
  0x06, 0xcd, 0x18, 0x3e, 0x4c, 0x90, 0xc5, 0xbe, 0xba, 0xb7, 0x2f, 0xbe,
  0x98, 0x27, 0x06, 0xbd, 0xc0, 0x6d, 0xdc, 0x3c, 0xe9, 0x1f, 0x69, 0x3e,
  0x80, 0x2d, 0x10, 0xbb, 0x38, 0x38, 0x99, 0x3d, 0x04, 0x5b, 0xa9, 0x3e,
  0xa8, 0x03, 0x87, 0x3e, 0x73, 0xe6, 0xab, 0xbe, 0xc0, 0x0b, 0xde, 0xbb,
  0x23, 0xcc, 0x80, 0xbe, 0x6e, 0x55, 0xbd, 0x3e, 0x97, 0xda, 0x79, 0xbe,
  0xfa, 0x54, 0xb5, 0x3e, 0xda, 0x90, 0x80, 0x3e, 0x5e, 0x5a, 0xa0, 0x3e,
  0x98, 0x6b, 0xee, 0x3e, 0x90, 0xed, 0x61, 0xbe, 0x38, 0xcf, 0x46, 0x3e,
  0xd8, 0xa7, 0xa9, 0x3d, 0xc2, 0x9b, 0x30, 0xbe, 0x53, 0xed, 0xb2, 0x3e,
  0x67, 0x8c, 0x24, 0x3d, 0xd8, 0x1f, 0x96, 0x3e, 0x22, 0x92, 0x9c, 0xbe,
  0xb0, 0xb3, 0x57, 0x3e, 0xac, 0x66, 0x74, 0x3e, 0x20, 0x73, 0xcf, 0x3c,
  0x90, 0xef, 0x3b, 0xbd, 0x0d, 0x81, 0x62, 0xbe, 0xd2, 0x8d, 0xc0, 0xbe,
  0xc0, 0xd9, 0x4a, 0xbc, 0x52, 0x13, 0x50, 0xbe, 0x4e, 0x73, 0x84, 0xbe,
  0x00, 0xc2, 0x33, 0xbc, 0x1c, 0x25, 0x92, 0x3d, 0xa2, 0x17, 0xc5, 0xbe,
  0x00, 0x6a, 0x85, 0xba, 0x40, 0x45, 0x31, 0x3c, 0xd0, 0xcd, 0x24, 0x3e,
  0xc5, 0xb8, 0xc2, 0xbd, 0xa0, 0xba, 0xb8, 0xbd, 0x16, 0x50, 0xad, 0x3e,
  0x63, 0x8a, 0xc4, 0xbe, 0xe2, 0x20, 0x02, 0xbe, 0x64, 0x13, 0xc1, 0x3e,
  0xa6, 0xa4, 0x89, 0x3e, 0x8e, 0x2c, 0xb6, 0xbe, 0xf9, 0x69, 0xd2, 0x3e,
  0xf0, 0xc4, 0x0f, 0x3e, 0xae, 0x84, 0xc3, 0x3e, 0x8c, 0xd9, 0x40, 0xbd,
  0x06, 0x28, 0x9e, 0x3e, 0x19, 0x38, 0x91, 0x3d, 0xa6, 0x26, 0xb3, 0xbd,
  0xe0, 0x01, 0xd8, 0x3c, 0xc7, 0xb4, 0xc5, 0xbd, 0xa5, 0x15, 0x8b, 0xbe,
  0xcc, 0xf6, 0x75, 0xbe, 0xa3, 0xc3, 0x39, 0xbe, 0x20, 0xa6, 0x3b, 0x3c,
  0x40, 0xe9, 0x92, 0x3e, 0xca, 0xcc, 0x16, 0x3e, 0xb4, 0xc9, 0x55, 0x3e,
  0x33, 0x22, 0x89, 0x3e, 0x10, 0xf2, 0x8a, 0x3c, 0x70, 0xee, 0x28, 0x3e,
  0x54, 0x64, 0x77, 0xbe, 0x28, 0x4c, 0x57, 0x3e, 0x6b, 0xe3, 0xab, 0xbe,
  0x2d, 0x59, 0xc3, 0x3e, 0x36, 0x59, 0x8d, 0xbe, 0xe7, 0x80, 0xd8, 0x3d,
  0x14, 0x86, 0x48, 0x3e, 0x4b, 0xa7, 0xb9, 0xbe, 0xd3, 0xaa, 0x69, 0xbe,
  0xac, 0xa5, 0x94, 0x3e, 0x51, 0x55, 0x8f, 0x3e, 0x1d, 0xd9, 0x92, 0x3e,
  0x6e, 0xd5, 0x83, 0xbe, 0x94, 0x8a, 0x97, 0x3e, 0x90, 0x4c, 0x34, 0x3d,
  0xf4, 0x0e, 0x07, 0x3e, 0xe9, 0x1e, 0x9d, 0x3e, 0x20, 0x02, 0x7f, 0x3d,
  0xcd, 0x86, 0x76, 0xbe, 0xcd, 0xba, 0x8c, 0x3e, 0xee, 0xbd, 0xa6, 0x3e,
  0xe8, 0xf3, 0xac, 0xbd, 0x4e, 0xc7, 0x4d, 0xbe, 0x34, 0xcf, 0xdc, 0xbd,
  0x60, 0x70, 0x39, 0xbc, 0x6b, 0xfa, 0x56, 0xbe, 0xe0, 0x1e, 0x20, 0x3d,
  0x50, 0xa9, 0xc7, 0xbd, 0x50, 0x5f, 0xc2, 0x3d, 0x20, 0xc6, 0x69, 0xbd,
  0x7b, 0x1c, 0xa7, 0xbe, 0xe0, 0xf8, 0x97, 0xbc, 0xb8, 0x86, 0xfd, 0x3d,
  0x12, 0xc6, 0x9a, 0x3e, 0x70, 0xd3, 0x35, 0x3d, 0x58, 0x42, 0x83, 0x3d,
  0x22, 0xf9, 0xff, 0xff, 0x04, 0x00, 0x00, 0x00, 0x00, 0x04, 0x00, 0x00,
  0x74, 0x68, 0x4c, 0x3e, 0xc0, 0x4b, 0x1e, 0x3e, 0x8f, 0xfa, 0x21, 0xbe,
  0xbc, 0x38, 0x38, 0x3e, 0x29, 0x07, 0x4e, 0xbe, 0x80, 0xb7, 0x92, 0xbb,
  0xc0, 0xd5, 0xae, 0x3c, 0x79, 0x5f, 0x1c, 0xbe, 0x9c, 0xd3, 0x0a, 0xbe,
  0x50, 0xdc, 0xa9, 0x3d, 0x51, 0x6e, 0x5d, 0xbe, 0xfc, 0x29, 0x8d, 0x3d,
  0x40, 0xe9, 0x25, 0x3e, 0x94, 0xe9, 0x87, 0xbe, 0x69, 0x62, 0xa4, 0xbe,
  0x24, 0xa6, 0x8b, 0xbe, 0x70, 0xf4, 0x6d, 0x3e, 0xac, 0x0e, 0x8d, 0x3e,
  0x00, 0x54, 0x8b, 0xbe, 0xfc, 0x57, 0x92, 0xbe, 0x2c, 0x8a, 0xae, 0xbd,
  0x58, 0x6f, 0x55, 0x3e, 0xb6, 0x9a, 0x87, 0x3e, 0x44, 0xcf, 0x99, 0x3d,
  0x88, 0xe2, 0xa3, 0x3e, 0x44, 0x08, 0xb8, 0xbe, 0xc8, 0xed, 0x34, 0x3d,
  0x00, 0xa1, 0x85, 0x3e, 0x41, 0xa6, 0xbf, 0xbe, 0xb4, 0xa6, 0xb7, 0xbe,
  0x0b, 0xb1, 0x9e, 0xbe, 0x04, 0x0b, 0x37, 0x3e, 0x90, 0x44, 0x74, 0x3e,
  0xbd, 0x9b, 0x1c, 0x3e, 0xe4, 0x28, 0x0d, 0x3e, 0x98, 0xb5, 0xf8, 0xbc,
  0xa7, 0xfb, 0xcd, 0x3e, 0xce, 0x04, 0xf1, 0x3e, 0x9a, 0x64, 0x2a, 0xbe,
  0x98, 0x45, 0x3a, 0x3e, 0xe0, 0x9b, 0xe4, 0xbd, 0xe8, 0xdb, 0xe7, 0x3d,
  0x3d, 0x1a, 0x91, 0x3e, 0x26, 0xb9, 0xa3, 0xbe, 0x02, 0x68, 0x2c, 0x3a,
  0xff, 0x87, 0xa5, 0x3e, 0x25, 0x90, 0x0a, 0x3d, 0x98, 0xcc, 0xba, 0xbd,
  0xa1, 0x49, 0xba, 0x3d, 0x3d, 0x1e, 0xec, 0xbc, 0xa4, 0x39, 0x7c, 0x3e,
  0x02, 0x43, 0xb3, 0x3e, 0x45, 0x5d, 0xa2, 0x3e, 0xdb, 0xe5, 0x5f, 0xbe,
  0xfb, 0x26, 0xd3, 0x3d, 0x70, 0xab, 0xe0, 0x3e, 0x23, 0x65, 0x39, 0xbd,
  0xa2, 0x8a, 0x22, 0xbe, 0xc1, 0xe3, 0xf0, 0x3e, 0xf9, 0x9a, 0x19, 0x3e,
  0x8c, 0xc1, 0x97, 0xbe, 0xe7, 0x6b, 0x47, 0xbe, 0x81, 0x34, 0x98, 0xbe,
  0xb3, 0x7d, 0x15, 0xbe, 0xca, 0x29, 0xbd, 0xbe, 0x1c, 0x50, 0x81, 0x3e,
  0x73, 0x2e, 0x9b, 0xbe, 0x5c, 0xfe, 0x1c, 0xbe, 0x12, 0xff, 0x3b, 0xbe,
  0x10, 0xd0, 0x69, 0xbe, 0x90, 0x4c, 0x62, 0xbd, 0xaa, 0xdd, 0xa3, 0x3e,
  0xe6, 0x4d, 0xaa, 0x3e, 0x46, 0xb4, 0xa9, 0x3e, 0x50, 0x29, 0x70, 0x3e,
  0xa0, 0xf7, 0xd8, 0x3c, 0x28, 0x4c, 0xf1, 0x3d, 0xf0, 0xb1, 0x83, 0x3d,
  0x00, 0x3d, 0xef, 0x3b, 0x28, 0xe9, 0x9f, 0x3e, 0xdc, 0xa9, 0xc0, 0xbd,
  0xcc, 0x9d, 0x05, 0x3e, 0xce, 0xf8, 0xa7, 0x3e, 0xbb, 0x0e, 0xb3, 0xbe,
  0xe9, 0xcf, 0x61, 0xbe, 0x41, 0xcb, 0x48, 0xbe, 0xf4, 0x5c, 0xe7, 0xbd,
  0xac, 0xeb, 0x2b, 0x3e, 0x80, 0x91, 0x39, 0x3e, 0x54, 0xcb, 0xa0, 0xbe,
  0x41, 0xa0, 0xac, 0xbe, 0x3a, 0xf4, 0x8d, 0xbe, 0x64, 0xee, 0xc5, 0x3d,
  0xc0, 0xa5, 0xaa, 0xbd, 0x80, 0xbe, 0xc8, 0xbb, 0x54, 0x38, 0x92, 0x3e,
  0x88, 0xce, 0x2c, 0x3e, 0x98, 0xc7, 0x08, 0x3e, 0xec, 0xb4, 0x7d, 0x3e,
  0x48, 0x54, 0x2c, 0xbe, 0x78, 0xe7, 0x89, 0xbe, 0xec, 0xa5, 0x17, 0x3e,
  0xf6, 0xe6, 0x29, 0xbe, 0x8c, 0x1b, 0x43, 0x3e, 0x51, 0x6a, 0x67, 0xbe,
  0x00, 0xc3, 0xe7, 0x3d, 0xfe, 0x9a, 0xbb, 0xbe, 0xc0, 0x9a, 0xe3, 0x3b,
  0x44, 0x70, 0x2b, 0x3e, 0xb4, 0xac, 0x98, 0xbd, 0x60, 0x1f, 0xe9, 0x3d,
  0xd8, 0x86, 0x80, 0x3e, 0xf0, 0xbc, 0x81, 0xbc, 0x2c, 0x94, 0x83, 0x3e,
  0x78, 0x3e, 0xc5, 0xbe, 0xfe, 0x55, 0xad, 0xbe, 0xf7, 0xfd, 0x2b, 0xbe,
  0x1a, 0xf3, 0x92, 0x3e, 0x36, 0xc2, 0x86, 0x3e, 0xa2, 0x3f, 0xab, 0xbe,
  0x90, 0x61, 0xda, 0x3c, 0x1c, 0x2c, 0x78, 0x3e, 0xe0, 0x9a, 0xe2, 0x3c,
  0x36, 0xff, 0x00, 0xbe, 0xbc, 0x7a, 0xb8, 0x3e, 0xc6, 0x23, 0x89, 0x3e,
  0x9c, 0xde, 0x1d, 0x3e, 0xb7, 0xd0, 0x2f, 0xbe, 0xc4, 0xd4, 0x8e, 0xbe,
  0xd5, 0x2e, 0xa0, 0x3e, 0xa0, 0x0e, 0x53, 0x3e, 0x00, 0x57, 0x3a, 0x3b,
  0xd6, 0x48, 0xb2, 0x3d, 0xff, 0x95, 0x54, 0xbe, 0x4c, 0x6f, 0xba, 0x3e,
  0xc1, 0x33, 0xaa, 0xbe, 0x10, 0x39, 0xc0, 0xbd, 0xb4, 0x9b, 0x3c, 0x3e,
  0x69, 0x81, 0x38, 0x3e, 0x46, 0x72, 0x8c, 0x3e, 0xcd, 0x03, 0x47, 0x3e,
  0x66, 0xcc, 0xd9, 0xbe, 0x77, 0xda, 0x7a, 0xbd, 0x18, 0xaf, 0xd5, 0xbe,
  0x02, 0x2d, 0x19, 0x3d, 0x6d, 0x3e, 0xb6, 0x3e, 0x2c, 0xdc, 0x09, 0x3e,
  0x40, 0x82, 0xba, 0xbb, 0x4c, 0xfa, 0xb4, 0xbe, 0xd8, 0x1f, 0x07, 0x3d,
  0x76, 0xdf, 0xbd, 0xbe, 0x02, 0x4f, 0x7a, 0x3d, 0x97, 0x1d, 0xa6, 0x3e,
  0x14, 0xaf, 0x84, 0x3d, 0x75, 0x21, 0xa3, 0x3e, 0xe1, 0x8d, 0x9c, 0x3e,
  0xeb, 0xbf, 0x35, 0xbe, 0xe6, 0x39, 0xa3, 0x3e, 0x73, 0xcf, 0xb4, 0x3e,
  0x78, 0x80, 0xea, 0x3d, 0x00, 0x24, 0x41, 0xba, 0xc1, 0x31, 0x5d, 0xbe,
  0x6e, 0x6d, 0xb3, 0x3e, 0xe8, 0x0f, 0x00, 0x3e, 0x2b, 0xfa, 0x77, 0xbe,
  0x68, 0x06, 0x43, 0x3e, 0xa0, 0x78, 0xb7, 0x3e, 0xf2, 0x8f, 0x82, 0xbe,
  0x05, 0xc9, 0xaa, 0xbe, 0x38, 0xd0, 0x44, 0xbd, 0xe0, 0xd9, 0x18, 0xbc,
  0x40, 0x31, 0x88, 0xbe, 0xa7, 0xa7, 0xb8, 0xbe, 0x20, 0x82, 0x5f, 0xbe,
  0x00, 0xee, 0x93, 0x3b, 0x95, 0x90, 0x49, 0xbe, 0xf2, 0xae, 0xae, 0xbe,
  0x04, 0x87, 0xb6, 0x3e, 0x10, 0x55, 0x02, 0xbd, 0x36, 0x5a, 0xa0, 0xbe,
  0x17, 0xa3, 0xbb, 0xbe, 0xd5, 0xf9, 0x96, 0xbe, 0xa0, 0xff, 0x1f, 0x3e,
  0x60, 0x55, 0xaf, 0xbe, 0xae, 0x87, 0x22, 0xbe, 0x6e, 0xab, 0xa4, 0x3e,
  0x04, 0x2e, 0xbd, 0xbd, 0xbe, 0x75, 0xb4, 0x3e, 0xbc, 0x72, 0x43, 0xbe,
  0xc8, 0x14, 0x1c, 0x3d, 0x60, 0x03, 0x9f, 0xbc, 0xe0, 0x0f, 0x35, 0xbd,
  0x40, 0x54, 0xe3, 0x3b, 0x3a, 0x7f, 0x24, 0x3d, 0xe0, 0xc0, 0xa3, 0xbe,
  0xfd, 0xbe, 0x9f, 0x3d, 0xae, 0x61, 0xb9, 0xbe, 0xab, 0x5c, 0xb4, 0x3b,
  0x9c, 0x15, 0xc0, 0x3e, 0xc7, 0xb5, 0x5e, 0xbe, 0x18, 0x22, 0x3e, 0xbd,
  0x12, 0xc9, 0xc5, 0x3e, 0x2a, 0x96, 0xf6, 0x3d, 0x83, 0xd4, 0x9a, 0xbe,
  0x32, 0xbd, 0xfc, 0xbd, 0x23, 0xa4, 0x98, 0xbe, 0xa7, 0x4e, 0x80, 0x3e,
  0x00, 0xfa, 0x46, 0x3d, 0x55, 0x1b, 0xc1, 0xbd, 0x3c, 0xdf, 0x36, 0xbe,
  0x4d, 0x66, 0x5e, 0xbe, 0x60, 0x29, 0x92, 0xbd, 0x51, 0xb4, 0xd4, 0xbd,
  0xe5, 0x31, 0x11, 0xbe, 0xb5, 0x91, 0x8a, 0x3e, 0x02, 0x9a, 0xb2, 0x3e,
  0x47, 0x42, 0x8f, 0x3e, 0xf5, 0x5f, 0x9f, 0xbe, 0x70, 0x6c, 0x20, 0x3d,
  0x92, 0xfd, 0x77, 0x3e, 0xcc, 0x5f, 0x19, 0x3e, 0x72, 0x24, 0xa4, 0x3e,
  0x8e, 0xec, 0x6c, 0x3d, 0xeb, 0xda, 0xac, 0xbe, 0x50, 0x88, 0x97, 0x3e,
  0x10, 0xb6, 0xb3, 0x3e, 0x81, 0x37, 0xb5, 0x3e, 0xf0, 0xaf, 0xd3, 0xbc,
  0xd5, 0x7f, 0xc7, 0x3c, 0x7f, 0x99, 0x53, 0xbe, 0x23, 0x66, 0x66, 0xbe,
  0x44, 0x5e, 0x94, 0x3e, 0x8c, 0xb1, 0x09, 0x3e, 0x4d, 0x30, 0x12, 0xbe,
  0xd4, 0xc0, 0xed, 0x3d, 0x6e, 0x3d, 0xae, 0x3e, 0xa1, 0xc6, 0xb5, 0xbe,
  0x10, 0xb0, 0xa3, 0x3c, 0x22, 0x3d, 0xa3, 0x3e, 0xca, 0x65, 0x32, 0xbd,
  0xca, 0x73, 0xaa, 0x3e, 0x99, 0xe3, 0xfc, 0x3e, 0x5a, 0x34, 0x54, 0x3e,
  0xb0, 0x1e, 0x09, 0x3d, 0x6b, 0xdf, 0xe6, 0x3d, 0x0c, 0xba, 0x1c, 0x3e,
  0x99, 0x47, 0x02, 0xbf, 0x6e, 0x16, 0xad, 0x3c, 0x7e, 0x5a, 0x24, 0x3f,
  0xe4, 0x18, 0xdb, 0x3d, 0xef, 0x51, 0xba, 0x3e, 0xdb, 0x9b, 0x07, 0xbe,
  0xda, 0x80, 0x84, 0x3e, 0x94, 0xb5, 0x69, 0x3e, 0xc8, 0xac, 0x6d, 0x3e,
  0x46, 0x7f, 0x92, 0xbe, 0x2e, 0xfd, 0xff, 0xff, 0x04, 0x00, 0x00, 0x00,
  0x80, 0x01, 0x00, 0x00, 0xa6, 0x5c, 0x8e, 0xbe, 0x08, 0x7f, 0x0f, 0xbd,
  0xbc, 0x6b, 0x9e, 0xbe, 0x07, 0xd2, 0x0b, 0x3e, 0x10, 0x36, 0x05, 0x3e,
  0x08, 0xb5, 0x00, 0xbf, 0x9a, 0xe8, 0x1a, 0x3e, 0x6b, 0x58, 0x66, 0x3e,
  0xf6, 0x03, 0xf4, 0x3d, 0xca, 0xe9, 0x9c, 0xbd, 0xe6, 0x7d, 0x99, 0xbe,
  0xd6, 0xf8, 0x57, 0xbe, 0x42, 0x64, 0x74, 0x3e, 0x1b, 0xf0, 0x18, 0x3e,
  0x59, 0xf1, 0xbe, 0x3e, 0xa5, 0x08, 0xee, 0x3e, 0x9b, 0xa8, 0xe1, 0xbe,
  0xb3, 0x02, 0x3b, 0x3f, 0xc0, 0x94, 0x08, 0xbd, 0xe2, 0x8d, 0x4b, 0x3e,
  0x6f, 0xad, 0x46, 0x3e, 0xf5, 0x18, 0x2a, 0xbe, 0x35, 0x96, 0x88, 0x3e,
  0x3c, 0x81, 0x97, 0xbd, 0x24, 0x6d, 0xe0, 0xbd, 0xae, 0x60, 0x94, 0xbe,
  0xb2, 0xd7, 0xd2, 0xbe, 0x78, 0xa6, 0xd4, 0xbd, 0xa2, 0x1e, 0x30, 0xbe,
  0x1b, 0x2a, 0xbb, 0x3e, 0xdd, 0x8c, 0x74, 0x3e, 0x64, 0xa8, 0xcd, 0xbe,
  0x95, 0x3a, 0x79, 0xbe, 0x14, 0xe3, 0x94, 0xbe, 0x36, 0xae, 0x3e, 0x3e,
  0x75, 0x11, 0xb8, 0xbe, 0x92, 0x9d, 0x50, 0x3a, 0xbf, 0x63, 0xa0, 0x3d,
  0x23, 0xf1, 0xc5, 0xbd, 0x98, 0x04, 0x49, 0x3e, 0xf7, 0x75, 0x4c, 0x3e,
  0x92, 0xd1, 0xb7, 0x3e, 0x6e, 0x05, 0x07, 0x3e, 0xc3, 0xa6, 0x49, 0x3e,
  0xcb, 0x05, 0xc5, 0xbc, 0x72, 0x23, 0x9d, 0x3e, 0x31, 0xde, 0x7d, 0x3e,
  0xcd, 0x6d, 0x25, 0xbe, 0xf0, 0x44, 0x3c, 0x3e, 0x27, 0xb9, 0x28, 0x3e,
  0xb1, 0xb6, 0x9b, 0xbe, 0xf7, 0x03, 0xfd, 0x3d, 0x05, 0xa6, 0x76, 0x3e,
  0xef, 0x45, 0xcf, 0xbd, 0xf7, 0xc5, 0x9f, 0x3e, 0x81, 0x13, 0xf0, 0xbe,
  0x64, 0x35, 0xa5, 0xbe, 0xe8, 0x6d, 0xbf, 0xbd, 0xce, 0xd0, 0x5a, 0xbe,
  0xdc, 0xd2, 0xb6, 0x3d, 0xdb, 0xff, 0xe9, 0x3e, 0xa6, 0x69, 0x0c, 0xbf,
  0x9d, 0x85, 0xf7, 0x3d, 0x59, 0x3b, 0x6e, 0xbe, 0x48, 0xc1, 0x51, 0x3d,
  0xa0, 0x03, 0xa4, 0xbd, 0x24, 0x93, 0x38, 0xbd, 0x76, 0x66, 0x1f, 0xbe,
  0x29, 0x24, 0x6f, 0x3f, 0x81, 0x0b, 0x4f, 0x3e, 0xb6, 0x5e, 0x9f, 0xbe,
  0x77, 0x8e, 0xfb, 0x3e, 0xd9, 0x8a, 0x0f, 0x3e, 0x3f, 0xcc, 0xb4, 0x3e,
  0xd3, 0x6d, 0xbd, 0xbe, 0x01, 0x8b, 0xc6, 0xbe, 0xd1, 0x8d, 0xbe, 0xbe,
  0xd6, 0x7d, 0x80, 0xbe, 0xba, 0x8d, 0xe8, 0x3e, 0x88, 0xa3, 0x48, 0x3e,
  0xde, 0x8e, 0x84, 0x3e, 0x92, 0x48, 0x79, 0x3e, 0xaf, 0x99, 0xc1, 0xbd,
  0xf0, 0xd7, 0xea, 0x3e, 0x1c, 0x17, 0xe8, 0xbd, 0xca, 0xd1, 0x5a, 0x3e,
  0x4d, 0x40, 0xc9, 0x3e, 0x8c, 0x5c, 0x9a, 0xbe, 0x95, 0x93, 0x7a, 0xbe,
  0x3e, 0xa1, 0x5a, 0xbe, 0xc4, 0x08, 0xd2, 0xbc, 0x9c, 0xf8, 0x76, 0x3c,
  0x8e, 0xc1, 0x2f, 0xbe, 0x00, 0xeb, 0x9e, 0xbe, 0xd4, 0x6b, 0xbf, 0xbd,
  0xf4, 0xb7, 0x9e, 0x3d, 0xba, 0xfe, 0xff, 0xff, 0x04, 0x00, 0x00, 0x00,
  0x80, 0x00, 0x00, 0x00, 0x00, 0x00, 0x00, 0x00, 0x03, 0xa5, 0x24, 0xbd,
  0xd3, 0x42, 0x97, 0x3b, 0xd7, 0xb4, 0x3c, 0xbc, 0x2d, 0x25, 0x33, 0x3b,
  0x66, 0xe1, 0x31, 0x3b, 0x02, 0xbb, 0x9c, 0xbb, 0x00, 0x00, 0x00, 0x00,
  0x00, 0x00, 0x00, 0x00, 0x00, 0x00, 0x00, 0x00, 0x17, 0x4d, 0xe2, 0xbb,
  0x00, 0x00, 0x00, 0x00, 0xe7, 0xbf, 0xce, 0xbc, 0x0c, 0xad, 0x65, 0x3b,
  0x8d, 0x09, 0x63, 0xbd, 0x53, 0x2a, 0x9d, 0xbc, 0x49, 0x54, 0x9b, 0xbd,
  0xda, 0x61, 0x41, 0xbd, 0x78, 0x79, 0xf8, 0xba, 0x00, 0x00, 0x00, 0x00,
  0x62, 0xe7, 0x89, 0x3a, 0x00, 0x00, 0x00, 0x00, 0x68, 0x83, 0x09, 0x3e,
  0x88, 0xcb, 0x44, 0x3a, 0xc8, 0x9a, 0x14, 0xbd, 0x00, 0x00, 0x00, 0x00,
  0x1e, 0xed, 0x86, 0x3b, 0xf1, 0x24, 0x6d, 0xbd, 0x00, 0x00, 0x00, 0x00,
  0x00, 0x00, 0x00, 0x00, 0x14, 0x87, 0x14, 0xbc, 0x00, 0x00, 0x00, 0x00,
  0x46, 0xff, 0xff, 0xff, 0x04, 0x00, 0x00, 0x00, 0x20, 0x00, 0x00, 0x00,
  0x00, 0x00, 0x00, 0x00, 0x26, 0xb2, 0x15, 0x3c, 0x00, 0x00, 0x00, 0x00,
  0x00, 0x00, 0x00, 0x00, 0x00, 0xfa, 0x18, 0xbd, 0x00, 0x00, 0x00, 0x00,
  0xc5, 0x3f, 0x0c, 0xbc, 0x7c, 0xcf, 0xf9, 0xbb, 0x72, 0xff, 0xff, 0xff,
  0x04, 0x00, 0x00, 0x00, 0x80, 0x00, 0x00, 0x00, 0x00, 0x00, 0x00, 0x00,
  0x00, 0x00, 0x00, 0x00, 0x3b, 0xe5, 0xca, 0x3c, 0x21, 0x52, 0x11, 0x3d,
  0x00, 0x00, 0x00, 0x00, 0x00, 0x00, 0x00, 0x00, 0x8e, 0x9e, 0x16, 0xbd,
  0x00, 0x00, 0x00, 0x00, 0x00, 0x00, 0x00, 0x00, 0x42, 0x01, 0x0e, 0xbd,
  0xc2, 0x31, 0x4b, 0x3c, 0x00, 0x00, 0x00, 0x00, 0x00, 0x00, 0x00, 0x00,
  0x00, 0x00, 0x00, 0x00, 0xeb, 0x88, 0xdc, 0x3c, 0xbc, 0xfa, 0x6d, 0x3c,
  0x95, 0x91, 0x08, 0x3d, 0x00, 0x00, 0x00, 0x00, 0x82, 0x64, 0x20, 0xbd,
  0xfe, 0xbe, 0x00, 0xbd, 0x00, 0x00, 0x00, 0x00, 0xa2, 0xef, 0x84, 0x3c,
  0x00, 0x00, 0x00, 0x00, 0x00, 0x00, 0x00, 0x00, 0xc7, 0x36, 0x7d, 0xbd,
  0x77, 0x3f, 0x35, 0xbd, 0x76, 0x4e, 0x8c, 0xbc, 0x07, 0xa9, 0xbf, 0x3c,
  0x1d, 0x4a, 0xbd, 0x3b, 0xbd, 0x9e, 0xcf, 0x3c, 0x00, 0x00, 0x00, 0x00,
  0x00, 0x00, 0x00, 0x00, 0x00, 0x00, 0x06, 0x00, 0x08, 0x00, 0x04, 0x00,
  0x06, 0x00, 0x00, 0x00, 0x04, 0x00, 0x00, 0x00, 0x0c, 0x00, 0x00, 0x00,
  0x8b, 0xbd, 0xc5, 0x3c, 0x9b, 0x23, 0x5e, 0x3d, 0x29, 0x81, 0x3d, 0xbc,
  0xdc, 0xf9, 0xff, 0xff, 0xe0, 0xf9, 0xff, 0xff, 0x0f, 0x00, 0x00, 0x00,
  0x4d, 0x4c, 0x49, 0x52, 0x20, 0x43, 0x6f, 0x6e, 0x76, 0x65, 0x72, 0x74,
  0x65, 0x64, 0x2e, 0x00, 0x01, 0x00, 0x00, 0x00, 0x14, 0x00, 0x00, 0x00,
  0x00, 0x00, 0x0e, 0x00, 0x18, 0x00, 0x14, 0x00, 0x10, 0x00, 0x0c, 0x00,
  0x08, 0x00, 0x04, 0x00, 0x0e, 0x00, 0x00, 0x00, 0x14, 0x00, 0x00, 0x00,
  0x1c, 0x00, 0x00, 0x00, 0x24, 0x01, 0x00, 0x00, 0x28, 0x01, 0x00, 0x00,
  0x2c, 0x01, 0x00, 0x00, 0x04, 0x00, 0x00, 0x00, 0x6d, 0x61, 0x69, 0x6e,
  0x00, 0x00, 0x00, 0x00, 0x04, 0x00, 0x00, 0x00, 0xc8, 0x00, 0x00, 0x00,
  0x80, 0x00, 0x00, 0x00, 0x48, 0x00, 0x00, 0x00, 0x04, 0x00, 0x00, 0x00,
  0x56, 0xff, 0xff, 0xff, 0x1c, 0x00, 0x00, 0x00, 0x00, 0x00, 0x00, 0x08,
  0x1c, 0x00, 0x00, 0x00, 0x20, 0x00, 0x00, 0x00, 0x00, 0x00, 0x0a, 0x00,
  0x08, 0x00, 0x00, 0x00, 0x00, 0x00, 0x07, 0x00, 0x0a, 0x00, 0x00, 0x00,
  0x00, 0x00, 0x00, 0x01, 0x01, 0x00, 0x00, 0x00, 0x0c, 0x00, 0x00, 0x00,
  0x03, 0x00, 0x00, 0x00, 0x0b, 0x00, 0x00, 0x00, 0x08, 0x00, 0x00, 0x00,
  0x01, 0x00, 0x00, 0x00, 0x96, 0xff, 0xff, 0xff, 0x10, 0x00, 0x00, 0x00,
  0x00, 0x00, 0x00, 0x08, 0x10, 0x00, 0x00, 0x00, 0x14, 0x00, 0x00, 0x00,
  0x86, 0xff, 0xff, 0xff, 0x00, 0x00, 0x01, 0x01, 0x01, 0x00, 0x00, 0x00,
  0x0b, 0x00, 0x00, 0x00, 0x03, 0x00, 0x00, 0x00, 0x0a, 0x00, 0x00, 0x00,
  0x07, 0x00, 0x00, 0x00, 0x02, 0x00, 0x00, 0x00, 0xca, 0xff, 0xff, 0xff,
  0x10, 0x00, 0x00, 0x00, 0x00, 0x00, 0x00, 0x08, 0x10, 0x00, 0x00, 0x00,
  0x14, 0x00, 0x00, 0x00, 0xba, 0xff, 0xff, 0xff, 0x00, 0x00, 0x01, 0x01,
  0x01, 0x00, 0x00, 0x00, 0x0a, 0x00, 0x00, 0x00, 0x03, 0x00, 0x00, 0x00,
  0x09, 0x00, 0x00, 0x00, 0x06, 0x00, 0x00, 0x00, 0x03, 0x00, 0x00, 0x00,
  0x00, 0x00, 0x0e, 0x00, 0x16, 0x00, 0x00, 0x00, 0x10, 0x00, 0x0c, 0x00,
  0x0b, 0x00, 0x04, 0x00, 0x0e, 0x00, 0x00, 0x00, 0x1c, 0x00, 0x00, 0x00,
  0x00, 0x00, 0x00, 0x08, 0x1c, 0x00, 0x00, 0x00, 0x20, 0x00, 0x00, 0x00,
  0x00, 0x00, 0x0a, 0x00, 0x08, 0x00, 0x07, 0x00, 0x00, 0x00, 0x06, 0x00,
  0x0a, 0x00, 0x00, 0x00, 0x00, 0x00, 0x01, 0x01, 0x01, 0x00, 0x00, 0x00,
  0x09, 0x00, 0x00, 0x00, 0x03, 0x00, 0x00, 0x00, 0x00, 0x00, 0x00, 0x00,
  0x05, 0x00, 0x00, 0x00, 0x04, 0x00, 0x00, 0x00, 0x01, 0x00, 0x00, 0x00,
  0x0c, 0x00, 0x00, 0x00, 0x01, 0x00, 0x00, 0x00, 0x00, 0x00, 0x00, 0x00,
  0x0d, 0x00, 0x00, 0x00, 0x98, 0x04, 0x00, 0x00, 0x34, 0x04, 0x00, 0x00,
  0xe0, 0x03, 0x00, 0x00, 0x8c, 0x03, 0x00, 0x00, 0x38, 0x03, 0x00, 0x00,
  0xe4, 0x02, 0x00, 0x00, 0x90, 0x02, 0x00, 0x00, 0x3c, 0x02, 0x00, 0x00,
  0xe8, 0x01, 0x00, 0x00, 0x60, 0x01, 0x00, 0x00, 0xd8, 0x00, 0x00, 0x00,
  0x50, 0x00, 0x00, 0x00, 0x04, 0x00, 0x00, 0x00, 0xaa, 0xfb, 0xff, 0xff,
  0x10, 0x00, 0x00, 0x00, 0x10, 0x00, 0x00, 0x00, 0x0d, 0x00, 0x00, 0x00,
  0x28, 0x00, 0x00, 0x00, 0x9c, 0xfb, 0xff, 0xff, 0x19, 0x00, 0x00, 0x00,
  0x53, 0x74, 0x61, 0x74, 0x65, 0x66, 0x75, 0x6c, 0x50, 0x61, 0x72, 0x74,
  0x69, 0x74, 0x69, 0x6f, 0x6e, 0x65, 0x64, 0x43, 0x61, 0x6c, 0x6c, 0x3a,
  0x30, 0x00, 0x00, 0x00, 0x03, 0x00, 0x00, 0x00, 0x01, 0x00, 0x00, 0x00,
  0x0f, 0x00, 0x00, 0x00, 0x03, 0x00, 0x00, 0x00, 0xf2, 0xfb, 0xff, 0xff,
  0x10, 0x00, 0x00, 0x00, 0x10, 0x00, 0x00, 0x00, 0x0c, 0x00, 0x00, 0x00,
  0x64, 0x00, 0x00, 0x00, 0xe4, 0xfb, 0xff, 0xff, 0x55, 0x00, 0x00, 0x00,
  0x73, 0x65, 0x71, 0x75, 0x65, 0x6e, 0x74, 0x69, 0x61, 0x6c, 0x5f, 0x32,
  0x2f, 0x64, 0x65, 0x6e, 0x73, 0x65, 0x5f, 0x38, 0x2f, 0x54, 0x65, 0x6e,
  0x73, 0x6f, 0x72, 0x64, 0x6f, 0x74, 0x3b, 0x73, 0x65, 0x71, 0x75, 0x65,
  0x6e, 0x74, 0x69, 0x61, 0x6c, 0x5f, 0x32, 0x2f, 0x64, 0x65, 0x6e, 0x73,
  0x65, 0x5f, 0x38, 0x2f, 0x52, 0x65, 0x6c, 0x75, 0x3b, 0x73, 0x65, 0x71,
  0x75, 0x65, 0x6e, 0x74, 0x69, 0x61, 0x6c, 0x5f, 0x32, 0x2f, 0x64, 0x65,
  0x6e, 0x73, 0x65, 0x5f, 0x38, 0x2f, 0x42, 0x69, 0x61, 0x73, 0x41, 0x64,
  0x64, 0x00, 0x00, 0x00, 0x03, 0x00, 0x00, 0x00, 0x01, 0x00, 0x00, 0x00,
  0x0f, 0x00, 0x00, 0x00, 0x20, 0x00, 0x00, 0x00, 0x76, 0xfc, 0xff, 0xff,
  0x10, 0x00, 0x00, 0x00, 0x10, 0x00, 0x00, 0x00, 0x0b, 0x00, 0x00, 0x00,
  0x64, 0x00, 0x00, 0x00, 0x68, 0xfc, 0xff, 0xff, 0x55, 0x00, 0x00, 0x00,
  0x73, 0x65, 0x71, 0x75, 0x65, 0x6e, 0x74, 0x69, 0x61, 0x6c, 0x5f, 0x32,
  0x2f, 0x64, 0x65, 0x6e, 0x73, 0x65, 0x5f, 0x37, 0x2f, 0x54, 0x65, 0x6e,
  0x73, 0x6f, 0x72, 0x64, 0x6f, 0x74, 0x3b, 0x73, 0x65, 0x71, 0x75, 0x65,
  0x6e, 0x74, 0x69, 0x61, 0x6c, 0x5f, 0x32, 0x2f, 0x64, 0x65, 0x6e, 0x73,
  0x65, 0x5f, 0x37, 0x2f, 0x52, 0x65, 0x6c, 0x75, 0x3b, 0x73, 0x65, 0x71,
  0x75, 0x65, 0x6e, 0x74, 0x69, 0x61, 0x6c, 0x5f, 0x32, 0x2f, 0x64, 0x65,
  0x6e, 0x73, 0x65, 0x5f, 0x37, 0x2f, 0x42, 0x69, 0x61, 0x73, 0x41, 0x64,
  0x64, 0x00, 0x00, 0x00, 0x03, 0x00, 0x00, 0x00, 0x01, 0x00, 0x00, 0x00,
  0x0f, 0x00, 0x00, 0x00, 0x08, 0x00, 0x00, 0x00, 0xfa, 0xfc, 0xff, 0xff,
  0x10, 0x00, 0x00, 0x00, 0x10, 0x00, 0x00, 0x00, 0x0a, 0x00, 0x00, 0x00,
  0x64, 0x00, 0x00, 0x00, 0xec, 0xfc, 0xff, 0xff, 0x55, 0x00, 0x00, 0x00,
  0x73, 0x65, 0x71, 0x75, 0x65, 0x6e, 0x74, 0x69, 0x61, 0x6c, 0x5f, 0x32,
  0x2f, 0x64, 0x65, 0x6e, 0x73, 0x65, 0x5f, 0x36, 0x2f, 0x54, 0x65, 0x6e,
  0x73, 0x6f, 0x72, 0x64, 0x6f, 0x74, 0x3b, 0x73, 0x65, 0x71, 0x75, 0x65,
  0x6e, 0x74, 0x69, 0x61, 0x6c, 0x5f, 0x32, 0x2f, 0x64, 0x65, 0x6e, 0x73,
  0x65, 0x5f, 0x36, 0x2f, 0x52, 0x65, 0x6c, 0x75, 0x3b, 0x73, 0x65, 0x71,
  0x75, 0x65, 0x6e, 0x74, 0x69, 0x61, 0x6c, 0x5f, 0x32, 0x2f, 0x64, 0x65,
  0x6e, 0x73, 0x65, 0x5f, 0x36, 0x2f, 0x42, 0x69, 0x61, 0x73, 0x41, 0x64,
  0x64, 0x00, 0x00, 0x00, 0x03, 0x00, 0x00, 0x00, 0x01, 0x00, 0x00, 0x00,
  0x0f, 0x00, 0x00, 0x00, 0x20, 0x00, 0x00, 0x00, 0x7e, 0xfd, 0xff, 0xff,
  0x10, 0x00, 0x00, 0x00, 0x10, 0x00, 0x00, 0x00, 0x09, 0x00, 0x00, 0x00,
  0x34, 0x00, 0x00, 0x00, 0x70, 0xfd, 0xff, 0xff, 0x24, 0x00, 0x00, 0x00,
  0x73, 0x65, 0x71, 0x75, 0x65, 0x6e, 0x74, 0x69, 0x61, 0x6c, 0x5f, 0x32,
  0x2f, 0x6f, 0x75, 0x74, 0x70, 0x75, 0x74, 0x2f, 0x54, 0x65, 0x6e, 0x73,
  0x6f, 0x72, 0x64, 0x6f, 0x74, 0x2f, 0x4d, 0x61, 0x74, 0x4d, 0x75, 0x6c,
  0x00, 0x00, 0x00, 0x00, 0x02, 0x00, 0x00, 0x00, 0x03, 0x00, 0x00, 0x00,
  0x20, 0x00, 0x00, 0x00, 0xce, 0xfd, 0xff, 0xff, 0x10, 0x00, 0x00, 0x00,
  0x10, 0x00, 0x00, 0x00, 0x08, 0x00, 0x00, 0x00, 0x34, 0x00, 0x00, 0x00,
  0xc0, 0xfd, 0xff, 0xff, 0x25, 0x00, 0x00, 0x00, 0x73, 0x65, 0x71, 0x75,
  0x65, 0x6e, 0x74, 0x69, 0x61, 0x6c, 0x5f, 0x32, 0x2f, 0x64, 0x65, 0x6e,
  0x73, 0x65, 0x5f, 0x38, 0x2f, 0x54, 0x65, 0x6e, 0x73, 0x6f, 0x72, 0x64,
  0x6f, 0x74, 0x2f, 0x4d, 0x61, 0x74, 0x4d, 0x75, 0x6c, 0x00, 0x00, 0x00,
  0x02, 0x00, 0x00, 0x00, 0x20, 0x00, 0x00, 0x00, 0x08, 0x00, 0x00, 0x00,
  0x1e, 0xfe, 0xff, 0xff, 0x10, 0x00, 0x00, 0x00, 0x10, 0x00, 0x00, 0x00,
  0x07, 0x00, 0x00, 0x00, 0x34, 0x00, 0x00, 0x00, 0x10, 0xfe, 0xff, 0xff,
  0x25, 0x00, 0x00, 0x00, 0x73, 0x65, 0x71, 0x75, 0x65, 0x6e, 0x74, 0x69,
  0x61, 0x6c, 0x5f, 0x32, 0x2f, 0x64, 0x65, 0x6e, 0x73, 0x65, 0x5f, 0x37,
  0x2f, 0x54, 0x65, 0x6e, 0x73, 0x6f, 0x72, 0x64, 0x6f, 0x74, 0x2f, 0x4d,
  0x61, 0x74, 0x4d, 0x75, 0x6c, 0x00, 0x00, 0x00, 0x02, 0x00, 0x00, 0x00,
  0x08, 0x00, 0x00, 0x00, 0x20, 0x00, 0x00, 0x00, 0x6e, 0xfe, 0xff, 0xff,
  0x10, 0x00, 0x00, 0x00, 0x10, 0x00, 0x00, 0x00, 0x06, 0x00, 0x00, 0x00,
  0x34, 0x00, 0x00, 0x00, 0x60, 0xfe, 0xff, 0xff, 0x25, 0x00, 0x00, 0x00,
  0x73, 0x65, 0x71, 0x75, 0x65, 0x6e, 0x74, 0x69, 0x61, 0x6c, 0x5f, 0x32,
  0x2f, 0x64, 0x65, 0x6e, 0x73, 0x65, 0x5f, 0x36, 0x2f, 0x54, 0x65, 0x6e,
  0x73, 0x6f, 0x72, 0x64, 0x6f, 0x74, 0x2f, 0x4d, 0x61, 0x74, 0x4d, 0x75,
  0x6c, 0x00, 0x00, 0x00, 0x02, 0x00, 0x00, 0x00, 0x20, 0x00, 0x00, 0x00,
  0x03, 0x00, 0x00, 0x00, 0xbe, 0xfe, 0xff, 0xff, 0x10, 0x00, 0x00, 0x00,
  0x10, 0x00, 0x00, 0x00, 0x05, 0x00, 0x00, 0x00, 0x38, 0x00, 0x00, 0x00,
  0xb0, 0xfe, 0xff, 0xff, 0x2b, 0x00, 0x00, 0x00, 0x73, 0x65, 0x71, 0x75,
  0x65, 0x6e, 0x74, 0x69, 0x61, 0x6c, 0x5f, 0x32, 0x2f, 0x64, 0x65, 0x6e,
  0x73, 0x65, 0x5f, 0x36, 0x2f, 0x42, 0x69, 0x61, 0x73, 0x41, 0x64, 0x64,
  0x2f, 0x52, 0x65, 0x61, 0x64, 0x56, 0x61, 0x72, 0x69, 0x61, 0x62, 0x6c,
  0x65, 0x4f, 0x70, 0x00, 0x01, 0x00, 0x00, 0x00, 0x20, 0x00, 0x00, 0x00,
  0x0e, 0xff, 0xff, 0xff, 0x10, 0x00, 0x00, 0x00, 0x10, 0x00, 0x00, 0x00,
  0x04, 0x00, 0x00, 0x00, 0x38, 0x00, 0x00, 0x00, 0x00, 0xff, 0xff, 0xff,
  0x2b, 0x00, 0x00, 0x00, 0x73, 0x65, 0x71, 0x75, 0x65, 0x6e, 0x74, 0x69,
  0x61, 0x6c, 0x5f, 0x32, 0x2f, 0x64, 0x65, 0x6e, 0x73, 0x65, 0x5f, 0x37,
  0x2f, 0x42, 0x69, 0x61, 0x73, 0x41, 0x64, 0x64, 0x2f, 0x52, 0x65, 0x61,
  0x64, 0x56, 0x61, 0x72, 0x69, 0x61, 0x62, 0x6c, 0x65, 0x4f, 0x70, 0x00,
  0x01, 0x00, 0x00, 0x00, 0x08, 0x00, 0x00, 0x00, 0x5e, 0xff, 0xff, 0xff,
  0x10, 0x00, 0x00, 0x00, 0x10, 0x00, 0x00, 0x00, 0x03, 0x00, 0x00, 0x00,
  0x38, 0x00, 0x00, 0x00, 0x50, 0xff, 0xff, 0xff, 0x2b, 0x00, 0x00, 0x00,
  0x73, 0x65, 0x71, 0x75, 0x65, 0x6e, 0x74, 0x69, 0x61, 0x6c, 0x5f, 0x32,
  0x2f, 0x64, 0x65, 0x6e, 0x73, 0x65, 0x5f, 0x38, 0x2f, 0x42, 0x69, 0x61,
  0x73, 0x41, 0x64, 0x64, 0x2f, 0x52, 0x65, 0x61, 0x64, 0x56, 0x61, 0x72,
  0x69, 0x61, 0x62, 0x6c, 0x65, 0x4f, 0x70, 0x00, 0x01, 0x00, 0x00, 0x00,
  0x20, 0x00, 0x00, 0x00, 0xae, 0xff, 0xff, 0xff, 0x10, 0x00, 0x00, 0x00,
  0x10, 0x00, 0x00, 0x00, 0x02, 0x00, 0x00, 0x00, 0x38, 0x00, 0x00, 0x00,
  0xa0, 0xff, 0xff, 0xff, 0x2a, 0x00, 0x00, 0x00, 0x73, 0x65, 0x71, 0x75,
  0x65, 0x6e, 0x74, 0x69, 0x61, 0x6c, 0x5f, 0x32, 0x2f, 0x6f, 0x75, 0x74,
  0x70, 0x75, 0x74, 0x2f, 0x42, 0x69, 0x61, 0x73, 0x41, 0x64, 0x64, 0x2f,
  0x52, 0x65, 0x61, 0x64, 0x56, 0x61, 0x72, 0x69, 0x61, 0x62, 0x6c, 0x65,
  0x4f, 0x70, 0x00, 0x00, 0x01, 0x00, 0x00, 0x00, 0x03, 0x00, 0x00, 0x00,
  0x00, 0x00, 0x0e, 0x00, 0x14, 0x00, 0x10, 0x00, 0x00, 0x00, 0x0c, 0x00,
  0x08, 0x00, 0x04, 0x00, 0x0e, 0x00, 0x00, 0x00, 0x14, 0x00, 0x00, 0x00,
  0x14, 0x00, 0x00, 0x00, 0x01, 0x00, 0x00, 0x00, 0x24, 0x00, 0x00, 0x00,
  0x04, 0x00, 0x04, 0x00, 0x04, 0x00, 0x00, 0x00, 0x13, 0x00, 0x00, 0x00,
  0x73, 0x65, 0x72, 0x76, 0x69, 0x6e, 0x67, 0x5f, 0x64, 0x65, 0x66, 0x61,
  0x75, 0x6c, 0x74, 0x5f, 0x78, 0x3a, 0x30, 0x00, 0x03, 0x00, 0x00, 0x00,
  0x01, 0x00, 0x00, 0x00, 0x0f, 0x00, 0x00, 0x00, 0x03, 0x00, 0x00, 0x00,
  0x01, 0x00, 0x00, 0x00, 0x10, 0x00, 0x00, 0x00, 0x0c, 0x00, 0x10, 0x00,
  0x0f, 0x00, 0x00, 0x00, 0x08, 0x00, 0x04, 0x00, 0x0c, 0x00, 0x00, 0x00,
  0x09, 0x00, 0x00, 0x00, 0x05, 0x00, 0x00, 0x00, 0x00, 0x00, 0x00, 0x09
 
};

#endif //C_MODEL4_PRUNE_H