#ifndef C_MODEL3_PRUNE_H
#define C_MODEL3_PRUNE_H


unsigned int c_model3_prune_len = 5376;
unsigned char c_model3_prune[] = {
 0x1c, 0x00, 0x00, 0x00, 0x54, 0x46, 0x4c, 0x33, 0x14, 0x00, 0x20, 0x00,
  0x1c, 0x00, 0x18, 0x00, 0x14, 0x00, 0x10, 0x00, 0x0c, 0x00, 0x00, 0x00,
  0x08, 0x00, 0x04, 0x00, 0x14, 0x00, 0x00, 0x00, 0x1c, 0x00, 0x00, 0x00,
  0x8c, 0x00, 0x00, 0x00, 0xe4, 0x00, 0x00, 0x00, 0x4c, 0x0e, 0x00, 0x00,
  0x5c, 0x0e, 0x00, 0x00, 0xa8, 0x14, 0x00, 0x00, 0x03, 0x00, 0x00, 0x00,
  0x01, 0x00, 0x00, 0x00, 0x10, 0x00, 0x00, 0x00, 0x00, 0x00, 0x0a, 0x00,
  0x10, 0x00, 0x0c, 0x00, 0x08, 0x00, 0x04, 0x00, 0x0a, 0x00, 0x00, 0x00,
  0x0c, 0x00, 0x00, 0x00, 0x1c, 0x00, 0x00, 0x00, 0x3c, 0x00, 0x00, 0x00,
  0x0f, 0x00, 0x00, 0x00, 0x73, 0x65, 0x72, 0x76, 0x69, 0x6e, 0x67, 0x5f,
  0x64, 0x65, 0x66, 0x61, 0x75, 0x6c, 0x74, 0x00, 0x01, 0x00, 0x00, 0x00,
  0x04, 0x00, 0x00, 0x00, 0x9c, 0xff, 0xff, 0xff, 0x0c, 0x00, 0x00, 0x00,
  0x04, 0x00, 0x00, 0x00, 0x08, 0x00, 0x00, 0x00, 0x6f, 0x75, 0x74, 0x70,
  0x75, 0x74, 0x5f, 0x30, 0x00, 0x00, 0x00, 0x00, 0x01, 0x00, 0x00, 0x00,
  0x04, 0x00, 0x00, 0x00, 0x4e, 0xf2, 0xff, 0xff, 0x04, 0x00, 0x00, 0x00,
  0x01, 0x00, 0x00, 0x00, 0x78, 0x00, 0x00, 0x00, 0x02, 0x00, 0x00, 0x00,
  0x34, 0x00, 0x00, 0x00, 0x04, 0x00, 0x00, 0x00, 0xdc, 0xff, 0xff, 0xff,
  0x0f, 0x00, 0x00, 0x00, 0x04, 0x00, 0x00, 0x00, 0x13, 0x00, 0x00, 0x00,
  0x43, 0x4f, 0x4e, 0x56, 0x45, 0x52, 0x53, 0x49, 0x4f, 0x4e, 0x5f, 0x4d,
  0x45, 0x54, 0x41, 0x44, 0x41, 0x54, 0x41, 0x00, 0x08, 0x00, 0x0c, 0x00,
  0x08, 0x00, 0x04, 0x00, 0x08, 0x00, 0x00, 0x00, 0x0e, 0x00, 0x00, 0x00,
  0x04, 0x00, 0x00, 0x00, 0x13, 0x00, 0x00, 0x00, 0x6d, 0x69, 0x6e, 0x5f,
  0x72, 0x75, 0x6e, 0x74, 0x69, 0x6d, 0x65, 0x5f, 0x76, 0x65, 0x72, 0x73,
  0x69, 0x6f, 0x6e, 0x00, 0x10, 0x00, 0x00, 0x00, 0x64, 0x0d, 0x00, 0x00,
  0x5c, 0x0d, 0x00, 0x00, 0x40, 0x0d, 0x00, 0x00, 0xa8, 0x0c, 0x00, 0x00,
  0x78, 0x0c, 0x00, 0x00, 0xe8, 0x0b, 0x00, 0x00, 0x58, 0x0a, 0x00, 0x00,
  0x48, 0x06, 0x00, 0x00, 0x38, 0x02, 0x00, 0x00, 0xa8, 0x00, 0x00, 0x00,
  0xa0, 0x00, 0x00, 0x00, 0x98, 0x00, 0x00, 0x00, 0x90, 0x00, 0x00, 0x00,
  0x88, 0x00, 0x00, 0x00, 0x68, 0x00, 0x00, 0x00, 0x04, 0x00, 0x00, 0x00,
  0xfe, 0xf2, 0xff, 0xff, 0x04, 0x00, 0x00, 0x00, 0x54, 0x00, 0x00, 0x00,
  0x0c, 0x00, 0x00, 0x00, 0x08, 0x00, 0x0e, 0x00, 0x08, 0x00, 0x04, 0x00,
  0x08, 0x00, 0x00, 0x00, 0x10, 0x00, 0x00, 0x00, 0x24, 0x00, 0x00, 0x00,
  0x00, 0x00, 0x06, 0x00, 0x08, 0x00, 0x04, 0x00, 0x06, 0x00, 0x00, 0x00,
  0x04, 0x00, 0x00, 0x00, 0x00, 0x00, 0x00, 0x00, 0x00, 0x00, 0x0a, 0x00,
  0x10, 0x00, 0x0c, 0x00, 0x08, 0x00, 0x04, 0x00, 0x0a, 0x00, 0x00, 0x00,
  0x01, 0x00, 0x00, 0x00, 0x02, 0x00, 0x00, 0x00, 0x04, 0x00, 0x00, 0x00,
  0x05, 0x00, 0x00, 0x00, 0x32, 0x2e, 0x39, 0x2e, 0x31, 0x00, 0x00, 0x00,
  0x5e, 0xf3, 0xff, 0xff, 0x04, 0x00, 0x00, 0x00, 0x10, 0x00, 0x00, 0x00,
  0x32, 0x2e, 0x30, 0x2e, 0x30, 0x00, 0x00, 0x00, 0x00, 0x00, 0x00, 0x00,
  0x00, 0x00, 0x00, 0x00, 0x20, 0xed, 0xff, 0xff, 0x24, 0xed, 0xff, 0xff,
  0x28, 0xed, 0xff, 0xff, 0x2c, 0xed, 0xff, 0xff, 0x8a, 0xf3, 0xff, 0xff,
  0x04, 0x00, 0x00, 0x00, 0x80, 0x01, 0x00, 0x00, 0x34, 0x6e, 0x99, 0xbe,
  0xba, 0x8c, 0x84, 0x3e, 0xb7, 0x87, 0xe8, 0x3c, 0x96, 0x3f, 0x7f, 0xbe,
  0x6d, 0x08, 0xf2, 0x3e, 0x6e, 0x56, 0x9a, 0x3e, 0x63, 0x8e, 0xc6, 0x3e,
  0xa7, 0x0d, 0xc2, 0x3e, 0xf8, 0xf1, 0xcf, 0x3c, 0x08, 0x96, 0xf1, 0xbc,
  0x7e, 0x71, 0xc4, 0xbe, 0x4d, 0x6e, 0xb0, 0x3c, 0x16, 0x4d, 0xb0, 0xbd,
  0x56, 0x6a, 0x3f, 0x3e, 0xfc, 0x7a, 0xfc, 0x3e, 0x96, 0x10, 0x20, 0xbe,
  0xf6, 0x40, 0x9e, 0x3d, 0xd7, 0x0d, 0x5f, 0xbd, 0x07, 0x7c, 0xa0, 0x3e,
  0x9b, 0x9c, 0xad, 0xbd, 0xe5, 0xb0, 0xc9, 0x3d, 0xa7, 0x82, 0x77, 0x3e,
  0x8c, 0x3b, 0x03, 0x3e, 0x9b, 0x83, 0x43, 0xbe, 0x2b, 0x5e, 0x26, 0xbe,
  0x23, 0xe3, 0x80, 0x3c, 0xde, 0xfa, 0x6d, 0x3e, 0xc3, 0x43, 0xc1, 0x3e,
  0xce, 0x82, 0x87, 0xbe, 0x9c, 0xa7, 0xc1, 0x3d, 0xe8, 0xbe, 0xe9, 0x3e,
  0x6a, 0xbc, 0x36, 0xbe, 0x3c, 0x52, 0xce, 0x3d, 0xc6, 0x13, 0x1f, 0x3e,
  0x91, 0x04, 0xb7, 0xbe, 0x55, 0x68, 0x9c, 0xbe, 0xee, 0x7c, 0x84, 0xbe,
  0xcf, 0x07, 0xc6, 0x3e, 0x04, 0x99, 0x15, 0x3e, 0x79, 0xf8, 0x62, 0xbe,
  0x42, 0x73, 0x4a, 0xbe, 0xf5, 0x4f, 0x59, 0x3d, 0xf0, 0xd5, 0xc4, 0xbd,
  0x4d, 0xa5, 0xa8, 0xba, 0x87, 0x14, 0x16, 0x3e, 0x18, 0x9b, 0x51, 0x3d,
  0xf7, 0x58, 0x78, 0x3e, 0x84, 0xd1, 0xcf, 0xbe, 0x88, 0xb3, 0x8f, 0x3d,
  0x01, 0xde, 0x0a, 0x3e, 0x89, 0x15, 0x4a, 0xbe, 0x1c, 0x2c, 0x2f, 0x3e,
  0x63, 0x28, 0x82, 0xbd, 0x51, 0x17, 0x82, 0xbe, 0xb5, 0xc8, 0x49, 0xbe,
  0x60, 0x2a, 0xe3, 0xbd, 0x5f, 0xb7, 0xfe, 0xbd, 0xc3, 0x8f, 0xde, 0xbd,
  0x3b, 0x01, 0x78, 0xbd, 0x96, 0x8d, 0x2e, 0xbe, 0xbd, 0xd6, 0x34, 0xbe,
  0x6b, 0x9b, 0x4e, 0xbe, 0xe6, 0xd7, 0x60, 0x3e, 0x19, 0x9b, 0x08, 0xbe,
  0x35, 0xf7, 0x4c, 0xbe, 0xd5, 0x9c, 0x26, 0xbe, 0x94, 0xe8, 0x8c, 0xbe,
  0xb9, 0x81, 0x99, 0xbe, 0xd0, 0x77, 0xa1, 0xbe, 0xa2, 0xc4, 0x0d, 0x3e,
  0x6f, 0x0b, 0xa3, 0xbe, 0xd5, 0x8e, 0xec, 0xbd, 0x71, 0x2e, 0x8b, 0x3e,
  0xbd, 0xcb, 0x2a, 0x3d, 0x37, 0x15, 0x9e, 0x3e, 0x6a, 0x50, 0x66, 0xbe,
  0xf1, 0x15, 0x8e, 0x3d, 0x60, 0x6c, 0x99, 0x3c, 0x6b, 0x24, 0xb3, 0x3e,
  0xff, 0x2e, 0x85, 0xbe, 0x29, 0x36, 0xbe, 0xbe, 0xae, 0x15, 0xb4, 0xbc,
  0x9c, 0xa7, 0x50, 0x3e, 0xa2, 0x79, 0x60, 0x3e, 0x2c, 0x1c, 0x31, 0xbe,
  0xc5, 0xf3, 0xf2, 0x3d, 0x6e, 0x1b, 0x08, 0xbe, 0x50, 0x45, 0x3e, 0xbe,
  0xa7, 0x2c, 0x5a, 0x3e, 0xb3, 0x94, 0x71, 0xbc, 0x96, 0x69, 0x82, 0x3e,
  0x50, 0xf5, 0x95, 0xbd, 0x1a, 0x6a, 0xd6, 0x3e, 0x03, 0x33, 0x25, 0xbd,
  0xaa, 0xbd, 0x19, 0x3e, 0x50, 0x2a, 0x0e, 0xbe, 0x16, 0xf5, 0xff, 0xff,
  0x04, 0x00, 0x00, 0x00, 0x00, 0x04, 0x00, 0x00, 0xd8, 0x73, 0xa9, 0x3e,
  0x98, 0x2a, 0x52, 0x3e, 0x48, 0xe3, 0x29, 0xbd, 0xd0, 0xbd, 0xaf, 0xbe,
  0x20, 0x01, 0x73, 0x3d, 0x3a, 0x08, 0xa6, 0x3e, 0xfe, 0x85, 0x07, 0xbe,
  0x3b, 0x52, 0xb0, 0xbe, 0x44, 0x00, 0xf3, 0x3d, 0xeb, 0xb0, 0xb9, 0xbe,
  0xe8, 0xcc, 0x96, 0xbd, 0x54, 0x9a, 0xdd, 0xbb, 0xe2, 0x51, 0x3f, 0x3e,
  0x0c, 0x2f, 0x6b, 0x3e, 0x7e, 0x81, 0xc3, 0x3e, 0x25, 0x39, 0x6c, 0xbe,
  0x8f, 0xde, 0xf1, 0x3d, 0xa6, 0x7a, 0x36, 0x3d, 0x57, 0x55, 0xc0, 0x3e,
  0x43, 0xae, 0x41, 0x3e, 0x54, 0x74, 0xf5, 0x3b, 0x08, 0x62, 0xba, 0x3e,
  0x34, 0xb7, 0x87, 0x3e, 0x77, 0x6d, 0xa4, 0x3e, 0x54, 0xcb, 0x0a, 0x3e,
  0xe9, 0x88, 0xb6, 0xbe, 0xa7, 0xb1, 0x9f, 0xbe, 0xa7, 0xb3, 0x94, 0x3e,
  0xcc, 0x48, 0x79, 0xbe, 0xbf, 0xda, 0xb7, 0xbe, 0x39, 0xa7, 0xa2, 0xbc,
  0x70, 0xb2, 0x0b, 0xbd, 0x73, 0x6d, 0xc3, 0xbe, 0x1e, 0xc6, 0xc0, 0xbe,
  0x52, 0xf1, 0xde, 0xbd, 0xa8, 0xaf, 0x78, 0x3e, 0xa5, 0x2b, 0x08, 0xbe,
  0x20, 0x74, 0x55, 0x3e, 0x66, 0x7f, 0xbd, 0x3e, 0x12, 0x6e, 0x9d, 0xbe,
  0xd1, 0x7e, 0xf4, 0xbd, 0x5e, 0x20, 0xc7, 0x3e, 0x3d, 0x7c, 0x7b, 0xbd,
  0x73, 0xa7, 0xba, 0x3e, 0xcf, 0x30, 0xdf, 0x3d, 0xe6, 0xde, 0x83, 0xbe,
  0x47, 0x38, 0x2b, 0x3e, 0x97, 0x31, 0xf8, 0xbd, 0xe5, 0xe5, 0xa3, 0x3e,
  0x32, 0x50, 0xf3, 0xbd, 0x33, 0xbe, 0x83, 0x3d, 0x3d, 0x39, 0x30, 0x3e,
  0xbf, 0xa2, 0xb4, 0x3e, 0x08, 0x5a, 0x7d, 0xbd, 0x0c, 0x2c, 0xda, 0x3e,
  0x0e, 0xc1, 0x80, 0x3e, 0xa5, 0x13, 0x3e, 0xbd, 0x44, 0x33, 0x2a, 0xbc,
  0xca, 0x1c, 0xa8, 0xbe, 0x39, 0x1c, 0x1c, 0xbe, 0x9e, 0x02, 0xdd, 0x3e,
  0x3d, 0x23, 0x5f, 0xbe, 0xc2, 0x0f, 0x53, 0x3e, 0xf5, 0x2a, 0x5a, 0xbe,
  0x71, 0x72, 0x20, 0x3d, 0xc4, 0x3d, 0x9f, 0x3e, 0x3f, 0x8b, 0xa4, 0x3e,
  0x5f, 0xea, 0x78, 0xba, 0xb7, 0x65, 0x8e, 0x3e, 0xec, 0x32, 0x93, 0x3d,
  0xe3, 0x74, 0x17, 0x3e, 0x2e, 0xa6, 0x14, 0xbe, 0x01, 0x96, 0x14, 0x3d,
  0x94, 0x07, 0xe6, 0x3d, 0x21, 0x8c, 0x69, 0xbe, 0x09, 0xaa, 0xd2, 0xbd,
  0xfb, 0x03, 0x88, 0x3e, 0xa0, 0x0e, 0x26, 0x3c, 0x88, 0x9a, 0x5e, 0x3d,
  0xb5, 0x93, 0xe7, 0x3d, 0xe4, 0x22, 0x0d, 0x3e, 0x4a, 0x9e, 0xae, 0x3e,
  0xa0, 0x19, 0x94, 0xbc, 0x08, 0x46, 0x50, 0xbe, 0x20, 0x81, 0x99, 0x3d,
  0xf1, 0x59, 0x3c, 0xbe, 0xcf, 0xb4, 0x47, 0xbe, 0xec, 0x5d, 0x85, 0xbe,
  0x20, 0x9d, 0xb4, 0xbd, 0xff, 0x5b, 0x88, 0x3e, 0x55, 0x39, 0x4a, 0x3e,
  0xda, 0x4f, 0x83, 0xbe, 0x76, 0xef, 0x5a, 0xbe, 0xc0, 0x77, 0x2d, 0xbe,
  0x42, 0x63, 0xc4, 0xbd, 0x22, 0xc6, 0x06, 0xbe, 0x00, 0x66, 0x43, 0xbe,
  0xbf, 0xf3, 0x63, 0x3e, 0x79, 0x3a, 0x82, 0x3e, 0x20, 0x7a, 0xa0, 0x3e,
  0x79, 0x52, 0x2e, 0x3d, 0xea, 0x0c, 0x5e, 0xbe, 0x86, 0xde, 0x18, 0x3e,
  0xbd, 0x5c, 0xb5, 0xbe, 0x50, 0x79, 0x93, 0x3e, 0x40, 0xd9, 0x85, 0x3c,
  0x6f, 0x1d, 0x7d, 0xbe, 0x1f, 0x5d, 0x1b, 0xbe, 0x98, 0x66, 0x4d, 0x3e,
  0xe4, 0x54, 0xbb, 0x3e, 0x31, 0xe9, 0x64, 0xbe, 0x86, 0x56, 0x18, 0xbe,
  0x44, 0x8d, 0xc9, 0xbc, 0xbb, 0xa3, 0x46, 0x3e, 0x4e, 0x5c, 0x44, 0xbe,
  0x3e, 0xaf, 0x92, 0x3c, 0xba, 0x73, 0xdd, 0x3d, 0x90, 0xbc, 0x43, 0x3e,
  0x67, 0xef, 0x85, 0x3e, 0x9f, 0x6a, 0x8e, 0xbe, 0x48, 0x3f, 0x51, 0x3e,
  0xdb, 0x9c, 0x38, 0xbe, 0xc5, 0xab, 0x9e, 0x3e, 0x4e, 0x77, 0x85, 0x3e,
  0x56, 0xf6, 0xb3, 0xbe, 0xc8, 0xbc, 0x71, 0x3e, 0x3c, 0xa5, 0x4c, 0x3e,
  0x03, 0x48, 0x55, 0xbe, 0xf2, 0x6b, 0x82, 0x3e, 0xb9, 0x46, 0xbe, 0xbe,
  0xe9, 0x5a, 0x9d, 0x3e, 0xca, 0xb3, 0xb3, 0x3e, 0xda, 0xce, 0xe8, 0xbd,
  0xac, 0x62, 0x4b, 0x3e, 0x31, 0xac, 0xbc, 0xbe, 0xa0, 0x38, 0x2f, 0x3e,
  0x7b, 0xcf, 0xa6, 0xbe, 0x3b, 0x0b, 0x6a, 0x3e, 0x95, 0x2f, 0x51, 0xbd,
  0x78, 0x17, 0x93, 0x3e, 0x6d, 0x34, 0xaf, 0x3e, 0xd8, 0xdc, 0x69, 0x3e,
  0xe7, 0x61, 0x4c, 0xbe, 0xd0, 0xbd, 0x8c, 0xbc, 0x69, 0xb5, 0x8d, 0xbe,
  0x96, 0xe8, 0x97, 0x3c, 0x27, 0x8a, 0x1b, 0x3e, 0xe6, 0xef, 0x94, 0xbe,
  0x22, 0x3a, 0xc0, 0x3e, 0xf1, 0x7d, 0x65, 0xbe, 0x45, 0x7c, 0xde, 0x3e,
  0x95, 0xc0, 0x9c, 0xbe, 0x06, 0x6f, 0x25, 0x3e, 0xbb, 0x98, 0x74, 0xbe,
  0x37, 0x13, 0xa3, 0xbe, 0xe1, 0x53, 0x1a, 0x3e, 0x69, 0xe9, 0xb4, 0x3e,
  0xc0, 0x42, 0x6f, 0x3d, 0x4c, 0x75, 0x91, 0xbe, 0x15, 0x75, 0xaf, 0xbe,
  0x62, 0x72, 0x91, 0x3e, 0x74, 0x24, 0xd2, 0xbe, 0x67, 0x8a, 0xbf, 0x3e,
  0x64, 0x88, 0x56, 0x3e, 0x48, 0x58, 0x5c, 0x3e, 0xe2, 0x97, 0xc4, 0x3e,
  0x18, 0x93, 0x9a, 0xbd, 0x6f, 0xf4, 0xb8, 0xbe, 0x3d, 0xf5, 0x66, 0x3e,
  0x3f, 0xcc, 0xe7, 0x3d, 0x43, 0xbb, 0x27, 0x3e, 0x3d, 0xdd, 0x8f, 0xbe,
  0x29, 0x47, 0x7b, 0x3e, 0x3c, 0xcb, 0xba, 0x3e, 0x83, 0x32, 0x36, 0x3e,
  0x85, 0xa8, 0x60, 0x3e, 0x12, 0x37, 0x45, 0xbe, 0xec, 0x0a, 0x9c, 0xbe,
  0x24, 0xce, 0xb0, 0x3e, 0x81, 0x28, 0xbd, 0x3e, 0xc5, 0xdc, 0x49, 0xbe,
  0xb0, 0x41, 0xe4, 0xbd, 0x57, 0x13, 0xc4, 0x3d, 0x50, 0x06, 0x27, 0x3d,
  0xfe, 0x15, 0x84, 0x3e, 0xde, 0x17, 0x26, 0x3e, 0x10, 0xc0, 0xe1, 0x3c,
  0x22, 0xed, 0xaf, 0x3d, 0xcf, 0xea, 0x4b, 0xbd, 0x9f, 0x66, 0x90, 0xbe,
  0xa7, 0x16, 0x0c, 0xbe, 0x78, 0x0b, 0xcd, 0x3d, 0xea, 0x8c, 0x54, 0x3e,
  0x37, 0xe0, 0x81, 0x3d, 0x53, 0xf2, 0xce, 0x3e, 0x16, 0x72, 0x30, 0x3e,
  0xe5, 0x62, 0xff, 0x3d, 0xd0, 0x05, 0x28, 0x3e, 0x8b, 0x8b, 0x38, 0x3e,
  0xa8, 0x4d, 0x23, 0x3e, 0x70, 0x8a, 0xf9, 0xbd, 0x09, 0x97, 0x03, 0xbe,
  0xfe, 0x89, 0x9b, 0x3e, 0x3d, 0xb9, 0x6f, 0xbe, 0x33, 0x3e, 0xad, 0xbe,
  0x14, 0x6c, 0x05, 0x3e, 0x86, 0x0b, 0xe4, 0xb9, 0x72, 0x53, 0x9d, 0xbe,
  0x97, 0xd7, 0xc3, 0x3e, 0xb6, 0x07, 0x1a, 0xbe, 0xc3, 0xd9, 0xa3, 0x3e,
  0x53, 0xe0, 0xa1, 0x3e, 0x16, 0x28, 0x78, 0xbe, 0x84, 0x8c, 0xcb, 0xbd,
  0xaa, 0xb6, 0x59, 0xbe, 0x12, 0x1d, 0x49, 0xbe, 0xd8, 0xf0, 0x27, 0xbe,
  0x0b, 0xfa, 0x3f, 0x3e, 0x86, 0x15, 0x03, 0x3c, 0x7e, 0xdf, 0xd0, 0x3e,
  0x6d, 0xae, 0x34, 0x3e, 0xd0, 0xb8, 0x5f, 0xbd, 0xb9, 0x5d, 0x34, 0x3e,
  0xb4, 0x24, 0xb4, 0xbd, 0x21, 0x65, 0xcd, 0x3d, 0x93, 0x55, 0x9c, 0x3e,
  0xc9, 0x6e, 0xae, 0x3e, 0x42, 0x31, 0xdf, 0xbd, 0x5d, 0x3f, 0x5c, 0xbe,
  0x72, 0xb3, 0x89, 0x3e, 0x33, 0x4f, 0x3d, 0x3e, 0x10, 0xe8, 0x66, 0x3e,
  0x01, 0x3f, 0x49, 0xbe, 0x25, 0x9b, 0xc0, 0x3e, 0xba, 0x74, 0x1e, 0x3c,
  0x8f, 0x71, 0x1e, 0xbe, 0x69, 0x98, 0x83, 0xbd, 0x98, 0x36, 0x9c, 0xbd,
  0x7b, 0x33, 0x73, 0x3d, 0xd8, 0x12, 0x9e, 0x3e, 0x2c, 0x70, 0x0a, 0xbe,
  0x04, 0x88, 0xf7, 0x3c, 0xd9, 0x4f, 0x4e, 0xbe, 0x6f, 0xa8, 0x98, 0x3e,
  0xa3, 0x20, 0xef, 0x3d, 0xb4, 0x29, 0x9a, 0xbd, 0x27, 0xd8, 0xb9, 0x3e,
  0x6e, 0xc9, 0x49, 0x3e, 0xc0, 0x05, 0x9d, 0xbd, 0x49, 0x29, 0x72, 0xbe,
  0xa1, 0xef, 0xe2, 0x3e, 0xec, 0x58, 0xdb, 0xbe, 0xb1, 0xa3, 0x0d, 0x3e,
  0xec, 0xd8, 0xad, 0x3e, 0x88, 0x8d, 0x67, 0x3d, 0xf8, 0x68, 0x18, 0xbe,
  0x22, 0xf9, 0xff, 0xff, 0x04, 0x00, 0x00, 0x00, 0x00, 0x04, 0x00, 0x00,
  0x13, 0xef, 0x20, 0xbe, 0x0a, 0x65, 0x2e, 0x3e, 0xb5, 0xbc, 0x2e, 0xbd,
  0x2b, 0xbc, 0x83, 0x3e, 0xac, 0xca, 0x15, 0xbe, 0xdb, 0x46, 0xb1, 0xbd,
  0x33, 0x31, 0xdd, 0xbd, 0xe0, 0x69, 0x41, 0xbd, 0xec, 0xf7, 0x8d, 0x3e,
  0x98, 0xf9, 0x6d, 0x3e, 0x30, 0xdd, 0x8f, 0xbc, 0x77, 0x73, 0x96, 0xbd,
  0x00, 0x37, 0x48, 0xbb, 0xf9, 0xd8, 0x5e, 0xbe, 0xd1, 0xb1, 0x86, 0xbd,
  0xca, 0x8d, 0xb3, 0x3e, 0x24, 0x15, 0x1d, 0xbe, 0x20, 0x68, 0xfe, 0x3d,
  0x86, 0x25, 0x6b, 0xbd, 0x90, 0xd9, 0x3f, 0x3e, 0xa9, 0xf6, 0x80, 0xbc,
  0xc5, 0x73, 0xa6, 0xbe, 0xac, 0x1e, 0xb4, 0xbe, 0x28, 0x11, 0xdf, 0x3d,
  0x84, 0x7a, 0xa3, 0xbe, 0x9b, 0xeb, 0xb7, 0x3e, 0xb1, 0x95, 0xb2, 0x3e,
  0x01, 0x7d, 0x95, 0xbd, 0xf0, 0x69, 0x51, 0x3d, 0x70, 0xb7, 0x4f, 0x3e,
  0x74, 0x2f, 0x11, 0x3e, 0x39, 0x61, 0xb9, 0xbe, 0x94, 0x52, 0xe5, 0x3b,
  0x19, 0xcb, 0x7a, 0xbe, 0xa7, 0xa0, 0xa3, 0xbe, 0x89, 0x83, 0xd6, 0x3e,
  0xd8, 0xd7, 0x0c, 0x3e, 0x0a, 0xf8, 0x9b, 0xbe, 0xbd, 0x6a, 0x16, 0xbe,
  0x7c, 0xd9, 0x6a, 0x3e, 0x5c, 0x0c, 0xbb, 0xbd, 0x18, 0x32, 0xf8, 0x3d,
  0x30, 0xd7, 0x41, 0xbd, 0xbe, 0x02, 0xcc, 0x3e, 0x2e, 0x39, 0xba, 0x3e,
  0x40, 0x34, 0x01, 0x3d, 0xcd, 0xfd, 0xd8, 0x3d, 0x07, 0xe7, 0x8a, 0xbe,
  0xdc, 0x4b, 0xb1, 0x3e, 0xa0, 0xc1, 0x0f, 0x3e, 0x97, 0xee, 0xa6, 0x3d,
  0x08, 0x81, 0xf8, 0x3d, 0x9b, 0x57, 0xaa, 0x3e, 0x9f, 0xcf, 0x9f, 0x3d,
  0xfe, 0x60, 0x25, 0x3e, 0xac, 0x4a, 0xa9, 0x3e, 0xc4, 0x76, 0xa7, 0x3e,
  0xf3, 0x96, 0x03, 0x3e, 0x9a, 0x82, 0x4d, 0x3e, 0x03, 0x98, 0xc4, 0xbe,
  0xf8, 0x93, 0x26, 0x3e, 0x9a, 0x4b, 0xb0, 0x3e, 0x75, 0x7a, 0x84, 0xbe,
  0x47, 0x71, 0x4e, 0xbd, 0xa9, 0x85, 0xa4, 0x3e, 0x2a, 0xa0, 0xb3, 0xbe,
  0x87, 0x92, 0x06, 0x3d, 0xb1, 0x50, 0xcd, 0xbe, 0x6c, 0x67, 0xbc, 0x3d,
  0x27, 0x0a, 0xa2, 0xbd, 0xa4, 0xda, 0x71, 0xbd, 0x9e, 0xc9, 0x80, 0xbe,
  0xef, 0x74, 0x31, 0xbe, 0x60, 0x86, 0x32, 0x3d, 0xf2, 0x14, 0xb2, 0x3e,
  0x13, 0xa4, 0x8e, 0x3e, 0x9c, 0x05, 0x1a, 0x3e, 0x28, 0x2d, 0x40, 0x3d,
  0xab, 0xf8, 0x4e, 0x3e, 0xd6, 0xf1, 0x4b, 0x3e, 0x60, 0x33, 0x1b, 0x3c,
  0x92, 0x87, 0xa5, 0x3e, 0xa8, 0xf9, 0xa4, 0xbe, 0xb0, 0x9c, 0xef, 0x3d,
  0xfb, 0xd7, 0xed, 0x3e, 0x43, 0x0e, 0xe8, 0xbc, 0x98, 0x18, 0xc9, 0x3e,
  0xeb, 0x2d, 0x3e, 0xbe, 0x80, 0x11, 0x77, 0xbe, 0xde, 0x72, 0x21, 0x3e,
  0x2f, 0x57, 0xf7, 0x3e, 0x52, 0x0b, 0x63, 0x3e, 0xc1, 0xbf, 0xab, 0xbe,
  0xc0, 0x2a, 0xb5, 0x3e, 0x0a, 0x7d, 0x8d, 0xbe, 0xbf, 0xa6, 0x83, 0xbe,
  0x5e, 0x57, 0x0d, 0xbd, 0xea, 0x43, 0x3a, 0x3e, 0xde, 0x7e, 0x0d, 0x3e,
  0xe7, 0xbd, 0xb7, 0xbe, 0x04, 0x43, 0x07, 0x3e, 0x30, 0xc8, 0xc6, 0x3e,
  0x4c, 0x1c, 0xe8, 0xbd, 0x9e, 0x08, 0xbb, 0x3e, 0xbb, 0x52, 0x65, 0xbe,
  0xe0, 0xd2, 0xb7, 0xbc, 0x70, 0x07, 0xe3, 0xbd, 0x2f, 0xe3, 0x06, 0x3e,
  0x14, 0x73, 0x74, 0x3e, 0xb4, 0x99, 0x77, 0x3e, 0xb7, 0x9e, 0x8d, 0xbd,
  0x7e, 0xd0, 0xdd, 0x3e, 0x14, 0x63, 0x9d, 0x3d, 0xfb, 0xee, 0x48, 0xbe,
  0xb9, 0xcd, 0xe6, 0xba, 0x54, 0x95, 0x2b, 0x3e, 0x7b, 0x41, 0xf9, 0xbe,
  0x26, 0x97, 0x3b, 0x3e, 0xf0, 0xfe, 0x9d, 0xbc, 0x90, 0x12, 0xbd, 0xbd,
  0x4c, 0x35, 0xcd, 0x3d, 0xd2, 0x3e, 0xaf, 0x3e, 0xde, 0x59, 0x7e, 0xbd,
  0x00, 0x59, 0x72, 0x3e, 0xa0, 0x5a, 0xbe, 0x3e, 0xbe, 0x0c, 0xac, 0x3e,
  0x00, 0x37, 0x30, 0xbc, 0x5f, 0xb5, 0xb8, 0xbc, 0x36, 0x52, 0x92, 0x3d,
  0x05, 0x00, 0xe2, 0x3e, 0x18, 0xdb, 0x86, 0xbe, 0xb9, 0xf4, 0x96, 0x3e,
  0x15, 0x97, 0x75, 0xbe, 0x7b, 0x8d, 0xa3, 0xbd, 0x2d, 0x6a, 0xcf, 0x3e,
  0x4d, 0xb2, 0x8a, 0xbe, 0xd8, 0x1a, 0x54, 0x3e, 0x00, 0x5e, 0x5a, 0x3a,
  0x12, 0x5c, 0xaa, 0x3e, 0x32, 0x6a, 0x98, 0xbd, 0xcc, 0x52, 0x83, 0x3d,
  0x78, 0x90, 0x80, 0x3d, 0x48, 0x31, 0xb0, 0x3c, 0xeb, 0x56, 0xd1, 0x3d,
  0xb8, 0xa2, 0xa2, 0xbd, 0x10, 0xf2, 0x38, 0x3d, 0xe9, 0x3f, 0x32, 0x3e,
  0x68, 0x78, 0xb4, 0xbe, 0x4d, 0xb2, 0x38, 0xbd, 0xd9, 0x8a, 0x56, 0xbe,
  0xe3, 0x06, 0x65, 0x3e, 0xd4, 0x51, 0x8a, 0x3e, 0xe0, 0xaf, 0x2c, 0x3e,
  0xf4, 0xdb, 0xa8, 0x3e, 0x9e, 0x1e, 0x1b, 0xbe, 0x0e, 0xfc, 0x9e, 0xbd,
  0x88, 0x61, 0xb4, 0x3e, 0x36, 0x40, 0x9c, 0x3e, 0x7a, 0xb8, 0xb3, 0xbe,
  0x00, 0xa8, 0x29, 0xbd, 0x0c, 0x29, 0x4e, 0x3e, 0x24, 0x79, 0x75, 0x3e,
  0xc0, 0x4a, 0x29, 0x3e, 0x28, 0xa5, 0x34, 0x3d, 0xa0, 0xaa, 0x4e, 0xbe,
  0xf8, 0xf0, 0xc7, 0x3d, 0x0c, 0x4f, 0x2a, 0xbe, 0xda, 0x24, 0xa4, 0x3e,
  0xaa, 0x65, 0xb5, 0x3e, 0x0a, 0xf8, 0x81, 0xbe, 0x80, 0x33, 0xfe, 0xbb,
  0xa0, 0xb9, 0x07, 0xbe, 0x49, 0x53, 0x19, 0xbe, 0xa8, 0x8b, 0x12, 0x3e,
  0xbc, 0x38, 0xcd, 0xbd, 0x50, 0x3f, 0x59, 0x3e, 0x70, 0xae, 0x2f, 0x3d,
  0xd8, 0x71, 0xee, 0x3d, 0xd7, 0xd3, 0x35, 0xbe, 0x40, 0xb6, 0x69, 0x3d,
  0xa8, 0x63, 0xbb, 0x3e, 0x4b, 0x8e, 0x3a, 0xbe, 0x82, 0x4e, 0x97, 0x3e,
  0xfe, 0x73, 0x9b, 0xbe, 0x88, 0xaf, 0xd9, 0xbd, 0xb4, 0x88, 0x87, 0xbd,
  0x18, 0xe3, 0x03, 0xbe, 0x58, 0xff, 0x53, 0xbe, 0x4c, 0x9d, 0x58, 0x3e,
  0xb3, 0x7b, 0x45, 0xbe, 0xae, 0xb6, 0xbc, 0x3e, 0xf4, 0x12, 0x27, 0x3e,
  0x95, 0x53, 0x62, 0x3e, 0x8b, 0x15, 0xa0, 0xbb, 0x17, 0xba, 0x36, 0x3e,
  0x00, 0xf2, 0x98, 0xbd, 0xb5, 0xbb, 0xe0, 0x3e, 0x09, 0xc2, 0xbc, 0xbd,
  0xc5, 0x9a, 0xcc, 0x3e, 0x10, 0xab, 0x82, 0xbd, 0x80, 0x14, 0x08, 0x3b,
  0xac, 0xfe, 0x1b, 0xbe, 0x88, 0xb3, 0x15, 0x3e, 0xf2, 0xec, 0xb4, 0x3e,
  0x94, 0x5c, 0x23, 0x3e, 0xc8, 0x3a, 0x45, 0x3e, 0xe7, 0xe7, 0xed, 0x3e,
  0xea, 0x73, 0x61, 0x3e, 0x20, 0x03, 0xa5, 0xbe, 0x30, 0x1d, 0xfa, 0x3d,
  0x87, 0x3b, 0x72, 0x3e, 0x0c, 0x65, 0x46, 0xbe, 0xca, 0xb7, 0xef, 0xbd,
  0x2b, 0x3f, 0x88, 0x3d, 0x9c, 0xdc, 0x5b, 0x3e, 0x3e, 0x9e, 0x8e, 0xbe,
  0x9c, 0x6d, 0xfd, 0xbd, 0x68, 0xb0, 0xad, 0x3c, 0x2b, 0x76, 0x20, 0x3e,
  0x94, 0xc3, 0x02, 0xbd, 0xf8, 0x08, 0x5d, 0x3d, 0xc8, 0x59, 0xd4, 0xbd,
  0xcb, 0x38, 0x4b, 0xbe, 0x28, 0x07, 0x5e, 0xbe, 0x4b, 0x9f, 0x26, 0x3e,
  0xb3, 0xc5, 0xc8, 0x3d, 0xda, 0xe3, 0x07, 0x3d, 0xd9, 0x12, 0x29, 0xbe,
  0x91, 0xb8, 0x76, 0x3e, 0x3c, 0x47, 0x59, 0x3e, 0x1b, 0x8d, 0x62, 0xbe,
  0x06, 0x31, 0xb4, 0x3e, 0xe8, 0x0b, 0xe5, 0xbd, 0x69, 0x26, 0x20, 0xbe,
  0xc4, 0x53, 0xc7, 0x3d, 0xc4, 0xa3, 0x90, 0x3e, 0xc4, 0xcc, 0xc0, 0xbd,
  0x96, 0xa5, 0xb1, 0x3e, 0x11, 0xdc, 0xc3, 0x3d, 0x5e, 0x75, 0x51, 0xbe,
  0x8d, 0xb2, 0x86, 0xbe, 0x0c, 0xde, 0x86, 0x3e, 0x1d, 0x83, 0x73, 0x3d,
  0x70, 0xe7, 0xf0, 0xbc, 0xf0, 0x81, 0x0a, 0x3d, 0x12, 0xd7, 0x68, 0xbe,
  0xbd, 0x64, 0xad, 0xbe, 0xd8, 0x23, 0x57, 0x3d, 0xfc, 0x8b, 0x9f, 0x3e,
  0x17, 0xa6, 0x1a, 0xbe, 0x53, 0xfe, 0xb1, 0xbe, 0x6d, 0xbe, 0x06, 0xbe,
  0xd8, 0xe5, 0x66, 0x3e, 0xc0, 0xf9, 0xc2, 0x3d, 0xd0, 0xeb, 0x18, 0xbd,
  0x47, 0x1d, 0x19, 0xbe, 0x2e, 0xfd, 0xff, 0xff, 0x04, 0x00, 0x00, 0x00,
  0x80, 0x01, 0x00, 0x00, 0x8b, 0x2d, 0xa2, 0x3d, 0x88, 0xe7, 0x41, 0xbd,
  0x0e, 0xe5, 0x6b, 0x3d, 0xd4, 0x1c, 0x2a, 0x3e, 0x1d, 0x4d, 0xd9, 0xbd,
  0x0e, 0x90, 0x8b, 0xbe, 0x9e, 0xb1, 0xee, 0x3d, 0xaf, 0x2a, 0xca, 0xbe,
  0x3a, 0xef, 0x28, 0xbf, 0x3c, 0x65, 0x6e, 0x3e, 0xc1, 0x5e, 0xc4, 0x3e,
  0xcd, 0xad, 0x0f, 0x3f, 0xc6, 0x6c, 0xc9, 0x3e, 0xcd, 0x0c, 0xf4, 0xbc,
  0x7e, 0x97, 0xb9, 0x3e, 0x2b, 0x03, 0x56, 0x3e, 0xb7, 0xe4, 0x69, 0x3d,
  0x43, 0x61, 0xdd, 0xbd, 0x71, 0xd5, 0x55, 0x3e, 0xb3, 0x2a, 0xd3, 0xbe,
  0xa5, 0x07, 0xb5, 0x3e, 0xf1, 0xe9, 0xc9, 0xbe, 0xe0, 0x01, 0xc7, 0x3c,
  0x42, 0x75, 0xb0, 0xbe, 0x0b, 0x4f, 0x65, 0xbe, 0x43, 0x4a, 0xbe, 0x3e,
  0x20, 0x82, 0x7b, 0xbd, 0x7c, 0xf6, 0xbf, 0xbe, 0x80, 0x58, 0x7f, 0x3c,
  0x1c, 0x23, 0x10, 0xbe, 0xa8, 0x14, 0x7f, 0xbe, 0x30, 0x5a, 0xcc, 0xbd,
  0x40, 0x76, 0x58, 0xbe, 0xda, 0xe2, 0xbb, 0x3d, 0x34, 0xda, 0x28, 0x3d,
  0x63, 0x56, 0x8f, 0x3e, 0xb5, 0xd3, 0x9d, 0xbe, 0xb4, 0x27, 0xdc, 0xbd,
  0x56, 0x07, 0x6a, 0xbe, 0xed, 0xcc, 0x9f, 0xbe, 0xae, 0x29, 0x14, 0x3e,
  0x40, 0xa6, 0x80, 0xbb, 0x23, 0x8c, 0x8c, 0x3e, 0xe8, 0x1f, 0x0c, 0xbf,
  0xa0, 0xc9, 0x4c, 0xbe, 0x97, 0xb1, 0x0a, 0x3e, 0x5b, 0x21, 0x43, 0x3e,
  0x5f, 0xb7, 0xd0, 0xbe, 0x08, 0x54, 0x58, 0xbd, 0x40, 0xff, 0x0b, 0x3d,
  0x8b, 0xce, 0xb6, 0xbe, 0x84, 0x4f, 0xc2, 0xbe, 0x02, 0x09, 0x71, 0xbe,
  0xe1, 0xca, 0xbc, 0xbe, 0xef, 0xa4, 0x01, 0x3f, 0x43, 0x62, 0xe0, 0x3b,
  0xd5, 0xc6, 0x92, 0x3d, 0x44, 0xd0, 0xc5, 0xbd, 0x10, 0xdf, 0x52, 0x3d,
  0x0c, 0xdf, 0x3c, 0xbe, 0xde, 0xc3, 0x10, 0xbd, 0x84, 0x22, 0x07, 0xbf,
  0x4c, 0x76, 0x9c, 0x3e, 0xb5, 0x2f, 0x3a, 0x3d, 0x5c, 0xb8, 0xc2, 0x3d,
  0xb8, 0xcd, 0x71, 0xbe, 0xb0, 0xa0, 0x3f, 0x3e, 0x58, 0x7e, 0x08, 0xbf,
  0x84, 0xd3, 0x0c, 0x3e, 0xc0, 0xa0, 0x97, 0xbd, 0x8c, 0x7f, 0x23, 0xbe,
  0xbe, 0x54, 0x22, 0xbe, 0x7c, 0x31, 0x97, 0xbe, 0x1d, 0x13, 0xaf, 0x3e,
  0xcd, 0x69, 0xbc, 0x3e, 0x71, 0xb1, 0xd3, 0x3e, 0x04, 0xa5, 0x59, 0x3e,
  0x69, 0x7e, 0xba, 0x3e, 0x6a, 0x32, 0x0a, 0xbc, 0x62, 0x2b, 0x28, 0xbf,
  0xa4, 0xa9, 0x8a, 0x3e, 0x08, 0x3e, 0x84, 0x3d, 0xb2, 0x3a, 0xbe, 0xbe,
  0xb4, 0x64, 0x74, 0xbe, 0x71, 0x84, 0x6c, 0xbe, 0x5f, 0x11, 0xb5, 0x3e,
  0xf0, 0x40, 0x81, 0xbd, 0x0c, 0x3f, 0xe9, 0xbd, 0x50, 0xfb, 0x01, 0x3d,
  0x66, 0x69, 0x6c, 0x3e, 0x6c, 0x9b, 0x8d, 0xbe, 0xb0, 0xe0, 0x17, 0x3d,
  0x58, 0x02, 0xa6, 0x3d, 0x6f, 0x40, 0xc2, 0x3d, 0x39, 0x2b, 0xdf, 0x3e,
  0xf5, 0x8e, 0xe0, 0xbd, 0xba, 0xfe, 0xff, 0xff, 0x04, 0x00, 0x00, 0x00,
  0x80, 0x00, 0x00, 0x00, 0x03, 0xd5, 0x91, 0x3c, 0x85, 0x14, 0x47, 0xbd,
  0x26, 0xef, 0x29, 0xbc, 0x71, 0x06, 0x37, 0xbd, 0x2b, 0x7d, 0x39, 0xbc,
  0x2f, 0x2c, 0x6c, 0xbc, 0xc3, 0x9c, 0x31, 0x3c, 0x00, 0x00, 0x00, 0x00,
  0x00, 0x00, 0x00, 0x00, 0x00, 0x00, 0x00, 0x00, 0x00, 0x00, 0x00, 0x00,
  0x65, 0xab, 0x92, 0xbc, 0x00, 0x00, 0x00, 0x00, 0x00, 0x00, 0x00, 0x00,
  0x6c, 0xe8, 0x29, 0x3c, 0xe9, 0xb6, 0xa9, 0xbc, 0x00, 0x00, 0x00, 0x00,
  0x00, 0x00, 0x00, 0x00, 0xc2, 0xe1, 0x18, 0x3b, 0x00, 0x00, 0x00, 0x00,
  0x9f, 0x1c, 0xc0, 0x3d, 0x82, 0xa0, 0xf9, 0xba, 0x55, 0xbf, 0x19, 0xbc,
  0x00, 0x00, 0x00, 0x00, 0x00, 0x00, 0x00, 0x00, 0xc3, 0x6b, 0x55, 0xbd,
  0x8f, 0x87, 0x85, 0x3d, 0x3f, 0xa1, 0x34, 0xbb, 0x00, 0x00, 0x00, 0x00,
  0x00, 0x00, 0x00, 0x00, 0x00, 0x00, 0x00, 0x00, 0xa7, 0xf9, 0xbe, 0x3b,
  0x46, 0xff, 0xff, 0xff, 0x04, 0x00, 0x00, 0x00, 0x20, 0x00, 0x00, 0x00,
  0x6b, 0xeb, 0xb8, 0xbc, 0x82, 0x97, 0x26, 0xbc, 0xe0, 0xb2, 0x3b, 0x3d,
  0xdb, 0xc8, 0x23, 0xbc, 0xbb, 0xff, 0x27, 0xbc, 0x00, 0x00, 0x00, 0x00,
  0x6d, 0xe5, 0x8c, 0x3b, 0xd2, 0x1a, 0x3e, 0xbc, 0x72, 0xff, 0xff, 0xff,
  0x04, 0x00, 0x00, 0x00, 0x80, 0x00, 0x00, 0x00, 0x00, 0x00, 0x00, 0x00,
  0x4d, 0xa6, 0x36, 0x3d, 0x58, 0xfd, 0x3b, 0xbd, 0x51, 0x0b, 0xbe, 0xbc,
  0x5f, 0xf8, 0x51, 0x3c, 0xb0, 0x9c, 0x3c, 0x3d, 0x84, 0x0d, 0x40, 0x3d,
  0xb5, 0x39, 0x73, 0x3c, 0x1b, 0x2d, 0x38, 0xbd, 0x76, 0xb2, 0x0f, 0xbd,
  0x00, 0x00, 0x00, 0x00, 0x5c, 0x80, 0x83, 0xbc, 0x12, 0xa5, 0x38, 0xbd,
  0x00, 0x00, 0x00, 0x00, 0x7d, 0x4a, 0x1c, 0x3d, 0x51, 0xb6, 0xa2, 0xbc,
  0xdd, 0xe5, 0xa0, 0xbc, 0x7a, 0xf7, 0x82, 0xbb, 0x3e, 0x63, 0x51, 0xba,
  0x0c, 0x30, 0xcf, 0x3b, 0xf1, 0xc8, 0x23, 0x3c, 0x53, 0x7a, 0xc7, 0xbc,
  0x91, 0x5e, 0x7e, 0x3b, 0x59, 0xcc, 0xa3, 0xbc, 0xe8, 0x6b, 0xab, 0xbd,
  0x45, 0xbd, 0xa6, 0x3c, 0x01, 0x30, 0xde, 0x3c, 0xda, 0xcd, 0x6f, 0x3c,
  0x37, 0xc6, 0x9f, 0xbc, 0x60, 0x19, 0x8b, 0x3c, 0x67, 0xcd, 0x36, 0x3d,
  0x40, 0xee, 0xbc, 0x3d, 0x00, 0x00, 0x06, 0x00, 0x08, 0x00, 0x04, 0x00,
  0x06, 0x00, 0x00, 0x00, 0x04, 0x00, 0x00, 0x00, 0x0c, 0x00, 0x00, 0x00,
  0xae, 0x47, 0x53, 0x3d, 0xe4, 0x5c, 0x2b, 0x3d, 0x81, 0x83, 0x27, 0x3c,
  0xc4, 0xf9, 0xff, 0xff, 0xc8, 0xf9, 0xff, 0xff, 0x0f, 0x00, 0x00, 0x00,
  0x4d, 0x4c, 0x49, 0x52, 0x20, 0x43, 0x6f, 0x6e, 0x76, 0x65, 0x72, 0x74,
  0x65, 0x64, 0x2e, 0x00, 0x01, 0x00, 0x00, 0x00, 0x14, 0x00, 0x00, 0x00,
  0x00, 0x00, 0x0e, 0x00, 0x18, 0x00, 0x14, 0x00, 0x10, 0x00, 0x0c, 0x00,
  0x08, 0x00, 0x04, 0x00, 0x0e, 0x00, 0x00, 0x00, 0x14, 0x00, 0x00, 0x00,
  0x1c, 0x00, 0x00, 0x00, 0x24, 0x01, 0x00, 0x00, 0x28, 0x01, 0x00, 0x00,
  0x2c, 0x01, 0x00, 0x00, 0x04, 0x00, 0x00, 0x00, 0x6d, 0x61, 0x69, 0x6e,
  0x00, 0x00, 0x00, 0x00, 0x04, 0x00, 0x00, 0x00, 0xc8, 0x00, 0x00, 0x00,
  0x80, 0x00, 0x00, 0x00, 0x48, 0x00, 0x00, 0x00, 0x04, 0x00, 0x00, 0x00,
  0x56, 0xff, 0xff, 0xff, 0x1c, 0x00, 0x00, 0x00, 0x00, 0x00, 0x00, 0x08,
  0x1c, 0x00, 0x00, 0x00, 0x20, 0x00, 0x00, 0x00, 0x00, 0x00, 0x0a, 0x00,
  0x08, 0x00, 0x00, 0x00, 0x00, 0x00, 0x07, 0x00, 0x0a, 0x00, 0x00, 0x00,
  0x00, 0x00, 0x00, 0x01, 0x01, 0x00, 0x00, 0x00, 0x0c, 0x00, 0x00, 0x00,
  0x03, 0x00, 0x00, 0x00, 0x0b, 0x00, 0x00, 0x00, 0x08, 0x00, 0x00, 0x00,
  0x01, 0x00, 0x00, 0x00, 0x96, 0xff, 0xff, 0xff, 0x10, 0x00, 0x00, 0x00,
  0x00, 0x00, 0x00, 0x08, 0x10, 0x00, 0x00, 0x00, 0x14, 0x00, 0x00, 0x00,
  0x86, 0xff, 0xff, 0xff, 0x00, 0x00, 0x01, 0x01, 0x01, 0x00, 0x00, 0x00,
  0x0b, 0x00, 0x00, 0x00, 0x03, 0x00, 0x00, 0x00, 0x0a, 0x00, 0x00, 0x00,
  0x07, 0x00, 0x00, 0x00, 0x02, 0x00, 0x00, 0x00, 0xca, 0xff, 0xff, 0xff,
  0x10, 0x00, 0x00, 0x00, 0x00, 0x00, 0x00, 0x08, 0x10, 0x00, 0x00, 0x00,
  0x14, 0x00, 0x00, 0x00, 0xba, 0xff, 0xff, 0xff, 0x00, 0x00, 0x01, 0x01,
  0x01, 0x00, 0x00, 0x00, 0x0a, 0x00, 0x00, 0x00, 0x03, 0x00, 0x00, 0x00,
  0x09, 0x00, 0x00, 0x00, 0x06, 0x00, 0x00, 0x00, 0x03, 0x00, 0x00, 0x00,
  0x00, 0x00, 0x0e, 0x00, 0x16, 0x00, 0x00, 0x00, 0x10, 0x00, 0x0c, 0x00,
  0x0b, 0x00, 0x04, 0x00, 0x0e, 0x00, 0x00, 0x00, 0x1c, 0x00, 0x00, 0x00,
  0x00, 0x00, 0x00, 0x08, 0x1c, 0x00, 0x00, 0x00, 0x20, 0x00, 0x00, 0x00,
  0x00, 0x00, 0x0a, 0x00, 0x08, 0x00, 0x07, 0x00, 0x00, 0x00, 0x06, 0x00,
  0x0a, 0x00, 0x00, 0x00, 0x00, 0x00, 0x01, 0x01, 0x01, 0x00, 0x00, 0x00,
  0x09, 0x00, 0x00, 0x00, 0x03, 0x00, 0x00, 0x00, 0x00, 0x00, 0x00, 0x00,
  0x05, 0x00, 0x00, 0x00, 0x04, 0x00, 0x00, 0x00, 0x01, 0x00, 0x00, 0x00,
  0x0c, 0x00, 0x00, 0x00, 0x01, 0x00, 0x00, 0x00, 0x00, 0x00, 0x00, 0x00,
  0x0d, 0x00, 0x00, 0x00, 0xb0, 0x04, 0x00, 0x00, 0x4c, 0x04, 0x00, 0x00,
  0xf4, 0x03, 0x00, 0x00, 0x9c, 0x03, 0x00, 0x00, 0x44, 0x03, 0x00, 0x00,
  0xf0, 0x02, 0x00, 0x00, 0x9c, 0x02, 0x00, 0x00, 0x48, 0x02, 0x00, 0x00,
  0xf4, 0x01, 0x00, 0x00, 0x68, 0x01, 0x00, 0x00, 0xdc, 0x00, 0x00, 0x00,
  0x50, 0x00, 0x00, 0x00, 0x04, 0x00, 0x00, 0x00, 0x92, 0xfb, 0xff, 0xff,
  0x10, 0x00, 0x00, 0x00, 0x10, 0x00, 0x00, 0x00, 0x0d, 0x00, 0x00, 0x00,
  0x28, 0x00, 0x00, 0x00, 0x84, 0xfb, 0xff, 0xff, 0x19, 0x00, 0x00, 0x00,
  0x53, 0x74, 0x61, 0x74, 0x65, 0x66, 0x75, 0x6c, 0x50, 0x61, 0x72, 0x74,
  0x69, 0x74, 0x69, 0x6f, 0x6e, 0x65, 0x64, 0x43, 0x61, 0x6c, 0x6c, 0x3a,
  0x30, 0x00, 0x00, 0x00, 0x03, 0x00, 0x00, 0x00, 0x01, 0x00, 0x00, 0x00,
  0x01, 0x00, 0x00, 0x00, 0x03, 0x00, 0x00, 0x00, 0xda, 0xfb, 0xff, 0xff,
  0x10, 0x00, 0x00, 0x00, 0x10, 0x00, 0x00, 0x00, 0x0c, 0x00, 0x00, 0x00,
  0x68, 0x00, 0x00, 0x00, 0xcc, 0xfb, 0xff, 0xff, 0x58, 0x00, 0x00, 0x00,
  0x73, 0x65, 0x71, 0x75, 0x65, 0x6e, 0x74, 0x69, 0x61, 0x6c, 0x5f, 0x34,
  0x2f, 0x64, 0x65, 0x6e, 0x73, 0x65, 0x5f, 0x31, 0x34, 0x2f, 0x54, 0x65,
  0x6e, 0x73, 0x6f, 0x72, 0x64, 0x6f, 0x74, 0x3b, 0x73, 0x65, 0x71, 0x75,
  0x65, 0x6e, 0x74, 0x69, 0x61, 0x6c, 0x5f, 0x34, 0x2f, 0x64, 0x65, 0x6e,
  0x73, 0x65, 0x5f, 0x31, 0x34, 0x2f, 0x52, 0x65, 0x6c, 0x75, 0x3b, 0x73,
  0x65, 0x71, 0x75, 0x65, 0x6e, 0x74, 0x69, 0x61, 0x6c, 0x5f, 0x34, 0x2f,
  0x64, 0x65, 0x6e, 0x73, 0x65, 0x5f, 0x31, 0x34, 0x2f, 0x42, 0x69, 0x61,
  0x73, 0x41, 0x64, 0x64, 0x00, 0x00, 0x00, 0x00, 0x03, 0x00, 0x00, 0x00,
  0x01, 0x00, 0x00, 0x00, 0x01, 0x00, 0x00, 0x00, 0x20, 0x00, 0x00, 0x00,
  0x62, 0xfc, 0xff, 0xff, 0x10, 0x00, 0x00, 0x00, 0x10, 0x00, 0x00, 0x00,
  0x0b, 0x00, 0x00, 0x00, 0x68, 0x00, 0x00, 0x00, 0x54, 0xfc, 0xff, 0xff,
  0x58, 0x00, 0x00, 0x00, 0x73, 0x65, 0x71, 0x75, 0x65, 0x6e, 0x74, 0x69,
  0x61, 0x6c, 0x5f, 0x34, 0x2f, 0x64, 0x65, 0x6e, 0x73, 0x65, 0x5f, 0x31,
  0x33, 0x2f, 0x54, 0x65, 0x6e, 0x73, 0x6f, 0x72, 0x64, 0x6f, 0x74, 0x3b,
  0x73, 0x65, 0x71, 0x75, 0x65, 0x6e, 0x74, 0x69, 0x61, 0x6c, 0x5f, 0x34,
  0x2f, 0x64, 0x65, 0x6e, 0x73, 0x65, 0x5f, 0x31, 0x33, 0x2f, 0x52, 0x65,
  0x6c, 0x75, 0x3b, 0x73, 0x65, 0x71, 0x75, 0x65, 0x6e, 0x74, 0x69, 0x61,
  0x6c, 0x5f, 0x34, 0x2f, 0x64, 0x65, 0x6e, 0x73, 0x65, 0x5f, 0x31, 0x33,
  0x2f, 0x42, 0x69, 0x61, 0x73, 0x41, 0x64, 0x64, 0x00, 0x00, 0x00, 0x00,
  0x03, 0x00, 0x00, 0x00, 0x01, 0x00, 0x00, 0x00, 0x01, 0x00, 0x00, 0x00,
  0x08, 0x00, 0x00, 0x00, 0xea, 0xfc, 0xff, 0xff, 0x10, 0x00, 0x00, 0x00,
  0x10, 0x00, 0x00, 0x00, 0x0a, 0x00, 0x00, 0x00, 0x68, 0x00, 0x00, 0x00,
  0xdc, 0xfc, 0xff, 0xff, 0x58, 0x00, 0x00, 0x00, 0x73, 0x65, 0x71, 0x75,
  0x65, 0x6e, 0x74, 0x69, 0x61, 0x6c, 0x5f, 0x34, 0x2f, 0x64, 0x65, 0x6e,
  0x73, 0x65, 0x5f, 0x31, 0x32, 0x2f, 0x54, 0x65, 0x6e, 0x73, 0x6f, 0x72,
  0x64, 0x6f, 0x74, 0x3b, 0x73, 0x65, 0x71, 0x75, 0x65, 0x6e, 0x74, 0x69,
  0x61, 0x6c, 0x5f, 0x34, 0x2f, 0x64, 0x65, 0x6e, 0x73, 0x65, 0x5f, 0x31,
  0x32, 0x2f, 0x52, 0x65, 0x6c, 0x75, 0x3b, 0x73, 0x65, 0x71, 0x75, 0x65,
  0x6e, 0x74, 0x69, 0x61, 0x6c, 0x5f, 0x34, 0x2f, 0x64, 0x65, 0x6e, 0x73,
  0x65, 0x5f, 0x31, 0x32, 0x2f, 0x42, 0x69, 0x61, 0x73, 0x41, 0x64, 0x64,
  0x00, 0x00, 0x00, 0x00, 0x03, 0x00, 0x00, 0x00, 0x01, 0x00, 0x00, 0x00,
  0x01, 0x00, 0x00, 0x00, 0x20, 0x00, 0x00, 0x00, 0x72, 0xfd, 0xff, 0xff,
  0x10, 0x00, 0x00, 0x00, 0x10, 0x00, 0x00, 0x00, 0x09, 0x00, 0x00, 0x00,
  0x34, 0x00, 0x00, 0x00, 0x64, 0xfd, 0xff, 0xff, 0x24, 0x00, 0x00, 0x00,
  0x73, 0x65, 0x71, 0x75, 0x65, 0x6e, 0x74, 0x69, 0x61, 0x6c, 0x5f, 0x34,
  0x2f, 0x6f, 0x75, 0x74, 0x70, 0x75, 0x74, 0x2f, 0x54, 0x65, 0x6e, 0x73,
  0x6f, 0x72, 0x64, 0x6f, 0x74, 0x2f, 0x4d, 0x61, 0x74, 0x4d, 0x75, 0x6c,
  0x00, 0x00, 0x00, 0x00, 0x02, 0x00, 0x00, 0x00, 0x03, 0x00, 0x00, 0x00,
  0x20, 0x00, 0x00, 0x00, 0xc2, 0xfd, 0xff, 0xff, 0x10, 0x00, 0x00, 0x00,
  0x10, 0x00, 0x00, 0x00, 0x08, 0x00, 0x00, 0x00, 0x34, 0x00, 0x00, 0x00,
  0xb4, 0xfd, 0xff, 0xff, 0x26, 0x00, 0x00, 0x00, 0x73, 0x65, 0x71, 0x75,
  0x65, 0x6e, 0x74, 0x69, 0x61, 0x6c, 0x5f, 0x34, 0x2f, 0x64, 0x65, 0x6e,
  0x73, 0x65, 0x5f, 0x31, 0x34, 0x2f, 0x54, 0x65, 0x6e, 0x73, 0x6f, 0x72,
  0x64, 0x6f, 0x74, 0x2f, 0x4d, 0x61, 0x74, 0x4d, 0x75, 0x6c, 0x00, 0x00,
  0x02, 0x00, 0x00, 0x00, 0x20, 0x00, 0x00, 0x00, 0x08, 0x00, 0x00, 0x00,
  0x12, 0xfe, 0xff, 0xff, 0x10, 0x00, 0x00, 0x00, 0x10, 0x00, 0x00, 0x00,
  0x07, 0x00, 0x00, 0x00, 0x34, 0x00, 0x00, 0x00, 0x04, 0xfe, 0xff, 0xff,
  0x26, 0x00, 0x00, 0x00, 0x73, 0x65, 0x71, 0x75, 0x65, 0x6e, 0x74, 0x69,
  0x61, 0x6c, 0x5f, 0x34, 0x2f, 0x64, 0x65, 0x6e, 0x73, 0x65, 0x5f, 0x31,
  0x33, 0x2f, 0x54, 0x65, 0x6e, 0x73, 0x6f, 0x72, 0x64, 0x6f, 0x74, 0x2f,
  0x4d, 0x61, 0x74, 0x4d, 0x75, 0x6c, 0x00, 0x00, 0x02, 0x00, 0x00, 0x00,
  0x08, 0x00, 0x00, 0x00, 0x20, 0x00, 0x00, 0x00, 0x62, 0xfe, 0xff, 0xff,
  0x10, 0x00, 0x00, 0x00, 0x10, 0x00, 0x00, 0x00, 0x06, 0x00, 0x00, 0x00,
  0x34, 0x00, 0x00, 0x00, 0x54, 0xfe, 0xff, 0xff, 0x26, 0x00, 0x00, 0x00,
  0x73, 0x65, 0x71, 0x75, 0x65, 0x6e, 0x74, 0x69, 0x61, 0x6c, 0x5f, 0x34,
  0x2f, 0x64, 0x65, 0x6e, 0x73, 0x65, 0x5f, 0x31, 0x32, 0x2f, 0x54, 0x65,
  0x6e, 0x73, 0x6f, 0x72, 0x64, 0x6f, 0x74, 0x2f, 0x4d, 0x61, 0x74, 0x4d,
  0x75, 0x6c, 0x00, 0x00, 0x02, 0x00, 0x00, 0x00, 0x20, 0x00, 0x00, 0x00,
  0x03, 0x00, 0x00, 0x00, 0xb2, 0xfe, 0xff, 0xff, 0x10, 0x00, 0x00, 0x00,
  0x10, 0x00, 0x00, 0x00, 0x05, 0x00, 0x00, 0x00, 0x3c, 0x00, 0x00, 0x00,
  0xa4, 0xfe, 0xff, 0xff, 0x2c, 0x00, 0x00, 0x00, 0x73, 0x65, 0x71, 0x75,
  0x65, 0x6e, 0x74, 0x69, 0x61, 0x6c, 0x5f, 0x34, 0x2f, 0x64, 0x65, 0x6e,
  0x73, 0x65, 0x5f, 0x31, 0x32, 0x2f, 0x42, 0x69, 0x61, 0x73, 0x41, 0x64,
  0x64, 0x2f, 0x52, 0x65, 0x61, 0x64, 0x56, 0x61, 0x72, 0x69, 0x61, 0x62,
  0x6c, 0x65, 0x4f, 0x70, 0x00, 0x00, 0x00, 0x00, 0x01, 0x00, 0x00, 0x00,
  0x20, 0x00, 0x00, 0x00, 0x06, 0xff, 0xff, 0xff, 0x10, 0x00, 0x00, 0x00,
  0x10, 0x00, 0x00, 0x00, 0x04, 0x00, 0x00, 0x00, 0x3c, 0x00, 0x00, 0x00,
  0xf8, 0xfe, 0xff, 0xff, 0x2c, 0x00, 0x00, 0x00, 0x73, 0x65, 0x71, 0x75,
  0x65, 0x6e, 0x74, 0x69, 0x61, 0x6c, 0x5f, 0x34, 0x2f, 0x64, 0x65, 0x6e,
  0x73, 0x65, 0x5f, 0x31, 0x33, 0x2f, 0x42, 0x69, 0x61, 0x73, 0x41, 0x64,
  0x64, 0x2f, 0x52, 0x65, 0x61, 0x64, 0x56, 0x61, 0x72, 0x69, 0x61, 0x62,
  0x6c, 0x65, 0x4f, 0x70, 0x00, 0x00, 0x00, 0x00, 0x01, 0x00, 0x00, 0x00,
  0x08, 0x00, 0x00, 0x00, 0x5a, 0xff, 0xff, 0xff, 0x10, 0x00, 0x00, 0x00,
  0x10, 0x00, 0x00, 0x00, 0x03, 0x00, 0x00, 0x00, 0x3c, 0x00, 0x00, 0x00,
  0x4c, 0xff, 0xff, 0xff, 0x2c, 0x00, 0x00, 0x00, 0x73, 0x65, 0x71, 0x75,
  0x65, 0x6e, 0x74, 0x69, 0x61, 0x6c, 0x5f, 0x34, 0x2f, 0x64, 0x65, 0x6e,
  0x73, 0x65, 0x5f, 0x31, 0x34, 0x2f, 0x42, 0x69, 0x61, 0x73, 0x41, 0x64,
  0x64, 0x2f, 0x52, 0x65, 0x61, 0x64, 0x56, 0x61, 0x72, 0x69, 0x61, 0x62,
  0x6c, 0x65, 0x4f, 0x70, 0x00, 0x00, 0x00, 0x00, 0x01, 0x00, 0x00, 0x00,
  0x20, 0x00, 0x00, 0x00, 0xae, 0xff, 0xff, 0xff, 0x10, 0x00, 0x00, 0x00,
  0x10, 0x00, 0x00, 0x00, 0x02, 0x00, 0x00, 0x00, 0x38, 0x00, 0x00, 0x00,
  0xa0, 0xff, 0xff, 0xff, 0x2a, 0x00, 0x00, 0x00, 0x73, 0x65, 0x71, 0x75,
  0x65, 0x6e, 0x74, 0x69, 0x61, 0x6c, 0x5f, 0x34, 0x2f, 0x6f, 0x75, 0x74,
  0x70, 0x75, 0x74, 0x2f, 0x42, 0x69, 0x61, 0x73, 0x41, 0x64, 0x64, 0x2f,
  0x52, 0x65, 0x61, 0x64, 0x56, 0x61, 0x72, 0x69, 0x61, 0x62, 0x6c, 0x65,
  0x4f, 0x70, 0x00, 0x00, 0x01, 0x00, 0x00, 0x00, 0x03, 0x00, 0x00, 0x00,
  0x00, 0x00, 0x0e, 0x00, 0x14, 0x00, 0x10, 0x00, 0x00, 0x00, 0x0c, 0x00,
  0x08, 0x00, 0x04, 0x00, 0x0e, 0x00, 0x00, 0x00, 0x14, 0x00, 0x00, 0x00,
  0x14, 0x00, 0x00, 0x00, 0x01, 0x00, 0x00, 0x00, 0x24, 0x00, 0x00, 0x00,
  0x04, 0x00, 0x04, 0x00, 0x04, 0x00, 0x00, 0x00, 0x13, 0x00, 0x00, 0x00,
  0x73, 0x65, 0x72, 0x76, 0x69, 0x6e, 0x67, 0x5f, 0x64, 0x65, 0x66, 0x61,
  0x75, 0x6c, 0x74, 0x5f, 0x78, 0x3a, 0x30, 0x00, 0x03, 0x00, 0x00, 0x00,
  0x01, 0x00, 0x00, 0x00, 0x01, 0x00, 0x00, 0x00, 0x03, 0x00, 0x00, 0x00,
  0x01, 0x00, 0x00, 0x00, 0x10, 0x00, 0x00, 0x00, 0x0c, 0x00, 0x10, 0x00,
  0x0f, 0x00, 0x00, 0x00, 0x08, 0x00, 0x04, 0x00, 0x0c, 0x00, 0x00, 0x00,
  0x09, 0x00, 0x00, 0x00, 0x05, 0x00, 0x00, 0x00, 0x00, 0x00, 0x00, 0x09
 
};

#endif //C_MODEL3_PRUNE_H