#ifndef C_MODEL_ALT_3_H
#define C_MODEL_ALT_3_H


unsigned int c_model_alt_3_len = 12128;
unsigned char c_model_alt_3[] = {
 0x1c, 0x00, 0x00, 0x00, 0x54, 0x46, 0x4c, 0x33, 0x14, 0x00, 0x20, 0x00,
  0x1c, 0x00, 0x18, 0x00, 0x14, 0x00, 0x10, 0x00, 0x0c, 0x00, 0x00, 0x00,
  0x08, 0x00, 0x04, 0x00, 0x14, 0x00, 0x00, 0x00, 0x1c, 0x00, 0x00, 0x00,
  0x80, 0x00, 0x00, 0x00, 0xd8, 0x00, 0x00, 0x00, 0xf4, 0x0f, 0x00, 0x00,
  0x04, 0x10, 0x00, 0x00, 0xa0, 0x2e, 0x00, 0x00, 0x03, 0x00, 0x00, 0x00,
  0x01, 0x00, 0x00, 0x00, 0x04, 0x00, 0x00, 0x00, 0x96, 0xe8, 0xff, 0xff,
  0x0c, 0x00, 0x00, 0x00, 0x1c, 0x00, 0x00, 0x00, 0x38, 0x00, 0x00, 0x00,
  0x0f, 0x00, 0x00, 0x00, 0x73, 0x65, 0x72, 0x76, 0x69, 0x6e, 0x67, 0x5f,
  0x64, 0x65, 0x66, 0x61, 0x75, 0x6c, 0x74, 0x00, 0x01, 0x00, 0x00, 0x00,
  0x04, 0x00, 0x00, 0x00, 0x9c, 0xff, 0xff, 0xff, 0x3a, 0x00, 0x00, 0x00,
  0x04, 0x00, 0x00, 0x00, 0x06, 0x00, 0x00, 0x00, 0x6f, 0x75, 0x74, 0x70,
  0x75, 0x74, 0x00, 0x00, 0x01, 0x00, 0x00, 0x00, 0x04, 0x00, 0x00, 0x00,
  0x6a, 0xe8, 0xff, 0xff, 0x04, 0x00, 0x00, 0x00, 0x05, 0x00, 0x00, 0x00,
  0x69, 0x6e, 0x70, 0x75, 0x74, 0x00, 0x00, 0x00, 0x02, 0x00, 0x00, 0x00,
  0x34, 0x00, 0x00, 0x00, 0x04, 0x00, 0x00, 0x00, 0xdc, 0xff, 0xff, 0xff,
  0x3d, 0x00, 0x00, 0x00, 0x04, 0x00, 0x00, 0x00, 0x13, 0x00, 0x00, 0x00,
  0x43, 0x4f, 0x4e, 0x56, 0x45, 0x52, 0x53, 0x49, 0x4f, 0x4e, 0x5f, 0x4d,
  0x45, 0x54, 0x41, 0x44, 0x41, 0x54, 0x41, 0x00, 0x08, 0x00, 0x0c, 0x00,
  0x08, 0x00, 0x04, 0x00, 0x08, 0x00, 0x00, 0x00, 0x3c, 0x00, 0x00, 0x00,
  0x04, 0x00, 0x00, 0x00, 0x13, 0x00, 0x00, 0x00, 0x6d, 0x69, 0x6e, 0x5f,
  0x72, 0x75, 0x6e, 0x74, 0x69, 0x6d, 0x65, 0x5f, 0x76, 0x65, 0x72, 0x73,
  0x69, 0x6f, 0x6e, 0x00, 0x3e, 0x00, 0x00, 0x00, 0x18, 0x0f, 0x00, 0x00,
  0x10, 0x0f, 0x00, 0x00, 0xf4, 0x0e, 0x00, 0x00, 0x64, 0x0e, 0x00, 0x00,
  0xd4, 0x0d, 0x00, 0x00, 0xa4, 0x0d, 0x00, 0x00, 0x8c, 0x0d, 0x00, 0x00,
  0x78, 0x0d, 0x00, 0x00, 0x64, 0x0d, 0x00, 0x00, 0x50, 0x0d, 0x00, 0x00,
  0x3c, 0x0d, 0x00, 0x00, 0x28, 0x0d, 0x00, 0x00, 0x98, 0x0b, 0x00, 0x00,
  0x88, 0x07, 0x00, 0x00, 0x78, 0x03, 0x00, 0x00, 0xe8, 0x01, 0x00, 0x00,
  0xe0, 0x01, 0x00, 0x00, 0xd8, 0x01, 0x00, 0x00, 0xd0, 0x01, 0x00, 0x00,
  0xc8, 0x01, 0x00, 0x00, 0xc0, 0x01, 0x00, 0x00, 0xb8, 0x01, 0x00, 0x00,
  0xb0, 0x01, 0x00, 0x00, 0xa8, 0x01, 0x00, 0x00, 0xa0, 0x01, 0x00, 0x00,
  0x98, 0x01, 0x00, 0x00, 0x90, 0x01, 0x00, 0x00, 0x88, 0x01, 0x00, 0x00,
  0x80, 0x01, 0x00, 0x00, 0x78, 0x01, 0x00, 0x00, 0x70, 0x01, 0x00, 0x00,
  0x68, 0x01, 0x00, 0x00, 0x60, 0x01, 0x00, 0x00, 0x58, 0x01, 0x00, 0x00,
  0x50, 0x01, 0x00, 0x00, 0x48, 0x01, 0x00, 0x00, 0x40, 0x01, 0x00, 0x00,
  0x38, 0x01, 0x00, 0x00, 0x30, 0x01, 0x00, 0x00, 0x28, 0x01, 0x00, 0x00,
  0x20, 0x01, 0x00, 0x00, 0x18, 0x01, 0x00, 0x00, 0x10, 0x01, 0x00, 0x00,
  0x08, 0x01, 0x00, 0x00, 0x00, 0x01, 0x00, 0x00, 0xf8, 0x00, 0x00, 0x00,
  0xf0, 0x00, 0x00, 0x00, 0xe8, 0x00, 0x00, 0x00, 0xe0, 0x00, 0x00, 0x00,
  0xd8, 0x00, 0x00, 0x00, 0xd0, 0x00, 0x00, 0x00, 0xc8, 0x00, 0x00, 0x00,
  0xc0, 0x00, 0x00, 0x00, 0xb8, 0x00, 0x00, 0x00, 0xb0, 0x00, 0x00, 0x00,
  0xa8, 0x00, 0x00, 0x00, 0xa0, 0x00, 0x00, 0x00, 0x98, 0x00, 0x00, 0x00,
  0x90, 0x00, 0x00, 0x00, 0x88, 0x00, 0x00, 0x00, 0x68, 0x00, 0x00, 0x00,
  0x04, 0x00, 0x00, 0x00, 0xd6, 0xe9, 0xff, 0xff, 0x04, 0x00, 0x00, 0x00,
  0x54, 0x00, 0x00, 0x00, 0x0c, 0x00, 0x00, 0x00, 0x08, 0x00, 0x0e, 0x00,
  0x08, 0x00, 0x04, 0x00, 0x08, 0x00, 0x00, 0x00, 0x10, 0x00, 0x00, 0x00,
  0x24, 0x00, 0x00, 0x00, 0x00, 0x00, 0x06, 0x00, 0x08, 0x00, 0x04, 0x00,
  0x06, 0x00, 0x00, 0x00, 0x04, 0x00, 0x00, 0x00, 0x00, 0x00, 0x00, 0x00,
  0x00, 0x00, 0x0a, 0x00, 0x10, 0x00, 0x0c, 0x00, 0x08, 0x00, 0x04, 0x00,
  0x0a, 0x00, 0x00, 0x00, 0x02, 0x00, 0x00, 0x00, 0x02, 0x00, 0x00, 0x00,
  0x04, 0x00, 0x00, 0x00, 0x05, 0x00, 0x00, 0x00, 0x32, 0x2e, 0x39, 0x2e,
  0x31, 0x00, 0x00, 0x00, 0x36, 0xea, 0xff, 0xff, 0x04, 0x00, 0x00, 0x00,
  0x10, 0x00, 0x00, 0x00, 0x31, 0x2e, 0x31, 0x31, 0x2e, 0x30, 0x00, 0x00,
  0x00, 0x00, 0x00, 0x00, 0x00, 0x00, 0x00, 0x00, 0x80, 0xd3, 0xff, 0xff,
  0x84, 0xd3, 0xff, 0xff, 0x88, 0xd3, 0xff, 0xff, 0x8c, 0xd3, 0xff, 0xff,
  0x90, 0xd3, 0xff, 0xff, 0x94, 0xd3, 0xff, 0xff, 0x98, 0xd3, 0xff, 0xff,
  0x9c, 0xd3, 0xff, 0xff, 0xa0, 0xd3, 0xff, 0xff, 0xa4, 0xd3, 0xff, 0xff,
  0xa8, 0xd3, 0xff, 0xff, 0xac, 0xd3, 0xff, 0xff, 0xb0, 0xd3, 0xff, 0xff,
  0xb4, 0xd3, 0xff, 0xff, 0xb8, 0xd3, 0xff, 0xff, 0xbc, 0xd3, 0xff, 0xff,
  0xc0, 0xd3, 0xff, 0xff, 0xc4, 0xd3, 0xff, 0xff, 0xc8, 0xd3, 0xff, 0xff,
  0xcc, 0xd3, 0xff, 0xff, 0xd0, 0xd3, 0xff, 0xff, 0xd4, 0xd3, 0xff, 0xff,
  0xd8, 0xd3, 0xff, 0xff, 0xdc, 0xd3, 0xff, 0xff, 0xe0, 0xd3, 0xff, 0xff,
  0xe4, 0xd3, 0xff, 0xff, 0xe8, 0xd3, 0xff, 0xff, 0xec, 0xd3, 0xff, 0xff,
  0xf0, 0xd3, 0xff, 0xff, 0xf4, 0xd3, 0xff, 0xff, 0xf8, 0xd3, 0xff, 0xff,
  0xfc, 0xd3, 0xff, 0xff, 0x00, 0xd4, 0xff, 0xff, 0x04, 0xd4, 0xff, 0xff,
  0x08, 0xd4, 0xff, 0xff, 0x0c, 0xd4, 0xff, 0xff, 0x10, 0xd4, 0xff, 0xff,
  0x14, 0xd4, 0xff, 0xff, 0x18, 0xd4, 0xff, 0xff, 0x1c, 0xd4, 0xff, 0xff,
  0x20, 0xd4, 0xff, 0xff, 0x24, 0xd4, 0xff, 0xff, 0x28, 0xd4, 0xff, 0xff,
  0x2c, 0xd4, 0xff, 0xff, 0x02, 0xeb, 0xff, 0xff, 0x04, 0x00, 0x00, 0x00,
  0x80, 0x01, 0x00, 0x00, 0x1d, 0x3f, 0x00, 0xbe, 0x3e, 0x69, 0x8c, 0xbe,
  0xb4, 0x4c, 0x36, 0xbe, 0xdb, 0xc8, 0x35, 0x3e, 0x02, 0x8a, 0x35, 0xbe,
  0x18, 0x4b, 0x6d, 0xbe, 0x18, 0xcd, 0x95, 0xbe, 0x12, 0xf3, 0x5e, 0x3e,
  0x2f, 0xc2, 0xbc, 0xbe, 0x61, 0x0a, 0xb2, 0x3e, 0x9f, 0x10, 0xe9, 0x3e,
  0xe6, 0xb0, 0xdb, 0x3e, 0x63, 0x2d, 0x20, 0xbe, 0x2d, 0xf5, 0xa0, 0xbd,
  0xf5, 0xb7, 0x68, 0xbe, 0x8d, 0x7d, 0xb9, 0x3e, 0x94, 0xf2, 0x2b, 0x3e,
  0xa3, 0x81, 0xba, 0x3e, 0x1f, 0x86, 0xa4, 0x3d, 0xef, 0x14, 0x92, 0x3e,
  0xcf, 0x18, 0x80, 0xbe, 0x29, 0x07, 0x1b, 0xbe, 0x18, 0xa1, 0x93, 0x3e,
  0x88, 0x32, 0xac, 0xbe, 0x90, 0xb7, 0x84, 0xbe, 0xd7, 0xf9, 0x5e, 0x3e,
  0xc9, 0x5d, 0x5b, 0xbe, 0x8f, 0x05, 0xae, 0xbe, 0x90, 0x0c, 0xc7, 0x3b,
  0x27, 0x01, 0xa2, 0xbe, 0x8a, 0xa5, 0x84, 0x3c, 0xeb, 0x74, 0x7f, 0x3e,
  0x62, 0xab, 0x5a, 0xbe, 0xc0, 0xa1, 0xb1, 0x3c, 0x85, 0xd5, 0xbd, 0xbe,
  0x8e, 0x4e, 0x58, 0x3e, 0x2b, 0xd1, 0x9f, 0xbe, 0xbf, 0x7d, 0x2c, 0x3e,
  0x08, 0x82, 0xb8, 0x3e, 0x05, 0x05, 0xa8, 0x3e, 0xb4, 0xd1, 0x98, 0x3d,
  0x9c, 0x93, 0xe7, 0x3d, 0x77, 0x23, 0xba, 0xbe, 0xf6, 0x31, 0x8e, 0xbe,
  0xa8, 0x49, 0xd6, 0x3d, 0xa1, 0x69, 0x12, 0x3d, 0x4f, 0xcd, 0x27, 0x3d,
  0x5e, 0x4e, 0x18, 0x3e, 0x12, 0x2d, 0xbd, 0x3e, 0x27, 0x46, 0x60, 0xbe,
  0x5a, 0x5f, 0x13, 0xbe, 0x3d, 0xd2, 0x9b, 0xbd, 0xb0, 0xdb, 0x31, 0x3d,
  0x68, 0x48, 0xc1, 0x3e, 0x1f, 0x9d, 0x4b, 0x3e, 0x87, 0x5e, 0xbc, 0x3e,
  0x9b, 0x32, 0x22, 0xbe, 0xcc, 0xab, 0x95, 0xbe, 0x30, 0xba, 0xfe, 0x3c,
  0x8b, 0x16, 0x4c, 0xbd, 0xe4, 0x79, 0xff, 0xbc, 0xac, 0x70, 0xbe, 0x3e,
  0xa6, 0x61, 0x06, 0xbe, 0x67, 0xb9, 0xa2, 0x3e, 0x39, 0xe4, 0xd8, 0x3e,
  0x7b, 0x0f, 0xa7, 0x3e, 0x8c, 0xf9, 0x83, 0xbe, 0x2b, 0xd1, 0xa7, 0x3e,
  0x13, 0x4d, 0xb6, 0xbe, 0x69, 0x8f, 0xa0, 0xbd, 0xad, 0x8c, 0x6f, 0xbe,
  0x90, 0xaa, 0x64, 0xbe, 0xf4, 0x53, 0x64, 0xbe, 0xf9, 0x90, 0x9b, 0x3e,
  0xb3, 0xfd, 0x13, 0x3d, 0x10, 0xf8, 0xd4, 0xbd, 0x8c, 0xf6, 0xdb, 0xbc,
  0x6e, 0x5c, 0x9f, 0xbe, 0x53, 0xc5, 0x0c, 0xbe, 0x8a, 0xae, 0x54, 0xbe,
  0x69, 0x54, 0x23, 0xbe, 0x51, 0x50, 0x8e, 0xbe, 0x6c, 0xfe, 0x8e, 0xbc,
  0x46, 0x65, 0x39, 0x3e, 0x0e, 0x2a, 0x1f, 0xbe, 0xc1, 0x85, 0x15, 0x3d,
  0x66, 0xdc, 0x06, 0xbe, 0xb3, 0x36, 0x2b, 0x3e, 0xd2, 0xc7, 0xa1, 0xbe,
  0x00, 0x66, 0xe6, 0x3e, 0x98, 0x5d, 0xa0, 0xbe, 0xe0, 0x8a, 0x56, 0x3e,
  0xd8, 0x38, 0x98, 0x3e, 0x02, 0x03, 0x7f, 0xbe, 0x51, 0x57, 0x23, 0xbe,
  0xd7, 0x5d, 0x0c, 0xbe, 0x8e, 0xec, 0xff, 0xff, 0x04, 0x00, 0x00, 0x00,
  0x00, 0x04, 0x00, 0x00, 0xee, 0x32, 0xc2, 0x3e, 0xf6, 0x7a, 0x9a, 0xbe,
  0x6e, 0xb8, 0x28, 0xbe, 0x91, 0xf7, 0x41, 0x3d, 0xfb, 0x5b, 0x01, 0xbc,
  0x48, 0x12, 0x4a, 0xbd, 0xb6, 0xf9, 0x82, 0x3e, 0x23, 0x29, 0x71, 0x3e,
  0x04, 0x90, 0x02, 0xbe, 0xf8, 0x0c, 0xa0, 0xbd, 0xf8, 0x25, 0x68, 0x3e,
  0xed, 0x2b, 0xa5, 0xbe, 0xb0, 0x6f, 0xac, 0x3d, 0x44, 0x91, 0x1d, 0x3e,
  0x2e, 0x20, 0xaa, 0x3e, 0x02, 0x2d, 0x74, 0xbe, 0xd0, 0x4a, 0x73, 0xbd,
  0x40, 0x16, 0x01, 0xbc, 0xae, 0x66, 0xb5, 0xbe, 0x8b, 0x38, 0xb5, 0xbe,
  0x10, 0x44, 0x4f, 0x3d, 0x2a, 0x89, 0x90, 0x3e, 0xac, 0x11, 0xad, 0xbd,
  0x59, 0xf4, 0x0d, 0xbe, 0xde, 0xc1, 0xae, 0x3e, 0xe0, 0xec, 0x44, 0xbd,
  0xc0, 0x48, 0x02, 0x3e, 0x15, 0x7d, 0x63, 0xbe, 0x6c, 0x36, 0x40, 0xbe,
  0xac, 0xda, 0xc5, 0xbe, 0x34, 0x29, 0x69, 0x3e, 0x84, 0x7f, 0xa8, 0x3e,
  0x52, 0x74, 0x37, 0xbe, 0x78, 0x36, 0x69, 0x3e, 0x10, 0xaa, 0x94, 0x3d,
  0x59, 0x35, 0x91, 0x3e, 0x63, 0xd4, 0x87, 0x3d, 0x10, 0x53, 0x67, 0x3e,
  0x70, 0x8f, 0x15, 0x3d, 0xda, 0x7f, 0x93, 0xbc, 0x9d, 0x0b, 0xbd, 0x3c,
  0xd8, 0xf2, 0x1d, 0x3e, 0x20, 0x0d, 0x01, 0xbd, 0xf9, 0xbf, 0x3c, 0x3e,
  0x49, 0xa6, 0xd5, 0xbd, 0xc8, 0xa3, 0x5a, 0x3e, 0xc2, 0xba, 0x9a, 0x3e,
  0xb4, 0x77, 0xc4, 0x3c, 0x9a, 0x34, 0xa0, 0xbe, 0x76, 0x1d, 0x9c, 0xbe,
  0xec, 0xfb, 0xba, 0xbe, 0xa2, 0x8f, 0x1a, 0xbd, 0x83, 0xf0, 0xea, 0x3c,
  0xc0, 0xe0, 0xdf, 0xbd, 0xdc, 0x69, 0x79, 0x3e, 0x58, 0xc2, 0xbb, 0x3d,
  0x44, 0x46, 0x85, 0x3d, 0xf5, 0x12, 0x73, 0xbe, 0xe8, 0xed, 0x06, 0x3e,
  0xd5, 0x96, 0x39, 0xbe, 0x9f, 0x64, 0x15, 0xbe, 0x40, 0x8b, 0x53, 0xbd,
  0xc8, 0x72, 0x54, 0xbe, 0x90, 0x14, 0xf5, 0xbc, 0x54, 0x29, 0xc0, 0xbd,
  0xbc, 0x61, 0x42, 0x3e, 0x8c, 0x09, 0x3a, 0x3e, 0x88, 0x2a, 0xa1, 0xbe,
  0x33, 0x72, 0x86, 0xbe, 0x98, 0xc8, 0x11, 0x3e, 0x8c, 0x17, 0xae, 0xbe,
  0xc4, 0xa5, 0x0a, 0x3e, 0xd8, 0xae, 0xec, 0xbd, 0xe0, 0xb1, 0x68, 0x3d,
  0x11, 0x78, 0xa5, 0xbe, 0x80, 0x0c, 0x5d, 0x3c, 0x10, 0xff, 0x05, 0xbe,
  0x50, 0xd0, 0x3d, 0xbe, 0x8c, 0xa6, 0x12, 0xbe, 0xe4, 0xa9, 0xb5, 0xbe,
  0x53, 0x0e, 0xa0, 0xbe, 0x2a, 0x30, 0xc2, 0x3e, 0x18, 0xad, 0xb3, 0xbd,
  0xc0, 0x22, 0x87, 0x3e, 0x74, 0x89, 0xd4, 0x3e, 0x10, 0x53, 0x8d, 0xbc,
  0x78, 0xc4, 0xa5, 0xbd, 0xc0, 0x5e, 0x36, 0x3e, 0xb0, 0xb1, 0xa0, 0x3d,
  0xcc, 0xe9, 0xb6, 0x3e, 0xe0, 0x74, 0x23, 0x3c, 0x1b, 0x4c, 0xbe, 0x3e,
  0x3e, 0xeb, 0x84, 0x3d, 0xf2, 0x33, 0x60, 0xbe, 0xb9, 0x83, 0x1f, 0xbe,
  0x1f, 0x08, 0x43, 0x3e, 0x13, 0xe4, 0xef, 0xbd, 0xe0, 0x35, 0x89, 0x3d,
  0x9e, 0x8c, 0xa0, 0x3e, 0xe3, 0x37, 0x41, 0xbe, 0x87, 0xbd, 0x8f, 0xbc,
  0x02, 0xce, 0x5e, 0xbe, 0xd0, 0x1e, 0x54, 0x3e, 0x77, 0xf5, 0xe2, 0x3c,
  0xe2, 0xa7, 0x68, 0x3c, 0x93, 0x09, 0xb8, 0xbe, 0xc8, 0xf0, 0xd7, 0xbd,
  0x59, 0xf1, 0x5b, 0x3d, 0x37, 0x7e, 0xdb, 0xbd, 0xa8, 0xb5, 0xc4, 0xbe,
  0x20, 0x05, 0xcd, 0x3d, 0xd5, 0x58, 0x1c, 0x3e, 0x6d, 0xe9, 0x04, 0xbe,
  0xc8, 0x2a, 0x76, 0xbd, 0x30, 0x3d, 0x3d, 0xbe, 0xe3, 0x2a, 0x10, 0x3e,
  0xee, 0xab, 0x77, 0x3e, 0x90, 0x94, 0x6b, 0xbd, 0xf4, 0x80, 0xa3, 0xbe,
  0x99, 0xdf, 0x8c, 0x3e, 0x8c, 0x98, 0xc0, 0xbc, 0x37, 0xdd, 0x9a, 0xbe,
  0xf0, 0x2e, 0x38, 0x3e, 0x03, 0x76, 0x7e, 0xbe, 0x32, 0x2a, 0xd8, 0x3e,
  0x64, 0x06, 0x0a, 0xbe, 0x3c, 0xf6, 0x0c, 0xbe, 0x98, 0x20, 0x43, 0x3e,
  0x9a, 0x7d, 0xf7, 0x3b, 0x6c, 0x6f, 0x8a, 0xbe, 0x6e, 0x60, 0x53, 0xbe,
  0x01, 0xdb, 0x97, 0xbe, 0xc3, 0x7c, 0x56, 0x3e, 0xfc, 0x39, 0x62, 0x3e,
  0x54, 0x6e, 0xac, 0xbd, 0xc8, 0xb6, 0xb4, 0x3d, 0x2d, 0x60, 0x20, 0xbe,
  0xa4, 0x5c, 0xcb, 0x3d, 0x26, 0x3a, 0xa5, 0x3e, 0x63, 0xf9, 0x83, 0x3e,
  0xaf, 0x3e, 0xb0, 0x3d, 0xf8, 0x14, 0x95, 0x3e, 0x38, 0x31, 0x6f, 0xbd,
  0x4a, 0x79, 0x40, 0x3e, 0x0b, 0xdb, 0xc8, 0xbe, 0xfc, 0xdf, 0x9c, 0x3d,
  0x76, 0x82, 0x8d, 0x3e, 0x06, 0xd6, 0x35, 0xbe, 0xa3, 0xe2, 0xa3, 0x3e,
  0xb6, 0x74, 0xbe, 0x3e, 0x39, 0xfe, 0xb5, 0xbe, 0x7f, 0xc8, 0xa8, 0x3e,
  0xe9, 0x5f, 0xec, 0xbd, 0x2c, 0x00, 0xb9, 0xbe, 0xf0, 0x25, 0xcc, 0x3d,
  0x3b, 0x4e, 0x8d, 0x3e, 0x57, 0x6e, 0x64, 0x3e, 0x10, 0x2a, 0xc9, 0xbc,
  0xf8, 0x53, 0xbc, 0xbd, 0xb3, 0x6f, 0x27, 0x3e, 0xa7, 0x10, 0xaf, 0xbe,
  0x50, 0xea, 0x95, 0xbe, 0x7c, 0x1e, 0xb6, 0xbd, 0x88, 0x2b, 0x57, 0xbe,
  0x80, 0x5c, 0xad, 0xbc, 0x58, 0x4b, 0x1a, 0x3e, 0x3d, 0xcb, 0x16, 0xbe,
  0xc0, 0x58, 0xba, 0xbd, 0xb5, 0xdb, 0xc4, 0xbe, 0x30, 0xc0, 0x1f, 0x3d,
  0x84, 0xbf, 0x08, 0x3e, 0x72, 0x32, 0xaa, 0xbe, 0x45, 0x52, 0xe3, 0x3d,
  0x98, 0x20, 0xc6, 0x3e, 0x15, 0xac, 0x55, 0xbe, 0x83, 0x27, 0x99, 0x3e,
  0xdb, 0xaa, 0xc8, 0x3e, 0x5c, 0x16, 0x26, 0x3e, 0x11, 0xa1, 0x1b, 0xbe,
  0x42, 0x0b, 0xc3, 0x38, 0x04, 0xd1, 0x9e, 0x3e, 0x88, 0x1e, 0xa9, 0xbe,
  0xa8, 0xac, 0xed, 0x3d, 0x0e, 0x15, 0x94, 0x3e, 0x5e, 0x9e, 0x6e, 0x3e,
  0x30, 0xe4, 0x5f, 0x3d, 0x4c, 0x88, 0xab, 0xbe, 0xbd, 0x63, 0xe6, 0x3d,
  0x81, 0xbf, 0x87, 0x3e, 0x8c, 0xa6, 0xdb, 0xbd, 0xf7, 0x62, 0x6e, 0xbe,
  0x1b, 0x30, 0xa0, 0xbe, 0xbf, 0xf6, 0xca, 0xbd, 0x2c, 0x8d, 0x71, 0x3e,
  0xb8, 0xac, 0x64, 0x3d, 0x26, 0x86, 0x79, 0x3e, 0xd3, 0xb4, 0xda, 0xbd,
  0xd0, 0x7e, 0xbc, 0xbd, 0x3a, 0xb9, 0x5b, 0xbe, 0x63, 0x35, 0x0e, 0x3e,
  0x2d, 0xe1, 0xfc, 0x3e, 0xc0, 0x9e, 0x02, 0xbd, 0xac, 0x02, 0x00, 0xbe,
  0xe3, 0xf6, 0x0b, 0x3e, 0xec, 0x40, 0x58, 0xbd, 0x70, 0x19, 0xc8, 0x3d,
  0xc6, 0x4d, 0x98, 0xbe, 0x18, 0x83, 0xc5, 0x3e, 0x40, 0xc2, 0x6b, 0xbe,
  0x36, 0x1f, 0xc1, 0x3e, 0x00, 0xfa, 0x98, 0x3b, 0x67, 0x89, 0x68, 0xbe,
  0x4d, 0x5d, 0x24, 0xbe, 0xb4, 0x0b, 0x4b, 0x3e, 0x78, 0x72, 0x0f, 0xbd,
  0x80, 0x07, 0x98, 0xbb, 0xff, 0x41, 0x8b, 0xbe, 0x60, 0xd0, 0x63, 0x3e,
  0xa9, 0xa6, 0x4f, 0xbe, 0x58, 0xac, 0x4b, 0x3d, 0xf5, 0xdf, 0x87, 0x3e,
  0x20, 0xfe, 0xc2, 0x3c, 0x1c, 0xcb, 0xa6, 0xbd, 0x4c, 0xbd, 0x54, 0xbe,
  0x2e, 0x6e, 0xf8, 0xbc, 0xf0, 0xcc, 0xa2, 0x3d, 0xef, 0x83, 0x2f, 0xbe,
  0xdf, 0x58, 0xbb, 0xbe, 0xb4, 0x86, 0x3b, 0x3e, 0x00, 0x46, 0x1c, 0xbc,
  0xf4, 0xaa, 0x67, 0x3e, 0x0a, 0xaf, 0x2a, 0x3e, 0x14, 0x40, 0x9e, 0xbe,
  0x68, 0x94, 0xc4, 0x3e, 0x31, 0x5a, 0xaf, 0xbe, 0xe5, 0x6d, 0xb3, 0x3e,
  0xb7, 0xbf, 0xab, 0x3e, 0xa0, 0xed, 0x6f, 0xbc, 0x54, 0x48, 0x10, 0xbe,
  0x19, 0x4a, 0xc9, 0xbe, 0x34, 0xbf, 0x28, 0xbb, 0xa0, 0x7b, 0x53, 0xbc,
  0x98, 0x58, 0x65, 0xbd, 0xf0, 0x55, 0xd0, 0x3e, 0x5c, 0xba, 0x10, 0xbe,
  0x42, 0x5f, 0x92, 0xbe, 0x24, 0x1a, 0x64, 0x3e, 0xea, 0x4b, 0xe8, 0x3d,
  0xf6, 0x84, 0xa7, 0xbe, 0x90, 0xfb, 0x4e, 0x3e, 0x35, 0x68, 0x49, 0xbe,
  0x3a, 0xff, 0x37, 0xbe, 0x66, 0x43, 0xc3, 0x3e, 0x74, 0x02, 0xcb, 0x3d,
  0x89, 0x43, 0x8d, 0xbe, 0x7c, 0x33, 0xbc, 0x3e, 0x9a, 0xf0, 0xff, 0xff,
  0x04, 0x00, 0x00, 0x00, 0x00, 0x04, 0x00, 0x00, 0x2d, 0xad, 0xc4, 0xbe,
  0x2e, 0x23, 0x8d, 0x3e, 0x45, 0xb1, 0xc8, 0x3c, 0x5d, 0xdc, 0xc8, 0x3e,
  0xde, 0x76, 0xb4, 0x3e, 0xef, 0x6c, 0x48, 0x3e, 0x0c, 0x53, 0xae, 0x3e,
  0xf9, 0xec, 0x89, 0xbe, 0xc2, 0x52, 0xbd, 0xbe, 0xcb, 0x96, 0xb2, 0x3e,
  0xa2, 0xa1, 0x86, 0x3e, 0x5e, 0xe5, 0x2d, 0x3c, 0x5a, 0xd8, 0x85, 0xbe,
  0xbd, 0x25, 0x25, 0xbe, 0xf6, 0xfb, 0xc2, 0x3d, 0x52, 0x0f, 0xc3, 0x3e,
  0x9a, 0xbe, 0xb6, 0x3e, 0xd5, 0x52, 0xc0, 0x3e, 0xb8, 0x8f, 0x3f, 0xbd,
  0x1d, 0x32, 0x2e, 0xbe, 0x01, 0x52, 0xb8, 0xbe, 0xbe, 0x68, 0x00, 0xbe,
  0x1d, 0xac, 0xbc, 0x3e, 0xcc, 0x72, 0xc9, 0x3d, 0xb6, 0xce, 0xaa, 0xbe,
  0xe0, 0xfe, 0xbd, 0x3c, 0x84, 0xd9, 0x7e, 0x3e, 0x7a, 0xc3, 0xfc, 0xbd,
  0x4e, 0x70, 0x3b, 0xbf, 0x47, 0x06, 0x0b, 0xbe, 0x62, 0xfa, 0x3f, 0xbe,
  0x82, 0x15, 0xa0, 0x3e, 0x2c, 0x7c, 0x6c, 0x3e, 0x38, 0xee, 0x05, 0x3e,
  0x10, 0xeb, 0x01, 0x3d, 0x18, 0x1a, 0xb3, 0x3e, 0x78, 0xa7, 0x3b, 0x3e,
  0xfe, 0x2a, 0x00, 0xbe, 0x80, 0x38, 0x3b, 0x3c, 0x70, 0x70, 0xbb, 0xbe,
  0x64, 0x12, 0x1a, 0x3e, 0xea, 0xf6, 0xa7, 0xbe, 0x6a, 0xe3, 0x92, 0x3e,
  0x07, 0xe0, 0x5b, 0xbe, 0x90, 0xf7, 0xf7, 0x3d, 0x8b, 0x63, 0x73, 0xbe,
  0xc4, 0x71, 0xa2, 0xbd, 0xe8, 0x39, 0x8b, 0x3e, 0xb4, 0xa8, 0x07, 0xbe,
  0x53, 0x81, 0xad, 0xbe, 0x50, 0x54, 0x32, 0x3e, 0x3a, 0x11, 0x8b, 0xbe,
  0x58, 0xf6, 0x4f, 0xbe, 0xd0, 0x76, 0x34, 0x3e, 0x80, 0xc8, 0x1f, 0x3c,
  0xb0, 0x99, 0xd6, 0x3d, 0x44, 0x57, 0xad, 0xbe, 0x78, 0xb0, 0xfd, 0x3d,
  0xec, 0x6f, 0x02, 0xbe, 0xc4, 0x00, 0xa9, 0x3d, 0xe0, 0x85, 0xd2, 0xbd,
  0xc0, 0x95, 0x51, 0x3e, 0x33, 0x68, 0x3c, 0xbe, 0x60, 0x93, 0xbe, 0xbc,
  0x34, 0x3c, 0x78, 0xbe, 0x8c, 0xa3, 0x82, 0xbd, 0x56, 0x22, 0xb8, 0x3e,
  0xa0, 0x27, 0x5b, 0x3c, 0xe0, 0x5b, 0x9a, 0xbc, 0xb0, 0x6e, 0x53, 0x3d,
  0xe3, 0x85, 0xb9, 0xbe, 0x18, 0xdf, 0xc7, 0xbd, 0x1c, 0x34, 0x83, 0xbd,
  0x8c, 0xb7, 0xbc, 0x3d, 0xf4, 0x05, 0x8a, 0x3e, 0x54, 0x50, 0x37, 0x3e,
  0x38, 0x12, 0x26, 0x3e, 0x0c, 0xaa, 0xa6, 0xbd, 0xf0, 0x40, 0x91, 0x3e,
  0xca, 0xb4, 0x86, 0xbe, 0xfa, 0xe9, 0x77, 0xbe, 0x68, 0xc5, 0x35, 0x3d,
  0x74, 0x60, 0x99, 0x3d, 0xe2, 0x92, 0xb9, 0x3e, 0x88, 0x5b, 0xf6, 0x3d,
  0x70, 0xfb, 0x57, 0xbe, 0xcd, 0x30, 0x99, 0xbe, 0x5e, 0x3b, 0x2a, 0xbe,
  0x4b, 0x12, 0xab, 0xbe, 0x08, 0x26, 0x9c, 0xbd, 0x20, 0x65, 0xf8, 0x3d,
  0xe0, 0xba, 0xdc, 0x3d, 0xd0, 0xf5, 0x1b, 0xbe, 0x80, 0x9e, 0xa8, 0xbc,
  0x00, 0xd1, 0x8c, 0xbb, 0x2e, 0x8e, 0x36, 0xbe, 0xfd, 0x39, 0x70, 0xbe,
  0x66, 0x83, 0x16, 0x3e, 0xef, 0xc2, 0x78, 0x3d, 0x4f, 0x8b, 0x95, 0xbd,
  0xb4, 0x22, 0x1f, 0xbe, 0xe9, 0x23, 0x20, 0x3d, 0xad, 0xa2, 0xc3, 0xbe,
  0x0e, 0xed, 0xa9, 0x3e, 0x7c, 0xec, 0xc0, 0xbd, 0x8e, 0xec, 0x8b, 0x3e,
  0x9c, 0x15, 0xb7, 0x3e, 0x13, 0xd6, 0x06, 0xbe, 0xdf, 0x34, 0xb9, 0xbe,
  0x51, 0xdc, 0xa4, 0x3e, 0x96, 0x92, 0x2d, 0x3e, 0xa1, 0x29, 0x97, 0xbe,
  0xf8, 0xfd, 0x2c, 0xbe, 0x1f, 0xc5, 0x1b, 0xbe, 0xf3, 0xf5, 0xc1, 0xbe,
  0xba, 0x69, 0xa2, 0x3e, 0xbe, 0xe2, 0x92, 0x3e, 0x40, 0xff, 0xbe, 0xbd,
  0x0f, 0x5b, 0xad, 0x3d, 0xad, 0x0c, 0xe3, 0xbe, 0x09, 0x67, 0x99, 0x3d,
  0x47, 0xad, 0x74, 0xbe, 0x68, 0x0b, 0x90, 0x3d, 0xe1, 0x8c, 0x1f, 0xbd,
  0xe1, 0xb3, 0xda, 0x3e, 0xe4, 0xc1, 0xd1, 0xbe, 0x16, 0x97, 0x03, 0xbe,
  0x6f, 0x46, 0x82, 0x3e, 0x35, 0xcc, 0xa2, 0x3e, 0x5e, 0x94, 0x1f, 0xbe,
  0xff, 0xe1, 0xe3, 0x3d, 0xeb, 0xfb, 0xd3, 0xbc, 0xb1, 0x56, 0x63, 0xbe,
  0xcd, 0xb4, 0x8f, 0x3e, 0x8c, 0xeb, 0xb0, 0x3d, 0x4d, 0x2f, 0xfa, 0x3d,
  0xe8, 0x26, 0xae, 0xbe, 0x4d, 0x84, 0xae, 0x3e, 0xf4, 0xca, 0x8c, 0xbd,
  0x81, 0x8f, 0xa2, 0xbe, 0xfe, 0x48, 0xe8, 0x3d, 0x74, 0xc7, 0xc2, 0x3e,
  0xad, 0x2d, 0xdc, 0x3d, 0xc0, 0x00, 0x9d, 0xbe, 0x44, 0xd5, 0x46, 0x3e,
  0x49, 0x48, 0xaa, 0x3e, 0xb8, 0x26, 0x7c, 0x3e, 0x5e, 0x5c, 0x77, 0xbe,
  0x4b, 0x1a, 0x95, 0xbb, 0x60, 0xf3, 0x66, 0x3e, 0x31, 0x18, 0x7e, 0x3e,
  0x24, 0xf0, 0xcd, 0x3c, 0x22, 0x7a, 0xc7, 0x3e, 0x1c, 0x75, 0xc3, 0x3d,
  0x70, 0x41, 0x01, 0x3e, 0xe7, 0x2b, 0xae, 0x3e, 0x75, 0x69, 0x80, 0xbe,
  0x22, 0xdc, 0x86, 0xbc, 0x4a, 0x20, 0x81, 0x3e, 0xc0, 0x25, 0x89, 0x3e,
  0x28, 0x87, 0x62, 0xbd, 0x7f, 0xce, 0x25, 0xbe, 0x1f, 0xd8, 0xc3, 0xbe,
  0x20, 0xd2, 0xb6, 0x3c, 0x3c, 0xc2, 0x62, 0x3e, 0xe0, 0x38, 0x81, 0x3c,
  0x20, 0x8f, 0x62, 0x3c, 0xec, 0x2a, 0xc5, 0x3e, 0x90, 0x2d, 0xf0, 0x3d,
  0xde, 0xea, 0x42, 0xbe, 0x5b, 0xd6, 0xaf, 0xbe, 0x40, 0xda, 0x81, 0x3d,
  0x98, 0xb3, 0xaa, 0x3d, 0x00, 0x68, 0xd5, 0x39, 0x16, 0x81, 0xa6, 0x3e,
  0x64, 0x60, 0xa2, 0xbe, 0xcc, 0x54, 0x9c, 0x3d, 0x77, 0xf4, 0x17, 0xbe,
  0x50, 0xbe, 0xa4, 0x3e, 0xa1, 0xb9, 0xbf, 0xbe, 0x70, 0x7d, 0xea, 0x3d,
  0xd8, 0x53, 0xfc, 0x3d, 0x12, 0x40, 0x60, 0xbe, 0x90, 0x59, 0x7c, 0xbd,
  0x6f, 0x1e, 0x3a, 0xbe, 0xc4, 0x59, 0xad, 0xbd, 0x71, 0x8e, 0x9e, 0xbe,
  0x60, 0x8f, 0xf9, 0x3d, 0xf0, 0xca, 0xa1, 0xbd, 0x72, 0xab, 0x8b, 0xbe,
  0xc0, 0xa1, 0xb6, 0x3e, 0x7c, 0xa2, 0x82, 0x3e, 0x18, 0x20, 0xfb, 0xbd,
  0x3a, 0x75, 0xaf, 0xbe, 0xe0, 0x68, 0xc1, 0xbe, 0x59, 0x14, 0x82, 0xbe,
  0x78, 0xc7, 0xf5, 0xbd, 0x58, 0xed, 0xc1, 0xbe, 0x48, 0x19, 0x25, 0x3d,
  0x7c, 0x27, 0x17, 0x3e, 0x56, 0x83, 0x96, 0x3e, 0xb4, 0xb2, 0x3b, 0x3e,
  0x1c, 0xc4, 0xa7, 0x3e, 0x68, 0x93, 0x51, 0x3e, 0x52, 0x27, 0x00, 0xbe,
  0x80, 0xf0, 0x9b, 0x3e, 0x18, 0x90, 0x55, 0x3d, 0x89, 0x09, 0xb5, 0xbe,
  0xc4, 0x5d, 0x82, 0xbe, 0x00, 0x08, 0xf6, 0xbc, 0xa6, 0x04, 0x9b, 0x3e,
  0x44, 0x8f, 0x1a, 0x3e, 0xa8, 0x58, 0xbb, 0xbe, 0xb9, 0x14, 0xc4, 0xbe,
  0xbc, 0x7f, 0xb0, 0x3e, 0x5c, 0x80, 0x10, 0x3e, 0x68, 0x7f, 0x04, 0xbd,
  0xd0, 0x13, 0x45, 0xbd, 0xa0, 0xc9, 0x72, 0x3d, 0x91, 0xdb, 0xbf, 0xbe,
  0xc2, 0x03, 0x0b, 0xbe, 0xae, 0xe4, 0xc5, 0xbe, 0x9c, 0x8a, 0xcf, 0xbd,
  0x70, 0x13, 0xdf, 0x3d, 0x8e, 0xd9, 0x9b, 0xbd, 0x72, 0xbb, 0x84, 0x3e,
  0x06, 0x06, 0xa4, 0x3d, 0x87, 0x6f, 0x84, 0xbd, 0x28, 0x8b, 0xea, 0x3d,
  0xd1, 0xa7, 0xc3, 0x3c, 0xbe, 0x52, 0xbf, 0x3e, 0xd7, 0x19, 0xc2, 0x3e,
  0xa6, 0x4a, 0xc3, 0x3e, 0x88, 0x8c, 0xa1, 0xbd, 0x20, 0xdd, 0x37, 0x3c,
  0x72, 0x1f, 0x57, 0xbe, 0x57, 0xa1, 0x92, 0x3e, 0x1b, 0x81, 0xe4, 0x3e,
  0xdf, 0x01, 0x9f, 0x3e, 0x6f, 0xb3, 0x0a, 0xbd, 0xe8, 0x6e, 0x5f, 0xbe,
  0x43, 0x8c, 0x2f, 0xbe, 0xd8, 0xd6, 0x85, 0xbe, 0xf0, 0x98, 0x6c, 0x3e,
  0xcd, 0xbb, 0xb3, 0x3e, 0x4f, 0xd9, 0x46, 0xbe, 0x42, 0x63, 0x1b, 0x3d,
  0xf4, 0xc9, 0xd4, 0xbd, 0xe1, 0xb0, 0xa7, 0x3e, 0x76, 0x8a, 0xb0, 0xbe,
  0xcc, 0x58, 0x9b, 0x3e, 0x6b, 0x8c, 0xa5, 0x3e, 0xaf, 0x8b, 0x8d, 0x3e,
  0x9c, 0x3d, 0x3a, 0x3d, 0x69, 0x66, 0x25, 0x3e, 0x6a, 0xdd, 0xb8, 0x3e,
  0xa6, 0xf4, 0xff, 0xff, 0x04, 0x00, 0x00, 0x00, 0x80, 0x01, 0x00, 0x00,
  0x14, 0x66, 0xda, 0x3d, 0xf7, 0x55, 0xbd, 0x3e, 0xe4, 0x89, 0xcb, 0xbe,
  0xe6, 0x7b, 0xc6, 0x3e, 0xe6, 0xdb, 0x54, 0xbe, 0xb5, 0x38, 0x2e, 0x3f,
  0x19, 0xea, 0x74, 0x3e, 0x7e, 0xde, 0x52, 0xbe, 0xab, 0x93, 0x8d, 0xbe,
  0x18, 0x5e, 0x2a, 0x3d, 0xd7, 0x73, 0x64, 0xbd, 0x0e, 0x4c, 0xe9, 0x3e,
  0x5c, 0x48, 0xee, 0xbd, 0x6a, 0x7f, 0x08, 0x3e, 0x08, 0x74, 0x10, 0x3d,
  0xf5, 0x88, 0x9d, 0x3e, 0x75, 0x44, 0x52, 0x3e, 0x22, 0xfe, 0x0a, 0x3e,
  0x7c, 0x52, 0xc6, 0xbd, 0xa0, 0x13, 0x9c, 0xbe, 0x3a, 0x36, 0x2e, 0x3e,
  0x68, 0xa2, 0x9f, 0xbc, 0x51, 0x05, 0x61, 0x3e, 0xb6, 0xf4, 0xae, 0x3e,
  0xaa, 0x2f, 0x67, 0xbe, 0x20, 0xd9, 0xb7, 0xbc, 0xd2, 0xf2, 0x46, 0x3e,
  0x18, 0x7a, 0x9f, 0x3e, 0x06, 0xcd, 0x54, 0xbe, 0xea, 0x7c, 0x76, 0x3d,
  0x2a, 0xb0, 0x58, 0xbe, 0xec, 0x1a, 0x40, 0xbe, 0x00, 0x8a, 0x16, 0xbc,
  0x6f, 0x61, 0xef, 0x3d, 0x2a, 0x9c, 0x25, 0xbd, 0x39, 0xd4, 0xa0, 0x3d,
  0x00, 0xf5, 0x62, 0x3e, 0xa2, 0x8e, 0x17, 0x3f, 0x43, 0x15, 0xd7, 0xbd,
  0xfd, 0xdf, 0xce, 0x3e, 0x08, 0xd9, 0x80, 0x3d, 0x8b, 0x63, 0x67, 0xbe,
  0xc8, 0xbb, 0xa0, 0x3e, 0x4d, 0xc6, 0xd3, 0x3d, 0xd8, 0x07, 0x8d, 0x3e,
  0x1e, 0xa8, 0x67, 0x3e, 0x1d, 0x27, 0x42, 0xbc, 0x2a, 0x98, 0x77, 0x3e,
  0x92, 0xfe, 0x18, 0xbe, 0x00, 0x6d, 0xd9, 0x3b, 0xfc, 0xcd, 0xca, 0xbe,
  0x4f, 0x61, 0x84, 0xbc, 0x52, 0x51, 0x2d, 0xbe, 0x2b, 0x25, 0x1d, 0xbd,
  0x9c, 0x45, 0xb1, 0xbd, 0x80, 0x6e, 0x3c, 0xbc, 0x00, 0x49, 0x8b, 0xbb,
  0x79, 0x88, 0x9e, 0xbe, 0x88, 0x69, 0xcd, 0xbe, 0x5a, 0x3d, 0xb3, 0xbe,
  0x30, 0x5f, 0x8f, 0xbc, 0x29, 0x54, 0x87, 0x3e, 0x1f, 0xc6, 0x1b, 0xbe,
  0x11, 0x2f, 0x6b, 0xbe, 0x17, 0xd2, 0x66, 0xbe, 0xc2, 0x57, 0x12, 0xbe,
  0xfb, 0xf5, 0xc1, 0x3e, 0xd0, 0xbf, 0xdf, 0xbb, 0x42, 0x22, 0x0e, 0xbe,
  0xee, 0xc3, 0x28, 0x3e, 0x91, 0xea, 0xcd, 0x3e, 0x56, 0xc7, 0xd2, 0x3e,
  0xb5, 0xe4, 0xd6, 0x3e, 0xbb, 0xdd, 0x30, 0x3e, 0xa4, 0xc1, 0xde, 0xbd,
  0x04, 0x56, 0x04, 0xbe, 0xd6, 0x80, 0xa9, 0xbe, 0xe0, 0xed, 0x8b, 0x3c,
  0xf0, 0xa9, 0x6e, 0xbd, 0x09, 0xe5, 0x99, 0x3e, 0x6c, 0xfc, 0x65, 0xbe,
  0xbc, 0xd9, 0xe6, 0x3e, 0x70, 0x10, 0x0c, 0x3d, 0x04, 0x45, 0x86, 0x3e,
  0x28, 0xbf, 0x0a, 0x3d, 0xb7, 0xda, 0xce, 0xbe, 0xc3, 0xa7, 0x14, 0xbf,
  0x81, 0x79, 0xfd, 0x3d, 0x0d, 0xd2, 0x1b, 0x3f, 0x7d, 0x04, 0x26, 0x3e,
  0x78, 0x4c, 0xa9, 0x3e, 0x50, 0x85, 0x30, 0x3e, 0xd9, 0x33, 0xb3, 0xbe,
  0xc3, 0x89, 0x8e, 0x3e, 0x69, 0x67, 0xc2, 0xbe, 0x32, 0xc5, 0xa1, 0x3e,
  0x32, 0xf6, 0xff, 0xff, 0x04, 0x00, 0x00, 0x00, 0x04, 0x00, 0x00, 0x00,
  0x08, 0x00, 0x00, 0x00, 0x42, 0xf6, 0xff, 0xff, 0x04, 0x00, 0x00, 0x00,
  0x04, 0x00, 0x00, 0x00, 0x20, 0x00, 0x00, 0x00, 0x52, 0xf6, 0xff, 0xff,
  0x04, 0x00, 0x00, 0x00, 0x04, 0x00, 0x00, 0x00, 0x00, 0x00, 0x00, 0x00,
  0x62, 0xf6, 0xff, 0xff, 0x04, 0x00, 0x00, 0x00, 0x04, 0x00, 0x00, 0x00,
  0x03, 0x00, 0x00, 0x00, 0x72, 0xf6, 0xff, 0xff, 0x04, 0x00, 0x00, 0x00,
  0x04, 0x00, 0x00, 0x00, 0x02, 0x00, 0x00, 0x00, 0x82, 0xf6, 0xff, 0xff,
  0x04, 0x00, 0x00, 0x00, 0x08, 0x00, 0x00, 0x00, 0x00, 0x00, 0x00, 0x00,
  0x01, 0x00, 0x00, 0x00, 0x96, 0xf6, 0xff, 0xff, 0x04, 0x00, 0x00, 0x00,
  0x20, 0x00, 0x00, 0x00, 0x25, 0x84, 0x47, 0x3c, 0x00, 0x00, 0x00, 0x00,
  0x00, 0x00, 0x00, 0x00, 0xf0, 0x3f, 0x4a, 0xbc, 0x31, 0x16, 0x26, 0xbd,
  0x00, 0x00, 0x00, 0x00, 0x00, 0x00, 0x00, 0x00, 0x9c, 0x96, 0xa1, 0x3b,
  0xc2, 0xf6, 0xff, 0xff, 0x04, 0x00, 0x00, 0x00, 0x80, 0x00, 0x00, 0x00,
  0x2b, 0xf7, 0xa9, 0xbc, 0x00, 0x00, 0x00, 0x00, 0x00, 0x00, 0x00, 0x00,
  0x3f, 0x49, 0x21, 0x3c, 0x43, 0x74, 0x79, 0x3c, 0xdd, 0x55, 0xf3, 0xbc,
  0xca, 0x62, 0x6d, 0x3d, 0x00, 0x00, 0x00, 0x00, 0x00, 0x00, 0x00, 0x00,
  0x00, 0x00, 0x00, 0x00, 0xa2, 0x2d, 0x0c, 0x3d, 0x79, 0x60, 0x1c, 0x3d,
  0x4c, 0xf0, 0x80, 0xbc, 0xe7, 0x3c, 0xe7, 0xbc, 0x69, 0x96, 0x43, 0xbd,
  0x59, 0x5c, 0xef, 0x3c, 0x74, 0x49, 0x07, 0xbb, 0x01, 0x52, 0x22, 0x3d,
  0xe3, 0x6f, 0x33, 0xbc, 0xdf, 0x5f, 0xcd, 0x3c, 0x00, 0x00, 0x00, 0x00,
  0xd1, 0x79, 0x3d, 0xbd, 0x52, 0x54, 0xab, 0x3c, 0x86, 0x65, 0x92, 0xbd,
  0x37, 0x15, 0x8b, 0xbc, 0x4a, 0x6c, 0x7e, 0x3c, 0x00, 0x00, 0x00, 0x00,
  0xf6, 0xbe, 0x92, 0xbd, 0xfc, 0x32, 0x82, 0xbc, 0x8d, 0xa5, 0x7d, 0xbc,
  0x27, 0xc2, 0xc1, 0xbb, 0x53, 0x0b, 0x48, 0x3c, 0x4e, 0xf7, 0xff, 0xff,
  0x04, 0x00, 0x00, 0x00, 0x80, 0x00, 0x00, 0x00, 0x8d, 0xcc, 0x87, 0x3c,
  0xe5, 0xe8, 0x13, 0x3c, 0xa6, 0xc5, 0x2a, 0xbd, 0x3c, 0x96, 0xed, 0x3a,
  0x00, 0x00, 0x00, 0x00, 0xa5, 0xf4, 0x66, 0xbd, 0x00, 0x00, 0x00, 0x00,
  0x33, 0xe5, 0xe0, 0xbc, 0x00, 0x00, 0x00, 0x00, 0x85, 0xa6, 0x44, 0xbd,
  0x00, 0x00, 0x00, 0x00, 0x16, 0xe9, 0xf1, 0x3b, 0xce, 0xb3, 0xc3, 0xbb,
  0xbb, 0x6f, 0xdd, 0xbc, 0x27, 0x99, 0x80, 0xbc, 0xa5, 0xab, 0xb8, 0x3c,
  0x00, 0x00, 0x00, 0x00, 0x99, 0x87, 0x04, 0xbd, 0x00, 0x00, 0x00, 0x00,
  0x00, 0x00, 0x00, 0x00, 0x7c, 0x69, 0x39, 0xbc, 0x00, 0x00, 0x00, 0x00,
  0xd5, 0x36, 0x47, 0xbd, 0xe9, 0x55, 0xa7, 0xbb, 0xaa, 0xd5, 0x0d, 0xbd,
  0x00, 0x00, 0x00, 0x00, 0x00, 0x00, 0x00, 0x00, 0x78, 0x21, 0xde, 0xbc,
  0xc7, 0x37, 0x18, 0x3d, 0xb9, 0xc6, 0x78, 0x3c, 0x56, 0xf2, 0x03, 0xbd,
  0x8d, 0xcb, 0x7b, 0xbc, 0xda, 0xf7, 0xff, 0xff, 0x04, 0x00, 0x00, 0x00,
  0x0c, 0x00, 0x00, 0x00, 0x8d, 0xad, 0x34, 0x3d, 0xd0, 0x17, 0xbc, 0xbb,
  0x32, 0x69, 0x03, 0x3c, 0x20, 0xe1, 0xff, 0xff, 0x24, 0xe1, 0xff, 0xff,
  0x0f, 0x00, 0x00, 0x00, 0x4d, 0x4c, 0x49, 0x52, 0x20, 0x43, 0x6f, 0x6e,
  0x76, 0x65, 0x72, 0x74, 0x65, 0x64, 0x2e, 0x00, 0x01, 0x00, 0x00, 0x00,
  0x14, 0x00, 0x00, 0x00, 0x00, 0x00, 0x0e, 0x00, 0x18, 0x00, 0x14, 0x00,
  0x10, 0x00, 0x0c, 0x00, 0x08, 0x00, 0x04, 0x00, 0x0e, 0x00, 0x00, 0x00,
  0x14, 0x00, 0x00, 0x00, 0x1c, 0x00, 0x00, 0x00, 0x04, 0x09, 0x00, 0x00,
  0x08, 0x09, 0x00, 0x00, 0x0c, 0x09, 0x00, 0x00, 0x04, 0x00, 0x00, 0x00,
  0x6d, 0x61, 0x69, 0x6e, 0x00, 0x00, 0x00, 0x00, 0x2c, 0x00, 0x00, 0x00,
  0xb4, 0x08, 0x00, 0x00, 0x70, 0x08, 0x00, 0x00, 0x2c, 0x08, 0x00, 0x00,
  0xf8, 0x07, 0x00, 0x00, 0xc4, 0x07, 0x00, 0x00, 0x84, 0x07, 0x00, 0x00,
  0x50, 0x07, 0x00, 0x00, 0x28, 0x07, 0x00, 0x00, 0xe4, 0x06, 0x00, 0x00,
  0xbc, 0x06, 0x00, 0x00, 0x84, 0x06, 0x00, 0x00, 0x54, 0x06, 0x00, 0x00,
  0x20, 0x06, 0x00, 0x00, 0xec, 0x05, 0x00, 0x00, 0xb8, 0x05, 0x00, 0x00,
  0x84, 0x05, 0x00, 0x00, 0x50, 0x05, 0x00, 0x00, 0x18, 0x05, 0x00, 0x00,
  0xf0, 0x04, 0x00, 0x00, 0xb8, 0x04, 0x00, 0x00, 0x90, 0x04, 0x00, 0x00,
  0x58, 0x04, 0x00, 0x00, 0x28, 0x04, 0x00, 0x00, 0xf4, 0x03, 0x00, 0x00,
  0xc0, 0x03, 0x00, 0x00, 0x8c, 0x03, 0x00, 0x00, 0x58, 0x03, 0x00, 0x00,
  0x24, 0x03, 0x00, 0x00, 0xec, 0x02, 0x00, 0x00, 0xc4, 0x02, 0x00, 0x00,
  0x8c, 0x02, 0x00, 0x00, 0x64, 0x02, 0x00, 0x00, 0x2c, 0x02, 0x00, 0x00,
  0xfc, 0x01, 0x00, 0x00, 0xc8, 0x01, 0x00, 0x00, 0x94, 0x01, 0x00, 0x00,
  0x60, 0x01, 0x00, 0x00, 0x2c, 0x01, 0x00, 0x00, 0xf8, 0x00, 0x00, 0x00,
  0xc0, 0x00, 0x00, 0x00, 0x98, 0x00, 0x00, 0x00, 0x60, 0x00, 0x00, 0x00,
  0x38, 0x00, 0x00, 0x00, 0x04, 0x00, 0x00, 0x00, 0x4a, 0xf8, 0xff, 0xff,
  0x14, 0x00, 0x00, 0x00, 0x00, 0x00, 0x00, 0x0b, 0x10, 0x00, 0x00, 0x00,
  0x14, 0x00, 0x00, 0x00, 0x07, 0x00, 0x00, 0x00, 0x44, 0xe2, 0xff, 0xff,
  0x01, 0x00, 0x00, 0x00, 0x3a, 0x00, 0x00, 0x00, 0x02, 0x00, 0x00, 0x00,
  0x39, 0x00, 0x00, 0x00, 0x01, 0x00, 0x00, 0x00, 0xa6, 0xf9, 0xff, 0xff,
  0x0c, 0x00, 0x00, 0x00, 0x10, 0x00, 0x00, 0x00, 0x05, 0x00, 0x00, 0x00,
  0x01, 0x00, 0x00, 0x00, 0x39, 0x00, 0x00, 0x00, 0x02, 0x00, 0x00, 0x00,
  0x38, 0x00, 0x00, 0x00, 0x33, 0x00, 0x00, 0x00, 0x9e, 0xf8, 0xff, 0xff,
  0x14, 0x00, 0x00, 0x00, 0x00, 0x00, 0x00, 0x08, 0x10, 0x00, 0x00, 0x00,
  0x14, 0x00, 0x00, 0x00, 0x06, 0x00, 0x00, 0x00, 0x98, 0xe2, 0xff, 0xff,
  0x01, 0x00, 0x00, 0x00, 0x38, 0x00, 0x00, 0x00, 0x03, 0x00, 0x00, 0x00,
  0x37, 0x00, 0x00, 0x00, 0x0e, 0x00, 0x00, 0x00, 0xff, 0xff, 0xff, 0xff,
  0xfe, 0xf9, 0xff, 0xff, 0x0c, 0x00, 0x00, 0x00, 0x10, 0x00, 0x00, 0x00,
  0x05, 0x00, 0x00, 0x00, 0x01, 0x00, 0x00, 0x00, 0x37, 0x00, 0x00, 0x00,
  0x02, 0x00, 0x00, 0x00, 0x2f, 0x00, 0x00, 0x00, 0x36, 0x00, 0x00, 0x00,
  0xf6, 0xf8, 0xff, 0xff, 0x14, 0x00, 0x00, 0x00, 0x00, 0x00, 0x00, 0x3b,
  0x14, 0x00, 0x00, 0x00, 0x18, 0x00, 0x00, 0x00, 0x03, 0x00, 0x00, 0x00,
  0xc2, 0xf9, 0xff, 0xff, 0x02, 0x00, 0x00, 0x00, 0x01, 0x00, 0x00, 0x00,
  0x36, 0x00, 0x00, 0x00, 0x02, 0x00, 0x00, 0x00, 0x32, 0x00, 0x00, 0x00,
  0x35, 0x00, 0x00, 0x00, 0x2a, 0xf9, 0xff, 0xff, 0x14, 0x00, 0x00, 0x00,
  0x00, 0x00, 0x00, 0x1b, 0x10, 0x00, 0x00, 0x00, 0x14, 0x00, 0x00, 0x00,
  0x02, 0x00, 0x00, 0x00, 0x24, 0xe3, 0xff, 0xff, 0x01, 0x00, 0x00, 0x00,
  0x35, 0x00, 0x00, 0x00, 0x02, 0x00, 0x00, 0x00, 0x34, 0x00, 0x00, 0x00,
  0x08, 0x00, 0x00, 0x00, 0x5a, 0xf9, 0xff, 0xff, 0x14, 0x00, 0x00, 0x00,
  0x00, 0x00, 0x00, 0x17, 0x10, 0x00, 0x00, 0x00, 0x14, 0x00, 0x00, 0x00,
  0x01, 0x00, 0x00, 0x00, 0x54, 0xe3, 0xff, 0xff, 0x01, 0x00, 0x00, 0x00,
  0x34, 0x00, 0x00, 0x00, 0x02, 0x00, 0x00, 0x00, 0x30, 0x00, 0x00, 0x00,
  0x06, 0x00, 0x00, 0x00, 0x8a, 0xf9, 0xff, 0xff, 0x14, 0x00, 0x00, 0x00,
  0x00, 0x00, 0x00, 0x0a, 0x10, 0x00, 0x00, 0x00, 0x14, 0x00, 0x00, 0x00,
  0x04, 0x00, 0x00, 0x00, 0x84, 0xe3, 0xff, 0xff, 0x01, 0x00, 0x00, 0x00,
  0x33, 0x00, 0x00, 0x00, 0x02, 0x00, 0x00, 0x00, 0x31, 0x00, 0x00, 0x00,
  0x07, 0x00, 0x00, 0x00, 0xba, 0xf9, 0xff, 0xff, 0x14, 0x00, 0x00, 0x00,
  0x00, 0x00, 0x00, 0x1b, 0x10, 0x00, 0x00, 0x00, 0x14, 0x00, 0x00, 0x00,
  0x02, 0x00, 0x00, 0x00, 0xb4, 0xe3, 0xff, 0xff, 0x01, 0x00, 0x00, 0x00,
  0x32, 0x00, 0x00, 0x00, 0x02, 0x00, 0x00, 0x00, 0x31, 0x00, 0x00, 0x00,
  0x08, 0x00, 0x00, 0x00, 0xea, 0xf9, 0xff, 0xff, 0x14, 0x00, 0x00, 0x00,
  0x00, 0x00, 0x00, 0x17, 0x10, 0x00, 0x00, 0x00, 0x14, 0x00, 0x00, 0x00,
  0x01, 0x00, 0x00, 0x00, 0xe4, 0xe3, 0xff, 0xff, 0x01, 0x00, 0x00, 0x00,
  0x31, 0x00, 0x00, 0x00, 0x02, 0x00, 0x00, 0x00, 0x30, 0x00, 0x00, 0x00,
  0x05, 0x00, 0x00, 0x00, 0xda, 0xf9, 0xff, 0xff, 0x10, 0x00, 0x00, 0x00,
  0x00, 0x00, 0x00, 0x37, 0x10, 0x00, 0x00, 0x00, 0x14, 0x00, 0x00, 0x00,
  0xca, 0xf9, 0xff, 0xff, 0x00, 0x00, 0x00, 0x02, 0x01, 0x00, 0x00, 0x00,
  0x30, 0x00, 0x00, 0x00, 0x01, 0x00, 0x00, 0x00, 0x2f, 0x00, 0x00, 0x00,
  0x46, 0xfa, 0xff, 0xff, 0x14, 0x00, 0x00, 0x00, 0x00, 0x00, 0x00, 0x0b,
  0x14, 0x00, 0x00, 0x00, 0x18, 0x00, 0x00, 0x00, 0x07, 0x00, 0x00, 0x00,
  0xfa, 0xf9, 0xff, 0xff, 0x00, 0x00, 0x00, 0x01, 0x01, 0x00, 0x00, 0x00,
  0x2f, 0x00, 0x00, 0x00, 0x02, 0x00, 0x00, 0x00, 0x2e, 0x00, 0x00, 0x00,
  0x03, 0x00, 0x00, 0x00, 0xa6, 0xfb, 0xff, 0xff, 0x0c, 0x00, 0x00, 0x00,
  0x10, 0x00, 0x00, 0x00, 0x05, 0x00, 0x00, 0x00, 0x01, 0x00, 0x00, 0x00,
  0x2e, 0x00, 0x00, 0x00, 0x02, 0x00, 0x00, 0x00, 0x2d, 0x00, 0x00, 0x00,
  0x28, 0x00, 0x00, 0x00, 0x9e, 0xfa, 0xff, 0xff, 0x14, 0x00, 0x00, 0x00,
  0x00, 0x00, 0x00, 0x08, 0x10, 0x00, 0x00, 0x00, 0x14, 0x00, 0x00, 0x00,
  0x06, 0x00, 0x00, 0x00, 0x98, 0xe4, 0xff, 0xff, 0x01, 0x00, 0x00, 0x00,
  0x2d, 0x00, 0x00, 0x00, 0x03, 0x00, 0x00, 0x00, 0x2c, 0x00, 0x00, 0x00,
  0x0d, 0x00, 0x00, 0x00, 0xff, 0xff, 0xff, 0xff, 0xfe, 0xfb, 0xff, 0xff,
  0x0c, 0x00, 0x00, 0x00, 0x10, 0x00, 0x00, 0x00, 0x05, 0x00, 0x00, 0x00,
  0x01, 0x00, 0x00, 0x00, 0x2c, 0x00, 0x00, 0x00, 0x02, 0x00, 0x00, 0x00,
  0x24, 0x00, 0x00, 0x00, 0x2b, 0x00, 0x00, 0x00, 0xf6, 0xfa, 0xff, 0xff,
  0x14, 0x00, 0x00, 0x00, 0x00, 0x00, 0x00, 0x3b, 0x14, 0x00, 0x00, 0x00,
  0x18, 0x00, 0x00, 0x00, 0x03, 0x00, 0x00, 0x00, 0xc2, 0xfb, 0xff, 0xff,
  0x02, 0x00, 0x00, 0x00, 0x01, 0x00, 0x00, 0x00, 0x2b, 0x00, 0x00, 0x00,
  0x02, 0x00, 0x00, 0x00, 0x27, 0x00, 0x00, 0x00, 0x2a, 0x00, 0x00, 0x00,
  0x2a, 0xfb, 0xff, 0xff, 0x14, 0x00, 0x00, 0x00, 0x00, 0x00, 0x00, 0x1b,
  0x10, 0x00, 0x00, 0x00, 0x14, 0x00, 0x00, 0x00, 0x02, 0x00, 0x00, 0x00,
  0x24, 0xe5, 0xff, 0xff, 0x01, 0x00, 0x00, 0x00, 0x2a, 0x00, 0x00, 0x00,
  0x02, 0x00, 0x00, 0x00, 0x29, 0x00, 0x00, 0x00, 0x08, 0x00, 0x00, 0x00,
  0x5a, 0xfb, 0xff, 0xff, 0x14, 0x00, 0x00, 0x00, 0x00, 0x00, 0x00, 0x17,
  0x10, 0x00, 0x00, 0x00, 0x14, 0x00, 0x00, 0x00, 0x01, 0x00, 0x00, 0x00,
  0x54, 0xe5, 0xff, 0xff, 0x01, 0x00, 0x00, 0x00, 0x29, 0x00, 0x00, 0x00,
  0x02, 0x00, 0x00, 0x00, 0x25, 0x00, 0x00, 0x00, 0x06, 0x00, 0x00, 0x00,
  0x8a, 0xfb, 0xff, 0xff, 0x14, 0x00, 0x00, 0x00, 0x00, 0x00, 0x00, 0x0a,
  0x10, 0x00, 0x00, 0x00, 0x14, 0x00, 0x00, 0x00, 0x04, 0x00, 0x00, 0x00,
  0x84, 0xe5, 0xff, 0xff, 0x01, 0x00, 0x00, 0x00, 0x28, 0x00, 0x00, 0x00,
  0x02, 0x00, 0x00, 0x00, 0x26, 0x00, 0x00, 0x00, 0x09, 0x00, 0x00, 0x00,
  0xba, 0xfb, 0xff, 0xff, 0x14, 0x00, 0x00, 0x00, 0x00, 0x00, 0x00, 0x1b,
  0x10, 0x00, 0x00, 0x00, 0x14, 0x00, 0x00, 0x00, 0x02, 0x00, 0x00, 0x00,
  0xb4, 0xe5, 0xff, 0xff, 0x01, 0x00, 0x00, 0x00, 0x27, 0x00, 0x00, 0x00,
  0x02, 0x00, 0x00, 0x00, 0x26, 0x00, 0x00, 0x00, 0x08, 0x00, 0x00, 0x00,
  0xea, 0xfb, 0xff, 0xff, 0x14, 0x00, 0x00, 0x00, 0x00, 0x00, 0x00, 0x17,
  0x10, 0x00, 0x00, 0x00, 0x14, 0x00, 0x00, 0x00, 0x01, 0x00, 0x00, 0x00,
  0xe4, 0xe5, 0xff, 0xff, 0x01, 0x00, 0x00, 0x00, 0x26, 0x00, 0x00, 0x00,
  0x02, 0x00, 0x00, 0x00, 0x25, 0x00, 0x00, 0x00, 0x05, 0x00, 0x00, 0x00,
  0xda, 0xfb, 0xff, 0xff, 0x10, 0x00, 0x00, 0x00, 0x00, 0x00, 0x00, 0x37,
  0x10, 0x00, 0x00, 0x00, 0x14, 0x00, 0x00, 0x00, 0xca, 0xfb, 0xff, 0xff,
  0x00, 0x00, 0x00, 0x02, 0x01, 0x00, 0x00, 0x00, 0x25, 0x00, 0x00, 0x00,
  0x01, 0x00, 0x00, 0x00, 0x24, 0x00, 0x00, 0x00, 0x46, 0xfc, 0xff, 0xff,
  0x14, 0x00, 0x00, 0x00, 0x00, 0x00, 0x00, 0x0b, 0x14, 0x00, 0x00, 0x00,
  0x18, 0x00, 0x00, 0x00, 0x07, 0x00, 0x00, 0x00, 0xfa, 0xfb, 0xff, 0xff,
  0x00, 0x00, 0x00, 0x01, 0x01, 0x00, 0x00, 0x00, 0x24, 0x00, 0x00, 0x00,
  0x02, 0x00, 0x00, 0x00, 0x23, 0x00, 0x00, 0x00, 0x04, 0x00, 0x00, 0x00,
  0xa6, 0xfd, 0xff, 0xff, 0x0c, 0x00, 0x00, 0x00, 0x10, 0x00, 0x00, 0x00,
  0x05, 0x00, 0x00, 0x00, 0x01, 0x00, 0x00, 0x00, 0x23, 0x00, 0x00, 0x00,
  0x02, 0x00, 0x00, 0x00, 0x22, 0x00, 0x00, 0x00, 0x1d, 0x00, 0x00, 0x00,
  0x9e, 0xfc, 0xff, 0xff, 0x14, 0x00, 0x00, 0x00, 0x00, 0x00, 0x00, 0x08,
  0x10, 0x00, 0x00, 0x00, 0x14, 0x00, 0x00, 0x00, 0x06, 0x00, 0x00, 0x00,
  0x98, 0xe6, 0xff, 0xff, 0x01, 0x00, 0x00, 0x00, 0x22, 0x00, 0x00, 0x00,
  0x03, 0x00, 0x00, 0x00, 0x21, 0x00, 0x00, 0x00, 0x0c, 0x00, 0x00, 0x00,
  0xff, 0xff, 0xff, 0xff, 0xfe, 0xfd, 0xff, 0xff, 0x0c, 0x00, 0x00, 0x00,
  0x10, 0x00, 0x00, 0x00, 0x05, 0x00, 0x00, 0x00, 0x01, 0x00, 0x00, 0x00,
  0x21, 0x00, 0x00, 0x00, 0x02, 0x00, 0x00, 0x00, 0x19, 0x00, 0x00, 0x00,
  0x20, 0x00, 0x00, 0x00, 0xf6, 0xfc, 0xff, 0xff, 0x14, 0x00, 0x00, 0x00,
  0x00, 0x00, 0x00, 0x3b, 0x14, 0x00, 0x00, 0x00, 0x18, 0x00, 0x00, 0x00,
  0x03, 0x00, 0x00, 0x00, 0xc2, 0xfd, 0xff, 0xff, 0x02, 0x00, 0x00, 0x00,
  0x01, 0x00, 0x00, 0x00, 0x20, 0x00, 0x00, 0x00, 0x02, 0x00, 0x00, 0x00,
  0x1c, 0x00, 0x00, 0x00, 0x1f, 0x00, 0x00, 0x00, 0x2a, 0xfd, 0xff, 0xff,
  0x14, 0x00, 0x00, 0x00, 0x00, 0x00, 0x00, 0x1b, 0x10, 0x00, 0x00, 0x00,
  0x14, 0x00, 0x00, 0x00, 0x02, 0x00, 0x00, 0x00, 0x24, 0xe7, 0xff, 0xff,
  0x01, 0x00, 0x00, 0x00, 0x1f, 0x00, 0x00, 0x00, 0x02, 0x00, 0x00, 0x00,
  0x1e, 0x00, 0x00, 0x00, 0x08, 0x00, 0x00, 0x00, 0x5a, 0xfd, 0xff, 0xff,
  0x14, 0x00, 0x00, 0x00, 0x00, 0x00, 0x00, 0x17, 0x10, 0x00, 0x00, 0x00,
  0x14, 0x00, 0x00, 0x00, 0x01, 0x00, 0x00, 0x00, 0x54, 0xe7, 0xff, 0xff,
  0x01, 0x00, 0x00, 0x00, 0x1e, 0x00, 0x00, 0x00, 0x02, 0x00, 0x00, 0x00,
  0x1a, 0x00, 0x00, 0x00, 0x06, 0x00, 0x00, 0x00, 0x8a, 0xfd, 0xff, 0xff,
  0x14, 0x00, 0x00, 0x00, 0x00, 0x00, 0x00, 0x0a, 0x10, 0x00, 0x00, 0x00,
  0x14, 0x00, 0x00, 0x00, 0x04, 0x00, 0x00, 0x00, 0x84, 0xe7, 0xff, 0xff,
  0x01, 0x00, 0x00, 0x00, 0x1d, 0x00, 0x00, 0x00, 0x02, 0x00, 0x00, 0x00,
  0x1b, 0x00, 0x00, 0x00, 0x0a, 0x00, 0x00, 0x00, 0xba, 0xfd, 0xff, 0xff,
  0x14, 0x00, 0x00, 0x00, 0x00, 0x00, 0x00, 0x1b, 0x10, 0x00, 0x00, 0x00,
  0x14, 0x00, 0x00, 0x00, 0x02, 0x00, 0x00, 0x00, 0xb4, 0xe7, 0xff, 0xff,
  0x01, 0x00, 0x00, 0x00, 0x1c, 0x00, 0x00, 0x00, 0x02, 0x00, 0x00, 0x00,
  0x1b, 0x00, 0x00, 0x00, 0x08, 0x00, 0x00, 0x00, 0xea, 0xfd, 0xff, 0xff,
  0x14, 0x00, 0x00, 0x00, 0x00, 0x00, 0x00, 0x17, 0x10, 0x00, 0x00, 0x00,
  0x14, 0x00, 0x00, 0x00, 0x01, 0x00, 0x00, 0x00, 0xe4, 0xe7, 0xff, 0xff,
  0x01, 0x00, 0x00, 0x00, 0x1b, 0x00, 0x00, 0x00, 0x02, 0x00, 0x00, 0x00,
  0x1a, 0x00, 0x00, 0x00, 0x05, 0x00, 0x00, 0x00, 0xda, 0xfd, 0xff, 0xff,
  0x10, 0x00, 0x00, 0x00, 0x00, 0x00, 0x00, 0x37, 0x10, 0x00, 0x00, 0x00,
  0x14, 0x00, 0x00, 0x00, 0xca, 0xfd, 0xff, 0xff, 0x00, 0x00, 0x00, 0x02,
  0x01, 0x00, 0x00, 0x00, 0x1a, 0x00, 0x00, 0x00, 0x01, 0x00, 0x00, 0x00,
  0x19, 0x00, 0x00, 0x00, 0x46, 0xfe, 0xff, 0xff, 0x14, 0x00, 0x00, 0x00,
  0x00, 0x00, 0x00, 0x0b, 0x14, 0x00, 0x00, 0x00, 0x18, 0x00, 0x00, 0x00,
  0x07, 0x00, 0x00, 0x00, 0xfa, 0xfd, 0xff, 0xff, 0x00, 0x00, 0x00, 0x01,
  0x01, 0x00, 0x00, 0x00, 0x19, 0x00, 0x00, 0x00, 0x02, 0x00, 0x00, 0x00,
  0x18, 0x00, 0x00, 0x00, 0x02, 0x00, 0x00, 0x00, 0xa6, 0xff, 0xff, 0xff,
  0x0c, 0x00, 0x00, 0x00, 0x10, 0x00, 0x00, 0x00, 0x05, 0x00, 0x00, 0x00,
  0x01, 0x00, 0x00, 0x00, 0x18, 0x00, 0x00, 0x00, 0x02, 0x00, 0x00, 0x00,
  0x17, 0x00, 0x00, 0x00, 0x15, 0x00, 0x00, 0x00, 0x9e, 0xfe, 0xff, 0xff,
  0x14, 0x00, 0x00, 0x00, 0x00, 0x00, 0x00, 0x08, 0x10, 0x00, 0x00, 0x00,
  0x14, 0x00, 0x00, 0x00, 0x06, 0x00, 0x00, 0x00, 0x98, 0xe8, 0xff, 0xff,
  0x01, 0x00, 0x00, 0x00, 0x17, 0x00, 0x00, 0x00, 0x03, 0x00, 0x00, 0x00,
  0x16, 0x00, 0x00, 0x00, 0x0b, 0x00, 0x00, 0x00, 0xff, 0xff, 0xff, 0xff,
  0x00, 0x00, 0x0a, 0x00, 0x10, 0x00, 0x0c, 0x00, 0x08, 0x00, 0x04, 0x00,
  0x0a, 0x00, 0x00, 0x00, 0x0c, 0x00, 0x00, 0x00, 0x10, 0x00, 0x00, 0x00,
  0x05, 0x00, 0x00, 0x00, 0x01, 0x00, 0x00, 0x00, 0x16, 0x00, 0x00, 0x00,
  0x02, 0x00, 0x00, 0x00, 0x00, 0x00, 0x00, 0x00, 0x14, 0x00, 0x00, 0x00,
  0x02, 0xff, 0xff, 0xff, 0x14, 0x00, 0x00, 0x00, 0x00, 0x00, 0x00, 0x0a,
  0x10, 0x00, 0x00, 0x00, 0x14, 0x00, 0x00, 0x00, 0x04, 0x00, 0x00, 0x00,
  0xfc, 0xe8, 0xff, 0xff, 0x01, 0x00, 0x00, 0x00, 0x15, 0x00, 0x00, 0x00,
  0x02, 0x00, 0x00, 0x00, 0x12, 0x00, 0x00, 0x00, 0x09, 0x00, 0x00, 0x00,
  0x32, 0xff, 0xff, 0xff, 0x1c, 0x00, 0x00, 0x00, 0x00, 0x00, 0x00, 0x3b,
  0x1c, 0x00, 0x00, 0x00, 0x20, 0x00, 0x00, 0x00, 0x03, 0x00, 0x00, 0x00,
  0x00, 0x00, 0x06, 0x00, 0x08, 0x00, 0x04, 0x00, 0x06, 0x00, 0x00, 0x00,
  0x02, 0x00, 0x00, 0x00, 0x01, 0x00, 0x00, 0x00, 0x14, 0x00, 0x00, 0x00,
  0x02, 0x00, 0x00, 0x00, 0x13, 0x00, 0x00, 0x00, 0x11, 0x00, 0x00, 0x00,
  0x6e, 0xff, 0xff, 0xff, 0x14, 0x00, 0x00, 0x00, 0x00, 0x00, 0x00, 0x1b,
  0x10, 0x00, 0x00, 0x00, 0x14, 0x00, 0x00, 0x00, 0x02, 0x00, 0x00, 0x00,
  0x68, 0xe9, 0xff, 0xff, 0x01, 0x00, 0x00, 0x00, 0x13, 0x00, 0x00, 0x00,
  0x02, 0x00, 0x00, 0x00, 0x12, 0x00, 0x00, 0x00, 0x08, 0x00, 0x00, 0x00,
  0x9e, 0xff, 0xff, 0xff, 0x14, 0x00, 0x00, 0x00, 0x00, 0x00, 0x00, 0x17,
  0x10, 0x00, 0x00, 0x00, 0x14, 0x00, 0x00, 0x00, 0x01, 0x00, 0x00, 0x00,
  0x98, 0xe9, 0xff, 0xff, 0x01, 0x00, 0x00, 0x00, 0x12, 0x00, 0x00, 0x00,
  0x02, 0x00, 0x00, 0x00, 0x0f, 0x00, 0x00, 0x00, 0x05, 0x00, 0x00, 0x00,
  0xce, 0xff, 0xff, 0xff, 0x14, 0x00, 0x00, 0x00, 0x00, 0x00, 0x00, 0x1b,
  0x10, 0x00, 0x00, 0x00, 0x14, 0x00, 0x00, 0x00, 0x02, 0x00, 0x00, 0x00,
  0xc8, 0xe9, 0xff, 0xff, 0x01, 0x00, 0x00, 0x00, 0x11, 0x00, 0x00, 0x00,
  0x02, 0x00, 0x00, 0x00, 0x10, 0x00, 0x00, 0x00, 0x08, 0x00, 0x00, 0x00,
  0x00, 0x00, 0x0e, 0x00, 0x18, 0x00, 0x14, 0x00, 0x10, 0x00, 0x0c, 0x00,
  0x0b, 0x00, 0x04, 0x00, 0x0e, 0x00, 0x00, 0x00, 0x14, 0x00, 0x00, 0x00,
  0x00, 0x00, 0x00, 0x17, 0x10, 0x00, 0x00, 0x00, 0x14, 0x00, 0x00, 0x00,
  0x01, 0x00, 0x00, 0x00, 0x08, 0xea, 0xff, 0xff, 0x01, 0x00, 0x00, 0x00,
  0x10, 0x00, 0x00, 0x00, 0x02, 0x00, 0x00, 0x00, 0x0f, 0x00, 0x00, 0x00,
  0x06, 0x00, 0x00, 0x00, 0x00, 0x00, 0x0e, 0x00, 0x16, 0x00, 0x00, 0x00,
  0x10, 0x00, 0x0c, 0x00, 0x0b, 0x00, 0x04, 0x00, 0x0e, 0x00, 0x00, 0x00,
  0x18, 0x00, 0x00, 0x00, 0x00, 0x00, 0x00, 0x37, 0x18, 0x00, 0x00, 0x00,
  0x1c, 0x00, 0x00, 0x00, 0x00, 0x00, 0x06, 0x00, 0x08, 0x00, 0x07, 0x00,
  0x06, 0x00, 0x00, 0x00, 0x00, 0x00, 0x00, 0x02, 0x01, 0x00, 0x00, 0x00,
  0x0f, 0x00, 0x00, 0x00, 0x01, 0x00, 0x00, 0x00, 0x00, 0x00, 0x00, 0x00,
  0x01, 0x00, 0x00, 0x00, 0x3a, 0x00, 0x00, 0x00, 0x01, 0x00, 0x00, 0x00,
  0x00, 0x00, 0x00, 0x00, 0x3b, 0x00, 0x00, 0x00, 0x0c, 0x15, 0x00, 0x00,
  0xa4, 0x14, 0x00, 0x00, 0x44, 0x14, 0x00, 0x00, 0xf0, 0x13, 0x00, 0x00,
  0x9c, 0x13, 0x00, 0x00, 0x50, 0x13, 0x00, 0x00, 0xf4, 0x12, 0x00, 0x00,
  0xa4, 0x12, 0x00, 0x00, 0x54, 0x12, 0x00, 0x00, 0x04, 0x12, 0x00, 0x00,
  0xb0, 0x11, 0x00, 0x00, 0x60, 0x11, 0x00, 0x00, 0x10, 0x11, 0x00, 0x00,
  0xc0, 0x10, 0x00, 0x00, 0x70, 0x10, 0x00, 0x00, 0x20, 0x10, 0x00, 0x00,
  0xa4, 0x0f, 0x00, 0x00, 0x58, 0x0f, 0x00, 0x00, 0xdc, 0x0e, 0x00, 0x00,
  0x94, 0x0e, 0x00, 0x00, 0x44, 0x0e, 0x00, 0x00, 0xf4, 0x0d, 0x00, 0x00,
  0x94, 0x0d, 0x00, 0x00, 0x34, 0x0d, 0x00, 0x00, 0xd4, 0x0c, 0x00, 0x00,
  0x60, 0x0c, 0x00, 0x00, 0x10, 0x0c, 0x00, 0x00, 0x94, 0x0b, 0x00, 0x00,
  0x48, 0x0b, 0x00, 0x00, 0xf4, 0x0a, 0x00, 0x00, 0x74, 0x0a, 0x00, 0x00,
  0x28, 0x0a, 0x00, 0x00, 0xd8, 0x09, 0x00, 0x00, 0x74, 0x09, 0x00, 0x00,
  0x10, 0x09, 0x00, 0x00, 0xac, 0x08, 0x00, 0x00, 0x34, 0x08, 0x00, 0x00,
  0xe4, 0x07, 0x00, 0x00, 0x68, 0x07, 0x00, 0x00, 0x1c, 0x07, 0x00, 0x00,
  0xc8, 0x06, 0x00, 0x00, 0x48, 0x06, 0x00, 0x00, 0xfc, 0x05, 0x00, 0x00,
  0xac, 0x05, 0x00, 0x00, 0x48, 0x05, 0x00, 0x00, 0xe4, 0x04, 0x00, 0x00,
  0x80, 0x04, 0x00, 0x00, 0x08, 0x04, 0x00, 0x00, 0xb8, 0x03, 0x00, 0x00,
  0x3c, 0x03, 0x00, 0x00, 0xf0, 0x02, 0x00, 0x00, 0x9c, 0x02, 0x00, 0x00,
  0x20, 0x02, 0x00, 0x00, 0xd4, 0x01, 0x00, 0x00, 0x84, 0x01, 0x00, 0x00,
  0x24, 0x01, 0x00, 0x00, 0xc4, 0x00, 0x00, 0x00, 0x64, 0x00, 0x00, 0x00,
  0x04, 0x00, 0x00, 0x00, 0xf4, 0xeb, 0xff, 0xff, 0x14, 0x00, 0x00, 0x00,
  0x20, 0x00, 0x00, 0x00, 0x20, 0x00, 0x00, 0x00, 0x3b, 0x00, 0x00, 0x00,
  0x38, 0x00, 0x00, 0x00, 0x03, 0x00, 0x00, 0x00, 0xff, 0xff, 0xff, 0xff,
  0xff, 0xff, 0xff, 0xff, 0x03, 0x00, 0x00, 0x00, 0x8c, 0xeb, 0xff, 0xff,
  0x19, 0x00, 0x00, 0x00, 0x53, 0x74, 0x61, 0x74, 0x65, 0x66, 0x75, 0x6c,
  0x50, 0x61, 0x72, 0x74, 0x69, 0x74, 0x69, 0x6f, 0x6e, 0x65, 0x64, 0x43,
  0x61, 0x6c, 0x6c, 0x3a, 0x30, 0x00, 0x00, 0x00, 0x03, 0x00, 0x00, 0x00,
  0x01, 0x00, 0x00, 0x00, 0x01, 0x00, 0x00, 0x00, 0x03, 0x00, 0x00, 0x00,
  0x50, 0xec, 0xff, 0xff, 0x14, 0x00, 0x00, 0x00, 0x20, 0x00, 0x00, 0x00,
  0x20, 0x00, 0x00, 0x00, 0x3a, 0x00, 0x00, 0x00, 0x38, 0x00, 0x00, 0x00,
  0x03, 0x00, 0x00, 0x00, 0xff, 0xff, 0xff, 0xff, 0xff, 0xff, 0xff, 0xff,
  0xff, 0xff, 0xff, 0xff, 0xe8, 0xeb, 0xff, 0xff, 0x1b, 0x00, 0x00, 0x00,
  0x73, 0x65, 0x71, 0x75, 0x65, 0x6e, 0x74, 0x69, 0x61, 0x6c, 0x2f, 0x6f,
  0x75, 0x74, 0x70, 0x75, 0x74, 0x2f, 0x54, 0x65, 0x6e, 0x73, 0x6f, 0x72,
  0x64, 0x6f, 0x74, 0x00, 0x03, 0x00, 0x00, 0x00, 0x01, 0x00, 0x00, 0x00,
  0x01, 0x00, 0x00, 0x00, 0x01, 0x00, 0x00, 0x00, 0xac, 0xec, 0xff, 0xff,
  0x14, 0x00, 0x00, 0x00, 0x1c, 0x00, 0x00, 0x00, 0x1c, 0x00, 0x00, 0x00,
  0x39, 0x00, 0x00, 0x00, 0x3c, 0x00, 0x00, 0x00, 0x02, 0x00, 0x00, 0x00,
  0xff, 0xff, 0xff, 0xff, 0x03, 0x00, 0x00, 0x00, 0x40, 0xec, 0xff, 0xff,
  0x23, 0x00, 0x00, 0x00, 0x73, 0x65, 0x71, 0x75, 0x65, 0x6e, 0x74, 0x69,
  0x61, 0x6c, 0x2f, 0x6f, 0x75, 0x74, 0x70, 0x75, 0x74, 0x2f, 0x54, 0x65,
  0x6e, 0x73, 0x6f, 0x72, 0x64, 0x6f, 0x74, 0x2f, 0x4d, 0x61, 0x74, 0x4d,
  0x75, 0x6c, 0x32, 0x00, 0x02, 0x00, 0x00, 0x00, 0x01, 0x00, 0x00, 0x00,
  0x03, 0x00, 0x00, 0x00, 0x08, 0xed, 0xff, 0xff, 0x14, 0x00, 0x00, 0x00,
  0x1c, 0x00, 0x00, 0x00, 0x1c, 0x00, 0x00, 0x00, 0x38, 0x00, 0x00, 0x00,
  0x3c, 0x00, 0x00, 0x00, 0x02, 0x00, 0x00, 0x00, 0xff, 0xff, 0xff, 0xff,
  0xff, 0xff, 0xff, 0xff, 0x9c, 0xec, 0xff, 0xff, 0x23, 0x00, 0x00, 0x00,
  0x73, 0x65, 0x71, 0x75, 0x65, 0x6e, 0x74, 0x69, 0x61, 0x6c, 0x2f, 0x6f,
  0x75, 0x74, 0x70, 0x75, 0x74, 0x2f, 0x54, 0x65, 0x6e, 0x73, 0x6f, 0x72,
  0x64, 0x6f, 0x74, 0x2f, 0x52, 0x65, 0x73, 0x68, 0x61, 0x70, 0x65, 0x00,
  0x02, 0x00, 0x00, 0x00, 0x01, 0x00, 0x00, 0x00, 0x01, 0x00, 0x00, 0x00,
  0x06, 0xef, 0xff, 0xff, 0x14, 0x00, 0x00, 0x00, 0x14, 0x00, 0x00, 0x00,
  0x37, 0x00, 0x00, 0x00, 0x00, 0x00, 0x00, 0x02, 0x30, 0x00, 0x00, 0x00,
  0xec, 0xec, 0xff, 0xff, 0x21, 0x00, 0x00, 0x00, 0x73, 0x65, 0x71, 0x75,
  0x65, 0x6e, 0x74, 0x69, 0x61, 0x6c, 0x2f, 0x6f, 0x75, 0x74, 0x70, 0x75,
  0x74, 0x2f, 0x54, 0x65, 0x6e, 0x73, 0x6f, 0x72, 0x64, 0x6f, 0x74, 0x2f,
  0x73, 0x74, 0x61, 0x63, 0x6b, 0x00, 0x00, 0x00, 0x01, 0x00, 0x00, 0x00,
  0x02, 0x00, 0x00, 0x00, 0x52, 0xef, 0xff, 0xff, 0x14, 0x00, 0x00, 0x00,
  0x14, 0x00, 0x00, 0x00, 0x36, 0x00, 0x00, 0x00, 0x00, 0x00, 0x00, 0x02,
  0x30, 0x00, 0x00, 0x00, 0x38, 0xed, 0xff, 0xff, 0x22, 0x00, 0x00, 0x00,
  0x73, 0x65, 0x71, 0x75, 0x65, 0x6e, 0x74, 0x69, 0x61, 0x6c, 0x2f, 0x6f,
  0x75, 0x74, 0x70, 0x75, 0x74, 0x2f, 0x54, 0x65, 0x6e, 0x73, 0x6f, 0x72,
  0x64, 0x6f, 0x74, 0x2f, 0x50, 0x72, 0x6f, 0x64, 0x5f, 0x31, 0x00, 0x00,
  0x00, 0x00, 0x00, 0x00, 0x9a, 0xef, 0xff, 0xff, 0x14, 0x00, 0x00, 0x00,
  0x14, 0x00, 0x00, 0x00, 0x35, 0x00, 0x00, 0x00, 0x00, 0x00, 0x00, 0x02,
  0x5c, 0x00, 0x00, 0x00, 0x80, 0xed, 0xff, 0xff, 0x4f, 0x00, 0x00, 0x00,
  0x73, 0x65, 0x71, 0x75, 0x65, 0x6e, 0x74, 0x69, 0x61, 0x6c, 0x2f, 0x6f,
  0x75, 0x74, 0x70, 0x75, 0x74, 0x2f, 0x54, 0x65, 0x6e, 0x73, 0x6f, 0x72,
  0x64, 0x6f, 0x74, 0x2f, 0x47, 0x61, 0x74, 0x68, 0x65, 0x72, 0x56, 0x32,
  0x5f, 0x31, 0x3b, 0x73, 0x65, 0x71, 0x75, 0x65, 0x6e, 0x74, 0x69, 0x61,
  0x6c, 0x2f, 0x64, 0x65, 0x6e, 0x73, 0x65, 0x2f, 0x54, 0x65, 0x6e, 0x73,
  0x6f, 0x72, 0x64, 0x6f, 0x74, 0x2f, 0x47, 0x61, 0x74, 0x68, 0x65, 0x72,
  0x56, 0x32, 0x2f, 0x61, 0x78, 0x69, 0x73, 0x00, 0x01, 0x00, 0x00, 0x00,
  0x01, 0x00, 0x00, 0x00, 0x12, 0xf0, 0xff, 0xff, 0x14, 0x00, 0x00, 0x00,
  0x14, 0x00, 0x00, 0x00, 0x34, 0x00, 0x00, 0x00, 0x00, 0x00, 0x00, 0x02,
  0x34, 0x00, 0x00, 0x00, 0xf8, 0xed, 0xff, 0xff, 0x24, 0x00, 0x00, 0x00,
  0x73, 0x65, 0x71, 0x75, 0x65, 0x6e, 0x74, 0x69, 0x61, 0x6c, 0x2f, 0x6f,
  0x75, 0x74, 0x70, 0x75, 0x74, 0x2f, 0x54, 0x65, 0x6e, 0x73, 0x6f, 0x72,
  0x64, 0x6f, 0x74, 0x2f, 0x63, 0x6f, 0x6e, 0x63, 0x61, 0x74, 0x5f, 0x31,
  0x00, 0x00, 0x00, 0x00, 0x01, 0x00, 0x00, 0x00, 0x03, 0x00, 0x00, 0x00,
  0x62, 0xf0, 0xff, 0xff, 0x14, 0x00, 0x00, 0x00, 0x14, 0x00, 0x00, 0x00,
  0x33, 0x00, 0x00, 0x00, 0x00, 0x00, 0x00, 0x02, 0x30, 0x00, 0x00, 0x00,
  0x48, 0xee, 0xff, 0xff, 0x20, 0x00, 0x00, 0x00, 0x73, 0x65, 0x71, 0x75,
  0x65, 0x6e, 0x74, 0x69, 0x61, 0x6c, 0x2f, 0x6f, 0x75, 0x74, 0x70, 0x75,
  0x74, 0x2f, 0x54, 0x65, 0x6e, 0x73, 0x6f, 0x72, 0x64, 0x6f, 0x74, 0x2f,
  0x50, 0x72, 0x6f, 0x64, 0x00, 0x00, 0x00, 0x00, 0x00, 0x00, 0x00, 0x00,
  0xaa, 0xf0, 0xff, 0xff, 0x14, 0x00, 0x00, 0x00, 0x14, 0x00, 0x00, 0x00,
  0x32, 0x00, 0x00, 0x00, 0x00, 0x00, 0x00, 0x02, 0x5c, 0x00, 0x00, 0x00,
  0x90, 0xee, 0xff, 0xff, 0x4d, 0x00, 0x00, 0x00, 0x73, 0x65, 0x71, 0x75,
  0x65, 0x6e, 0x74, 0x69, 0x61, 0x6c, 0x2f, 0x6f, 0x75, 0x74, 0x70, 0x75,
  0x74, 0x2f, 0x54, 0x65, 0x6e, 0x73, 0x6f, 0x72, 0x64, 0x6f, 0x74, 0x2f,
  0x47, 0x61, 0x74, 0x68, 0x65, 0x72, 0x56, 0x32, 0x3b, 0x73, 0x65, 0x71,
  0x75, 0x65, 0x6e, 0x74, 0x69, 0x61, 0x6c, 0x2f, 0x64, 0x65, 0x6e, 0x73,
  0x65, 0x2f, 0x54, 0x65, 0x6e, 0x73, 0x6f, 0x72, 0x64, 0x6f, 0x74, 0x2f,
  0x47, 0x61, 0x74, 0x68, 0x65, 0x72, 0x56, 0x32, 0x2f, 0x61, 0x78, 0x69,
  0x73, 0x00, 0x00, 0x00, 0x01, 0x00, 0x00, 0x00, 0x02, 0x00, 0x00, 0x00,
  0x22, 0xf1, 0xff, 0xff, 0x14, 0x00, 0x00, 0x00, 0x14, 0x00, 0x00, 0x00,
  0x31, 0x00, 0x00, 0x00, 0x00, 0x00, 0x00, 0x02, 0x30, 0x00, 0x00, 0x00,
  0x08, 0xef, 0xff, 0xff, 0x21, 0x00, 0x00, 0x00, 0x73, 0x65, 0x71, 0x75,
  0x65, 0x6e, 0x74, 0x69, 0x61, 0x6c, 0x2f, 0x6f, 0x75, 0x74, 0x70, 0x75,
  0x74, 0x2f, 0x54, 0x65, 0x6e, 0x73, 0x6f, 0x72, 0x64, 0x6f, 0x74, 0x2f,
  0x53, 0x68, 0x61, 0x70, 0x65, 0x00, 0x00, 0x00, 0x01, 0x00, 0x00, 0x00,
  0x03, 0x00, 0x00, 0x00, 0xcc, 0xef, 0xff, 0xff, 0x14, 0x00, 0x00, 0x00,
  0x20, 0x00, 0x00, 0x00, 0x20, 0x00, 0x00, 0x00, 0x30, 0x00, 0x00, 0x00,
  0x50, 0x00, 0x00, 0x00, 0x03, 0x00, 0x00, 0x00, 0xff, 0xff, 0xff, 0xff,
  0xff, 0xff, 0xff, 0xff, 0x20, 0x00, 0x00, 0x00, 0x64, 0xef, 0xff, 0xff,
  0x32, 0x00, 0x00, 0x00, 0x73, 0x65, 0x71, 0x75, 0x65, 0x6e, 0x74, 0x69,
  0x61, 0x6c, 0x2f, 0x64, 0x65, 0x6e, 0x73, 0x65, 0x5f, 0x32, 0x2f, 0x52,
  0x65, 0x6c, 0x75, 0x3b, 0x73, 0x65, 0x71, 0x75, 0x65, 0x6e, 0x74, 0x69,
  0x61, 0x6c, 0x2f, 0x64, 0x65, 0x6e, 0x73, 0x65, 0x5f, 0x32, 0x2f, 0x42,
  0x69, 0x61, 0x73, 0x41, 0x64, 0x64, 0x00, 0x00, 0x03, 0x00, 0x00, 0x00,
  0x01, 0x00, 0x00, 0x00, 0x01, 0x00, 0x00, 0x00, 0x20, 0x00, 0x00, 0x00,
  0x40, 0xf0, 0xff, 0xff, 0x14, 0x00, 0x00, 0x00, 0x20, 0x00, 0x00, 0x00,
  0x20, 0x00, 0x00, 0x00, 0x2f, 0x00, 0x00, 0x00, 0x3c, 0x00, 0x00, 0x00,
  0x03, 0x00, 0x00, 0x00, 0xff, 0xff, 0xff, 0xff, 0xff, 0xff, 0xff, 0xff,
  0xff, 0xff, 0xff, 0xff, 0xd8, 0xef, 0xff, 0xff, 0x1c, 0x00, 0x00, 0x00,
  0x73, 0x65, 0x71, 0x75, 0x65, 0x6e, 0x74, 0x69, 0x61, 0x6c, 0x2f, 0x64,
  0x65, 0x6e, 0x73, 0x65, 0x5f, 0x32, 0x2f, 0x54, 0x65, 0x6e, 0x73, 0x6f,
  0x72, 0x64, 0x6f, 0x74, 0x00, 0x00, 0x00, 0x00, 0x03, 0x00, 0x00, 0x00,
  0x01, 0x00, 0x00, 0x00, 0x01, 0x00, 0x00, 0x00, 0x01, 0x00, 0x00, 0x00,
  0xa0, 0xf0, 0xff, 0xff, 0x14, 0x00, 0x00, 0x00, 0x1c, 0x00, 0x00, 0x00,
  0x1c, 0x00, 0x00, 0x00, 0x2e, 0x00, 0x00, 0x00, 0x40, 0x00, 0x00, 0x00,
  0x02, 0x00, 0x00, 0x00, 0xff, 0xff, 0xff, 0xff, 0x20, 0x00, 0x00, 0x00,
  0x34, 0xf0, 0xff, 0xff, 0x24, 0x00, 0x00, 0x00, 0x73, 0x65, 0x71, 0x75,
  0x65, 0x6e, 0x74, 0x69, 0x61, 0x6c, 0x2f, 0x64, 0x65, 0x6e, 0x73, 0x65,
  0x5f, 0x32, 0x2f, 0x54, 0x65, 0x6e, 0x73, 0x6f, 0x72, 0x64, 0x6f, 0x74,
  0x2f, 0x4d, 0x61, 0x74, 0x4d, 0x75, 0x6c, 0x31, 0x00, 0x00, 0x00, 0x00,
  0x02, 0x00, 0x00, 0x00, 0x01, 0x00, 0x00, 0x00, 0x20, 0x00, 0x00, 0x00,
  0x00, 0xf1, 0xff, 0xff, 0x14, 0x00, 0x00, 0x00, 0x1c, 0x00, 0x00, 0x00,
  0x1c, 0x00, 0x00, 0x00, 0x2d, 0x00, 0x00, 0x00, 0x40, 0x00, 0x00, 0x00,
  0x02, 0x00, 0x00, 0x00, 0xff, 0xff, 0xff, 0xff, 0xff, 0xff, 0xff, 0xff,
  0x94, 0xf0, 0xff, 0xff, 0x24, 0x00, 0x00, 0x00, 0x73, 0x65, 0x71, 0x75,
  0x65, 0x6e, 0x74, 0x69, 0x61, 0x6c, 0x2f, 0x64, 0x65, 0x6e, 0x73, 0x65,
  0x5f, 0x32, 0x2f, 0x54, 0x65, 0x6e, 0x73, 0x6f, 0x72, 0x64, 0x6f, 0x74,
  0x2f, 0x52, 0x65, 0x73, 0x68, 0x61, 0x70, 0x65, 0x00, 0x00, 0x00, 0x00,
  0x02, 0x00, 0x00, 0x00, 0x01, 0x00, 0x00, 0x00, 0x01, 0x00, 0x00, 0x00,
  0x02, 0xf3, 0xff, 0xff, 0x14, 0x00, 0x00, 0x00, 0x14, 0x00, 0x00, 0x00,
  0x2c, 0x00, 0x00, 0x00, 0x00, 0x00, 0x00, 0x02, 0x30, 0x00, 0x00, 0x00,
  0xe8, 0xf0, 0xff, 0xff, 0x22, 0x00, 0x00, 0x00, 0x73, 0x65, 0x71, 0x75,
  0x65, 0x6e, 0x74, 0x69, 0x61, 0x6c, 0x2f, 0x64, 0x65, 0x6e, 0x73, 0x65,
  0x5f, 0x32, 0x2f, 0x54, 0x65, 0x6e, 0x73, 0x6f, 0x72, 0x64, 0x6f, 0x74,
  0x2f, 0x73, 0x74, 0x61, 0x63, 0x6b, 0x00, 0x00, 0x01, 0x00, 0x00, 0x00,
  0x02, 0x00, 0x00, 0x00, 0x4e, 0xf3, 0xff, 0xff, 0x14, 0x00, 0x00, 0x00,
  0x14, 0x00, 0x00, 0x00, 0x2b, 0x00, 0x00, 0x00, 0x00, 0x00, 0x00, 0x02,
  0x30, 0x00, 0x00, 0x00, 0x34, 0xf1, 0xff, 0xff, 0x23, 0x00, 0x00, 0x00,
  0x73, 0x65, 0x71, 0x75, 0x65, 0x6e, 0x74, 0x69, 0x61, 0x6c, 0x2f, 0x64,
  0x65, 0x6e, 0x73, 0x65, 0x5f, 0x32, 0x2f, 0x54, 0x65, 0x6e, 0x73, 0x6f,
  0x72, 0x64, 0x6f, 0x74, 0x2f, 0x50, 0x72, 0x6f, 0x64, 0x5f, 0x31, 0x00,
  0x00, 0x00, 0x00, 0x00, 0x96, 0xf3, 0xff, 0xff, 0x14, 0x00, 0x00, 0x00,
  0x14, 0x00, 0x00, 0x00, 0x2a, 0x00, 0x00, 0x00, 0x00, 0x00, 0x00, 0x02,
  0x60, 0x00, 0x00, 0x00, 0x7c, 0xf1, 0xff, 0xff, 0x50, 0x00, 0x00, 0x00,
  0x73, 0x65, 0x71, 0x75, 0x65, 0x6e, 0x74, 0x69, 0x61, 0x6c, 0x2f, 0x64,
  0x65, 0x6e, 0x73, 0x65, 0x5f, 0x32, 0x2f, 0x54, 0x65, 0x6e, 0x73, 0x6f,
  0x72, 0x64, 0x6f, 0x74, 0x2f, 0x47, 0x61, 0x74, 0x68, 0x65, 0x72, 0x56,
  0x32, 0x5f, 0x31, 0x3b, 0x73, 0x65, 0x71, 0x75, 0x65, 0x6e, 0x74, 0x69,
  0x61, 0x6c, 0x2f, 0x64, 0x65, 0x6e, 0x73, 0x65, 0x2f, 0x54, 0x65, 0x6e,
  0x73, 0x6f, 0x72, 0x64, 0x6f, 0x74, 0x2f, 0x47, 0x61, 0x74, 0x68, 0x65,
  0x72, 0x56, 0x32, 0x2f, 0x61, 0x78, 0x69, 0x73, 0x00, 0x00, 0x00, 0x00,
  0x01, 0x00, 0x00, 0x00, 0x01, 0x00, 0x00, 0x00, 0x12, 0xf4, 0xff, 0xff,
  0x14, 0x00, 0x00, 0x00, 0x14, 0x00, 0x00, 0x00, 0x29, 0x00, 0x00, 0x00,
  0x00, 0x00, 0x00, 0x02, 0x34, 0x00, 0x00, 0x00, 0xf8, 0xf1, 0xff, 0xff,
  0x25, 0x00, 0x00, 0x00, 0x73, 0x65, 0x71, 0x75, 0x65, 0x6e, 0x74, 0x69,
  0x61, 0x6c, 0x2f, 0x64, 0x65, 0x6e, 0x73, 0x65, 0x5f, 0x32, 0x2f, 0x54,
  0x65, 0x6e, 0x73, 0x6f, 0x72, 0x64, 0x6f, 0x74, 0x2f, 0x63, 0x6f, 0x6e,
  0x63, 0x61, 0x74, 0x5f, 0x31, 0x00, 0x00, 0x00, 0x01, 0x00, 0x00, 0x00,
  0x03, 0x00, 0x00, 0x00, 0x62, 0xf4, 0xff, 0xff, 0x14, 0x00, 0x00, 0x00,
  0x14, 0x00, 0x00, 0x00, 0x28, 0x00, 0x00, 0x00, 0x00, 0x00, 0x00, 0x02,
  0x30, 0x00, 0x00, 0x00, 0x48, 0xf2, 0xff, 0xff, 0x21, 0x00, 0x00, 0x00,
  0x73, 0x65, 0x71, 0x75, 0x65, 0x6e, 0x74, 0x69, 0x61, 0x6c, 0x2f, 0x64,
  0x65, 0x6e, 0x73, 0x65, 0x5f, 0x32, 0x2f, 0x54, 0x65, 0x6e, 0x73, 0x6f,
  0x72, 0x64, 0x6f, 0x74, 0x2f, 0x50, 0x72, 0x6f, 0x64, 0x00, 0x00, 0x00,
  0x00, 0x00, 0x00, 0x00, 0xaa, 0xf4, 0xff, 0xff, 0x14, 0x00, 0x00, 0x00,
  0x14, 0x00, 0x00, 0x00, 0x27, 0x00, 0x00, 0x00, 0x00, 0x00, 0x00, 0x02,
  0x5c, 0x00, 0x00, 0x00, 0x90, 0xf2, 0xff, 0xff, 0x4e, 0x00, 0x00, 0x00,
  0x73, 0x65, 0x71, 0x75, 0x65, 0x6e, 0x74, 0x69, 0x61, 0x6c, 0x2f, 0x64,
  0x65, 0x6e, 0x73, 0x65, 0x5f, 0x32, 0x2f, 0x54, 0x65, 0x6e, 0x73, 0x6f,
  0x72, 0x64, 0x6f, 0x74, 0x2f, 0x47, 0x61, 0x74, 0x68, 0x65, 0x72, 0x56,
  0x32, 0x3b, 0x73, 0x65, 0x71, 0x75, 0x65, 0x6e, 0x74, 0x69, 0x61, 0x6c,
  0x2f, 0x64, 0x65, 0x6e, 0x73, 0x65, 0x2f, 0x54, 0x65, 0x6e, 0x73, 0x6f,
  0x72, 0x64, 0x6f, 0x74, 0x2f, 0x47, 0x61, 0x74, 0x68, 0x65, 0x72, 0x56,
  0x32, 0x2f, 0x61, 0x78, 0x69, 0x73, 0x00, 0x00, 0x01, 0x00, 0x00, 0x00,
  0x02, 0x00, 0x00, 0x00, 0x22, 0xf5, 0xff, 0xff, 0x14, 0x00, 0x00, 0x00,
  0x14, 0x00, 0x00, 0x00, 0x26, 0x00, 0x00, 0x00, 0x00, 0x00, 0x00, 0x02,
  0x30, 0x00, 0x00, 0x00, 0x08, 0xf3, 0xff, 0xff, 0x22, 0x00, 0x00, 0x00,
  0x73, 0x65, 0x71, 0x75, 0x65, 0x6e, 0x74, 0x69, 0x61, 0x6c, 0x2f, 0x64,
  0x65, 0x6e, 0x73, 0x65, 0x5f, 0x32, 0x2f, 0x54, 0x65, 0x6e, 0x73, 0x6f,
  0x72, 0x64, 0x6f, 0x74, 0x2f, 0x53, 0x68, 0x61, 0x70, 0x65, 0x00, 0x00,
  0x01, 0x00, 0x00, 0x00, 0x03, 0x00, 0x00, 0x00, 0xcc, 0xf3, 0xff, 0xff,
  0x14, 0x00, 0x00, 0x00, 0x20, 0x00, 0x00, 0x00, 0x20, 0x00, 0x00, 0x00,
  0x25, 0x00, 0x00, 0x00, 0x50, 0x00, 0x00, 0x00, 0x03, 0x00, 0x00, 0x00,
  0xff, 0xff, 0xff, 0xff, 0xff, 0xff, 0xff, 0xff, 0x08, 0x00, 0x00, 0x00,
  0x64, 0xf3, 0xff, 0xff, 0x32, 0x00, 0x00, 0x00, 0x73, 0x65, 0x71, 0x75,
  0x65, 0x6e, 0x74, 0x69, 0x61, 0x6c, 0x2f, 0x64, 0x65, 0x6e, 0x73, 0x65,
  0x5f, 0x31, 0x2f, 0x52, 0x65, 0x6c, 0x75, 0x3b, 0x73, 0x65, 0x71, 0x75,
  0x65, 0x6e, 0x74, 0x69, 0x61, 0x6c, 0x2f, 0x64, 0x65, 0x6e, 0x73, 0x65,
  0x5f, 0x31, 0x2f, 0x42, 0x69, 0x61, 0x73, 0x41, 0x64, 0x64, 0x00, 0x00,
  0x03, 0x00, 0x00, 0x00, 0x01, 0x00, 0x00, 0x00, 0x01, 0x00, 0x00, 0x00,
  0x08, 0x00, 0x00, 0x00, 0x40, 0xf4, 0xff, 0xff, 0x14, 0x00, 0x00, 0x00,
  0x20, 0x00, 0x00, 0x00, 0x20, 0x00, 0x00, 0x00, 0x24, 0x00, 0x00, 0x00,
  0x3c, 0x00, 0x00, 0x00, 0x03, 0x00, 0x00, 0x00, 0xff, 0xff, 0xff, 0xff,
  0xff, 0xff, 0xff, 0xff, 0xff, 0xff, 0xff, 0xff, 0xd8, 0xf3, 0xff, 0xff,
  0x1c, 0x00, 0x00, 0x00, 0x73, 0x65, 0x71, 0x75, 0x65, 0x6e, 0x74, 0x69,
  0x61, 0x6c, 0x2f, 0x64, 0x65, 0x6e, 0x73, 0x65, 0x5f, 0x31, 0x2f, 0x54,
  0x65, 0x6e, 0x73, 0x6f, 0x72, 0x64, 0x6f, 0x74, 0x00, 0x00, 0x00, 0x00,
  0x03, 0x00, 0x00, 0x00, 0x01, 0x00, 0x00, 0x00, 0x01, 0x00, 0x00, 0x00,
  0x01, 0x00, 0x00, 0x00, 0xa0, 0xf4, 0xff, 0xff, 0x14, 0x00, 0x00, 0x00,
  0x1c, 0x00, 0x00, 0x00, 0x1c, 0x00, 0x00, 0x00, 0x23, 0x00, 0x00, 0x00,
  0x40, 0x00, 0x00, 0x00, 0x02, 0x00, 0x00, 0x00, 0xff, 0xff, 0xff, 0xff,
  0x08, 0x00, 0x00, 0x00, 0x34, 0xf4, 0xff, 0xff, 0x24, 0x00, 0x00, 0x00,
  0x73, 0x65, 0x71, 0x75, 0x65, 0x6e, 0x74, 0x69, 0x61, 0x6c, 0x2f, 0x64,
  0x65, 0x6e, 0x73, 0x65, 0x5f, 0x31, 0x2f, 0x54, 0x65, 0x6e, 0x73, 0x6f,
  0x72, 0x64, 0x6f, 0x74, 0x2f, 0x4d, 0x61, 0x74, 0x4d, 0x75, 0x6c, 0x31,
  0x00, 0x00, 0x00, 0x00, 0x02, 0x00, 0x00, 0x00, 0x01, 0x00, 0x00, 0x00,
  0x08, 0x00, 0x00, 0x00, 0x00, 0xf5, 0xff, 0xff, 0x14, 0x00, 0x00, 0x00,
  0x1c, 0x00, 0x00, 0x00, 0x1c, 0x00, 0x00, 0x00, 0x22, 0x00, 0x00, 0x00,
  0x40, 0x00, 0x00, 0x00, 0x02, 0x00, 0x00, 0x00, 0xff, 0xff, 0xff, 0xff,
  0xff, 0xff, 0xff, 0xff, 0x94, 0xf4, 0xff, 0xff, 0x24, 0x00, 0x00, 0x00,
  0x73, 0x65, 0x71, 0x75, 0x65, 0x6e, 0x74, 0x69, 0x61, 0x6c, 0x2f, 0x64,
  0x65, 0x6e, 0x73, 0x65, 0x5f, 0x31, 0x2f, 0x54, 0x65, 0x6e, 0x73, 0x6f,
  0x72, 0x64, 0x6f, 0x74, 0x2f, 0x52, 0x65, 0x73, 0x68, 0x61, 0x70, 0x65,
  0x00, 0x00, 0x00, 0x00, 0x02, 0x00, 0x00, 0x00, 0x01, 0x00, 0x00, 0x00,
  0x01, 0x00, 0x00, 0x00, 0x02, 0xf7, 0xff, 0xff, 0x14, 0x00, 0x00, 0x00,
  0x14, 0x00, 0x00, 0x00, 0x21, 0x00, 0x00, 0x00, 0x00, 0x00, 0x00, 0x02,
  0x30, 0x00, 0x00, 0x00, 0xe8, 0xf4, 0xff, 0xff, 0x22, 0x00, 0x00, 0x00,
  0x73, 0x65, 0x71, 0x75, 0x65, 0x6e, 0x74, 0x69, 0x61, 0x6c, 0x2f, 0x64,
  0x65, 0x6e, 0x73, 0x65, 0x5f, 0x31, 0x2f, 0x54, 0x65, 0x6e, 0x73, 0x6f,
  0x72, 0x64, 0x6f, 0x74, 0x2f, 0x73, 0x74, 0x61, 0x63, 0x6b, 0x00, 0x00,
  0x01, 0x00, 0x00, 0x00, 0x02, 0x00, 0x00, 0x00, 0x4e, 0xf7, 0xff, 0xff,
  0x14, 0x00, 0x00, 0x00, 0x14, 0x00, 0x00, 0x00, 0x20, 0x00, 0x00, 0x00,
  0x00, 0x00, 0x00, 0x02, 0x30, 0x00, 0x00, 0x00, 0x34, 0xf5, 0xff, 0xff,
  0x23, 0x00, 0x00, 0x00, 0x73, 0x65, 0x71, 0x75, 0x65, 0x6e, 0x74, 0x69,
  0x61, 0x6c, 0x2f, 0x64, 0x65, 0x6e, 0x73, 0x65, 0x5f, 0x31, 0x2f, 0x54,
  0x65, 0x6e, 0x73, 0x6f, 0x72, 0x64, 0x6f, 0x74, 0x2f, 0x50, 0x72, 0x6f,
  0x64, 0x5f, 0x31, 0x00, 0x00, 0x00, 0x00, 0x00, 0x96, 0xf7, 0xff, 0xff,
  0x14, 0x00, 0x00, 0x00, 0x14, 0x00, 0x00, 0x00, 0x1f, 0x00, 0x00, 0x00,
  0x00, 0x00, 0x00, 0x02, 0x60, 0x00, 0x00, 0x00, 0x7c, 0xf5, 0xff, 0xff,
  0x50, 0x00, 0x00, 0x00, 0x73, 0x65, 0x71, 0x75, 0x65, 0x6e, 0x74, 0x69,
  0x61, 0x6c, 0x2f, 0x64, 0x65, 0x6e, 0x73, 0x65, 0x5f, 0x31, 0x2f, 0x54,
  0x65, 0x6e, 0x73, 0x6f, 0x72, 0x64, 0x6f, 0x74, 0x2f, 0x47, 0x61, 0x74,
  0x68, 0x65, 0x72, 0x56, 0x32, 0x5f, 0x31, 0x3b, 0x73, 0x65, 0x71, 0x75,
  0x65, 0x6e, 0x74, 0x69, 0x61, 0x6c, 0x2f, 0x64, 0x65, 0x6e, 0x73, 0x65,
  0x2f, 0x54, 0x65, 0x6e, 0x73, 0x6f, 0x72, 0x64, 0x6f, 0x74, 0x2f, 0x47,
  0x61, 0x74, 0x68, 0x65, 0x72, 0x56, 0x32, 0x2f, 0x61, 0x78, 0x69, 0x73,
  0x00, 0x00, 0x00, 0x00, 0x01, 0x00, 0x00, 0x00, 0x01, 0x00, 0x00, 0x00,
  0x12, 0xf8, 0xff, 0xff, 0x14, 0x00, 0x00, 0x00, 0x14, 0x00, 0x00, 0x00,
  0x1e, 0x00, 0x00, 0x00, 0x00, 0x00, 0x00, 0x02, 0x34, 0x00, 0x00, 0x00,
  0xf8, 0xf5, 0xff, 0xff, 0x25, 0x00, 0x00, 0x00, 0x73, 0x65, 0x71, 0x75,
  0x65, 0x6e, 0x74, 0x69, 0x61, 0x6c, 0x2f, 0x64, 0x65, 0x6e, 0x73, 0x65,
  0x5f, 0x31, 0x2f, 0x54, 0x65, 0x6e, 0x73, 0x6f, 0x72, 0x64, 0x6f, 0x74,
  0x2f, 0x63, 0x6f, 0x6e, 0x63, 0x61, 0x74, 0x5f, 0x31, 0x00, 0x00, 0x00,
  0x01, 0x00, 0x00, 0x00, 0x03, 0x00, 0x00, 0x00, 0x62, 0xf8, 0xff, 0xff,
  0x14, 0x00, 0x00, 0x00, 0x14, 0x00, 0x00, 0x00, 0x1d, 0x00, 0x00, 0x00,
  0x00, 0x00, 0x00, 0x02, 0x30, 0x00, 0x00, 0x00, 0x48, 0xf6, 0xff, 0xff,
  0x21, 0x00, 0x00, 0x00, 0x73, 0x65, 0x71, 0x75, 0x65, 0x6e, 0x74, 0x69,
  0x61, 0x6c, 0x2f, 0x64, 0x65, 0x6e, 0x73, 0x65, 0x5f, 0x31, 0x2f, 0x54,
  0x65, 0x6e, 0x73, 0x6f, 0x72, 0x64, 0x6f, 0x74, 0x2f, 0x50, 0x72, 0x6f,
  0x64, 0x00, 0x00, 0x00, 0x00, 0x00, 0x00, 0x00, 0xaa, 0xf8, 0xff, 0xff,
  0x14, 0x00, 0x00, 0x00, 0x14, 0x00, 0x00, 0x00, 0x1c, 0x00, 0x00, 0x00,
  0x00, 0x00, 0x00, 0x02, 0x5c, 0x00, 0x00, 0x00, 0x90, 0xf6, 0xff, 0xff,
  0x4e, 0x00, 0x00, 0x00, 0x73, 0x65, 0x71, 0x75, 0x65, 0x6e, 0x74, 0x69,
  0x61, 0x6c, 0x2f, 0x64, 0x65, 0x6e, 0x73, 0x65, 0x5f, 0x31, 0x2f, 0x54,
  0x65, 0x6e, 0x73, 0x6f, 0x72, 0x64, 0x6f, 0x74, 0x2f, 0x47, 0x61, 0x74,
  0x68, 0x65, 0x72, 0x56, 0x32, 0x3b, 0x73, 0x65, 0x71, 0x75, 0x65, 0x6e,
  0x74, 0x69, 0x61, 0x6c, 0x2f, 0x64, 0x65, 0x6e, 0x73, 0x65, 0x2f, 0x54,
  0x65, 0x6e, 0x73, 0x6f, 0x72, 0x64, 0x6f, 0x74, 0x2f, 0x47, 0x61, 0x74,
  0x68, 0x65, 0x72, 0x56, 0x32, 0x2f, 0x61, 0x78, 0x69, 0x73, 0x00, 0x00,
  0x01, 0x00, 0x00, 0x00, 0x02, 0x00, 0x00, 0x00, 0x22, 0xf9, 0xff, 0xff,
  0x14, 0x00, 0x00, 0x00, 0x14, 0x00, 0x00, 0x00, 0x1b, 0x00, 0x00, 0x00,
  0x00, 0x00, 0x00, 0x02, 0x30, 0x00, 0x00, 0x00, 0x08, 0xf7, 0xff, 0xff,
  0x22, 0x00, 0x00, 0x00, 0x73, 0x65, 0x71, 0x75, 0x65, 0x6e, 0x74, 0x69,
  0x61, 0x6c, 0x2f, 0x64, 0x65, 0x6e, 0x73, 0x65, 0x5f, 0x31, 0x2f, 0x54,
  0x65, 0x6e, 0x73, 0x6f, 0x72, 0x64, 0x6f, 0x74, 0x2f, 0x53, 0x68, 0x61,
  0x70, 0x65, 0x00, 0x00, 0x01, 0x00, 0x00, 0x00, 0x03, 0x00, 0x00, 0x00,
  0xcc, 0xf7, 0xff, 0xff, 0x14, 0x00, 0x00, 0x00, 0x20, 0x00, 0x00, 0x00,
  0x20, 0x00, 0x00, 0x00, 0x1a, 0x00, 0x00, 0x00, 0x4c, 0x00, 0x00, 0x00,
  0x03, 0x00, 0x00, 0x00, 0xff, 0xff, 0xff, 0xff, 0xff, 0xff, 0xff, 0xff,
  0x20, 0x00, 0x00, 0x00, 0x64, 0xf7, 0xff, 0xff, 0x2e, 0x00, 0x00, 0x00,
  0x73, 0x65, 0x71, 0x75, 0x65, 0x6e, 0x74, 0x69, 0x61, 0x6c, 0x2f, 0x64,
  0x65, 0x6e, 0x73, 0x65, 0x2f, 0x52, 0x65, 0x6c, 0x75, 0x3b, 0x73, 0x65,
  0x71, 0x75, 0x65, 0x6e, 0x74, 0x69, 0x61, 0x6c, 0x2f, 0x64, 0x65, 0x6e,
  0x73, 0x65, 0x2f, 0x42, 0x69, 0x61, 0x73, 0x41, 0x64, 0x64, 0x00, 0x00,
  0x03, 0x00, 0x00, 0x00, 0x01, 0x00, 0x00, 0x00, 0x01, 0x00, 0x00, 0x00,
  0x20, 0x00, 0x00, 0x00, 0x3c, 0xf8, 0xff, 0xff, 0x14, 0x00, 0x00, 0x00,
  0x20, 0x00, 0x00, 0x00, 0x20, 0x00, 0x00, 0x00, 0x19, 0x00, 0x00, 0x00,
  0x38, 0x00, 0x00, 0x00, 0x03, 0x00, 0x00, 0x00, 0xff, 0xff, 0xff, 0xff,
  0xff, 0xff, 0xff, 0xff, 0xff, 0xff, 0xff, 0xff, 0xd4, 0xf7, 0xff, 0xff,
  0x1a, 0x00, 0x00, 0x00, 0x73, 0x65, 0x71, 0x75, 0x65, 0x6e, 0x74, 0x69,
  0x61, 0x6c, 0x2f, 0x64, 0x65, 0x6e, 0x73, 0x65, 0x2f, 0x54, 0x65, 0x6e,
  0x73, 0x6f, 0x72, 0x64, 0x6f, 0x74, 0x00, 0x00, 0x03, 0x00, 0x00, 0x00,
  0x01, 0x00, 0x00, 0x00, 0x01, 0x00, 0x00, 0x00, 0x01, 0x00, 0x00, 0x00,
  0x98, 0xf8, 0xff, 0xff, 0x14, 0x00, 0x00, 0x00, 0x1c, 0x00, 0x00, 0x00,
  0x1c, 0x00, 0x00, 0x00, 0x18, 0x00, 0x00, 0x00, 0x3c, 0x00, 0x00, 0x00,
  0x02, 0x00, 0x00, 0x00, 0xff, 0xff, 0xff, 0xff, 0x20, 0x00, 0x00, 0x00,
  0x2c, 0xf8, 0xff, 0xff, 0x22, 0x00, 0x00, 0x00, 0x73, 0x65, 0x71, 0x75,
  0x65, 0x6e, 0x74, 0x69, 0x61, 0x6c, 0x2f, 0x64, 0x65, 0x6e, 0x73, 0x65,
  0x2f, 0x54, 0x65, 0x6e, 0x73, 0x6f, 0x72, 0x64, 0x6f, 0x74, 0x2f, 0x4d,
  0x61, 0x74, 0x4d, 0x75, 0x6c, 0x31, 0x00, 0x00, 0x02, 0x00, 0x00, 0x00,
  0x01, 0x00, 0x00, 0x00, 0x20, 0x00, 0x00, 0x00, 0xf4, 0xf8, 0xff, 0xff,
  0x14, 0x00, 0x00, 0x00, 0x1c, 0x00, 0x00, 0x00, 0x1c, 0x00, 0x00, 0x00,
  0x17, 0x00, 0x00, 0x00, 0x3c, 0x00, 0x00, 0x00, 0x02, 0x00, 0x00, 0x00,
  0xff, 0xff, 0xff, 0xff, 0xff, 0xff, 0xff, 0xff, 0x88, 0xf8, 0xff, 0xff,
  0x22, 0x00, 0x00, 0x00, 0x73, 0x65, 0x71, 0x75, 0x65, 0x6e, 0x74, 0x69,
  0x61, 0x6c, 0x2f, 0x64, 0x65, 0x6e, 0x73, 0x65, 0x2f, 0x54, 0x65, 0x6e,
  0x73, 0x6f, 0x72, 0x64, 0x6f, 0x74, 0x2f, 0x52, 0x65, 0x73, 0x68, 0x61,
  0x70, 0x65, 0x00, 0x00, 0x02, 0x00, 0x00, 0x00, 0x01, 0x00, 0x00, 0x00,
  0x01, 0x00, 0x00, 0x00, 0xf2, 0xfa, 0xff, 0xff, 0x14, 0x00, 0x00, 0x00,
  0x14, 0x00, 0x00, 0x00, 0x16, 0x00, 0x00, 0x00, 0x00, 0x00, 0x00, 0x02,
  0x30, 0x00, 0x00, 0x00, 0xd8, 0xf8, 0xff, 0xff, 0x23, 0x00, 0x00, 0x00,
  0x73, 0x65, 0x71, 0x75, 0x65, 0x6e, 0x74, 0x69, 0x61, 0x6c, 0x2f, 0x64,
  0x65, 0x6e, 0x73, 0x65, 0x2f, 0x54, 0x65, 0x6e, 0x73, 0x6f, 0x72, 0x64,
  0x6f, 0x74, 0x2f, 0x63, 0x6f, 0x6e, 0x63, 0x61, 0x74, 0x5f, 0x31, 0x00,
  0x01, 0x00, 0x00, 0x00, 0x03, 0x00, 0x00, 0x00, 0x3e, 0xfb, 0xff, 0xff,
  0x14, 0x00, 0x00, 0x00, 0x14, 0x00, 0x00, 0x00, 0x15, 0x00, 0x00, 0x00,
  0x00, 0x00, 0x00, 0x02, 0x30, 0x00, 0x00, 0x00, 0x24, 0xf9, 0xff, 0xff,
  0x20, 0x00, 0x00, 0x00, 0x73, 0x65, 0x71, 0x75, 0x65, 0x6e, 0x74, 0x69,
  0x61, 0x6c, 0x2f, 0x64, 0x65, 0x6e, 0x73, 0x65, 0x2f, 0x54, 0x65, 0x6e,
  0x73, 0x6f, 0x72, 0x64, 0x6f, 0x74, 0x2f, 0x73, 0x74, 0x61, 0x63, 0x6b,
  0x00, 0x00, 0x00, 0x00, 0x01, 0x00, 0x00, 0x00, 0x02, 0x00, 0x00, 0x00,
  0x8a, 0xfb, 0xff, 0xff, 0x14, 0x00, 0x00, 0x00, 0x14, 0x00, 0x00, 0x00,
  0x14, 0x00, 0x00, 0x00, 0x00, 0x00, 0x00, 0x02, 0x2c, 0x00, 0x00, 0x00,
  0x70, 0xf9, 0xff, 0xff, 0x1f, 0x00, 0x00, 0x00, 0x73, 0x65, 0x71, 0x75,
  0x65, 0x6e, 0x74, 0x69, 0x61, 0x6c, 0x2f, 0x64, 0x65, 0x6e, 0x73, 0x65,
  0x2f, 0x54, 0x65, 0x6e, 0x73, 0x6f, 0x72, 0x64, 0x6f, 0x74, 0x2f, 0x50,
  0x72, 0x6f, 0x64, 0x00, 0x00, 0x00, 0x00, 0x00, 0xce, 0xfb, 0xff, 0xff,
  0x14, 0x00, 0x00, 0x00, 0x14, 0x00, 0x00, 0x00, 0x13, 0x00, 0x00, 0x00,
  0x00, 0x00, 0x00, 0x02, 0x5c, 0x00, 0x00, 0x00, 0xb4, 0xf9, 0xff, 0xff,
  0x4c, 0x00, 0x00, 0x00, 0x73, 0x65, 0x71, 0x75, 0x65, 0x6e, 0x74, 0x69,
  0x61, 0x6c, 0x2f, 0x64, 0x65, 0x6e, 0x73, 0x65, 0x2f, 0x54, 0x65, 0x6e,
  0x73, 0x6f, 0x72, 0x64, 0x6f, 0x74, 0x2f, 0x47, 0x61, 0x74, 0x68, 0x65,
  0x72, 0x56, 0x32, 0x3b, 0x73, 0x65, 0x71, 0x75, 0x65, 0x6e, 0x74, 0x69,
  0x61, 0x6c, 0x2f, 0x64, 0x65, 0x6e, 0x73, 0x65, 0x2f, 0x54, 0x65, 0x6e,
  0x73, 0x6f, 0x72, 0x64, 0x6f, 0x74, 0x2f, 0x47, 0x61, 0x74, 0x68, 0x65,
  0x72, 0x56, 0x32, 0x2f, 0x61, 0x78, 0x69, 0x73, 0x00, 0x00, 0x00, 0x00,
  0x01, 0x00, 0x00, 0x00, 0x02, 0x00, 0x00, 0x00, 0x46, 0xfc, 0xff, 0xff,
  0x14, 0x00, 0x00, 0x00, 0x14, 0x00, 0x00, 0x00, 0x12, 0x00, 0x00, 0x00,
  0x00, 0x00, 0x00, 0x02, 0x30, 0x00, 0x00, 0x00, 0x2c, 0xfa, 0xff, 0xff,
  0x21, 0x00, 0x00, 0x00, 0x73, 0x65, 0x71, 0x75, 0x65, 0x6e, 0x74, 0x69,
  0x61, 0x6c, 0x2f, 0x64, 0x65, 0x6e, 0x73, 0x65, 0x2f, 0x54, 0x65, 0x6e,
  0x73, 0x6f, 0x72, 0x64, 0x6f, 0x74, 0x2f, 0x50, 0x72, 0x6f, 0x64, 0x5f,
  0x31, 0x00, 0x00, 0x00, 0x00, 0x00, 0x00, 0x00, 0x8e, 0xfc, 0xff, 0xff,
  0x14, 0x00, 0x00, 0x00, 0x14, 0x00, 0x00, 0x00, 0x11, 0x00, 0x00, 0x00,
  0x00, 0x00, 0x00, 0x02, 0x5c, 0x00, 0x00, 0x00, 0x74, 0xfa, 0xff, 0xff,
  0x4e, 0x00, 0x00, 0x00, 0x73, 0x65, 0x71, 0x75, 0x65, 0x6e, 0x74, 0x69,
  0x61, 0x6c, 0x2f, 0x64, 0x65, 0x6e, 0x73, 0x65, 0x2f, 0x54, 0x65, 0x6e,
  0x73, 0x6f, 0x72, 0x64, 0x6f, 0x74, 0x2f, 0x47, 0x61, 0x74, 0x68, 0x65,
  0x72, 0x56, 0x32, 0x5f, 0x31, 0x3b, 0x73, 0x65, 0x71, 0x75, 0x65, 0x6e,
  0x74, 0x69, 0x61, 0x6c, 0x2f, 0x64, 0x65, 0x6e, 0x73, 0x65, 0x2f, 0x54,
  0x65, 0x6e, 0x73, 0x6f, 0x72, 0x64, 0x6f, 0x74, 0x2f, 0x47, 0x61, 0x74,
  0x68, 0x65, 0x72, 0x56, 0x32, 0x2f, 0x61, 0x78, 0x69, 0x73, 0x00, 0x00,
  0x01, 0x00, 0x00, 0x00, 0x01, 0x00, 0x00, 0x00, 0x06, 0xfd, 0xff, 0xff,
  0x14, 0x00, 0x00, 0x00, 0x14, 0x00, 0x00, 0x00, 0x10, 0x00, 0x00, 0x00,
  0x00, 0x00, 0x00, 0x02, 0x30, 0x00, 0x00, 0x00, 0xec, 0xfa, 0xff, 0xff,
  0x20, 0x00, 0x00, 0x00, 0x73, 0x65, 0x71, 0x75, 0x65, 0x6e, 0x74, 0x69,
  0x61, 0x6c, 0x2f, 0x64, 0x65, 0x6e, 0x73, 0x65, 0x2f, 0x54, 0x65, 0x6e,
  0x73, 0x6f, 0x72, 0x64, 0x6f, 0x74, 0x2f, 0x53, 0x68, 0x61, 0x70, 0x65,
  0x00, 0x00, 0x00, 0x00, 0x01, 0x00, 0x00, 0x00, 0x03, 0x00, 0x00, 0x00,
  0x0e, 0xfc, 0xff, 0xff, 0x10, 0x00, 0x00, 0x00, 0x10, 0x00, 0x00, 0x00,
  0x0f, 0x00, 0x00, 0x00, 0x30, 0x00, 0x00, 0x00, 0x34, 0xfb, 0xff, 0xff,
  0x22, 0x00, 0x00, 0x00, 0x73, 0x65, 0x71, 0x75, 0x65, 0x6e, 0x74, 0x69,
  0x61, 0x6c, 0x2f, 0x6f, 0x75, 0x74, 0x70, 0x75, 0x74, 0x2f, 0x54, 0x65,
  0x6e, 0x73, 0x6f, 0x72, 0x64, 0x6f, 0x74, 0x2f, 0x4d, 0x61, 0x74, 0x4d,
  0x75, 0x6c, 0x00, 0x00, 0x02, 0x00, 0x00, 0x00, 0x03, 0x00, 0x00, 0x00,
  0x20, 0x00, 0x00, 0x00, 0x5a, 0xfc, 0xff, 0xff, 0x10, 0x00, 0x00, 0x00,
  0x10, 0x00, 0x00, 0x00, 0x0e, 0x00, 0x00, 0x00, 0x30, 0x00, 0x00, 0x00,
  0x80, 0xfb, 0xff, 0xff, 0x23, 0x00, 0x00, 0x00, 0x73, 0x65, 0x71, 0x75,
  0x65, 0x6e, 0x74, 0x69, 0x61, 0x6c, 0x2f, 0x64, 0x65, 0x6e, 0x73, 0x65,
  0x5f, 0x32, 0x2f, 0x54, 0x65, 0x6e, 0x73, 0x6f, 0x72, 0x64, 0x6f, 0x74,
  0x2f, 0x4d, 0x61, 0x74, 0x4d, 0x75, 0x6c, 0x00, 0x02, 0x00, 0x00, 0x00,
  0x20, 0x00, 0x00, 0x00, 0x08, 0x00, 0x00, 0x00, 0xa6, 0xfc, 0xff, 0xff,
  0x10, 0x00, 0x00, 0x00, 0x10, 0x00, 0x00, 0x00, 0x0d, 0x00, 0x00, 0x00,
  0x30, 0x00, 0x00, 0x00, 0xcc, 0xfb, 0xff, 0xff, 0x23, 0x00, 0x00, 0x00,
  0x73, 0x65, 0x71, 0x75, 0x65, 0x6e, 0x74, 0x69, 0x61, 0x6c, 0x2f, 0x64,
  0x65, 0x6e, 0x73, 0x65, 0x5f, 0x31, 0x2f, 0x54, 0x65, 0x6e, 0x73, 0x6f,
  0x72, 0x64, 0x6f, 0x74, 0x2f, 0x4d, 0x61, 0x74, 0x4d, 0x75, 0x6c, 0x00,
  0x02, 0x00, 0x00, 0x00, 0x08, 0x00, 0x00, 0x00, 0x20, 0x00, 0x00, 0x00,
  0xf2, 0xfc, 0xff, 0xff, 0x10, 0x00, 0x00, 0x00, 0x10, 0x00, 0x00, 0x00,
  0x0c, 0x00, 0x00, 0x00, 0x30, 0x00, 0x00, 0x00, 0x18, 0xfc, 0xff, 0xff,
  0x21, 0x00, 0x00, 0x00, 0x73, 0x65, 0x71, 0x75, 0x65, 0x6e, 0x74, 0x69,
  0x61, 0x6c, 0x2f, 0x64, 0x65, 0x6e, 0x73, 0x65, 0x2f, 0x54, 0x65, 0x6e,
  0x73, 0x6f, 0x72, 0x64, 0x6f, 0x74, 0x2f, 0x4d, 0x61, 0x74, 0x4d, 0x75,
  0x6c, 0x00, 0x00, 0x00, 0x02, 0x00, 0x00, 0x00, 0x20, 0x00, 0x00, 0x00,
  0x03, 0x00, 0x00, 0x00, 0x82, 0xfe, 0xff, 0xff, 0x14, 0x00, 0x00, 0x00,
  0x14, 0x00, 0x00, 0x00, 0x0b, 0x00, 0x00, 0x00, 0x00, 0x00, 0x00, 0x02,
  0x34, 0x00, 0x00, 0x00, 0x68, 0xfc, 0xff, 0xff, 0x24, 0x00, 0x00, 0x00,
  0x73, 0x65, 0x71, 0x75, 0x65, 0x6e, 0x74, 0x69, 0x61, 0x6c, 0x2f, 0x64,
  0x65, 0x6e, 0x73, 0x65, 0x5f, 0x31, 0x2f, 0x54, 0x65, 0x6e, 0x73, 0x6f,
  0x72, 0x64, 0x6f, 0x74, 0x2f, 0x43, 0x6f, 0x6e, 0x73, 0x74, 0x5f, 0x32,
  0x00, 0x00, 0x00, 0x00, 0x01, 0x00, 0x00, 0x00, 0x01, 0x00, 0x00, 0x00,
  0xd2, 0xfe, 0xff, 0xff, 0x14, 0x00, 0x00, 0x00, 0x14, 0x00, 0x00, 0x00,
  0x0a, 0x00, 0x00, 0x00, 0x00, 0x00, 0x00, 0x02, 0x30, 0x00, 0x00, 0x00,
  0xb8, 0xfc, 0xff, 0xff, 0x22, 0x00, 0x00, 0x00, 0x73, 0x65, 0x71, 0x75,
  0x65, 0x6e, 0x74, 0x69, 0x61, 0x6c, 0x2f, 0x64, 0x65, 0x6e, 0x73, 0x65,
  0x2f, 0x54, 0x65, 0x6e, 0x73, 0x6f, 0x72, 0x64, 0x6f, 0x74, 0x2f, 0x43,
  0x6f, 0x6e, 0x73, 0x74, 0x5f, 0x32, 0x00, 0x00, 0x01, 0x00, 0x00, 0x00,
  0x01, 0x00, 0x00, 0x00, 0x1e, 0xff, 0xff, 0xff, 0x14, 0x00, 0x00, 0x00,
  0x14, 0x00, 0x00, 0x00, 0x09, 0x00, 0x00, 0x00, 0x00, 0x00, 0x00, 0x02,
  0x30, 0x00, 0x00, 0x00, 0x04, 0xfd, 0xff, 0xff, 0x20, 0x00, 0x00, 0x00,
  0x73, 0x65, 0x71, 0x75, 0x65, 0x6e, 0x74, 0x69, 0x61, 0x6c, 0x2f, 0x64,
  0x65, 0x6e, 0x73, 0x65, 0x2f, 0x54, 0x65, 0x6e, 0x73, 0x6f, 0x72, 0x64,
  0x6f, 0x74, 0x2f, 0x43, 0x6f, 0x6e, 0x73, 0x74, 0x00, 0x00, 0x00, 0x00,
  0x01, 0x00, 0x00, 0x00, 0x01, 0x00, 0x00, 0x00, 0x6a, 0xff, 0xff, 0xff,
  0x14, 0x00, 0x00, 0x00, 0x14, 0x00, 0x00, 0x00, 0x08, 0x00, 0x00, 0x00,
  0x00, 0x00, 0x00, 0x02, 0x30, 0x00, 0x00, 0x00, 0x50, 0xfd, 0xff, 0xff,
  0x23, 0x00, 0x00, 0x00, 0x73, 0x65, 0x71, 0x75, 0x65, 0x6e, 0x74, 0x69,
  0x61, 0x6c, 0x2f, 0x6f, 0x75, 0x74, 0x70, 0x75, 0x74, 0x2f, 0x54, 0x65,
  0x6e, 0x73, 0x6f, 0x72, 0x64, 0x6f, 0x74, 0x2f, 0x43, 0x6f, 0x6e, 0x73,
  0x74, 0x5f, 0x32, 0x00, 0x01, 0x00, 0x00, 0x00, 0x01, 0x00, 0x00, 0x00,
  0xb6, 0xff, 0xff, 0xff, 0x14, 0x00, 0x00, 0x00, 0x14, 0x00, 0x00, 0x00,
  0x07, 0x00, 0x00, 0x00, 0x00, 0x00, 0x00, 0x02, 0x2c, 0x00, 0x00, 0x00,
  0x9c, 0xfd, 0xff, 0xff, 0x1f, 0x00, 0x00, 0x00, 0x73, 0x65, 0x71, 0x75,
  0x65, 0x6e, 0x74, 0x69, 0x61, 0x6c, 0x2f, 0x64, 0x65, 0x6e, 0x73, 0x65,
  0x2f, 0x54, 0x65, 0x6e, 0x73, 0x6f, 0x72, 0x64, 0x6f, 0x74, 0x2f, 0x61,
  0x78, 0x65, 0x73, 0x00, 0x01, 0x00, 0x00, 0x00, 0x01, 0x00, 0x00, 0x00,
  0x00, 0x00, 0x0e, 0x00, 0x18, 0x00, 0x14, 0x00, 0x13, 0x00, 0x0c, 0x00,
  0x08, 0x00, 0x04, 0x00, 0x0e, 0x00, 0x00, 0x00, 0x14, 0x00, 0x00, 0x00,
  0x14, 0x00, 0x00, 0x00, 0x06, 0x00, 0x00, 0x00, 0x00, 0x00, 0x00, 0x02,
  0x2c, 0x00, 0x00, 0x00, 0xf4, 0xfd, 0xff, 0xff, 0x1f, 0x00, 0x00, 0x00,
  0x73, 0x65, 0x71, 0x75, 0x65, 0x6e, 0x74, 0x69, 0x61, 0x6c, 0x2f, 0x64,
  0x65, 0x6e, 0x73, 0x65, 0x2f, 0x54, 0x65, 0x6e, 0x73, 0x6f, 0x72, 0x64,
  0x6f, 0x74, 0x2f, 0x66, 0x72, 0x65, 0x65, 0x00, 0x01, 0x00, 0x00, 0x00,
  0x02, 0x00, 0x00, 0x00, 0x12, 0xff, 0xff, 0xff, 0x10, 0x00, 0x00, 0x00,
  0x10, 0x00, 0x00, 0x00, 0x05, 0x00, 0x00, 0x00, 0x38, 0x00, 0x00, 0x00,
  0x38, 0xfe, 0xff, 0xff, 0x29, 0x00, 0x00, 0x00, 0x73, 0x65, 0x71, 0x75,
  0x65, 0x6e, 0x74, 0x69, 0x61, 0x6c, 0x2f, 0x64, 0x65, 0x6e, 0x73, 0x65,
  0x5f, 0x31, 0x2f, 0x42, 0x69, 0x61, 0x73, 0x41, 0x64, 0x64, 0x2f, 0x52,
  0x65, 0x61, 0x64, 0x56, 0x61, 0x72, 0x69, 0x61, 0x62, 0x6c, 0x65, 0x4f,
  0x70, 0x00, 0x00, 0x00, 0x01, 0x00, 0x00, 0x00, 0x08, 0x00, 0x00, 0x00,
  0x62, 0xff, 0xff, 0xff, 0x10, 0x00, 0x00, 0x00, 0x10, 0x00, 0x00, 0x00,
  0x04, 0x00, 0x00, 0x00, 0x38, 0x00, 0x00, 0x00, 0x88, 0xfe, 0xff, 0xff,
  0x29, 0x00, 0x00, 0x00, 0x73, 0x65, 0x71, 0x75, 0x65, 0x6e, 0x74, 0x69,
  0x61, 0x6c, 0x2f, 0x64, 0x65, 0x6e, 0x73, 0x65, 0x5f, 0x32, 0x2f, 0x42,
  0x69, 0x61, 0x73, 0x41, 0x64, 0x64, 0x2f, 0x52, 0x65, 0x61, 0x64, 0x56,
  0x61, 0x72, 0x69, 0x61, 0x62, 0x6c, 0x65, 0x4f, 0x70, 0x00, 0x00, 0x00,
  0x01, 0x00, 0x00, 0x00, 0x20, 0x00, 0x00, 0x00, 0xb2, 0xff, 0xff, 0xff,
  0x10, 0x00, 0x00, 0x00, 0x10, 0x00, 0x00, 0x00, 0x03, 0x00, 0x00, 0x00,
  0x34, 0x00, 0x00, 0x00, 0xd8, 0xfe, 0xff, 0xff, 0x27, 0x00, 0x00, 0x00,
  0x73, 0x65, 0x71, 0x75, 0x65, 0x6e, 0x74, 0x69, 0x61, 0x6c, 0x2f, 0x64,
  0x65, 0x6e, 0x73, 0x65, 0x2f, 0x42, 0x69, 0x61, 0x73, 0x41, 0x64, 0x64,
  0x2f, 0x52, 0x65, 0x61, 0x64, 0x56, 0x61, 0x72, 0x69, 0x61, 0x62, 0x6c,
  0x65, 0x4f, 0x70, 0x00, 0x01, 0x00, 0x00, 0x00, 0x20, 0x00, 0x00, 0x00,
  0x00, 0x00, 0x0e, 0x00, 0x14, 0x00, 0x10, 0x00, 0x00, 0x00, 0x0c, 0x00,
  0x08, 0x00, 0x04, 0x00, 0x0e, 0x00, 0x00, 0x00, 0x10, 0x00, 0x00, 0x00,
  0x10, 0x00, 0x00, 0x00, 0x02, 0x00, 0x00, 0x00, 0x38, 0x00, 0x00, 0x00,
  0x34, 0xff, 0xff, 0xff, 0x28, 0x00, 0x00, 0x00, 0x73, 0x65, 0x71, 0x75,
  0x65, 0x6e, 0x74, 0x69, 0x61, 0x6c, 0x2f, 0x6f, 0x75, 0x74, 0x70, 0x75,
  0x74, 0x2f, 0x42, 0x69, 0x61, 0x73, 0x41, 0x64, 0x64, 0x2f, 0x52, 0x65,
  0x61, 0x64, 0x56, 0x61, 0x72, 0x69, 0x61, 0x62, 0x6c, 0x65, 0x4f, 0x70,
  0x00, 0x00, 0x00, 0x00, 0x01, 0x00, 0x00, 0x00, 0x03, 0x00, 0x00, 0x00,
  0x14, 0x00, 0x18, 0x00, 0x14, 0x00, 0x00, 0x00, 0x10, 0x00, 0x0c, 0x00,
  0x08, 0x00, 0x00, 0x00, 0x00, 0x00, 0x04, 0x00, 0x14, 0x00, 0x00, 0x00,
  0x14, 0x00, 0x00, 0x00, 0x20, 0x00, 0x00, 0x00, 0x20, 0x00, 0x00, 0x00,
  0x01, 0x00, 0x00, 0x00, 0x34, 0x00, 0x00, 0x00, 0x03, 0x00, 0x00, 0x00,
  0xff, 0xff, 0xff, 0xff, 0x01, 0x00, 0x00, 0x00, 0x03, 0x00, 0x00, 0x00,
  0xac, 0xff, 0xff, 0xff, 0x17, 0x00, 0x00, 0x00, 0x73, 0x65, 0x72, 0x76,
  0x69, 0x6e, 0x67, 0x5f, 0x64, 0x65, 0x66, 0x61, 0x75, 0x6c, 0x74, 0x5f,
  0x69, 0x6e, 0x70, 0x75, 0x74, 0x3a, 0x30, 0x00, 0x03, 0x00, 0x00, 0x00,
  0x01, 0x00, 0x00, 0x00, 0x01, 0x00, 0x00, 0x00, 0x03, 0x00, 0x00, 0x00,
  0x08, 0x00, 0x00, 0x00, 0x7c, 0x00, 0x00, 0x00, 0x60, 0x00, 0x00, 0x00,
  0x50, 0x00, 0x00, 0x00, 0x40, 0x00, 0x00, 0x00, 0x30, 0x00, 0x00, 0x00,
  0x20, 0x00, 0x00, 0x00, 0x10, 0x00, 0x00, 0x00, 0x08, 0x00, 0x00, 0x00,
  0x04, 0x00, 0x04, 0x00, 0x04, 0x00, 0x00, 0x00, 0xb8, 0xff, 0xff, 0xff,
  0x09, 0x00, 0x00, 0x00, 0x00, 0x00, 0x00, 0x09, 0xc4, 0xff, 0xff, 0xff,
  0x16, 0x00, 0x00, 0x00, 0x00, 0x00, 0x00, 0x16, 0xd0, 0xff, 0xff, 0xff,
  0x02, 0x00, 0x00, 0x00, 0x00, 0x00, 0x00, 0x02, 0xdc, 0xff, 0xff, 0xff,
  0x53, 0x00, 0x00, 0x00, 0x00, 0x00, 0x00, 0x53, 0xe8, 0xff, 0xff, 0xff,
  0x51, 0x00, 0x00, 0x00, 0x00, 0x00, 0x00, 0x51, 0xf4, 0xff, 0xff, 0xff,
  0x24, 0x00, 0x00, 0x00, 0x00, 0x00, 0x00, 0x24, 0x0c, 0x00, 0x0c, 0x00,
  0x0b, 0x00, 0x00, 0x00, 0x00, 0x00, 0x04, 0x00, 0x0c, 0x00, 0x00, 0x00,
  0x4d, 0x00, 0x00, 0x00, 0x00, 0x00, 0x00, 0x4d
};

#endif //C_MODEL_ALT_3_H