#ifndef C_MODEL_ALT_3_CLUST_H
#define C_MODEL_ALT_3_CLUST_H


unsigned int c_model_alt_3_clust_len = 12360;
unsigned char c_model_alt_3_clust[] = {
 0x1c, 0x00, 0x00, 0x00, 0x54, 0x46, 0x4c, 0x33, 0x14, 0x00, 0x20, 0x00,
  0x1c, 0x00, 0x18, 0x00, 0x14, 0x00, 0x10, 0x00, 0x0c, 0x00, 0x00, 0x00,
  0x08, 0x00, 0x04, 0x00, 0x14, 0x00, 0x00, 0x00, 0x1c, 0x00, 0x00, 0x00,
  0x80, 0x00, 0x00, 0x00, 0xd8, 0x00, 0x00, 0x00, 0xf4, 0x0f, 0x00, 0x00,
  0x04, 0x10, 0x00, 0x00, 0x88, 0x2f, 0x00, 0x00, 0x03, 0x00, 0x00, 0x00,
  0x01, 0x00, 0x00, 0x00, 0x04, 0x00, 0x00, 0x00, 0x96, 0xe8, 0xff, 0xff,
  0x0c, 0x00, 0x00, 0x00, 0x1c, 0x00, 0x00, 0x00, 0x38, 0x00, 0x00, 0x00,
  0x0f, 0x00, 0x00, 0x00, 0x73, 0x65, 0x72, 0x76, 0x69, 0x6e, 0x67, 0x5f,
  0x64, 0x65, 0x66, 0x61, 0x75, 0x6c, 0x74, 0x00, 0x01, 0x00, 0x00, 0x00,
  0x04, 0x00, 0x00, 0x00, 0x9c, 0xff, 0xff, 0xff, 0x3a, 0x00, 0x00, 0x00,
  0x04, 0x00, 0x00, 0x00, 0x06, 0x00, 0x00, 0x00, 0x6f, 0x75, 0x74, 0x70,
  0x75, 0x74, 0x00, 0x00, 0x01, 0x00, 0x00, 0x00, 0x04, 0x00, 0x00, 0x00,
  0x6a, 0xe8, 0xff, 0xff, 0x04, 0x00, 0x00, 0x00, 0x05, 0x00, 0x00, 0x00,
  0x69, 0x6e, 0x70, 0x75, 0x74, 0x00, 0x00, 0x00, 0x02, 0x00, 0x00, 0x00,
  0x34, 0x00, 0x00, 0x00, 0x04, 0x00, 0x00, 0x00, 0xdc, 0xff, 0xff, 0xff,
  0x3d, 0x00, 0x00, 0x00, 0x04, 0x00, 0x00, 0x00, 0x13, 0x00, 0x00, 0x00,
  0x43, 0x4f, 0x4e, 0x56, 0x45, 0x52, 0x53, 0x49, 0x4f, 0x4e, 0x5f, 0x4d,
  0x45, 0x54, 0x41, 0x44, 0x41, 0x54, 0x41, 0x00, 0x08, 0x00, 0x0c, 0x00,
  0x08, 0x00, 0x04, 0x00, 0x08, 0x00, 0x00, 0x00, 0x3c, 0x00, 0x00, 0x00,
  0x04, 0x00, 0x00, 0x00, 0x13, 0x00, 0x00, 0x00, 0x6d, 0x69, 0x6e, 0x5f,
  0x72, 0x75, 0x6e, 0x74, 0x69, 0x6d, 0x65, 0x5f, 0x76, 0x65, 0x72, 0x73,
  0x69, 0x6f, 0x6e, 0x00, 0x3e, 0x00, 0x00, 0x00, 0x18, 0x0f, 0x00, 0x00,
  0x10, 0x0f, 0x00, 0x00, 0xf4, 0x0e, 0x00, 0x00, 0x64, 0x0e, 0x00, 0x00,
  0xd4, 0x0d, 0x00, 0x00, 0xa4, 0x0d, 0x00, 0x00, 0x8c, 0x0d, 0x00, 0x00,
  0x78, 0x0d, 0x00, 0x00, 0x64, 0x0d, 0x00, 0x00, 0x50, 0x0d, 0x00, 0x00,
  0x3c, 0x0d, 0x00, 0x00, 0x28, 0x0d, 0x00, 0x00, 0x98, 0x0b, 0x00, 0x00,
  0x88, 0x07, 0x00, 0x00, 0x78, 0x03, 0x00, 0x00, 0xe8, 0x01, 0x00, 0x00,
  0xe0, 0x01, 0x00, 0x00, 0xd8, 0x01, 0x00, 0x00, 0xd0, 0x01, 0x00, 0x00,
  0xc8, 0x01, 0x00, 0x00, 0xc0, 0x01, 0x00, 0x00, 0xb8, 0x01, 0x00, 0x00,
  0xb0, 0x01, 0x00, 0x00, 0xa8, 0x01, 0x00, 0x00, 0xa0, 0x01, 0x00, 0x00,
  0x98, 0x01, 0x00, 0x00, 0x90, 0x01, 0x00, 0x00, 0x88, 0x01, 0x00, 0x00,
  0x80, 0x01, 0x00, 0x00, 0x78, 0x01, 0x00, 0x00, 0x70, 0x01, 0x00, 0x00,
  0x68, 0x01, 0x00, 0x00, 0x60, 0x01, 0x00, 0x00, 0x58, 0x01, 0x00, 0x00,
  0x50, 0x01, 0x00, 0x00, 0x48, 0x01, 0x00, 0x00, 0x40, 0x01, 0x00, 0x00,
  0x38, 0x01, 0x00, 0x00, 0x30, 0x01, 0x00, 0x00, 0x28, 0x01, 0x00, 0x00,
  0x20, 0x01, 0x00, 0x00, 0x18, 0x01, 0x00, 0x00, 0x10, 0x01, 0x00, 0x00,
  0x08, 0x01, 0x00, 0x00, 0x00, 0x01, 0x00, 0x00, 0xf8, 0x00, 0x00, 0x00,
  0xf0, 0x00, 0x00, 0x00, 0xe8, 0x00, 0x00, 0x00, 0xe0, 0x00, 0x00, 0x00,
  0xd8, 0x00, 0x00, 0x00, 0xd0, 0x00, 0x00, 0x00, 0xc8, 0x00, 0x00, 0x00,
  0xc0, 0x00, 0x00, 0x00, 0xb8, 0x00, 0x00, 0x00, 0xb0, 0x00, 0x00, 0x00,
  0xa8, 0x00, 0x00, 0x00, 0xa0, 0x00, 0x00, 0x00, 0x98, 0x00, 0x00, 0x00,
  0x90, 0x00, 0x00, 0x00, 0x88, 0x00, 0x00, 0x00, 0x68, 0x00, 0x00, 0x00,
  0x04, 0x00, 0x00, 0x00, 0xd6, 0xe9, 0xff, 0xff, 0x04, 0x00, 0x00, 0x00,
  0x54, 0x00, 0x00, 0x00, 0x0c, 0x00, 0x00, 0x00, 0x08, 0x00, 0x0e, 0x00,
  0x08, 0x00, 0x04, 0x00, 0x08, 0x00, 0x00, 0x00, 0x10, 0x00, 0x00, 0x00,
  0x24, 0x00, 0x00, 0x00, 0x00, 0x00, 0x06, 0x00, 0x08, 0x00, 0x04, 0x00,
  0x06, 0x00, 0x00, 0x00, 0x04, 0x00, 0x00, 0x00, 0x00, 0x00, 0x00, 0x00,
  0x00, 0x00, 0x0a, 0x00, 0x10, 0x00, 0x0c, 0x00, 0x08, 0x00, 0x04, 0x00,
  0x0a, 0x00, 0x00, 0x00, 0x02, 0x00, 0x00, 0x00, 0x02, 0x00, 0x00, 0x00,
  0x04, 0x00, 0x00, 0x00, 0x05, 0x00, 0x00, 0x00, 0x32, 0x2e, 0x39, 0x2e,
  0x31, 0x00, 0x00, 0x00, 0x36, 0xea, 0xff, 0xff, 0x04, 0x00, 0x00, 0x00,
  0x10, 0x00, 0x00, 0x00, 0x31, 0x2e, 0x31, 0x31, 0x2e, 0x30, 0x00, 0x00,
  0x00, 0x00, 0x00, 0x00, 0x00, 0x00, 0x00, 0x00, 0x98, 0xd2, 0xff, 0xff,
  0x9c, 0xd2, 0xff, 0xff, 0xa0, 0xd2, 0xff, 0xff, 0xa4, 0xd2, 0xff, 0xff,
  0xa8, 0xd2, 0xff, 0xff, 0xac, 0xd2, 0xff, 0xff, 0xb0, 0xd2, 0xff, 0xff,
  0xb4, 0xd2, 0xff, 0xff, 0xb8, 0xd2, 0xff, 0xff, 0xbc, 0xd2, 0xff, 0xff,
  0xc0, 0xd2, 0xff, 0xff, 0xc4, 0xd2, 0xff, 0xff, 0xc8, 0xd2, 0xff, 0xff,
  0xcc, 0xd2, 0xff, 0xff, 0xd0, 0xd2, 0xff, 0xff, 0xd4, 0xd2, 0xff, 0xff,
  0xd8, 0xd2, 0xff, 0xff, 0xdc, 0xd2, 0xff, 0xff, 0xe0, 0xd2, 0xff, 0xff,
  0xe4, 0xd2, 0xff, 0xff, 0xe8, 0xd2, 0xff, 0xff, 0xec, 0xd2, 0xff, 0xff,
  0xf0, 0xd2, 0xff, 0xff, 0xf4, 0xd2, 0xff, 0xff, 0xf8, 0xd2, 0xff, 0xff,
  0xfc, 0xd2, 0xff, 0xff, 0x00, 0xd3, 0xff, 0xff, 0x04, 0xd3, 0xff, 0xff,
  0x08, 0xd3, 0xff, 0xff, 0x0c, 0xd3, 0xff, 0xff, 0x10, 0xd3, 0xff, 0xff,
  0x14, 0xd3, 0xff, 0xff, 0x18, 0xd3, 0xff, 0xff, 0x1c, 0xd3, 0xff, 0xff,
  0x20, 0xd3, 0xff, 0xff, 0x24, 0xd3, 0xff, 0xff, 0x28, 0xd3, 0xff, 0xff,
  0x2c, 0xd3, 0xff, 0xff, 0x30, 0xd3, 0xff, 0xff, 0x34, 0xd3, 0xff, 0xff,
  0x38, 0xd3, 0xff, 0xff, 0x3c, 0xd3, 0xff, 0xff, 0x40, 0xd3, 0xff, 0xff,
  0x44, 0xd3, 0xff, 0xff, 0x02, 0xeb, 0xff, 0xff, 0x04, 0x00, 0x00, 0x00,
  0x80, 0x01, 0x00, 0x00, 0x06, 0x93, 0xa9, 0xbe, 0xb7, 0x46, 0x5f, 0xbe,
  0x6b, 0xa8, 0x52, 0x3e, 0xe8, 0xf4, 0x9e, 0xbe, 0x08, 0x39, 0x8d, 0xbe,
  0x24, 0x1a, 0x94, 0x3e, 0xa4, 0xe7, 0x32, 0x3e, 0x70, 0xb3, 0xc4, 0xbc,
  0x4f, 0x88, 0xff, 0x3d, 0xa3, 0x1d, 0xa4, 0x3e, 0xb7, 0x46, 0x5f, 0xbe,
  0xec, 0xb3, 0xb0, 0x3e, 0x60, 0xba, 0x83, 0x3e, 0xe8, 0xf4, 0x9e, 0xbe,
  0x41, 0x73, 0x0f, 0xbe, 0xff, 0x23, 0x30, 0xbe, 0x24, 0x1a, 0x94, 0x3e,
  0x68, 0x80, 0xdb, 0x3e, 0x4f, 0x88, 0xff, 0x3d, 0x08, 0x39, 0x8d, 0xbe,
  0xc4, 0x01, 0xd2, 0x3e, 0x99, 0x23, 0x37, 0xbd, 0x70, 0xb3, 0xc4, 0xbc,
  0x3a, 0xa9, 0xf4, 0x3e, 0x02, 0xa0, 0x16, 0x3e, 0x3a, 0xa9, 0xf4, 0x3e,
  0xa4, 0xe7, 0x32, 0x3e, 0xec, 0xb3, 0xb0, 0x3e, 0x70, 0xb3, 0xc4, 0xbc,
  0xc4, 0x01, 0xd2, 0x3e, 0x68, 0x80, 0xdb, 0x3e, 0x60, 0xba, 0x83, 0x3e,
  0xe8, 0xf4, 0x9e, 0xbe, 0x6b, 0xa8, 0x52, 0x3e, 0xa4, 0xe7, 0x32, 0x3e,
  0x79, 0xd9, 0x9b, 0x3e, 0xa9, 0x34, 0xc8, 0xbd, 0xff, 0x23, 0x30, 0xbe,
  0x08, 0x39, 0x8d, 0xbe, 0x41, 0x73, 0x0f, 0xbe, 0xb7, 0x46, 0x5f, 0xbe,
  0x79, 0xd9, 0x9b, 0x3e, 0xe8, 0xf4, 0x9e, 0xbe, 0x5a, 0x78, 0xfd, 0x3c,
  0x79, 0xd9, 0x9b, 0x3e, 0xe8, 0xf4, 0x9e, 0xbe, 0x79, 0xd9, 0x9b, 0x3e,
  0x02, 0xa0, 0x16, 0x3e, 0xfd, 0x51, 0x4c, 0xbe, 0xb7, 0x46, 0x5f, 0xbe,
  0xb6, 0xd3, 0x71, 0x3e, 0x60, 0xba, 0x83, 0x3e, 0xb7, 0x46, 0x5f, 0xbe,
  0x80, 0xc0, 0x41, 0x3d, 0xb7, 0x46, 0x5f, 0xbe, 0x06, 0x93, 0xa9, 0xbe,
  0x24, 0x1a, 0x94, 0x3e, 0xa3, 0x1d, 0xa4, 0x3e, 0x08, 0x39, 0x8d, 0xbe,
  0xec, 0xb3, 0xb0, 0x3e, 0xec, 0xb3, 0xb0, 0x3e, 0xfd, 0x51, 0x4c, 0xbe,
  0xc4, 0x01, 0xd2, 0x3e, 0x7d, 0x39, 0xb7, 0xbe, 0x6b, 0xa8, 0x52, 0x3e,
  0x99, 0x23, 0x37, 0xbd, 0xe8, 0xf4, 0x9e, 0xbe, 0x99, 0x23, 0x37, 0xbd,
  0x26, 0x8f, 0xee, 0xbe, 0x70, 0xb3, 0xc4, 0xbc, 0x41, 0x73, 0x0f, 0xbe,
  0xa4, 0xe7, 0x32, 0x3e, 0xf3, 0xc5, 0xa2, 0x3d, 0x79, 0xd9, 0x9b, 0x3e,
  0xb6, 0x51, 0xcd, 0xbe, 0xec, 0xb3, 0xb0, 0x3e, 0x24, 0x1a, 0x94, 0x3e,
  0xc8, 0x7f, 0x08, 0x3f, 0x80, 0xc0, 0x41, 0x3d, 0xa9, 0x34, 0xc8, 0xbd,
  0x02, 0xa0, 0x16, 0x3e, 0x60, 0xba, 0x83, 0x3e, 0xc4, 0x01, 0xd2, 0x3e,
  0x02, 0x93, 0xdc, 0xbe, 0x02, 0xa0, 0x16, 0x3e, 0x6b, 0xa8, 0x52, 0x3e,
  0x60, 0xba, 0x83, 0x3e, 0x24, 0x1a, 0x94, 0x3e, 0xf3, 0xc5, 0xa2, 0x3d,
  0x7d, 0x39, 0xb7, 0xbe, 0xdb, 0xe9, 0x9c, 0xbd, 0xff, 0x23, 0x30, 0xbe,
  0xe8, 0xf4, 0x9e, 0xbe, 0xb7, 0x46, 0x5f, 0xbe, 0x60, 0xba, 0x83, 0x3e,
  0x5a, 0x78, 0xfd, 0x3c, 0x8e, 0xec, 0xff, 0xff, 0x04, 0x00, 0x00, 0x00,
  0x00, 0x04, 0x00, 0x00, 0xb3, 0x1d, 0x9d, 0xbe, 0xe3, 0xc8, 0x0c, 0xbd,
  0x10, 0xb9, 0xa6, 0xbc, 0xdc, 0x25, 0xc2, 0xbd, 0x03, 0xf6, 0xaf, 0xbe,
  0x10, 0xb9, 0xa6, 0xbc, 0xf1, 0x89, 0x64, 0xbe, 0xc2, 0xc5, 0xd1, 0x3d,
  0xf7, 0xe8, 0xba, 0x3e, 0xdc, 0x25, 0xc2, 0xbd, 0xdc, 0x25, 0xc2, 0xbd,
  0xb3, 0x1d, 0x9d, 0xbe, 0xf7, 0x86, 0xbc, 0xbe, 0x05, 0xa6, 0x9c, 0x3d,
  0xdc, 0x25, 0xc2, 0xbd, 0xf7, 0x86, 0xbc, 0xbe, 0xb1, 0xc0, 0x15, 0xbe,
  0xb1, 0xc0, 0x15, 0xbe, 0x83, 0x72, 0x9f, 0x3e, 0xc2, 0xc5, 0xd1, 0x3d,
  0x80, 0x0d, 0xe9, 0x3e, 0x03, 0xf6, 0xaf, 0xbe, 0xdc, 0x25, 0xc2, 0xbd,
  0x5f, 0x35, 0x04, 0xbe, 0x53, 0x3d, 0x74, 0xbe, 0xee, 0x5d, 0x4c, 0xbe,
  0xe3, 0xa5, 0x98, 0x3e, 0xdc, 0x25, 0xc2, 0xbd, 0xdc, 0x25, 0xc2, 0xbd,
  0xf7, 0xe8, 0xba, 0x3e, 0xb1, 0xc0, 0x15, 0xbe, 0xe3, 0xc8, 0x0c, 0xbd,
  0x5f, 0x35, 0x04, 0xbe, 0xf1, 0x89, 0x64, 0xbe, 0x56, 0xa5, 0x40, 0x3e,
  0xb1, 0xc0, 0x15, 0xbe, 0x83, 0x72, 0x9f, 0x3e, 0xe3, 0xa5, 0x98, 0x3e,
  0xdb, 0xc4, 0x85, 0xbe, 0xe3, 0xa5, 0x98, 0x3e, 0xee, 0x5d, 0x4c, 0xbe,
  0xe3, 0xc8, 0x0c, 0xbd, 0x60, 0x51, 0xb2, 0x3e, 0xb1, 0xc0, 0x15, 0xbe,
  0xa5, 0x32, 0xd4, 0x3e, 0x5f, 0x35, 0x04, 0xbe, 0xf7, 0xe8, 0xba, 0x3e,
  0xe3, 0x4c, 0x8c, 0x3e, 0xc2, 0xc5, 0xd1, 0x3d, 0x03, 0xf6, 0xaf, 0xbe,
  0xdb, 0xc4, 0x85, 0xbe, 0x56, 0xa5, 0x40, 0x3e, 0x56, 0xa5, 0x40, 0x3e,
  0xc2, 0xc5, 0xd1, 0x3d, 0x7b, 0x2e, 0x00, 0x3e, 0x05, 0xa6, 0x9c, 0x3d,
  0xf7, 0x86, 0xbc, 0xbe, 0xdc, 0x25, 0xc2, 0xbd, 0xfe, 0x1c, 0x91, 0xbe,
  0xc2, 0xc5, 0xd1, 0x3d, 0x56, 0xa5, 0x40, 0x3e, 0xe3, 0xa5, 0x98, 0x3e,
  0x03, 0xf6, 0xaf, 0xbe, 0xd3, 0xe0, 0x6d, 0x3e, 0x10, 0xb9, 0xa6, 0xbc,
  0xe3, 0x4c, 0x8c, 0x3e, 0x99, 0x18, 0x26, 0x3e, 0xdb, 0xc4, 0x85, 0xbe,
  0xe3, 0x4c, 0x8c, 0x3e, 0x7b, 0x2e, 0x00, 0x3e, 0xf7, 0xe8, 0xba, 0x3e,
  0xfe, 0x1c, 0x91, 0xbe, 0x10, 0xb9, 0xa6, 0xbc, 0x85, 0x6f, 0x92, 0x3c,
  0xee, 0x5d, 0x4c, 0xbe, 0x7b, 0x2e, 0x00, 0x3e, 0xc2, 0xc5, 0xd1, 0x3d,
  0xe3, 0x4c, 0x8c, 0x3e, 0x27, 0x0f, 0x51, 0x3e, 0x7b, 0x2e, 0x00, 0x3e,
  0x85, 0x6f, 0x92, 0x3c, 0x56, 0xa5, 0x40, 0x3e, 0xdc, 0x25, 0xc2, 0xbd,
  0xf7, 0x86, 0xbc, 0xbe, 0xef, 0x02, 0x6d, 0xbd, 0x47, 0xb6, 0x2d, 0xbe,
  0x4f, 0x1c, 0xaa, 0x3e, 0x53, 0x3d, 0x74, 0xbe, 0xef, 0x02, 0x6d, 0xbd,
  0x5f, 0x35, 0x04, 0xbe, 0x99, 0x18, 0x26, 0x3e, 0xc2, 0xc5, 0xd1, 0x3d,
  0xc2, 0xc5, 0xd1, 0x3d, 0xf7, 0x86, 0xbc, 0xbe, 0xf7, 0xe8, 0xba, 0x3e,
  0xb3, 0x1d, 0x9d, 0xbe, 0xdc, 0x25, 0xc2, 0xbd, 0xfe, 0xd7, 0x51, 0x3d,
  0x53, 0x3d, 0x74, 0xbe, 0xe3, 0xa5, 0x98, 0x3e, 0xfe, 0x1c, 0x91, 0xbe,
  0xd3, 0xe0, 0x6d, 0x3e, 0xe3, 0xa5, 0x98, 0x3e, 0xd3, 0xe0, 0x6d, 0x3e,
  0xe3, 0xc8, 0x0c, 0xbd, 0xfe, 0x1c, 0x91, 0xbe, 0xc2, 0xc5, 0xd1, 0x3d,
  0x60, 0x51, 0xb2, 0x3e, 0xdc, 0x25, 0xc2, 0xbd, 0x83, 0x72, 0x9f, 0x3e,
  0xf1, 0x89, 0x64, 0xbe, 0xfe, 0x1c, 0x91, 0xbe, 0x7b, 0x2e, 0x00, 0x3e,
  0x60, 0x51, 0xb2, 0x3e, 0xf1, 0x89, 0x64, 0xbe, 0xdb, 0xc4, 0x85, 0xbe,
  0x03, 0xf6, 0xaf, 0xbe, 0x5f, 0x35, 0x04, 0xbe, 0xf7, 0x86, 0xbc, 0xbe,
  0x60, 0x51, 0xb2, 0x3e, 0xdc, 0x25, 0xc2, 0xbd, 0x83, 0x72, 0x9f, 0x3e,
  0xdc, 0x25, 0xc2, 0xbd, 0xe3, 0x4c, 0x8c, 0x3e, 0xef, 0x02, 0x6d, 0xbd,
  0x27, 0x0f, 0x51, 0x3e, 0x99, 0x18, 0x26, 0x3e, 0xee, 0x5d, 0x4c, 0xbe,
  0xd3, 0xe0, 0x6d, 0x3e, 0x56, 0xa5, 0x40, 0x3e, 0xfe, 0x1c, 0x91, 0xbe,
  0xd3, 0xe0, 0x6d, 0x3e, 0x85, 0x6f, 0x92, 0x3c, 0xf1, 0x89, 0x64, 0xbe,
  0x5f, 0x35, 0x04, 0xbe, 0x85, 0x6f, 0x92, 0x3c, 0xf1, 0x89, 0x64, 0xbe,
  0x85, 0x6f, 0x92, 0x3c, 0xfe, 0xd7, 0x51, 0x3d, 0x4f, 0x1c, 0xaa, 0x3e,
  0x7b, 0x2e, 0x00, 0x3e, 0xc2, 0xc5, 0xd1, 0x3d, 0xb1, 0xc0, 0x15, 0xbe,
  0xb3, 0x1d, 0x9d, 0xbe, 0x83, 0x72, 0x9f, 0x3e, 0x53, 0x3d, 0x74, 0xbe,
  0x83, 0x72, 0x9f, 0x3e, 0xfe, 0x1c, 0x91, 0xbe, 0x53, 0x3d, 0x74, 0xbe,
  0xe3, 0xa5, 0x98, 0x3e, 0xe3, 0xa5, 0x98, 0x3e, 0xe3, 0xc8, 0x0c, 0xbd,
  0x7b, 0x2e, 0x00, 0x3e, 0x83, 0x72, 0x9f, 0x3e, 0xf1, 0x89, 0x64, 0xbe,
  0x5f, 0x35, 0x04, 0xbe, 0x99, 0x18, 0x26, 0x3e, 0xc2, 0xc5, 0xd1, 0x3d,
  0xee, 0x5d, 0x4c, 0xbe, 0xfe, 0xd7, 0x51, 0x3d, 0x4f, 0x1c, 0xaa, 0x3e,
  0x85, 0x6f, 0x92, 0x3c, 0x7b, 0x2e, 0x00, 0x3e, 0xa5, 0x32, 0xd4, 0x3e,
  0x56, 0xa5, 0x40, 0x3e, 0xee, 0x5d, 0x4c, 0xbe, 0xee, 0x5d, 0x4c, 0xbe,
  0x5f, 0x35, 0x04, 0xbe, 0x99, 0x18, 0x26, 0x3e, 0xb3, 0x1d, 0x9d, 0xbe,
  0x56, 0xa5, 0x40, 0x3e, 0xdc, 0x25, 0xc2, 0xbd, 0x27, 0x0f, 0x51, 0x3e,
  0xfe, 0xd7, 0x51, 0x3d, 0xe3, 0x4c, 0x8c, 0x3e, 0x99, 0x18, 0x26, 0x3e,
  0x47, 0xb6, 0x2d, 0xbe, 0xdb, 0xc4, 0x85, 0xbe, 0x4f, 0x1c, 0xaa, 0x3e,
  0xc2, 0xc5, 0xd1, 0x3d, 0x05, 0xa6, 0x9c, 0x3d, 0x53, 0x3d, 0x74, 0xbe,
  0x83, 0x72, 0x9f, 0x3e, 0xef, 0x02, 0x6d, 0xbd, 0xe3, 0xc8, 0x0c, 0xbd,
  0xf7, 0x86, 0xbc, 0xbe, 0x47, 0xb6, 0x2d, 0xbe, 0x05, 0xa6, 0x9c, 0x3d,
  0xe3, 0xa5, 0x98, 0x3e, 0xe3, 0x4c, 0x8c, 0x3e, 0x4f, 0x1c, 0xaa, 0x3e,
  0xdc, 0x25, 0xc2, 0xbd, 0xf7, 0xe8, 0xba, 0x3e, 0xf7, 0x86, 0xbc, 0xbe,
  0xdb, 0xc4, 0x85, 0xbe, 0xef, 0x02, 0x6d, 0xbd, 0x4f, 0x1c, 0xaa, 0x3e,
  0xb3, 0x1d, 0x9d, 0xbe, 0xdb, 0xc4, 0x85, 0xbe, 0x5f, 0x35, 0x04, 0xbe,
  0xf7, 0xe8, 0xba, 0x3e, 0x47, 0xb6, 0x2d, 0xbe, 0x10, 0xb9, 0xa6, 0xbc,
  0xdc, 0x25, 0xc2, 0xbd, 0x80, 0x0d, 0xe9, 0x3e, 0x05, 0xa6, 0x9c, 0x3d,
  0x83, 0x72, 0x9f, 0x3e, 0xfe, 0x1c, 0x91, 0xbe, 0xef, 0x02, 0x6d, 0xbd,
  0xee, 0x5d, 0x4c, 0xbe, 0x05, 0xa6, 0x9c, 0x3d, 0x03, 0xf6, 0xaf, 0xbe,
  0xe3, 0xc8, 0x0c, 0xbd, 0x7b, 0x2e, 0x00, 0x3e, 0xfe, 0x1c, 0x91, 0xbe,
  0xe3, 0x4c, 0x8c, 0x3e, 0xf1, 0x89, 0x64, 0xbe, 0xf7, 0x86, 0xbc, 0xbe,
  0xd3, 0xe0, 0x6d, 0x3e, 0xf7, 0xe8, 0xba, 0x3e, 0xb3, 0x1d, 0x9d, 0xbe,
  0x03, 0xf6, 0xaf, 0xbe, 0xf7, 0x86, 0xbc, 0xbe, 0x27, 0x0f, 0x51, 0x3e,
  0x99, 0x18, 0x26, 0x3e, 0xc2, 0xc5, 0xd1, 0x3d, 0xee, 0x5d, 0x4c, 0xbe,
  0x85, 0x6f, 0x92, 0x3c, 0xfe, 0xd7, 0x51, 0x3d, 0xfe, 0xd7, 0x51, 0x3d,
  0x85, 0x6f, 0x92, 0x3c, 0xee, 0x5d, 0x4c, 0xbe, 0xfe, 0xd7, 0x51, 0x3d,
  0x60, 0x51, 0xb2, 0x3e, 0xdc, 0x25, 0xc2, 0xbd, 0x47, 0xb6, 0x2d, 0xbe,
  0x80, 0x0d, 0xe9, 0x3e, 0xd3, 0xe0, 0x6d, 0x3e, 0x5f, 0x35, 0x04, 0xbe,
  0x47, 0xb6, 0x2d, 0xbe, 0x47, 0xb6, 0x2d, 0xbe, 0xf7, 0x86, 0xbc, 0xbe,
  0xd3, 0xe0, 0x6d, 0x3e, 0x7b, 0x2e, 0x00, 0x3e, 0xd3, 0xe0, 0x6d, 0x3e,
  0xe3, 0x4c, 0x8c, 0x3e, 0x85, 0x6f, 0x92, 0x3c, 0xfe, 0xd7, 0x51, 0x3d,
  0xdb, 0xc4, 0x85, 0xbe, 0xfe, 0x1c, 0x91, 0xbe, 0xf7, 0x86, 0xbc, 0xbe,
  0xee, 0x5d, 0x4c, 0xbe, 0xe3, 0xc8, 0x0c, 0xbd, 0xdb, 0xc4, 0x85, 0xbe,
  0x85, 0x6f, 0x92, 0x3c, 0xfe, 0xd7, 0x51, 0x3d, 0x9a, 0xf0, 0xff, 0xff,
  0x04, 0x00, 0x00, 0x00, 0x00, 0x04, 0x00, 0x00, 0x7a, 0x61, 0x4e, 0x3e,
  0x05, 0xf5, 0x63, 0x3e, 0xaa, 0xea, 0x3e, 0xbe, 0xa4, 0x52, 0x0a, 0xbe,
  0x29, 0x46, 0xaf, 0xbe, 0xea, 0xab, 0x1c, 0xbe, 0x63, 0xfc, 0x8a, 0xbe,
  0xb7, 0x74, 0xa9, 0xbe, 0xea, 0xab, 0x1c, 0xbe, 0xfa, 0xdd, 0x53, 0xbd,
  0x63, 0xfc, 0x8a, 0xbe, 0x6e, 0xb9, 0xab, 0xbc, 0xfa, 0xdd, 0x53, 0xbd,
  0x21, 0x7e, 0xf9, 0xbd, 0x6e, 0xb9, 0xab, 0xbc, 0xe3, 0x20, 0xc1, 0xbe,
  0x6e, 0xb9, 0xab, 0xbc, 0x88, 0xe8, 0x82, 0x3d, 0xe3, 0x20, 0xc1, 0xbe,
  0x88, 0x92, 0x07, 0x3e, 0x88, 0x0e, 0x8d, 0xbd, 0x6e, 0xb9, 0xab, 0xbc,
  0xa4, 0x52, 0x0a, 0xbe, 0xc9, 0xfb, 0x08, 0x3d, 0xc9, 0xfb, 0x08, 0x3d,
  0xfa, 0xdd, 0x53, 0xbd, 0xc9, 0xfb, 0x08, 0x3d, 0xb8, 0x07, 0xbf, 0xbd,
  0xe8, 0xb5, 0x38, 0x3e, 0x01, 0x00, 0x69, 0xbe, 0x65, 0x10, 0xa1, 0x3e,
  0xb7, 0x74, 0xa9, 0xbe, 0xe8, 0xb5, 0x38, 0x3e, 0xe8, 0xb5, 0x38, 0x3e,
  0x01, 0x00, 0x69, 0xbe, 0x6e, 0xb9, 0xab, 0xbc, 0x00, 0x92, 0x9e, 0xbe,
  0x85, 0x45, 0x85, 0x3e, 0xe8, 0xb5, 0x38, 0x3e, 0x7a, 0x61, 0x4e, 0x3e,
  0x05, 0xf5, 0x63, 0x3e, 0xaa, 0xea, 0x3e, 0xbe, 0xb8, 0x07, 0xbf, 0xbd,
  0x04, 0xdd, 0xb8, 0xbe, 0xa2, 0x63, 0xc0, 0x3d, 0xa4, 0x52, 0x0a, 0xbe,
  0x65, 0x10, 0xa1, 0x3e, 0x01, 0x00, 0x69, 0xbe, 0x65, 0x10, 0xa1, 0x3e,
  0xfa, 0xdd, 0x53, 0xbd, 0xaa, 0xea, 0x3e, 0xbe, 0x65, 0x10, 0xa1, 0x3e,
  0x63, 0xfc, 0x8a, 0xbe, 0x65, 0x10, 0xa1, 0x3e, 0x6e, 0xb9, 0xab, 0xbc,
  0xaa, 0xea, 0x3e, 0xbe, 0x85, 0x45, 0x85, 0x3e, 0xa4, 0x52, 0x0a, 0xbe,
  0x6e, 0xb9, 0xab, 0xbc, 0xe3, 0x20, 0xc1, 0xbe, 0x63, 0xfc, 0x8a, 0xbe,
  0xb9, 0x3c, 0xe9, 0x3d, 0x29, 0x46, 0xaf, 0xbe, 0xa2, 0x63, 0xc0, 0x3d,
  0x06, 0xe7, 0x0b, 0x39, 0x88, 0xe8, 0x82, 0x3d, 0x85, 0x45, 0x85, 0x3e,
  0xd6, 0x77, 0xb9, 0x3e, 0x21, 0x7e, 0xf9, 0xbd, 0x01, 0x00, 0x69, 0xbe,
  0x6e, 0xb9, 0xab, 0xbc, 0x06, 0xe7, 0x0b, 0x39, 0xb8, 0x07, 0xbf, 0xbd,
  0xe3, 0x20, 0xc1, 0xbe, 0x00, 0x92, 0x9e, 0xbe, 0xa4, 0x52, 0x0a, 0xbe,
  0x88, 0x0e, 0x8d, 0xbd, 0x88, 0xe8, 0x82, 0x3d, 0x63, 0xfc, 0x8a, 0xbe,
  0xaa, 0xea, 0x3e, 0xbe, 0x00, 0x92, 0x9e, 0xbe, 0x88, 0x0e, 0x8d, 0xbd,
  0x88, 0x92, 0x07, 0x3e, 0xc9, 0xfb, 0x08, 0x3d, 0xb9, 0x3c, 0xe9, 0x3d,
  0x88, 0xe8, 0x82, 0x3d, 0x06, 0xe7, 0x0b, 0x39, 0x05, 0xf5, 0x63, 0x3e,
  0xe7, 0x3b, 0xc0, 0x3e, 0xa4, 0x52, 0x0a, 0xbe, 0xb7, 0x74, 0xa9, 0xbe,
  0x00, 0x92, 0x9e, 0xbe, 0xe3, 0x20, 0xc1, 0xbe, 0xc9, 0xfb, 0x08, 0x3d,
  0xb8, 0x07, 0xbf, 0xbd, 0xa2, 0x63, 0xc0, 0x3d, 0x63, 0xfc, 0x8a, 0xbe,
  0x21, 0x7e, 0xf9, 0xbd, 0x88, 0x92, 0x07, 0x3e, 0x21, 0x7e, 0xf9, 0xbd,
  0x88, 0xe8, 0x82, 0x3d, 0x04, 0xdd, 0xb8, 0xbe, 0x21, 0x7e, 0xf9, 0xbd,
  0x00, 0x92, 0x9e, 0xbe, 0xaa, 0xea, 0x3e, 0xbe, 0xf4, 0x77, 0x2e, 0xbe,
  0xe3, 0x20, 0xc1, 0xbe, 0x65, 0x10, 0xa1, 0x3e, 0xb7, 0x74, 0xa9, 0xbe,
  0x2f, 0x8d, 0xd2, 0x3e, 0x01, 0x00, 0x69, 0xbe, 0x85, 0x45, 0x85, 0x3e,
  0xf4, 0x77, 0x2e, 0xbe, 0x85, 0x45, 0x85, 0x3e, 0xe7, 0x3b, 0xc0, 0x3e,
  0x2f, 0x8d, 0xd2, 0x3e, 0x2f, 0x8d, 0xd2, 0x3e, 0x6e, 0xb9, 0xab, 0xbc,
  0xaa, 0xea, 0x3e, 0xbe, 0x65, 0x10, 0xa1, 0x3e, 0x85, 0x45, 0x85, 0x3e,
  0xe7, 0x3b, 0xc0, 0x3e, 0xf4, 0x77, 0x2e, 0xbe, 0xe8, 0xb5, 0x38, 0x3e,
  0x01, 0x00, 0x69, 0xbe, 0x8c, 0xf9, 0x8f, 0x3e, 0x00, 0x92, 0x9e, 0xbe,
  0x01, 0x00, 0x69, 0xbe, 0xfa, 0xdd, 0x53, 0xbd, 0x6e, 0xb9, 0xab, 0xbc,
  0x77, 0x6f, 0xf1, 0x3e, 0x01, 0x00, 0x69, 0xbe, 0x85, 0x45, 0x85, 0x3e,
  0x85, 0x45, 0x85, 0x3e, 0x00, 0x92, 0x9e, 0xbe, 0x88, 0x92, 0x07, 0x3e,
  0x7a, 0x61, 0x4e, 0x3e, 0xc9, 0xfb, 0x08, 0x3d, 0x05, 0xf5, 0x63, 0x3e,
  0x6e, 0xb9, 0xab, 0xbc, 0xa2, 0x63, 0xc0, 0x3d, 0x65, 0x10, 0xa1, 0x3e,
  0x29, 0x46, 0xaf, 0xbe, 0x29, 0x46, 0xaf, 0xbe, 0x04, 0xdd, 0xb8, 0xbe,
  0xe8, 0xb5, 0x38, 0x3e, 0x2f, 0x8d, 0xd2, 0x3e, 0x21, 0x7e, 0xf9, 0xbd,
  0xfa, 0xdd, 0x53, 0xbd, 0xea, 0xab, 0x1c, 0xbe, 0x05, 0xf5, 0x63, 0x3e,
  0x88, 0x92, 0x07, 0x3e, 0xfa, 0xdd, 0x53, 0xbd, 0xe7, 0x3b, 0xc0, 0x3e,
  0x6e, 0xb9, 0xab, 0xbc, 0xfa, 0xdd, 0x53, 0xbd, 0x2f, 0x8d, 0xd2, 0x3e,
  0xe7, 0x3b, 0xc0, 0x3e, 0xb9, 0x3c, 0xe9, 0x3d, 0x06, 0xe7, 0x0b, 0x39,
  0x01, 0x00, 0x69, 0xbe, 0xb8, 0x07, 0xbf, 0xbd, 0x63, 0xfc, 0x8a, 0xbe,
  0x88, 0x0e, 0x8d, 0xbd, 0xd6, 0x77, 0xb9, 0x3e, 0x88, 0xe8, 0x82, 0x3d,
  0xfa, 0xdd, 0x53, 0xbd, 0xa2, 0x63, 0xc0, 0x3d, 0x01, 0x00, 0x69, 0xbe,
  0x29, 0x46, 0xaf, 0xbe, 0x29, 0x46, 0xaf, 0xbe, 0x21, 0x7e, 0xf9, 0xbd,
  0xfa, 0xdd, 0x53, 0xbd, 0x8c, 0xf9, 0x8f, 0x3e, 0xaa, 0xea, 0x3e, 0xbe,
  0xe8, 0xb5, 0x38, 0x3e, 0x65, 0x10, 0xa1, 0x3e, 0xb8, 0x07, 0xbf, 0xbd,
  0x88, 0x0e, 0x8d, 0xbd, 0x88, 0x92, 0x07, 0x3e, 0x06, 0xe7, 0x0b, 0x39,
  0x01, 0x00, 0x69, 0xbe, 0x05, 0xf5, 0x63, 0x3e, 0xaa, 0xea, 0x3e, 0xbe,
  0xb7, 0x74, 0xa9, 0xbe, 0x21, 0x7e, 0xf9, 0xbd, 0xa4, 0x52, 0x0a, 0xbe,
  0xb7, 0x74, 0xa9, 0xbe, 0x05, 0xf5, 0x63, 0x3e, 0x88, 0x0e, 0x8d, 0xbd,
  0x21, 0x7e, 0xf9, 0xbd, 0x01, 0x00, 0x69, 0xbe, 0xb9, 0x3c, 0xe9, 0x3d,
  0xb9, 0x3c, 0xe9, 0x3d, 0x04, 0xdd, 0xb8, 0xbe, 0xf4, 0x77, 0x2e, 0xbe,
  0x06, 0xe7, 0x0b, 0x39, 0x88, 0xe8, 0x82, 0x3d, 0x05, 0xf5, 0x63, 0x3e,
  0xea, 0xab, 0x1c, 0xbe, 0x21, 0x7e, 0xf9, 0xbd, 0xe8, 0xb5, 0x38, 0x3e,
  0x88, 0x0e, 0x8d, 0xbd, 0xe8, 0xb5, 0x38, 0x3e, 0x21, 0x7e, 0xf9, 0xbd,
  0xfa, 0xdd, 0x53, 0xbd, 0xaa, 0xea, 0x3e, 0xbe, 0x04, 0xdd, 0xb8, 0xbe,
  0xd6, 0x77, 0xb9, 0x3e, 0x88, 0x92, 0x07, 0x3e, 0x6e, 0xb9, 0xab, 0xbc,
  0x88, 0xe8, 0x82, 0x3d, 0xb8, 0x07, 0xbf, 0xbd, 0x88, 0x0e, 0x8d, 0xbd,
  0xd6, 0x77, 0xb9, 0x3e, 0x65, 0x10, 0xa1, 0x3e, 0x05, 0xf5, 0x63, 0x3e,
  0x00, 0x92, 0x9e, 0xbe, 0x00, 0x92, 0x9e, 0xbe, 0x63, 0xfc, 0x8a, 0xbe,
  0xaa, 0xea, 0x3e, 0xbe, 0x01, 0x00, 0x69, 0xbe, 0xb9, 0x3c, 0xe9, 0x3d,
  0xd6, 0x77, 0xb9, 0x3e, 0x7a, 0x61, 0x4e, 0x3e, 0x6e, 0xb9, 0xab, 0xbc,
  0xb9, 0x3c, 0xe9, 0x3d, 0x85, 0x45, 0x85, 0x3e, 0x21, 0x7e, 0xf9, 0xbd,
  0x63, 0xfc, 0x8a, 0xbe, 0x05, 0xf5, 0x63, 0x3e, 0x65, 0x10, 0xa1, 0x3e,
  0xb7, 0x74, 0xa9, 0xbe, 0xaa, 0xea, 0x3e, 0xbe, 0x29, 0x46, 0xaf, 0xbe,
  0xea, 0xab, 0x1c, 0xbe, 0xb7, 0x74, 0xa9, 0xbe, 0x88, 0x0e, 0x8d, 0xbd,
  0x65, 0x10, 0xa1, 0x3e, 0x88, 0x0e, 0x8d, 0xbd, 0x65, 0x10, 0xa1, 0x3e,
  0x88, 0xe8, 0x82, 0x3d, 0xf4, 0x77, 0x2e, 0xbe, 0x63, 0xfc, 0x8a, 0xbe,
  0x88, 0x92, 0x07, 0x3e, 0x8c, 0xf9, 0x8f, 0x3e, 0xc9, 0xfb, 0x08, 0x3d,
  0x7a, 0x61, 0x4e, 0x3e, 0x65, 0x10, 0xa1, 0x3e, 0x88, 0x92, 0x07, 0x3e,
  0xea, 0xab, 0x1c, 0xbe, 0x65, 0x10, 0xa1, 0x3e, 0x06, 0xe7, 0x0b, 0x39,
  0x85, 0x45, 0x85, 0x3e, 0x8c, 0xf9, 0x8f, 0x3e, 0x7a, 0x61, 0x4e, 0x3e,
  0xa6, 0xf4, 0xff, 0xff, 0x04, 0x00, 0x00, 0x00, 0x80, 0x01, 0x00, 0x00,
  0x2e, 0xa3, 0xf7, 0x3d, 0xce, 0x20, 0x34, 0xbe, 0xe1, 0x68, 0xa1, 0xbe,
  0x8a, 0x11, 0x61, 0x3e, 0x8a, 0x11, 0x61, 0x3e, 0xa5, 0xf4, 0x83, 0xbd,
  0x4a, 0xab, 0xd0, 0x3e, 0x1c, 0xd4, 0xa9, 0xbe, 0xe1, 0x68, 0xa1, 0xbe,
  0x31, 0xe4, 0x42, 0x3b, 0x4a, 0xab, 0xd0, 0x3e, 0x4c, 0x40, 0x59, 0xbe,
  0x4a, 0xab, 0xd0, 0x3e, 0xa8, 0x40, 0x77, 0xbe, 0x31, 0xe4, 0x42, 0x3b,
  0xe1, 0x68, 0xa1, 0xbe, 0xc2, 0xe6, 0x87, 0xbe, 0xa8, 0x40, 0x77, 0xbe,
  0xa0, 0x2a, 0xb2, 0xbd, 0x08, 0xf2, 0x14, 0x3d, 0x13, 0x75, 0x55, 0x3e,
  0xe1, 0x68, 0xa1, 0xbe, 0xe1, 0x68, 0xa1, 0xbe, 0x1c, 0xd4, 0xa9, 0xbe,
  0xce, 0x20, 0x34, 0xbe, 0xd1, 0x1a, 0xcf, 0xbe, 0xbc, 0x5c, 0xbf, 0xbe,
  0x92, 0xfa, 0x89, 0x3e, 0xce, 0x20, 0x34, 0xbe, 0x87, 0x1c, 0x11, 0xbf,
  0xe1, 0x68, 0xa1, 0xbe, 0xa5, 0xf4, 0x83, 0xbd, 0xbc, 0x5c, 0xbf, 0xbe,
  0xc2, 0xe6, 0x87, 0xbe, 0x86, 0x0c, 0x0c, 0xbe, 0x03, 0x78, 0xee, 0xbc,
  0x13, 0x75, 0x55, 0x3e, 0x2b, 0x0d, 0xdb, 0xbd, 0x1c, 0xd4, 0xa9, 0xbe,
  0x4a, 0xab, 0xd0, 0x3e, 0x13, 0x75, 0x55, 0x3e, 0x8f, 0x7d, 0x41, 0x3e,
  0xc2, 0xe6, 0x87, 0xbe, 0x1c, 0xd4, 0xa9, 0xbe, 0x31, 0xe4, 0x42, 0x3b,
  0x1c, 0xd4, 0xa9, 0xbe, 0xe1, 0x68, 0xa1, 0xbe, 0x2e, 0xa3, 0xf7, 0x3d,
  0xa0, 0x2a, 0xb2, 0xbd, 0x2e, 0xa3, 0xf7, 0x3d, 0x4c, 0x40, 0x59, 0xbe,
  0x92, 0xfa, 0x89, 0x3e, 0x5a, 0xae, 0xa0, 0x3e, 0x8a, 0x11, 0x61, 0x3e,
  0x2e, 0xa3, 0xf7, 0x3d, 0x03, 0x78, 0xee, 0xbc, 0x03, 0x78, 0xee, 0xbc,
  0x2e, 0xa3, 0xf7, 0x3d, 0x8f, 0x7d, 0x41, 0x3e, 0x14, 0xbf, 0x29, 0x3f,
  0x5a, 0xae, 0xa0, 0x3e, 0x92, 0xfa, 0x89, 0x3e, 0x65, 0xca, 0xf6, 0x3e,
  0xd1, 0x1a, 0xcf, 0xbe, 0xbc, 0x5c, 0xbf, 0xbe, 0xc2, 0xe6, 0x87, 0xbe,
  0x8f, 0x7d, 0x41, 0x3e, 0x13, 0x75, 0x55, 0x3e, 0xd2, 0xbb, 0x31, 0xbf,
  0x8b, 0xa7, 0x8e, 0x3d, 0xea, 0xaf, 0xe1, 0xbe, 0x92, 0xfa, 0x89, 0x3e,
  0xa5, 0xf4, 0x83, 0xbd, 0x35, 0x6f, 0xaa, 0x3e, 0x13, 0x75, 0x55, 0x3e,
  0x65, 0xca, 0xf6, 0x3e, 0x31, 0xe4, 0x42, 0x3b, 0x2e, 0xa3, 0xf7, 0x3d,
  0x13, 0x75, 0x55, 0x3e, 0x92, 0xfa, 0x89, 0x3e, 0x2b, 0x0d, 0xdb, 0xbd,
  0x1c, 0xd4, 0xa9, 0xbe, 0x82, 0xe9, 0xc3, 0x3e, 0x08, 0xf2, 0x14, 0x3d,
  0x81, 0xc5, 0x0d, 0x3e, 0x82, 0xe9, 0xc3, 0x3e, 0x4c, 0x40, 0x59, 0xbe,
  0xce, 0x20, 0x34, 0xbe, 0x1c, 0xd4, 0xa9, 0xbe, 0xa5, 0xf4, 0x83, 0xbd,
  0x81, 0xc5, 0x0d, 0x3e, 0x8f, 0x7d, 0x41, 0x3e, 0xcf, 0x11, 0x02, 0xbf,
  0x2e, 0xa3, 0xf7, 0x3d, 0x81, 0xc5, 0x0d, 0x3e, 0xd1, 0x1a, 0xcf, 0xbe,
  0x32, 0xf6, 0xff, 0xff, 0x04, 0x00, 0x00, 0x00, 0x04, 0x00, 0x00, 0x00,
  0x08, 0x00, 0x00, 0x00, 0x42, 0xf6, 0xff, 0xff, 0x04, 0x00, 0x00, 0x00,
  0x04, 0x00, 0x00, 0x00, 0x20, 0x00, 0x00, 0x00, 0x52, 0xf6, 0xff, 0xff,
  0x04, 0x00, 0x00, 0x00, 0x04, 0x00, 0x00, 0x00, 0x00, 0x00, 0x00, 0x00,
  0x62, 0xf6, 0xff, 0xff, 0x04, 0x00, 0x00, 0x00, 0x04, 0x00, 0x00, 0x00,
  0x03, 0x00, 0x00, 0x00, 0x72, 0xf6, 0xff, 0xff, 0x04, 0x00, 0x00, 0x00,
  0x04, 0x00, 0x00, 0x00, 0x02, 0x00, 0x00, 0x00, 0x82, 0xf6, 0xff, 0xff,
  0x04, 0x00, 0x00, 0x00, 0x08, 0x00, 0x00, 0x00, 0x00, 0x00, 0x00, 0x00,
  0x01, 0x00, 0x00, 0x00, 0x96, 0xf6, 0xff, 0xff, 0x04, 0x00, 0x00, 0x00,
  0x20, 0x00, 0x00, 0x00, 0x00, 0x00, 0x00, 0x00, 0x00, 0x00, 0x00, 0x00,
  0x00, 0x00, 0x00, 0x00, 0x48, 0xee, 0x4f, 0xbc, 0xa5, 0x94, 0x43, 0xbc,
  0x00, 0x00, 0x00, 0x00, 0x00, 0x00, 0x00, 0x00, 0x57, 0xc8, 0xb2, 0xbc,
  0xc2, 0xf6, 0xff, 0xff, 0x04, 0x00, 0x00, 0x00, 0x80, 0x00, 0x00, 0x00,
  0x00, 0x00, 0x00, 0x00, 0x00, 0x00, 0x00, 0x00, 0x2d, 0x24, 0x27, 0x3c,
  0x00, 0x00, 0x00, 0x00, 0x08, 0x94, 0xf3, 0xbc, 0xe9, 0x10, 0x28, 0x3c,
  0xaa, 0x41, 0x43, 0x3b, 0xa3, 0x1c, 0x1b, 0xbd, 0x71, 0x8a, 0xc9, 0xbc,
  0x00, 0x64, 0x4c, 0x3c, 0x00, 0x00, 0x00, 0x00, 0x1f, 0x06, 0xd5, 0x3b,
  0x00, 0x00, 0x00, 0x00, 0x29, 0xeb, 0x69, 0x3c, 0x00, 0x00, 0x00, 0x00,
  0x9a, 0x5e, 0x8b, 0xbc, 0xc8, 0x51, 0x43, 0x3c, 0x12, 0x5b, 0x67, 0x3c,
  0x00, 0x00, 0x00, 0x00, 0xfb, 0xe9, 0xbf, 0xbc, 0xf0, 0x5f, 0x71, 0x3c,
  0x13, 0xd1, 0x23, 0xbd, 0x55, 0x31, 0x07, 0xbd, 0x33, 0xec, 0x66, 0x3c,
  0x89, 0x62, 0x2c, 0x3b, 0x24, 0x33, 0x94, 0x3c, 0x1b, 0x9d, 0x06, 0x3c,
  0xac, 0x5f, 0x53, 0xbc, 0xb6, 0x54, 0x31, 0xbc, 0xd9, 0x96, 0x99, 0x3c,
  0x43, 0xe2, 0x71, 0x3c, 0xc2, 0xb8, 0xc4, 0xbb, 0x4e, 0xf7, 0xff, 0xff,
  0x04, 0x00, 0x00, 0x00, 0x80, 0x00, 0x00, 0x00, 0x19, 0xd0, 0xa2, 0xbb,
  0x6a, 0xfc, 0xa2, 0xbc, 0x20, 0xff, 0x99, 0xbc, 0x94, 0xa7, 0x5a, 0xbd,
  0x3f, 0x47, 0xc0, 0xbc, 0x00, 0x00, 0x00, 0x00, 0x00, 0x00, 0x00, 0x00,
  0x00, 0x00, 0x00, 0x00, 0x00, 0x00, 0x00, 0x00, 0x4b, 0xd7, 0x59, 0x3b,
  0x00, 0x00, 0x00, 0x00, 0x00, 0x00, 0x00, 0x00, 0xf9, 0x28, 0x85, 0x3c,
  0x74, 0x1c, 0xa0, 0xbc, 0x00, 0x00, 0x00, 0x00, 0x00, 0x00, 0x00, 0x00,
  0x00, 0x00, 0x00, 0x00, 0x97, 0x4c, 0xc4, 0xbc, 0x14, 0x53, 0x93, 0xbc,
  0x0b, 0x2f, 0x89, 0xbb, 0x47, 0xa4, 0x6c, 0xbd, 0x00, 0x00, 0x00, 0x00,
  0xd6, 0x1f, 0x4b, 0xbd, 0xe0, 0x9c, 0x08, 0xbd, 0x00, 0x00, 0x00, 0x00,
  0x7a, 0xca, 0x99, 0xbc, 0x82, 0xaf, 0x6b, 0x3b, 0x00, 0x00, 0x00, 0x00,
  0x84, 0xe8, 0x78, 0xbc, 0x00, 0x00, 0x00, 0x00, 0xdf, 0x91, 0xf6, 0xbc,
  0x0d, 0x12, 0x47, 0xbc, 0xda, 0xf7, 0xff, 0xff, 0x04, 0x00, 0x00, 0x00,
  0x0c, 0x00, 0x00, 0x00, 0x6e, 0x08, 0xce, 0x3c, 0x15, 0x50, 0x40, 0x3c,
  0x70, 0xf0, 0x12, 0xbb, 0x38, 0xe0, 0xff, 0xff, 0x3c, 0xe0, 0xff, 0xff,
  0x0f, 0x00, 0x00, 0x00, 0x4d, 0x4c, 0x49, 0x52, 0x20, 0x43, 0x6f, 0x6e,
  0x76, 0x65, 0x72, 0x74, 0x65, 0x64, 0x2e, 0x00, 0x01, 0x00, 0x00, 0x00,
  0x14, 0x00, 0x00, 0x00, 0x00, 0x00, 0x0e, 0x00, 0x18, 0x00, 0x14, 0x00,
  0x10, 0x00, 0x0c, 0x00, 0x08, 0x00, 0x04, 0x00, 0x0e, 0x00, 0x00, 0x00,
  0x14, 0x00, 0x00, 0x00, 0x1c, 0x00, 0x00, 0x00, 0x04, 0x09, 0x00, 0x00,
  0x08, 0x09, 0x00, 0x00, 0x0c, 0x09, 0x00, 0x00, 0x04, 0x00, 0x00, 0x00,
  0x6d, 0x61, 0x69, 0x6e, 0x00, 0x00, 0x00, 0x00, 0x2c, 0x00, 0x00, 0x00,
  0xb4, 0x08, 0x00, 0x00, 0x70, 0x08, 0x00, 0x00, 0x2c, 0x08, 0x00, 0x00,
  0xf8, 0x07, 0x00, 0x00, 0xc4, 0x07, 0x00, 0x00, 0x84, 0x07, 0x00, 0x00,
  0x50, 0x07, 0x00, 0x00, 0x28, 0x07, 0x00, 0x00, 0xe4, 0x06, 0x00, 0x00,
  0xbc, 0x06, 0x00, 0x00, 0x84, 0x06, 0x00, 0x00, 0x54, 0x06, 0x00, 0x00,
  0x20, 0x06, 0x00, 0x00, 0xec, 0x05, 0x00, 0x00, 0xb8, 0x05, 0x00, 0x00,
  0x84, 0x05, 0x00, 0x00, 0x50, 0x05, 0x00, 0x00, 0x18, 0x05, 0x00, 0x00,
  0xf0, 0x04, 0x00, 0x00, 0xb8, 0x04, 0x00, 0x00, 0x90, 0x04, 0x00, 0x00,
  0x58, 0x04, 0x00, 0x00, 0x28, 0x04, 0x00, 0x00, 0xf4, 0x03, 0x00, 0x00,
  0xc0, 0x03, 0x00, 0x00, 0x8c, 0x03, 0x00, 0x00, 0x58, 0x03, 0x00, 0x00,
  0x24, 0x03, 0x00, 0x00, 0xec, 0x02, 0x00, 0x00, 0xc4, 0x02, 0x00, 0x00,
  0x8c, 0x02, 0x00, 0x00, 0x64, 0x02, 0x00, 0x00, 0x2c, 0x02, 0x00, 0x00,
  0xfc, 0x01, 0x00, 0x00, 0xc8, 0x01, 0x00, 0x00, 0x94, 0x01, 0x00, 0x00,
  0x60, 0x01, 0x00, 0x00, 0x2c, 0x01, 0x00, 0x00, 0xf8, 0x00, 0x00, 0x00,
  0xc0, 0x00, 0x00, 0x00, 0x98, 0x00, 0x00, 0x00, 0x60, 0x00, 0x00, 0x00,
  0x38, 0x00, 0x00, 0x00, 0x04, 0x00, 0x00, 0x00, 0x4a, 0xf8, 0xff, 0xff,
  0x14, 0x00, 0x00, 0x00, 0x00, 0x00, 0x00, 0x0b, 0x10, 0x00, 0x00, 0x00,
  0x14, 0x00, 0x00, 0x00, 0x07, 0x00, 0x00, 0x00, 0x5c, 0xe1, 0xff, 0xff,
  0x01, 0x00, 0x00, 0x00, 0x3a, 0x00, 0x00, 0x00, 0x02, 0x00, 0x00, 0x00,
  0x39, 0x00, 0x00, 0x00, 0x01, 0x00, 0x00, 0x00, 0xa6, 0xf9, 0xff, 0xff,
  0x0c, 0x00, 0x00, 0x00, 0x10, 0x00, 0x00, 0x00, 0x05, 0x00, 0x00, 0x00,
  0x01, 0x00, 0x00, 0x00, 0x39, 0x00, 0x00, 0x00, 0x02, 0x00, 0x00, 0x00,
  0x38, 0x00, 0x00, 0x00, 0x33, 0x00, 0x00, 0x00, 0x9e, 0xf8, 0xff, 0xff,
  0x14, 0x00, 0x00, 0x00, 0x00, 0x00, 0x00, 0x08, 0x10, 0x00, 0x00, 0x00,
  0x14, 0x00, 0x00, 0x00, 0x06, 0x00, 0x00, 0x00, 0xb0, 0xe1, 0xff, 0xff,
  0x01, 0x00, 0x00, 0x00, 0x38, 0x00, 0x00, 0x00, 0x03, 0x00, 0x00, 0x00,
  0x37, 0x00, 0x00, 0x00, 0x0e, 0x00, 0x00, 0x00, 0xff, 0xff, 0xff, 0xff,
  0xfe, 0xf9, 0xff, 0xff, 0x0c, 0x00, 0x00, 0x00, 0x10, 0x00, 0x00, 0x00,
  0x05, 0x00, 0x00, 0x00, 0x01, 0x00, 0x00, 0x00, 0x37, 0x00, 0x00, 0x00,
  0x02, 0x00, 0x00, 0x00, 0x2f, 0x00, 0x00, 0x00, 0x36, 0x00, 0x00, 0x00,
  0xf6, 0xf8, 0xff, 0xff, 0x14, 0x00, 0x00, 0x00, 0x00, 0x00, 0x00, 0x3b,
  0x14, 0x00, 0x00, 0x00, 0x18, 0x00, 0x00, 0x00, 0x03, 0x00, 0x00, 0x00,
  0xc2, 0xf9, 0xff, 0xff, 0x02, 0x00, 0x00, 0x00, 0x01, 0x00, 0x00, 0x00,
  0x36, 0x00, 0x00, 0x00, 0x02, 0x00, 0x00, 0x00, 0x32, 0x00, 0x00, 0x00,
  0x35, 0x00, 0x00, 0x00, 0x2a, 0xf9, 0xff, 0xff, 0x14, 0x00, 0x00, 0x00,
  0x00, 0x00, 0x00, 0x1b, 0x10, 0x00, 0x00, 0x00, 0x14, 0x00, 0x00, 0x00,
  0x02, 0x00, 0x00, 0x00, 0x3c, 0xe2, 0xff, 0xff, 0x01, 0x00, 0x00, 0x00,
  0x35, 0x00, 0x00, 0x00, 0x02, 0x00, 0x00, 0x00, 0x34, 0x00, 0x00, 0x00,
  0x08, 0x00, 0x00, 0x00, 0x5a, 0xf9, 0xff, 0xff, 0x14, 0x00, 0x00, 0x00,
  0x00, 0x00, 0x00, 0x17, 0x10, 0x00, 0x00, 0x00, 0x14, 0x00, 0x00, 0x00,
  0x01, 0x00, 0x00, 0x00, 0x6c, 0xe2, 0xff, 0xff, 0x01, 0x00, 0x00, 0x00,
  0x34, 0x00, 0x00, 0x00, 0x02, 0x00, 0x00, 0x00, 0x30, 0x00, 0x00, 0x00,
  0x06, 0x00, 0x00, 0x00, 0x8a, 0xf9, 0xff, 0xff, 0x14, 0x00, 0x00, 0x00,
  0x00, 0x00, 0x00, 0x0a, 0x10, 0x00, 0x00, 0x00, 0x14, 0x00, 0x00, 0x00,
  0x04, 0x00, 0x00, 0x00, 0x9c, 0xe2, 0xff, 0xff, 0x01, 0x00, 0x00, 0x00,
  0x33, 0x00, 0x00, 0x00, 0x02, 0x00, 0x00, 0x00, 0x31, 0x00, 0x00, 0x00,
  0x07, 0x00, 0x00, 0x00, 0xba, 0xf9, 0xff, 0xff, 0x14, 0x00, 0x00, 0x00,
  0x00, 0x00, 0x00, 0x1b, 0x10, 0x00, 0x00, 0x00, 0x14, 0x00, 0x00, 0x00,
  0x02, 0x00, 0x00, 0x00, 0xcc, 0xe2, 0xff, 0xff, 0x01, 0x00, 0x00, 0x00,
  0x32, 0x00, 0x00, 0x00, 0x02, 0x00, 0x00, 0x00, 0x31, 0x00, 0x00, 0x00,
  0x08, 0x00, 0x00, 0x00, 0xea, 0xf9, 0xff, 0xff, 0x14, 0x00, 0x00, 0x00,
  0x00, 0x00, 0x00, 0x17, 0x10, 0x00, 0x00, 0x00, 0x14, 0x00, 0x00, 0x00,
  0x01, 0x00, 0x00, 0x00, 0xfc, 0xe2, 0xff, 0xff, 0x01, 0x00, 0x00, 0x00,
  0x31, 0x00, 0x00, 0x00, 0x02, 0x00, 0x00, 0x00, 0x30, 0x00, 0x00, 0x00,
  0x05, 0x00, 0x00, 0x00, 0xda, 0xf9, 0xff, 0xff, 0x10, 0x00, 0x00, 0x00,
  0x00, 0x00, 0x00, 0x37, 0x10, 0x00, 0x00, 0x00, 0x14, 0x00, 0x00, 0x00,
  0xca, 0xf9, 0xff, 0xff, 0x00, 0x00, 0x00, 0x02, 0x01, 0x00, 0x00, 0x00,
  0x30, 0x00, 0x00, 0x00, 0x01, 0x00, 0x00, 0x00, 0x2f, 0x00, 0x00, 0x00,
  0x46, 0xfa, 0xff, 0xff, 0x14, 0x00, 0x00, 0x00, 0x00, 0x00, 0x00, 0x0b,
  0x14, 0x00, 0x00, 0x00, 0x18, 0x00, 0x00, 0x00, 0x07, 0x00, 0x00, 0x00,
  0xfa, 0xf9, 0xff, 0xff, 0x00, 0x00, 0x00, 0x01, 0x01, 0x00, 0x00, 0x00,
  0x2f, 0x00, 0x00, 0x00, 0x02, 0x00, 0x00, 0x00, 0x2e, 0x00, 0x00, 0x00,
  0x03, 0x00, 0x00, 0x00, 0xa6, 0xfb, 0xff, 0xff, 0x0c, 0x00, 0x00, 0x00,
  0x10, 0x00, 0x00, 0x00, 0x05, 0x00, 0x00, 0x00, 0x01, 0x00, 0x00, 0x00,
  0x2e, 0x00, 0x00, 0x00, 0x02, 0x00, 0x00, 0x00, 0x2d, 0x00, 0x00, 0x00,
  0x28, 0x00, 0x00, 0x00, 0x9e, 0xfa, 0xff, 0xff, 0x14, 0x00, 0x00, 0x00,
  0x00, 0x00, 0x00, 0x08, 0x10, 0x00, 0x00, 0x00, 0x14, 0x00, 0x00, 0x00,
  0x06, 0x00, 0x00, 0x00, 0xb0, 0xe3, 0xff, 0xff, 0x01, 0x00, 0x00, 0x00,
  0x2d, 0x00, 0x00, 0x00, 0x03, 0x00, 0x00, 0x00, 0x2c, 0x00, 0x00, 0x00,
  0x0d, 0x00, 0x00, 0x00, 0xff, 0xff, 0xff, 0xff, 0xfe, 0xfb, 0xff, 0xff,
  0x0c, 0x00, 0x00, 0x00, 0x10, 0x00, 0x00, 0x00, 0x05, 0x00, 0x00, 0x00,
  0x01, 0x00, 0x00, 0x00, 0x2c, 0x00, 0x00, 0x00, 0x02, 0x00, 0x00, 0x00,
  0x24, 0x00, 0x00, 0x00, 0x2b, 0x00, 0x00, 0x00, 0xf6, 0xfa, 0xff, 0xff,
  0x14, 0x00, 0x00, 0x00, 0x00, 0x00, 0x00, 0x3b, 0x14, 0x00, 0x00, 0x00,
  0x18, 0x00, 0x00, 0x00, 0x03, 0x00, 0x00, 0x00, 0xc2, 0xfb, 0xff, 0xff,
  0x02, 0x00, 0x00, 0x00, 0x01, 0x00, 0x00, 0x00, 0x2b, 0x00, 0x00, 0x00,
  0x02, 0x00, 0x00, 0x00, 0x27, 0x00, 0x00, 0x00, 0x2a, 0x00, 0x00, 0x00,
  0x2a, 0xfb, 0xff, 0xff, 0x14, 0x00, 0x00, 0x00, 0x00, 0x00, 0x00, 0x1b,
  0x10, 0x00, 0x00, 0x00, 0x14, 0x00, 0x00, 0x00, 0x02, 0x00, 0x00, 0x00,
  0x3c, 0xe4, 0xff, 0xff, 0x01, 0x00, 0x00, 0x00, 0x2a, 0x00, 0x00, 0x00,
  0x02, 0x00, 0x00, 0x00, 0x29, 0x00, 0x00, 0x00, 0x08, 0x00, 0x00, 0x00,
  0x5a, 0xfb, 0xff, 0xff, 0x14, 0x00, 0x00, 0x00, 0x00, 0x00, 0x00, 0x17,
  0x10, 0x00, 0x00, 0x00, 0x14, 0x00, 0x00, 0x00, 0x01, 0x00, 0x00, 0x00,
  0x6c, 0xe4, 0xff, 0xff, 0x01, 0x00, 0x00, 0x00, 0x29, 0x00, 0x00, 0x00,
  0x02, 0x00, 0x00, 0x00, 0x25, 0x00, 0x00, 0x00, 0x06, 0x00, 0x00, 0x00,
  0x8a, 0xfb, 0xff, 0xff, 0x14, 0x00, 0x00, 0x00, 0x00, 0x00, 0x00, 0x0a,
  0x10, 0x00, 0x00, 0x00, 0x14, 0x00, 0x00, 0x00, 0x04, 0x00, 0x00, 0x00,
  0x9c, 0xe4, 0xff, 0xff, 0x01, 0x00, 0x00, 0x00, 0x28, 0x00, 0x00, 0x00,
  0x02, 0x00, 0x00, 0x00, 0x26, 0x00, 0x00, 0x00, 0x09, 0x00, 0x00, 0x00,
  0xba, 0xfb, 0xff, 0xff, 0x14, 0x00, 0x00, 0x00, 0x00, 0x00, 0x00, 0x1b,
  0x10, 0x00, 0x00, 0x00, 0x14, 0x00, 0x00, 0x00, 0x02, 0x00, 0x00, 0x00,
  0xcc, 0xe4, 0xff, 0xff, 0x01, 0x00, 0x00, 0x00, 0x27, 0x00, 0x00, 0x00,
  0x02, 0x00, 0x00, 0x00, 0x26, 0x00, 0x00, 0x00, 0x08, 0x00, 0x00, 0x00,
  0xea, 0xfb, 0xff, 0xff, 0x14, 0x00, 0x00, 0x00, 0x00, 0x00, 0x00, 0x17,
  0x10, 0x00, 0x00, 0x00, 0x14, 0x00, 0x00, 0x00, 0x01, 0x00, 0x00, 0x00,
  0xfc, 0xe4, 0xff, 0xff, 0x01, 0x00, 0x00, 0x00, 0x26, 0x00, 0x00, 0x00,
  0x02, 0x00, 0x00, 0x00, 0x25, 0x00, 0x00, 0x00, 0x05, 0x00, 0x00, 0x00,
  0xda, 0xfb, 0xff, 0xff, 0x10, 0x00, 0x00, 0x00, 0x00, 0x00, 0x00, 0x37,
  0x10, 0x00, 0x00, 0x00, 0x14, 0x00, 0x00, 0x00, 0xca, 0xfb, 0xff, 0xff,
  0x00, 0x00, 0x00, 0x02, 0x01, 0x00, 0x00, 0x00, 0x25, 0x00, 0x00, 0x00,
  0x01, 0x00, 0x00, 0x00, 0x24, 0x00, 0x00, 0x00, 0x46, 0xfc, 0xff, 0xff,
  0x14, 0x00, 0x00, 0x00, 0x00, 0x00, 0x00, 0x0b, 0x14, 0x00, 0x00, 0x00,
  0x18, 0x00, 0x00, 0x00, 0x07, 0x00, 0x00, 0x00, 0xfa, 0xfb, 0xff, 0xff,
  0x00, 0x00, 0x00, 0x01, 0x01, 0x00, 0x00, 0x00, 0x24, 0x00, 0x00, 0x00,
  0x02, 0x00, 0x00, 0x00, 0x23, 0x00, 0x00, 0x00, 0x04, 0x00, 0x00, 0x00,
  0xa6, 0xfd, 0xff, 0xff, 0x0c, 0x00, 0x00, 0x00, 0x10, 0x00, 0x00, 0x00,
  0x05, 0x00, 0x00, 0x00, 0x01, 0x00, 0x00, 0x00, 0x23, 0x00, 0x00, 0x00,
  0x02, 0x00, 0x00, 0x00, 0x22, 0x00, 0x00, 0x00, 0x1d, 0x00, 0x00, 0x00,
  0x9e, 0xfc, 0xff, 0xff, 0x14, 0x00, 0x00, 0x00, 0x00, 0x00, 0x00, 0x08,
  0x10, 0x00, 0x00, 0x00, 0x14, 0x00, 0x00, 0x00, 0x06, 0x00, 0x00, 0x00,
  0xb0, 0xe5, 0xff, 0xff, 0x01, 0x00, 0x00, 0x00, 0x22, 0x00, 0x00, 0x00,
  0x03, 0x00, 0x00, 0x00, 0x21, 0x00, 0x00, 0x00, 0x0c, 0x00, 0x00, 0x00,
  0xff, 0xff, 0xff, 0xff, 0xfe, 0xfd, 0xff, 0xff, 0x0c, 0x00, 0x00, 0x00,
  0x10, 0x00, 0x00, 0x00, 0x05, 0x00, 0x00, 0x00, 0x01, 0x00, 0x00, 0x00,
  0x21, 0x00, 0x00, 0x00, 0x02, 0x00, 0x00, 0x00, 0x19, 0x00, 0x00, 0x00,
  0x20, 0x00, 0x00, 0x00, 0xf6, 0xfc, 0xff, 0xff, 0x14, 0x00, 0x00, 0x00,
  0x00, 0x00, 0x00, 0x3b, 0x14, 0x00, 0x00, 0x00, 0x18, 0x00, 0x00, 0x00,
  0x03, 0x00, 0x00, 0x00, 0xc2, 0xfd, 0xff, 0xff, 0x02, 0x00, 0x00, 0x00,
  0x01, 0x00, 0x00, 0x00, 0x20, 0x00, 0x00, 0x00, 0x02, 0x00, 0x00, 0x00,
  0x1c, 0x00, 0x00, 0x00, 0x1f, 0x00, 0x00, 0x00, 0x2a, 0xfd, 0xff, 0xff,
  0x14, 0x00, 0x00, 0x00, 0x00, 0x00, 0x00, 0x1b, 0x10, 0x00, 0x00, 0x00,
  0x14, 0x00, 0x00, 0x00, 0x02, 0x00, 0x00, 0x00, 0x3c, 0xe6, 0xff, 0xff,
  0x01, 0x00, 0x00, 0x00, 0x1f, 0x00, 0x00, 0x00, 0x02, 0x00, 0x00, 0x00,
  0x1e, 0x00, 0x00, 0x00, 0x08, 0x00, 0x00, 0x00, 0x5a, 0xfd, 0xff, 0xff,
  0x14, 0x00, 0x00, 0x00, 0x00, 0x00, 0x00, 0x17, 0x10, 0x00, 0x00, 0x00,
  0x14, 0x00, 0x00, 0x00, 0x01, 0x00, 0x00, 0x00, 0x6c, 0xe6, 0xff, 0xff,
  0x01, 0x00, 0x00, 0x00, 0x1e, 0x00, 0x00, 0x00, 0x02, 0x00, 0x00, 0x00,
  0x1a, 0x00, 0x00, 0x00, 0x06, 0x00, 0x00, 0x00, 0x8a, 0xfd, 0xff, 0xff,
  0x14, 0x00, 0x00, 0x00, 0x00, 0x00, 0x00, 0x0a, 0x10, 0x00, 0x00, 0x00,
  0x14, 0x00, 0x00, 0x00, 0x04, 0x00, 0x00, 0x00, 0x9c, 0xe6, 0xff, 0xff,
  0x01, 0x00, 0x00, 0x00, 0x1d, 0x00, 0x00, 0x00, 0x02, 0x00, 0x00, 0x00,
  0x1b, 0x00, 0x00, 0x00, 0x0a, 0x00, 0x00, 0x00, 0xba, 0xfd, 0xff, 0xff,
  0x14, 0x00, 0x00, 0x00, 0x00, 0x00, 0x00, 0x1b, 0x10, 0x00, 0x00, 0x00,
  0x14, 0x00, 0x00, 0x00, 0x02, 0x00, 0x00, 0x00, 0xcc, 0xe6, 0xff, 0xff,
  0x01, 0x00, 0x00, 0x00, 0x1c, 0x00, 0x00, 0x00, 0x02, 0x00, 0x00, 0x00,
  0x1b, 0x00, 0x00, 0x00, 0x08, 0x00, 0x00, 0x00, 0xea, 0xfd, 0xff, 0xff,
  0x14, 0x00, 0x00, 0x00, 0x00, 0x00, 0x00, 0x17, 0x10, 0x00, 0x00, 0x00,
  0x14, 0x00, 0x00, 0x00, 0x01, 0x00, 0x00, 0x00, 0xfc, 0xe6, 0xff, 0xff,
  0x01, 0x00, 0x00, 0x00, 0x1b, 0x00, 0x00, 0x00, 0x02, 0x00, 0x00, 0x00,
  0x1a, 0x00, 0x00, 0x00, 0x05, 0x00, 0x00, 0x00, 0xda, 0xfd, 0xff, 0xff,
  0x10, 0x00, 0x00, 0x00, 0x00, 0x00, 0x00, 0x37, 0x10, 0x00, 0x00, 0x00,
  0x14, 0x00, 0x00, 0x00, 0xca, 0xfd, 0xff, 0xff, 0x00, 0x00, 0x00, 0x02,
  0x01, 0x00, 0x00, 0x00, 0x1a, 0x00, 0x00, 0x00, 0x01, 0x00, 0x00, 0x00,
  0x19, 0x00, 0x00, 0x00, 0x46, 0xfe, 0xff, 0xff, 0x14, 0x00, 0x00, 0x00,
  0x00, 0x00, 0x00, 0x0b, 0x14, 0x00, 0x00, 0x00, 0x18, 0x00, 0x00, 0x00,
  0x07, 0x00, 0x00, 0x00, 0xfa, 0xfd, 0xff, 0xff, 0x00, 0x00, 0x00, 0x01,
  0x01, 0x00, 0x00, 0x00, 0x19, 0x00, 0x00, 0x00, 0x02, 0x00, 0x00, 0x00,
  0x18, 0x00, 0x00, 0x00, 0x02, 0x00, 0x00, 0x00, 0xa6, 0xff, 0xff, 0xff,
  0x0c, 0x00, 0x00, 0x00, 0x10, 0x00, 0x00, 0x00, 0x05, 0x00, 0x00, 0x00,
  0x01, 0x00, 0x00, 0x00, 0x18, 0x00, 0x00, 0x00, 0x02, 0x00, 0x00, 0x00,
  0x17, 0x00, 0x00, 0x00, 0x15, 0x00, 0x00, 0x00, 0x9e, 0xfe, 0xff, 0xff,
  0x14, 0x00, 0x00, 0x00, 0x00, 0x00, 0x00, 0x08, 0x10, 0x00, 0x00, 0x00,
  0x14, 0x00, 0x00, 0x00, 0x06, 0x00, 0x00, 0x00, 0xb0, 0xe7, 0xff, 0xff,
  0x01, 0x00, 0x00, 0x00, 0x17, 0x00, 0x00, 0x00, 0x03, 0x00, 0x00, 0x00,
  0x16, 0x00, 0x00, 0x00, 0x0b, 0x00, 0x00, 0x00, 0xff, 0xff, 0xff, 0xff,
  0x00, 0x00, 0x0a, 0x00, 0x10, 0x00, 0x0c, 0x00, 0x08, 0x00, 0x04, 0x00,
  0x0a, 0x00, 0x00, 0x00, 0x0c, 0x00, 0x00, 0x00, 0x10, 0x00, 0x00, 0x00,
  0x05, 0x00, 0x00, 0x00, 0x01, 0x00, 0x00, 0x00, 0x16, 0x00, 0x00, 0x00,
  0x02, 0x00, 0x00, 0x00, 0x00, 0x00, 0x00, 0x00, 0x14, 0x00, 0x00, 0x00,
  0x02, 0xff, 0xff, 0xff, 0x14, 0x00, 0x00, 0x00, 0x00, 0x00, 0x00, 0x0a,
  0x10, 0x00, 0x00, 0x00, 0x14, 0x00, 0x00, 0x00, 0x04, 0x00, 0x00, 0x00,
  0x14, 0xe8, 0xff, 0xff, 0x01, 0x00, 0x00, 0x00, 0x15, 0x00, 0x00, 0x00,
  0x02, 0x00, 0x00, 0x00, 0x12, 0x00, 0x00, 0x00, 0x09, 0x00, 0x00, 0x00,
  0x32, 0xff, 0xff, 0xff, 0x1c, 0x00, 0x00, 0x00, 0x00, 0x00, 0x00, 0x3b,
  0x1c, 0x00, 0x00, 0x00, 0x20, 0x00, 0x00, 0x00, 0x03, 0x00, 0x00, 0x00,
  0x00, 0x00, 0x06, 0x00, 0x08, 0x00, 0x04, 0x00, 0x06, 0x00, 0x00, 0x00,
  0x02, 0x00, 0x00, 0x00, 0x01, 0x00, 0x00, 0x00, 0x14, 0x00, 0x00, 0x00,
  0x02, 0x00, 0x00, 0x00, 0x13, 0x00, 0x00, 0x00, 0x11, 0x00, 0x00, 0x00,
  0x6e, 0xff, 0xff, 0xff, 0x14, 0x00, 0x00, 0x00, 0x00, 0x00, 0x00, 0x1b,
  0x10, 0x00, 0x00, 0x00, 0x14, 0x00, 0x00, 0x00, 0x02, 0x00, 0x00, 0x00,
  0x80, 0xe8, 0xff, 0xff, 0x01, 0x00, 0x00, 0x00, 0x13, 0x00, 0x00, 0x00,
  0x02, 0x00, 0x00, 0x00, 0x12, 0x00, 0x00, 0x00, 0x08, 0x00, 0x00, 0x00,
  0x9e, 0xff, 0xff, 0xff, 0x14, 0x00, 0x00, 0x00, 0x00, 0x00, 0x00, 0x17,
  0x10, 0x00, 0x00, 0x00, 0x14, 0x00, 0x00, 0x00, 0x01, 0x00, 0x00, 0x00,
  0xb0, 0xe8, 0xff, 0xff, 0x01, 0x00, 0x00, 0x00, 0x12, 0x00, 0x00, 0x00,
  0x02, 0x00, 0x00, 0x00, 0x0f, 0x00, 0x00, 0x00, 0x05, 0x00, 0x00, 0x00,
  0xce, 0xff, 0xff, 0xff, 0x14, 0x00, 0x00, 0x00, 0x00, 0x00, 0x00, 0x1b,
  0x10, 0x00, 0x00, 0x00, 0x14, 0x00, 0x00, 0x00, 0x02, 0x00, 0x00, 0x00,
  0xe0, 0xe8, 0xff, 0xff, 0x01, 0x00, 0x00, 0x00, 0x11, 0x00, 0x00, 0x00,
  0x02, 0x00, 0x00, 0x00, 0x10, 0x00, 0x00, 0x00, 0x08, 0x00, 0x00, 0x00,
  0x00, 0x00, 0x0e, 0x00, 0x18, 0x00, 0x14, 0x00, 0x10, 0x00, 0x0c, 0x00,
  0x0b, 0x00, 0x04, 0x00, 0x0e, 0x00, 0x00, 0x00, 0x14, 0x00, 0x00, 0x00,
  0x00, 0x00, 0x00, 0x17, 0x10, 0x00, 0x00, 0x00, 0x14, 0x00, 0x00, 0x00,
  0x01, 0x00, 0x00, 0x00, 0x20, 0xe9, 0xff, 0xff, 0x01, 0x00, 0x00, 0x00,
  0x10, 0x00, 0x00, 0x00, 0x02, 0x00, 0x00, 0x00, 0x0f, 0x00, 0x00, 0x00,
  0x06, 0x00, 0x00, 0x00, 0x00, 0x00, 0x0e, 0x00, 0x16, 0x00, 0x00, 0x00,
  0x10, 0x00, 0x0c, 0x00, 0x0b, 0x00, 0x04, 0x00, 0x0e, 0x00, 0x00, 0x00,
  0x18, 0x00, 0x00, 0x00, 0x00, 0x00, 0x00, 0x37, 0x18, 0x00, 0x00, 0x00,
  0x1c, 0x00, 0x00, 0x00, 0x00, 0x00, 0x06, 0x00, 0x08, 0x00, 0x07, 0x00,
  0x06, 0x00, 0x00, 0x00, 0x00, 0x00, 0x00, 0x02, 0x01, 0x00, 0x00, 0x00,
  0x0f, 0x00, 0x00, 0x00, 0x01, 0x00, 0x00, 0x00, 0x00, 0x00, 0x00, 0x00,
  0x01, 0x00, 0x00, 0x00, 0x3a, 0x00, 0x00, 0x00, 0x01, 0x00, 0x00, 0x00,
  0x00, 0x00, 0x00, 0x00, 0x3b, 0x00, 0x00, 0x00, 0xf4, 0x15, 0x00, 0x00,
  0x8c, 0x15, 0x00, 0x00, 0x28, 0x15, 0x00, 0x00, 0xd0, 0x14, 0x00, 0x00,
  0x78, 0x14, 0x00, 0x00, 0x24, 0x14, 0x00, 0x00, 0xc0, 0x13, 0x00, 0x00,
  0x6c, 0x13, 0x00, 0x00, 0x18, 0x13, 0x00, 0x00, 0xc4, 0x12, 0x00, 0x00,
  0x70, 0x12, 0x00, 0x00, 0x1c, 0x12, 0x00, 0x00, 0xc8, 0x11, 0x00, 0x00,
  0x74, 0x11, 0x00, 0x00, 0x20, 0x11, 0x00, 0x00, 0xcc, 0x10, 0x00, 0x00,
  0x48, 0x10, 0x00, 0x00, 0xf8, 0x0f, 0x00, 0x00, 0x74, 0x0f, 0x00, 0x00,
  0x28, 0x0f, 0x00, 0x00, 0xd4, 0x0e, 0x00, 0x00, 0x80, 0x0e, 0x00, 0x00,
  0x1c, 0x0e, 0x00, 0x00, 0xb8, 0x0d, 0x00, 0x00, 0x54, 0x0d, 0x00, 0x00,
  0xd8, 0x0c, 0x00, 0x00, 0x84, 0x0c, 0x00, 0x00, 0x00, 0x0c, 0x00, 0x00,
  0xb0, 0x0b, 0x00, 0x00, 0x58, 0x0b, 0x00, 0x00, 0xd0, 0x0a, 0x00, 0x00,
  0x80, 0x0a, 0x00, 0x00, 0x2c, 0x0a, 0x00, 0x00, 0xc8, 0x09, 0x00, 0x00,
  0x64, 0x09, 0x00, 0x00, 0x00, 0x09, 0x00, 0x00, 0x80, 0x08, 0x00, 0x00,
  0x2c, 0x08, 0x00, 0x00, 0xa8, 0x07, 0x00, 0x00, 0x58, 0x07, 0x00, 0x00,
  0x00, 0x07, 0x00, 0x00, 0x78, 0x06, 0x00, 0x00, 0x28, 0x06, 0x00, 0x00,
  0xd4, 0x05, 0x00, 0x00, 0x70, 0x05, 0x00, 0x00, 0x0c, 0x05, 0x00, 0x00,
  0xa8, 0x04, 0x00, 0x00, 0x28, 0x04, 0x00, 0x00, 0xd8, 0x03, 0x00, 0x00,
  0x54, 0x03, 0x00, 0x00, 0x08, 0x03, 0x00, 0x00, 0xb4, 0x02, 0x00, 0x00,
  0x30, 0x02, 0x00, 0x00, 0xe0, 0x01, 0x00, 0x00, 0x90, 0x01, 0x00, 0x00,
  0x2c, 0x01, 0x00, 0x00, 0xc8, 0x00, 0x00, 0x00, 0x64, 0x00, 0x00, 0x00,
  0x04, 0x00, 0x00, 0x00, 0x0c, 0xeb, 0xff, 0xff, 0x14, 0x00, 0x00, 0x00,
  0x20, 0x00, 0x00, 0x00, 0x20, 0x00, 0x00, 0x00, 0x3b, 0x00, 0x00, 0x00,
  0x38, 0x00, 0x00, 0x00, 0x03, 0x00, 0x00, 0x00, 0xff, 0xff, 0xff, 0xff,
  0xff, 0xff, 0xff, 0xff, 0x03, 0x00, 0x00, 0x00, 0xa4, 0xea, 0xff, 0xff,
  0x19, 0x00, 0x00, 0x00, 0x53, 0x74, 0x61, 0x74, 0x65, 0x66, 0x75, 0x6c,
  0x50, 0x61, 0x72, 0x74, 0x69, 0x74, 0x69, 0x6f, 0x6e, 0x65, 0x64, 0x43,
  0x61, 0x6c, 0x6c, 0x3a, 0x30, 0x00, 0x00, 0x00, 0x03, 0x00, 0x00, 0x00,
  0x01, 0x00, 0x00, 0x00, 0x01, 0x00, 0x00, 0x00, 0x03, 0x00, 0x00, 0x00,
  0x68, 0xeb, 0xff, 0xff, 0x14, 0x00, 0x00, 0x00, 0x20, 0x00, 0x00, 0x00,
  0x20, 0x00, 0x00, 0x00, 0x3a, 0x00, 0x00, 0x00, 0x3c, 0x00, 0x00, 0x00,
  0x03, 0x00, 0x00, 0x00, 0xff, 0xff, 0xff, 0xff, 0xff, 0xff, 0xff, 0xff,
  0xff, 0xff, 0xff, 0xff, 0x00, 0xeb, 0xff, 0xff, 0x1d, 0x00, 0x00, 0x00,
  0x73, 0x65, 0x71, 0x75, 0x65, 0x6e, 0x74, 0x69, 0x61, 0x6c, 0x5f, 0x33,
  0x2f, 0x6f, 0x75, 0x74, 0x70, 0x75, 0x74, 0x2f, 0x54, 0x65, 0x6e, 0x73,
  0x6f, 0x72, 0x64, 0x6f, 0x74, 0x00, 0x00, 0x00, 0x03, 0x00, 0x00, 0x00,
  0x01, 0x00, 0x00, 0x00, 0x01, 0x00, 0x00, 0x00, 0x01, 0x00, 0x00, 0x00,
  0xc8, 0xeb, 0xff, 0xff, 0x14, 0x00, 0x00, 0x00, 0x1c, 0x00, 0x00, 0x00,
  0x1c, 0x00, 0x00, 0x00, 0x39, 0x00, 0x00, 0x00, 0x40, 0x00, 0x00, 0x00,
  0x02, 0x00, 0x00, 0x00, 0xff, 0xff, 0xff, 0xff, 0x03, 0x00, 0x00, 0x00,
  0x5c, 0xeb, 0xff, 0xff, 0x25, 0x00, 0x00, 0x00, 0x73, 0x65, 0x71, 0x75,
  0x65, 0x6e, 0x74, 0x69, 0x61, 0x6c, 0x5f, 0x33, 0x2f, 0x6f, 0x75, 0x74,
  0x70, 0x75, 0x74, 0x2f, 0x54, 0x65, 0x6e, 0x73, 0x6f, 0x72, 0x64, 0x6f,
  0x74, 0x2f, 0x4d, 0x61, 0x74, 0x4d, 0x75, 0x6c, 0x32, 0x00, 0x00, 0x00,
  0x02, 0x00, 0x00, 0x00, 0x01, 0x00, 0x00, 0x00, 0x03, 0x00, 0x00, 0x00,
  0x28, 0xec, 0xff, 0xff, 0x14, 0x00, 0x00, 0x00, 0x1c, 0x00, 0x00, 0x00,
  0x1c, 0x00, 0x00, 0x00, 0x38, 0x00, 0x00, 0x00, 0x40, 0x00, 0x00, 0x00,
  0x02, 0x00, 0x00, 0x00, 0xff, 0xff, 0xff, 0xff, 0xff, 0xff, 0xff, 0xff,
  0xbc, 0xeb, 0xff, 0xff, 0x25, 0x00, 0x00, 0x00, 0x73, 0x65, 0x71, 0x75,
  0x65, 0x6e, 0x74, 0x69, 0x61, 0x6c, 0x5f, 0x33, 0x2f, 0x6f, 0x75, 0x74,
  0x70, 0x75, 0x74, 0x2f, 0x54, 0x65, 0x6e, 0x73, 0x6f, 0x72, 0x64, 0x6f,
  0x74, 0x2f, 0x52, 0x65, 0x73, 0x68, 0x61, 0x70, 0x65, 0x00, 0x00, 0x00,
  0x02, 0x00, 0x00, 0x00, 0x01, 0x00, 0x00, 0x00, 0x01, 0x00, 0x00, 0x00,
  0x3e, 0xee, 0xff, 0xff, 0x14, 0x00, 0x00, 0x00, 0x14, 0x00, 0x00, 0x00,
  0x37, 0x00, 0x00, 0x00, 0x00, 0x00, 0x00, 0x02, 0x30, 0x00, 0x00, 0x00,
  0x10, 0xec, 0xff, 0xff, 0x23, 0x00, 0x00, 0x00, 0x73, 0x65, 0x71, 0x75,
  0x65, 0x6e, 0x74, 0x69, 0x61, 0x6c, 0x5f, 0x33, 0x2f, 0x6f, 0x75, 0x74,
  0x70, 0x75, 0x74, 0x2f, 0x54, 0x65, 0x6e, 0x73, 0x6f, 0x72, 0x64, 0x6f,
  0x74, 0x2f, 0x73, 0x74, 0x61, 0x63, 0x6b, 0x00, 0x01, 0x00, 0x00, 0x00,
  0x02, 0x00, 0x00, 0x00, 0x8a, 0xee, 0xff, 0xff, 0x14, 0x00, 0x00, 0x00,
  0x14, 0x00, 0x00, 0x00, 0x36, 0x00, 0x00, 0x00, 0x00, 0x00, 0x00, 0x02,
  0x34, 0x00, 0x00, 0x00, 0x5c, 0xec, 0xff, 0xff, 0x24, 0x00, 0x00, 0x00,
  0x73, 0x65, 0x71, 0x75, 0x65, 0x6e, 0x74, 0x69, 0x61, 0x6c, 0x5f, 0x33,
  0x2f, 0x6f, 0x75, 0x74, 0x70, 0x75, 0x74, 0x2f, 0x54, 0x65, 0x6e, 0x73,
  0x6f, 0x72, 0x64, 0x6f, 0x74, 0x2f, 0x50, 0x72, 0x6f, 0x64, 0x5f, 0x31,
  0x00, 0x00, 0x00, 0x00, 0x00, 0x00, 0x00, 0x00, 0xd6, 0xee, 0xff, 0xff,
  0x14, 0x00, 0x00, 0x00, 0x14, 0x00, 0x00, 0x00, 0x35, 0x00, 0x00, 0x00,
  0x00, 0x00, 0x00, 0x02, 0x64, 0x00, 0x00, 0x00, 0xa8, 0xec, 0xff, 0xff,
  0x56, 0x00, 0x00, 0x00, 0x73, 0x65, 0x71, 0x75, 0x65, 0x6e, 0x74, 0x69,
  0x61, 0x6c, 0x5f, 0x33, 0x2f, 0x6f, 0x75, 0x74, 0x70, 0x75, 0x74, 0x2f,
  0x54, 0x65, 0x6e, 0x73, 0x6f, 0x72, 0x64, 0x6f, 0x74, 0x2f, 0x47, 0x61,
  0x74, 0x68, 0x65, 0x72, 0x56, 0x32, 0x5f, 0x31, 0x3b, 0x73, 0x65, 0x71,
  0x75, 0x65, 0x6e, 0x74, 0x69, 0x61, 0x6c, 0x5f, 0x33, 0x2f, 0x64, 0x65,
  0x6e, 0x73, 0x65, 0x5f, 0x31, 0x30, 0x2f, 0x54, 0x65, 0x6e, 0x73, 0x6f,
  0x72, 0x64, 0x6f, 0x74, 0x2f, 0x47, 0x61, 0x74, 0x68, 0x65, 0x72, 0x56,
  0x32, 0x2f, 0x61, 0x78, 0x69, 0x73, 0x00, 0x00, 0x01, 0x00, 0x00, 0x00,
  0x01, 0x00, 0x00, 0x00, 0x56, 0xef, 0xff, 0xff, 0x14, 0x00, 0x00, 0x00,
  0x14, 0x00, 0x00, 0x00, 0x34, 0x00, 0x00, 0x00, 0x00, 0x00, 0x00, 0x02,
  0x34, 0x00, 0x00, 0x00, 0x28, 0xed, 0xff, 0xff, 0x26, 0x00, 0x00, 0x00,
  0x73, 0x65, 0x71, 0x75, 0x65, 0x6e, 0x74, 0x69, 0x61, 0x6c, 0x5f, 0x33,
  0x2f, 0x6f, 0x75, 0x74, 0x70, 0x75, 0x74, 0x2f, 0x54, 0x65, 0x6e, 0x73,
  0x6f, 0x72, 0x64, 0x6f, 0x74, 0x2f, 0x63, 0x6f, 0x6e, 0x63, 0x61, 0x74,
  0x5f, 0x31, 0x00, 0x00, 0x01, 0x00, 0x00, 0x00, 0x03, 0x00, 0x00, 0x00,
  0xa6, 0xef, 0xff, 0xff, 0x14, 0x00, 0x00, 0x00, 0x14, 0x00, 0x00, 0x00,
  0x33, 0x00, 0x00, 0x00, 0x00, 0x00, 0x00, 0x02, 0x30, 0x00, 0x00, 0x00,
  0x78, 0xed, 0xff, 0xff, 0x22, 0x00, 0x00, 0x00, 0x73, 0x65, 0x71, 0x75,
  0x65, 0x6e, 0x74, 0x69, 0x61, 0x6c, 0x5f, 0x33, 0x2f, 0x6f, 0x75, 0x74,
  0x70, 0x75, 0x74, 0x2f, 0x54, 0x65, 0x6e, 0x73, 0x6f, 0x72, 0x64, 0x6f,
  0x74, 0x2f, 0x50, 0x72, 0x6f, 0x64, 0x00, 0x00, 0x00, 0x00, 0x00, 0x00,
  0xee, 0xef, 0xff, 0xff, 0x14, 0x00, 0x00, 0x00, 0x14, 0x00, 0x00, 0x00,
  0x32, 0x00, 0x00, 0x00, 0x00, 0x00, 0x00, 0x02, 0x64, 0x00, 0x00, 0x00,
  0xc0, 0xed, 0xff, 0xff, 0x54, 0x00, 0x00, 0x00, 0x73, 0x65, 0x71, 0x75,
  0x65, 0x6e, 0x74, 0x69, 0x61, 0x6c, 0x5f, 0x33, 0x2f, 0x6f, 0x75, 0x74,
  0x70, 0x75, 0x74, 0x2f, 0x54, 0x65, 0x6e, 0x73, 0x6f, 0x72, 0x64, 0x6f,
  0x74, 0x2f, 0x47, 0x61, 0x74, 0x68, 0x65, 0x72, 0x56, 0x32, 0x3b, 0x73,
  0x65, 0x71, 0x75, 0x65, 0x6e, 0x74, 0x69, 0x61, 0x6c, 0x5f, 0x33, 0x2f,
  0x64, 0x65, 0x6e, 0x73, 0x65, 0x5f, 0x31, 0x30, 0x2f, 0x54, 0x65, 0x6e,
  0x73, 0x6f, 0x72, 0x64, 0x6f, 0x74, 0x2f, 0x47, 0x61, 0x74, 0x68, 0x65,
  0x72, 0x56, 0x32, 0x2f, 0x61, 0x78, 0x69, 0x73, 0x00, 0x00, 0x00, 0x00,
  0x01, 0x00, 0x00, 0x00, 0x02, 0x00, 0x00, 0x00, 0x6e, 0xf0, 0xff, 0xff,
  0x14, 0x00, 0x00, 0x00, 0x14, 0x00, 0x00, 0x00, 0x31, 0x00, 0x00, 0x00,
  0x00, 0x00, 0x00, 0x02, 0x30, 0x00, 0x00, 0x00, 0x40, 0xee, 0xff, 0xff,
  0x23, 0x00, 0x00, 0x00, 0x73, 0x65, 0x71, 0x75, 0x65, 0x6e, 0x74, 0x69,
  0x61, 0x6c, 0x5f, 0x33, 0x2f, 0x6f, 0x75, 0x74, 0x70, 0x75, 0x74, 0x2f,
  0x54, 0x65, 0x6e, 0x73, 0x6f, 0x72, 0x64, 0x6f, 0x74, 0x2f, 0x53, 0x68,
  0x61, 0x70, 0x65, 0x00, 0x01, 0x00, 0x00, 0x00, 0x03, 0x00, 0x00, 0x00,
  0x04, 0xef, 0xff, 0xff, 0x14, 0x00, 0x00, 0x00, 0x20, 0x00, 0x00, 0x00,
  0x20, 0x00, 0x00, 0x00, 0x30, 0x00, 0x00, 0x00, 0x58, 0x00, 0x00, 0x00,
  0x03, 0x00, 0x00, 0x00, 0xff, 0xff, 0xff, 0xff, 0xff, 0xff, 0xff, 0xff,
  0x20, 0x00, 0x00, 0x00, 0x9c, 0xee, 0xff, 0xff, 0x38, 0x00, 0x00, 0x00,
  0x73, 0x65, 0x71, 0x75, 0x65, 0x6e, 0x74, 0x69, 0x61, 0x6c, 0x5f, 0x33,
  0x2f, 0x64, 0x65, 0x6e, 0x73, 0x65, 0x5f, 0x31, 0x31, 0x2f, 0x52, 0x65,
  0x6c, 0x75, 0x3b, 0x73, 0x65, 0x71, 0x75, 0x65, 0x6e, 0x74, 0x69, 0x61,
  0x6c, 0x5f, 0x33, 0x2f, 0x64, 0x65, 0x6e, 0x73, 0x65, 0x5f, 0x31, 0x31,
  0x2f, 0x42, 0x69, 0x61, 0x73, 0x41, 0x64, 0x64, 0x00, 0x00, 0x00, 0x00,
  0x03, 0x00, 0x00, 0x00, 0x01, 0x00, 0x00, 0x00, 0x01, 0x00, 0x00, 0x00,
  0x20, 0x00, 0x00, 0x00, 0x80, 0xef, 0xff, 0xff, 0x14, 0x00, 0x00, 0x00,
  0x20, 0x00, 0x00, 0x00, 0x20, 0x00, 0x00, 0x00, 0x2f, 0x00, 0x00, 0x00,
  0x3c, 0x00, 0x00, 0x00, 0x03, 0x00, 0x00, 0x00, 0xff, 0xff, 0xff, 0xff,
  0xff, 0xff, 0xff, 0xff, 0xff, 0xff, 0xff, 0xff, 0x18, 0xef, 0xff, 0xff,
  0x1f, 0x00, 0x00, 0x00, 0x73, 0x65, 0x71, 0x75, 0x65, 0x6e, 0x74, 0x69,
  0x61, 0x6c, 0x5f, 0x33, 0x2f, 0x64, 0x65, 0x6e, 0x73, 0x65, 0x5f, 0x31,
  0x31, 0x2f, 0x54, 0x65, 0x6e, 0x73, 0x6f, 0x72, 0x64, 0x6f, 0x74, 0x00,
  0x03, 0x00, 0x00, 0x00, 0x01, 0x00, 0x00, 0x00, 0x01, 0x00, 0x00, 0x00,
  0x01, 0x00, 0x00, 0x00, 0xe0, 0xef, 0xff, 0xff, 0x14, 0x00, 0x00, 0x00,
  0x1c, 0x00, 0x00, 0x00, 0x1c, 0x00, 0x00, 0x00, 0x2e, 0x00, 0x00, 0x00,
  0x40, 0x00, 0x00, 0x00, 0x02, 0x00, 0x00, 0x00, 0xff, 0xff, 0xff, 0xff,
  0x20, 0x00, 0x00, 0x00, 0x74, 0xef, 0xff, 0xff, 0x27, 0x00, 0x00, 0x00,
  0x73, 0x65, 0x71, 0x75, 0x65, 0x6e, 0x74, 0x69, 0x61, 0x6c, 0x5f, 0x33,
  0x2f, 0x64, 0x65, 0x6e, 0x73, 0x65, 0x5f, 0x31, 0x31, 0x2f, 0x54, 0x65,
  0x6e, 0x73, 0x6f, 0x72, 0x64, 0x6f, 0x74, 0x2f, 0x4d, 0x61, 0x74, 0x4d,
  0x75, 0x6c, 0x31, 0x00, 0x02, 0x00, 0x00, 0x00, 0x01, 0x00, 0x00, 0x00,
  0x20, 0x00, 0x00, 0x00, 0x40, 0xf0, 0xff, 0xff, 0x14, 0x00, 0x00, 0x00,
  0x1c, 0x00, 0x00, 0x00, 0x1c, 0x00, 0x00, 0x00, 0x2d, 0x00, 0x00, 0x00,
  0x40, 0x00, 0x00, 0x00, 0x02, 0x00, 0x00, 0x00, 0xff, 0xff, 0xff, 0xff,
  0xff, 0xff, 0xff, 0xff, 0xd4, 0xef, 0xff, 0xff, 0x27, 0x00, 0x00, 0x00,
  0x73, 0x65, 0x71, 0x75, 0x65, 0x6e, 0x74, 0x69, 0x61, 0x6c, 0x5f, 0x33,
  0x2f, 0x64, 0x65, 0x6e, 0x73, 0x65, 0x5f, 0x31, 0x31, 0x2f, 0x54, 0x65,
  0x6e, 0x73, 0x6f, 0x72, 0x64, 0x6f, 0x74, 0x2f, 0x52, 0x65, 0x73, 0x68,
  0x61, 0x70, 0x65, 0x00, 0x02, 0x00, 0x00, 0x00, 0x01, 0x00, 0x00, 0x00,
  0x01, 0x00, 0x00, 0x00, 0x56, 0xf2, 0xff, 0xff, 0x14, 0x00, 0x00, 0x00,
  0x14, 0x00, 0x00, 0x00, 0x2c, 0x00, 0x00, 0x00, 0x00, 0x00, 0x00, 0x02,
  0x34, 0x00, 0x00, 0x00, 0x28, 0xf0, 0xff, 0xff, 0x25, 0x00, 0x00, 0x00,
  0x73, 0x65, 0x71, 0x75, 0x65, 0x6e, 0x74, 0x69, 0x61, 0x6c, 0x5f, 0x33,
  0x2f, 0x64, 0x65, 0x6e, 0x73, 0x65, 0x5f, 0x31, 0x31, 0x2f, 0x54, 0x65,
  0x6e, 0x73, 0x6f, 0x72, 0x64, 0x6f, 0x74, 0x2f, 0x73, 0x74, 0x61, 0x63,
  0x6b, 0x00, 0x00, 0x00, 0x01, 0x00, 0x00, 0x00, 0x02, 0x00, 0x00, 0x00,
  0xa6, 0xf2, 0xff, 0xff, 0x14, 0x00, 0x00, 0x00, 0x14, 0x00, 0x00, 0x00,
  0x2b, 0x00, 0x00, 0x00, 0x00, 0x00, 0x00, 0x02, 0x34, 0x00, 0x00, 0x00,
  0x78, 0xf0, 0xff, 0xff, 0x26, 0x00, 0x00, 0x00, 0x73, 0x65, 0x71, 0x75,
  0x65, 0x6e, 0x74, 0x69, 0x61, 0x6c, 0x5f, 0x33, 0x2f, 0x64, 0x65, 0x6e,
  0x73, 0x65, 0x5f, 0x31, 0x31, 0x2f, 0x54, 0x65, 0x6e, 0x73, 0x6f, 0x72,
  0x64, 0x6f, 0x74, 0x2f, 0x50, 0x72, 0x6f, 0x64, 0x5f, 0x31, 0x00, 0x00,
  0x00, 0x00, 0x00, 0x00, 0xf2, 0xf2, 0xff, 0xff, 0x14, 0x00, 0x00, 0x00,
  0x14, 0x00, 0x00, 0x00, 0x2a, 0x00, 0x00, 0x00, 0x00, 0x00, 0x00, 0x02,
  0x68, 0x00, 0x00, 0x00, 0xc4, 0xf0, 0xff, 0xff, 0x58, 0x00, 0x00, 0x00,
  0x73, 0x65, 0x71, 0x75, 0x65, 0x6e, 0x74, 0x69, 0x61, 0x6c, 0x5f, 0x33,
  0x2f, 0x64, 0x65, 0x6e, 0x73, 0x65, 0x5f, 0x31, 0x31, 0x2f, 0x54, 0x65,
  0x6e, 0x73, 0x6f, 0x72, 0x64, 0x6f, 0x74, 0x2f, 0x47, 0x61, 0x74, 0x68,
  0x65, 0x72, 0x56, 0x32, 0x5f, 0x31, 0x3b, 0x73, 0x65, 0x71, 0x75, 0x65,
  0x6e, 0x74, 0x69, 0x61, 0x6c, 0x5f, 0x33, 0x2f, 0x64, 0x65, 0x6e, 0x73,
  0x65, 0x5f, 0x31, 0x30, 0x2f, 0x54, 0x65, 0x6e, 0x73, 0x6f, 0x72, 0x64,
  0x6f, 0x74, 0x2f, 0x47, 0x61, 0x74, 0x68, 0x65, 0x72, 0x56, 0x32, 0x2f,
  0x61, 0x78, 0x69, 0x73, 0x00, 0x00, 0x00, 0x00, 0x01, 0x00, 0x00, 0x00,
  0x01, 0x00, 0x00, 0x00, 0x76, 0xf3, 0xff, 0xff, 0x14, 0x00, 0x00, 0x00,
  0x14, 0x00, 0x00, 0x00, 0x29, 0x00, 0x00, 0x00, 0x00, 0x00, 0x00, 0x02,
  0x38, 0x00, 0x00, 0x00, 0x48, 0xf1, 0xff, 0xff, 0x28, 0x00, 0x00, 0x00,
  0x73, 0x65, 0x71, 0x75, 0x65, 0x6e, 0x74, 0x69, 0x61, 0x6c, 0x5f, 0x33,
  0x2f, 0x64, 0x65, 0x6e, 0x73, 0x65, 0x5f, 0x31, 0x31, 0x2f, 0x54, 0x65,
  0x6e, 0x73, 0x6f, 0x72, 0x64, 0x6f, 0x74, 0x2f, 0x63, 0x6f, 0x6e, 0x63,
  0x61, 0x74, 0x5f, 0x31, 0x00, 0x00, 0x00, 0x00, 0x01, 0x00, 0x00, 0x00,
  0x03, 0x00, 0x00, 0x00, 0xca, 0xf3, 0xff, 0xff, 0x14, 0x00, 0x00, 0x00,
  0x14, 0x00, 0x00, 0x00, 0x28, 0x00, 0x00, 0x00, 0x00, 0x00, 0x00, 0x02,
  0x34, 0x00, 0x00, 0x00, 0x9c, 0xf1, 0xff, 0xff, 0x24, 0x00, 0x00, 0x00,
  0x73, 0x65, 0x71, 0x75, 0x65, 0x6e, 0x74, 0x69, 0x61, 0x6c, 0x5f, 0x33,
  0x2f, 0x64, 0x65, 0x6e, 0x73, 0x65, 0x5f, 0x31, 0x31, 0x2f, 0x54, 0x65,
  0x6e, 0x73, 0x6f, 0x72, 0x64, 0x6f, 0x74, 0x2f, 0x50, 0x72, 0x6f, 0x64,
  0x00, 0x00, 0x00, 0x00, 0x00, 0x00, 0x00, 0x00, 0x16, 0xf4, 0xff, 0xff,
  0x14, 0x00, 0x00, 0x00, 0x14, 0x00, 0x00, 0x00, 0x27, 0x00, 0x00, 0x00,
  0x00, 0x00, 0x00, 0x02, 0x64, 0x00, 0x00, 0x00, 0xe8, 0xf1, 0xff, 0xff,
  0x56, 0x00, 0x00, 0x00, 0x73, 0x65, 0x71, 0x75, 0x65, 0x6e, 0x74, 0x69,
  0x61, 0x6c, 0x5f, 0x33, 0x2f, 0x64, 0x65, 0x6e, 0x73, 0x65, 0x5f, 0x31,
  0x31, 0x2f, 0x54, 0x65, 0x6e, 0x73, 0x6f, 0x72, 0x64, 0x6f, 0x74, 0x2f,
  0x47, 0x61, 0x74, 0x68, 0x65, 0x72, 0x56, 0x32, 0x3b, 0x73, 0x65, 0x71,
  0x75, 0x65, 0x6e, 0x74, 0x69, 0x61, 0x6c, 0x5f, 0x33, 0x2f, 0x64, 0x65,
  0x6e, 0x73, 0x65, 0x5f, 0x31, 0x30, 0x2f, 0x54, 0x65, 0x6e, 0x73, 0x6f,
  0x72, 0x64, 0x6f, 0x74, 0x2f, 0x47, 0x61, 0x74, 0x68, 0x65, 0x72, 0x56,
  0x32, 0x2f, 0x61, 0x78, 0x69, 0x73, 0x00, 0x00, 0x01, 0x00, 0x00, 0x00,
  0x02, 0x00, 0x00, 0x00, 0x96, 0xf4, 0xff, 0xff, 0x14, 0x00, 0x00, 0x00,
  0x14, 0x00, 0x00, 0x00, 0x26, 0x00, 0x00, 0x00, 0x00, 0x00, 0x00, 0x02,
  0x34, 0x00, 0x00, 0x00, 0x68, 0xf2, 0xff, 0xff, 0x25, 0x00, 0x00, 0x00,
  0x73, 0x65, 0x71, 0x75, 0x65, 0x6e, 0x74, 0x69, 0x61, 0x6c, 0x5f, 0x33,
  0x2f, 0x64, 0x65, 0x6e, 0x73, 0x65, 0x5f, 0x31, 0x31, 0x2f, 0x54, 0x65,
  0x6e, 0x73, 0x6f, 0x72, 0x64, 0x6f, 0x74, 0x2f, 0x53, 0x68, 0x61, 0x70,
  0x65, 0x00, 0x00, 0x00, 0x01, 0x00, 0x00, 0x00, 0x03, 0x00, 0x00, 0x00,
  0x30, 0xf3, 0xff, 0xff, 0x14, 0x00, 0x00, 0x00, 0x20, 0x00, 0x00, 0x00,
  0x20, 0x00, 0x00, 0x00, 0x25, 0x00, 0x00, 0x00, 0x58, 0x00, 0x00, 0x00,
  0x03, 0x00, 0x00, 0x00, 0xff, 0xff, 0xff, 0xff, 0xff, 0xff, 0xff, 0xff,
  0x08, 0x00, 0x00, 0x00, 0xc8, 0xf2, 0xff, 0xff, 0x38, 0x00, 0x00, 0x00,
  0x73, 0x65, 0x71, 0x75, 0x65, 0x6e, 0x74, 0x69, 0x61, 0x6c, 0x5f, 0x33,
  0x2f, 0x64, 0x65, 0x6e, 0x73, 0x65, 0x5f, 0x31, 0x30, 0x2f, 0x52, 0x65,
  0x6c, 0x75, 0x3b, 0x73, 0x65, 0x71, 0x75, 0x65, 0x6e, 0x74, 0x69, 0x61,
  0x6c, 0x5f, 0x33, 0x2f, 0x64, 0x65, 0x6e, 0x73, 0x65, 0x5f, 0x31, 0x30,
  0x2f, 0x42, 0x69, 0x61, 0x73, 0x41, 0x64, 0x64, 0x00, 0x00, 0x00, 0x00,
  0x03, 0x00, 0x00, 0x00, 0x01, 0x00, 0x00, 0x00, 0x01, 0x00, 0x00, 0x00,
  0x08, 0x00, 0x00, 0x00, 0xac, 0xf3, 0xff, 0xff, 0x14, 0x00, 0x00, 0x00,
  0x20, 0x00, 0x00, 0x00, 0x20, 0x00, 0x00, 0x00, 0x24, 0x00, 0x00, 0x00,
  0x3c, 0x00, 0x00, 0x00, 0x03, 0x00, 0x00, 0x00, 0xff, 0xff, 0xff, 0xff,
  0xff, 0xff, 0xff, 0xff, 0xff, 0xff, 0xff, 0xff, 0x44, 0xf3, 0xff, 0xff,
  0x1f, 0x00, 0x00, 0x00, 0x73, 0x65, 0x71, 0x75, 0x65, 0x6e, 0x74, 0x69,
  0x61, 0x6c, 0x5f, 0x33, 0x2f, 0x64, 0x65, 0x6e, 0x73, 0x65, 0x5f, 0x31,
  0x30, 0x2f, 0x54, 0x65, 0x6e, 0x73, 0x6f, 0x72, 0x64, 0x6f, 0x74, 0x00,
  0x03, 0x00, 0x00, 0x00, 0x01, 0x00, 0x00, 0x00, 0x01, 0x00, 0x00, 0x00,
  0x01, 0x00, 0x00, 0x00, 0x0c, 0xf4, 0xff, 0xff, 0x14, 0x00, 0x00, 0x00,
  0x1c, 0x00, 0x00, 0x00, 0x1c, 0x00, 0x00, 0x00, 0x23, 0x00, 0x00, 0x00,
  0x40, 0x00, 0x00, 0x00, 0x02, 0x00, 0x00, 0x00, 0xff, 0xff, 0xff, 0xff,
  0x08, 0x00, 0x00, 0x00, 0xa0, 0xf3, 0xff, 0xff, 0x27, 0x00, 0x00, 0x00,
  0x73, 0x65, 0x71, 0x75, 0x65, 0x6e, 0x74, 0x69, 0x61, 0x6c, 0x5f, 0x33,
  0x2f, 0x64, 0x65, 0x6e, 0x73, 0x65, 0x5f, 0x31, 0x30, 0x2f, 0x54, 0x65,
  0x6e, 0x73, 0x6f, 0x72, 0x64, 0x6f, 0x74, 0x2f, 0x4d, 0x61, 0x74, 0x4d,
  0x75, 0x6c, 0x31, 0x00, 0x02, 0x00, 0x00, 0x00, 0x01, 0x00, 0x00, 0x00,
  0x08, 0x00, 0x00, 0x00, 0x6c, 0xf4, 0xff, 0xff, 0x14, 0x00, 0x00, 0x00,
  0x1c, 0x00, 0x00, 0x00, 0x1c, 0x00, 0x00, 0x00, 0x22, 0x00, 0x00, 0x00,
  0x40, 0x00, 0x00, 0x00, 0x02, 0x00, 0x00, 0x00, 0xff, 0xff, 0xff, 0xff,
  0xff, 0xff, 0xff, 0xff, 0x00, 0xf4, 0xff, 0xff, 0x27, 0x00, 0x00, 0x00,
  0x73, 0x65, 0x71, 0x75, 0x65, 0x6e, 0x74, 0x69, 0x61, 0x6c, 0x5f, 0x33,
  0x2f, 0x64, 0x65, 0x6e, 0x73, 0x65, 0x5f, 0x31, 0x30, 0x2f, 0x54, 0x65,
  0x6e, 0x73, 0x6f, 0x72, 0x64, 0x6f, 0x74, 0x2f, 0x52, 0x65, 0x73, 0x68,
  0x61, 0x70, 0x65, 0x00, 0x02, 0x00, 0x00, 0x00, 0x01, 0x00, 0x00, 0x00,
  0x01, 0x00, 0x00, 0x00, 0x82, 0xf6, 0xff, 0xff, 0x14, 0x00, 0x00, 0x00,
  0x14, 0x00, 0x00, 0x00, 0x21, 0x00, 0x00, 0x00, 0x00, 0x00, 0x00, 0x02,
  0x34, 0x00, 0x00, 0x00, 0x54, 0xf4, 0xff, 0xff, 0x25, 0x00, 0x00, 0x00,
  0x73, 0x65, 0x71, 0x75, 0x65, 0x6e, 0x74, 0x69, 0x61, 0x6c, 0x5f, 0x33,
  0x2f, 0x64, 0x65, 0x6e, 0x73, 0x65, 0x5f, 0x31, 0x30, 0x2f, 0x54, 0x65,
  0x6e, 0x73, 0x6f, 0x72, 0x64, 0x6f, 0x74, 0x2f, 0x73, 0x74, 0x61, 0x63,
  0x6b, 0x00, 0x00, 0x00, 0x01, 0x00, 0x00, 0x00, 0x02, 0x00, 0x00, 0x00,
  0xd2, 0xf6, 0xff, 0xff, 0x14, 0x00, 0x00, 0x00, 0x14, 0x00, 0x00, 0x00,
  0x20, 0x00, 0x00, 0x00, 0x00, 0x00, 0x00, 0x02, 0x34, 0x00, 0x00, 0x00,
  0xa4, 0xf4, 0xff, 0xff, 0x26, 0x00, 0x00, 0x00, 0x73, 0x65, 0x71, 0x75,
  0x65, 0x6e, 0x74, 0x69, 0x61, 0x6c, 0x5f, 0x33, 0x2f, 0x64, 0x65, 0x6e,
  0x73, 0x65, 0x5f, 0x31, 0x30, 0x2f, 0x54, 0x65, 0x6e, 0x73, 0x6f, 0x72,
  0x64, 0x6f, 0x74, 0x2f, 0x50, 0x72, 0x6f, 0x64, 0x5f, 0x31, 0x00, 0x00,
  0x00, 0x00, 0x00, 0x00, 0x1e, 0xf7, 0xff, 0xff, 0x14, 0x00, 0x00, 0x00,
  0x14, 0x00, 0x00, 0x00, 0x1f, 0x00, 0x00, 0x00, 0x00, 0x00, 0x00, 0x02,
  0x68, 0x00, 0x00, 0x00, 0xf0, 0xf4, 0xff, 0xff, 0x58, 0x00, 0x00, 0x00,
  0x73, 0x65, 0x71, 0x75, 0x65, 0x6e, 0x74, 0x69, 0x61, 0x6c, 0x5f, 0x33,
  0x2f, 0x64, 0x65, 0x6e, 0x73, 0x65, 0x5f, 0x31, 0x30, 0x2f, 0x54, 0x65,
  0x6e, 0x73, 0x6f, 0x72, 0x64, 0x6f, 0x74, 0x2f, 0x47, 0x61, 0x74, 0x68,
  0x65, 0x72, 0x56, 0x32, 0x5f, 0x31, 0x3b, 0x73, 0x65, 0x71, 0x75, 0x65,
  0x6e, 0x74, 0x69, 0x61, 0x6c, 0x5f, 0x33, 0x2f, 0x64, 0x65, 0x6e, 0x73,
  0x65, 0x5f, 0x31, 0x30, 0x2f, 0x54, 0x65, 0x6e, 0x73, 0x6f, 0x72, 0x64,
  0x6f, 0x74, 0x2f, 0x47, 0x61, 0x74, 0x68, 0x65, 0x72, 0x56, 0x32, 0x2f,
  0x61, 0x78, 0x69, 0x73, 0x00, 0x00, 0x00, 0x00, 0x01, 0x00, 0x00, 0x00,
  0x01, 0x00, 0x00, 0x00, 0xa2, 0xf7, 0xff, 0xff, 0x14, 0x00, 0x00, 0x00,
  0x14, 0x00, 0x00, 0x00, 0x1e, 0x00, 0x00, 0x00, 0x00, 0x00, 0x00, 0x02,
  0x38, 0x00, 0x00, 0x00, 0x74, 0xf5, 0xff, 0xff, 0x28, 0x00, 0x00, 0x00,
  0x73, 0x65, 0x71, 0x75, 0x65, 0x6e, 0x74, 0x69, 0x61, 0x6c, 0x5f, 0x33,
  0x2f, 0x64, 0x65, 0x6e, 0x73, 0x65, 0x5f, 0x31, 0x30, 0x2f, 0x54, 0x65,
  0x6e, 0x73, 0x6f, 0x72, 0x64, 0x6f, 0x74, 0x2f, 0x63, 0x6f, 0x6e, 0x63,
  0x61, 0x74, 0x5f, 0x31, 0x00, 0x00, 0x00, 0x00, 0x01, 0x00, 0x00, 0x00,
  0x03, 0x00, 0x00, 0x00, 0xf6, 0xf7, 0xff, 0xff, 0x14, 0x00, 0x00, 0x00,
  0x14, 0x00, 0x00, 0x00, 0x1d, 0x00, 0x00, 0x00, 0x00, 0x00, 0x00, 0x02,
  0x34, 0x00, 0x00, 0x00, 0xc8, 0xf5, 0xff, 0xff, 0x24, 0x00, 0x00, 0x00,
  0x73, 0x65, 0x71, 0x75, 0x65, 0x6e, 0x74, 0x69, 0x61, 0x6c, 0x5f, 0x33,
  0x2f, 0x64, 0x65, 0x6e, 0x73, 0x65, 0x5f, 0x31, 0x30, 0x2f, 0x54, 0x65,
  0x6e, 0x73, 0x6f, 0x72, 0x64, 0x6f, 0x74, 0x2f, 0x50, 0x72, 0x6f, 0x64,
  0x00, 0x00, 0x00, 0x00, 0x00, 0x00, 0x00, 0x00, 0x42, 0xf8, 0xff, 0xff,
  0x14, 0x00, 0x00, 0x00, 0x14, 0x00, 0x00, 0x00, 0x1c, 0x00, 0x00, 0x00,
  0x00, 0x00, 0x00, 0x02, 0x64, 0x00, 0x00, 0x00, 0x14, 0xf6, 0xff, 0xff,
  0x56, 0x00, 0x00, 0x00, 0x73, 0x65, 0x71, 0x75, 0x65, 0x6e, 0x74, 0x69,
  0x61, 0x6c, 0x5f, 0x33, 0x2f, 0x64, 0x65, 0x6e, 0x73, 0x65, 0x5f, 0x31,
  0x30, 0x2f, 0x54, 0x65, 0x6e, 0x73, 0x6f, 0x72, 0x64, 0x6f, 0x74, 0x2f,
  0x47, 0x61, 0x74, 0x68, 0x65, 0x72, 0x56, 0x32, 0x3b, 0x73, 0x65, 0x71,
  0x75, 0x65, 0x6e, 0x74, 0x69, 0x61, 0x6c, 0x5f, 0x33, 0x2f, 0x64, 0x65,
  0x6e, 0x73, 0x65, 0x5f, 0x31, 0x30, 0x2f, 0x54, 0x65, 0x6e, 0x73, 0x6f,
  0x72, 0x64, 0x6f, 0x74, 0x2f, 0x47, 0x61, 0x74, 0x68, 0x65, 0x72, 0x56,
  0x32, 0x2f, 0x61, 0x78, 0x69, 0x73, 0x00, 0x00, 0x01, 0x00, 0x00, 0x00,
  0x02, 0x00, 0x00, 0x00, 0xc2, 0xf8, 0xff, 0xff, 0x14, 0x00, 0x00, 0x00,
  0x14, 0x00, 0x00, 0x00, 0x1b, 0x00, 0x00, 0x00, 0x00, 0x00, 0x00, 0x02,
  0x34, 0x00, 0x00, 0x00, 0x94, 0xf6, 0xff, 0xff, 0x25, 0x00, 0x00, 0x00,
  0x73, 0x65, 0x71, 0x75, 0x65, 0x6e, 0x74, 0x69, 0x61, 0x6c, 0x5f, 0x33,
  0x2f, 0x64, 0x65, 0x6e, 0x73, 0x65, 0x5f, 0x31, 0x30, 0x2f, 0x54, 0x65,
  0x6e, 0x73, 0x6f, 0x72, 0x64, 0x6f, 0x74, 0x2f, 0x53, 0x68, 0x61, 0x70,
  0x65, 0x00, 0x00, 0x00, 0x01, 0x00, 0x00, 0x00, 0x03, 0x00, 0x00, 0x00,
  0x5c, 0xf7, 0xff, 0xff, 0x14, 0x00, 0x00, 0x00, 0x20, 0x00, 0x00, 0x00,
  0x20, 0x00, 0x00, 0x00, 0x1a, 0x00, 0x00, 0x00, 0x54, 0x00, 0x00, 0x00,
  0x03, 0x00, 0x00, 0x00, 0xff, 0xff, 0xff, 0xff, 0xff, 0xff, 0xff, 0xff,
  0x20, 0x00, 0x00, 0x00, 0xf4, 0xf6, 0xff, 0xff, 0x36, 0x00, 0x00, 0x00,
  0x73, 0x65, 0x71, 0x75, 0x65, 0x6e, 0x74, 0x69, 0x61, 0x6c, 0x5f, 0x33,
  0x2f, 0x64, 0x65, 0x6e, 0x73, 0x65, 0x5f, 0x39, 0x2f, 0x52, 0x65, 0x6c,
  0x75, 0x3b, 0x73, 0x65, 0x71, 0x75, 0x65, 0x6e, 0x74, 0x69, 0x61, 0x6c,
  0x5f, 0x33, 0x2f, 0x64, 0x65, 0x6e, 0x73, 0x65, 0x5f, 0x39, 0x2f, 0x42,
  0x69, 0x61, 0x73, 0x41, 0x64, 0x64, 0x00, 0x00, 0x03, 0x00, 0x00, 0x00,
  0x01, 0x00, 0x00, 0x00, 0x01, 0x00, 0x00, 0x00, 0x20, 0x00, 0x00, 0x00,
  0xd4, 0xf7, 0xff, 0xff, 0x14, 0x00, 0x00, 0x00, 0x20, 0x00, 0x00, 0x00,
  0x20, 0x00, 0x00, 0x00, 0x19, 0x00, 0x00, 0x00, 0x3c, 0x00, 0x00, 0x00,
  0x03, 0x00, 0x00, 0x00, 0xff, 0xff, 0xff, 0xff, 0xff, 0xff, 0xff, 0xff,
  0xff, 0xff, 0xff, 0xff, 0x6c, 0xf7, 0xff, 0xff, 0x1e, 0x00, 0x00, 0x00,
  0x73, 0x65, 0x71, 0x75, 0x65, 0x6e, 0x74, 0x69, 0x61, 0x6c, 0x5f, 0x33,
  0x2f, 0x64, 0x65, 0x6e, 0x73, 0x65, 0x5f, 0x39, 0x2f, 0x54, 0x65, 0x6e,
  0x73, 0x6f, 0x72, 0x64, 0x6f, 0x74, 0x00, 0x00, 0x03, 0x00, 0x00, 0x00,
  0x01, 0x00, 0x00, 0x00, 0x01, 0x00, 0x00, 0x00, 0x01, 0x00, 0x00, 0x00,
  0x34, 0xf8, 0xff, 0xff, 0x14, 0x00, 0x00, 0x00, 0x1c, 0x00, 0x00, 0x00,
  0x1c, 0x00, 0x00, 0x00, 0x18, 0x00, 0x00, 0x00, 0x40, 0x00, 0x00, 0x00,
  0x02, 0x00, 0x00, 0x00, 0xff, 0xff, 0xff, 0xff, 0x20, 0x00, 0x00, 0x00,
  0xc8, 0xf7, 0xff, 0xff, 0x26, 0x00, 0x00, 0x00, 0x73, 0x65, 0x71, 0x75,
  0x65, 0x6e, 0x74, 0x69, 0x61, 0x6c, 0x5f, 0x33, 0x2f, 0x64, 0x65, 0x6e,
  0x73, 0x65, 0x5f, 0x39, 0x2f, 0x54, 0x65, 0x6e, 0x73, 0x6f, 0x72, 0x64,
  0x6f, 0x74, 0x2f, 0x4d, 0x61, 0x74, 0x4d, 0x75, 0x6c, 0x31, 0x00, 0x00,
  0x02, 0x00, 0x00, 0x00, 0x01, 0x00, 0x00, 0x00, 0x20, 0x00, 0x00, 0x00,
  0x94, 0xf8, 0xff, 0xff, 0x14, 0x00, 0x00, 0x00, 0x1c, 0x00, 0x00, 0x00,
  0x1c, 0x00, 0x00, 0x00, 0x17, 0x00, 0x00, 0x00, 0x40, 0x00, 0x00, 0x00,
  0x02, 0x00, 0x00, 0x00, 0xff, 0xff, 0xff, 0xff, 0xff, 0xff, 0xff, 0xff,
  0x28, 0xf8, 0xff, 0xff, 0x26, 0x00, 0x00, 0x00, 0x73, 0x65, 0x71, 0x75,
  0x65, 0x6e, 0x74, 0x69, 0x61, 0x6c, 0x5f, 0x33, 0x2f, 0x64, 0x65, 0x6e,
  0x73, 0x65, 0x5f, 0x39, 0x2f, 0x54, 0x65, 0x6e, 0x73, 0x6f, 0x72, 0x64,
  0x6f, 0x74, 0x2f, 0x52, 0x65, 0x73, 0x68, 0x61, 0x70, 0x65, 0x00, 0x00,
  0x02, 0x00, 0x00, 0x00, 0x01, 0x00, 0x00, 0x00, 0x01, 0x00, 0x00, 0x00,
  0xaa, 0xfa, 0xff, 0xff, 0x14, 0x00, 0x00, 0x00, 0x14, 0x00, 0x00, 0x00,
  0x16, 0x00, 0x00, 0x00, 0x00, 0x00, 0x00, 0x02, 0x34, 0x00, 0x00, 0x00,
  0x7c, 0xf8, 0xff, 0xff, 0x27, 0x00, 0x00, 0x00, 0x73, 0x65, 0x71, 0x75,
  0x65, 0x6e, 0x74, 0x69, 0x61, 0x6c, 0x5f, 0x33, 0x2f, 0x64, 0x65, 0x6e,
  0x73, 0x65, 0x5f, 0x39, 0x2f, 0x54, 0x65, 0x6e, 0x73, 0x6f, 0x72, 0x64,
  0x6f, 0x74, 0x2f, 0x63, 0x6f, 0x6e, 0x63, 0x61, 0x74, 0x5f, 0x31, 0x00,
  0x01, 0x00, 0x00, 0x00, 0x03, 0x00, 0x00, 0x00, 0xfa, 0xfa, 0xff, 0xff,
  0x14, 0x00, 0x00, 0x00, 0x14, 0x00, 0x00, 0x00, 0x15, 0x00, 0x00, 0x00,
  0x00, 0x00, 0x00, 0x02, 0x34, 0x00, 0x00, 0x00, 0xcc, 0xf8, 0xff, 0xff,
  0x24, 0x00, 0x00, 0x00, 0x73, 0x65, 0x71, 0x75, 0x65, 0x6e, 0x74, 0x69,
  0x61, 0x6c, 0x5f, 0x33, 0x2f, 0x64, 0x65, 0x6e, 0x73, 0x65, 0x5f, 0x39,
  0x2f, 0x54, 0x65, 0x6e, 0x73, 0x6f, 0x72, 0x64, 0x6f, 0x74, 0x2f, 0x73,
  0x74, 0x61, 0x63, 0x6b, 0x00, 0x00, 0x00, 0x00, 0x01, 0x00, 0x00, 0x00,
  0x02, 0x00, 0x00, 0x00, 0x4a, 0xfb, 0xff, 0xff, 0x14, 0x00, 0x00, 0x00,
  0x14, 0x00, 0x00, 0x00, 0x14, 0x00, 0x00, 0x00, 0x00, 0x00, 0x00, 0x02,
  0x30, 0x00, 0x00, 0x00, 0x1c, 0xf9, 0xff, 0xff, 0x23, 0x00, 0x00, 0x00,
  0x73, 0x65, 0x71, 0x75, 0x65, 0x6e, 0x74, 0x69, 0x61, 0x6c, 0x5f, 0x33,
  0x2f, 0x64, 0x65, 0x6e, 0x73, 0x65, 0x5f, 0x39, 0x2f, 0x54, 0x65, 0x6e,
  0x73, 0x6f, 0x72, 0x64, 0x6f, 0x74, 0x2f, 0x50, 0x72, 0x6f, 0x64, 0x00,
  0x00, 0x00, 0x00, 0x00, 0x92, 0xfb, 0xff, 0xff, 0x14, 0x00, 0x00, 0x00,
  0x14, 0x00, 0x00, 0x00, 0x13, 0x00, 0x00, 0x00, 0x00, 0x00, 0x00, 0x02,
  0x64, 0x00, 0x00, 0x00, 0x64, 0xf9, 0xff, 0xff, 0x55, 0x00, 0x00, 0x00,
  0x73, 0x65, 0x71, 0x75, 0x65, 0x6e, 0x74, 0x69, 0x61, 0x6c, 0x5f, 0x33,
  0x2f, 0x64, 0x65, 0x6e, 0x73, 0x65, 0x5f, 0x39, 0x2f, 0x54, 0x65, 0x6e,
  0x73, 0x6f, 0x72, 0x64, 0x6f, 0x74, 0x2f, 0x47, 0x61, 0x74, 0x68, 0x65,
  0x72, 0x56, 0x32, 0x3b, 0x73, 0x65, 0x71, 0x75, 0x65, 0x6e, 0x74, 0x69,
  0x61, 0x6c, 0x5f, 0x33, 0x2f, 0x64, 0x65, 0x6e, 0x73, 0x65, 0x5f, 0x31,
  0x30, 0x2f, 0x54, 0x65, 0x6e, 0x73, 0x6f, 0x72, 0x64, 0x6f, 0x74, 0x2f,
  0x47, 0x61, 0x74, 0x68, 0x65, 0x72, 0x56, 0x32, 0x2f, 0x61, 0x78, 0x69,
  0x73, 0x00, 0x00, 0x00, 0x01, 0x00, 0x00, 0x00, 0x02, 0x00, 0x00, 0x00,
  0x12, 0xfc, 0xff, 0xff, 0x14, 0x00, 0x00, 0x00, 0x14, 0x00, 0x00, 0x00,
  0x12, 0x00, 0x00, 0x00, 0x00, 0x00, 0x00, 0x02, 0x34, 0x00, 0x00, 0x00,
  0xe4, 0xf9, 0xff, 0xff, 0x25, 0x00, 0x00, 0x00, 0x73, 0x65, 0x71, 0x75,
  0x65, 0x6e, 0x74, 0x69, 0x61, 0x6c, 0x5f, 0x33, 0x2f, 0x64, 0x65, 0x6e,
  0x73, 0x65, 0x5f, 0x39, 0x2f, 0x54, 0x65, 0x6e, 0x73, 0x6f, 0x72, 0x64,
  0x6f, 0x74, 0x2f, 0x50, 0x72, 0x6f, 0x64, 0x5f, 0x31, 0x00, 0x00, 0x00,
  0x00, 0x00, 0x00, 0x00, 0x5e, 0xfc, 0xff, 0xff, 0x14, 0x00, 0x00, 0x00,
  0x14, 0x00, 0x00, 0x00, 0x11, 0x00, 0x00, 0x00, 0x00, 0x00, 0x00, 0x02,
  0x64, 0x00, 0x00, 0x00, 0x30, 0xfa, 0xff, 0xff, 0x57, 0x00, 0x00, 0x00,
  0x73, 0x65, 0x71, 0x75, 0x65, 0x6e, 0x74, 0x69, 0x61, 0x6c, 0x5f, 0x33,
  0x2f, 0x64, 0x65, 0x6e, 0x73, 0x65, 0x5f, 0x39, 0x2f, 0x54, 0x65, 0x6e,
  0x73, 0x6f, 0x72, 0x64, 0x6f, 0x74, 0x2f, 0x47, 0x61, 0x74, 0x68, 0x65,
  0x72, 0x56, 0x32, 0x5f, 0x31, 0x3b, 0x73, 0x65, 0x71, 0x75, 0x65, 0x6e,
  0x74, 0x69, 0x61, 0x6c, 0x5f, 0x33, 0x2f, 0x64, 0x65, 0x6e, 0x73, 0x65,
  0x5f, 0x31, 0x30, 0x2f, 0x54, 0x65, 0x6e, 0x73, 0x6f, 0x72, 0x64, 0x6f,
  0x74, 0x2f, 0x47, 0x61, 0x74, 0x68, 0x65, 0x72, 0x56, 0x32, 0x2f, 0x61,
  0x78, 0x69, 0x73, 0x00, 0x01, 0x00, 0x00, 0x00, 0x01, 0x00, 0x00, 0x00,
  0xde, 0xfc, 0xff, 0xff, 0x14, 0x00, 0x00, 0x00, 0x14, 0x00, 0x00, 0x00,
  0x10, 0x00, 0x00, 0x00, 0x00, 0x00, 0x00, 0x02, 0x34, 0x00, 0x00, 0x00,
  0xb0, 0xfa, 0xff, 0xff, 0x24, 0x00, 0x00, 0x00, 0x73, 0x65, 0x71, 0x75,
  0x65, 0x6e, 0x74, 0x69, 0x61, 0x6c, 0x5f, 0x33, 0x2f, 0x64, 0x65, 0x6e,
  0x73, 0x65, 0x5f, 0x39, 0x2f, 0x54, 0x65, 0x6e, 0x73, 0x6f, 0x72, 0x64,
  0x6f, 0x74, 0x2f, 0x53, 0x68, 0x61, 0x70, 0x65, 0x00, 0x00, 0x00, 0x00,
  0x01, 0x00, 0x00, 0x00, 0x03, 0x00, 0x00, 0x00, 0xd6, 0xfb, 0xff, 0xff,
  0x10, 0x00, 0x00, 0x00, 0x10, 0x00, 0x00, 0x00, 0x0f, 0x00, 0x00, 0x00,
  0x34, 0x00, 0x00, 0x00, 0xfc, 0xfa, 0xff, 0xff, 0x24, 0x00, 0x00, 0x00,
  0x73, 0x65, 0x71, 0x75, 0x65, 0x6e, 0x74, 0x69, 0x61, 0x6c, 0x5f, 0x33,
  0x2f, 0x6f, 0x75, 0x74, 0x70, 0x75, 0x74, 0x2f, 0x54, 0x65, 0x6e, 0x73,
  0x6f, 0x72, 0x64, 0x6f, 0x74, 0x2f, 0x4d, 0x61, 0x74, 0x4d, 0x75, 0x6c,
  0x00, 0x00, 0x00, 0x00, 0x02, 0x00, 0x00, 0x00, 0x03, 0x00, 0x00, 0x00,
  0x20, 0x00, 0x00, 0x00, 0x26, 0xfc, 0xff, 0xff, 0x10, 0x00, 0x00, 0x00,
  0x10, 0x00, 0x00, 0x00, 0x0e, 0x00, 0x00, 0x00, 0x34, 0x00, 0x00, 0x00,
  0x4c, 0xfb, 0xff, 0xff, 0x26, 0x00, 0x00, 0x00, 0x73, 0x65, 0x71, 0x75,
  0x65, 0x6e, 0x74, 0x69, 0x61, 0x6c, 0x5f, 0x33, 0x2f, 0x64, 0x65, 0x6e,
  0x73, 0x65, 0x5f, 0x31, 0x31, 0x2f, 0x54, 0x65, 0x6e, 0x73, 0x6f, 0x72,
  0x64, 0x6f, 0x74, 0x2f, 0x4d, 0x61, 0x74, 0x4d, 0x75, 0x6c, 0x00, 0x00,
  0x02, 0x00, 0x00, 0x00, 0x20, 0x00, 0x00, 0x00, 0x08, 0x00, 0x00, 0x00,
  0x76, 0xfc, 0xff, 0xff, 0x10, 0x00, 0x00, 0x00, 0x10, 0x00, 0x00, 0x00,
  0x0d, 0x00, 0x00, 0x00, 0x34, 0x00, 0x00, 0x00, 0x9c, 0xfb, 0xff, 0xff,
  0x26, 0x00, 0x00, 0x00, 0x73, 0x65, 0x71, 0x75, 0x65, 0x6e, 0x74, 0x69,
  0x61, 0x6c, 0x5f, 0x33, 0x2f, 0x64, 0x65, 0x6e, 0x73, 0x65, 0x5f, 0x31,
  0x30, 0x2f, 0x54, 0x65, 0x6e, 0x73, 0x6f, 0x72, 0x64, 0x6f, 0x74, 0x2f,
  0x4d, 0x61, 0x74, 0x4d, 0x75, 0x6c, 0x00, 0x00, 0x02, 0x00, 0x00, 0x00,
  0x08, 0x00, 0x00, 0x00, 0x20, 0x00, 0x00, 0x00, 0xc6, 0xfc, 0xff, 0xff,
  0x10, 0x00, 0x00, 0x00, 0x10, 0x00, 0x00, 0x00, 0x0c, 0x00, 0x00, 0x00,
  0x34, 0x00, 0x00, 0x00, 0xec, 0xfb, 0xff, 0xff, 0x25, 0x00, 0x00, 0x00,
  0x73, 0x65, 0x71, 0x75, 0x65, 0x6e, 0x74, 0x69, 0x61, 0x6c, 0x5f, 0x33,
  0x2f, 0x64, 0x65, 0x6e, 0x73, 0x65, 0x5f, 0x39, 0x2f, 0x54, 0x65, 0x6e,
  0x73, 0x6f, 0x72, 0x64, 0x6f, 0x74, 0x2f, 0x4d, 0x61, 0x74, 0x4d, 0x75,
  0x6c, 0x00, 0x00, 0x00, 0x02, 0x00, 0x00, 0x00, 0x20, 0x00, 0x00, 0x00,
  0x03, 0x00, 0x00, 0x00, 0x6e, 0xfe, 0xff, 0xff, 0x14, 0x00, 0x00, 0x00,
  0x14, 0x00, 0x00, 0x00, 0x0b, 0x00, 0x00, 0x00, 0x00, 0x00, 0x00, 0x02,
  0x34, 0x00, 0x00, 0x00, 0x40, 0xfc, 0xff, 0xff, 0x27, 0x00, 0x00, 0x00,
  0x73, 0x65, 0x71, 0x75, 0x65, 0x6e, 0x74, 0x69, 0x61, 0x6c, 0x5f, 0x33,
  0x2f, 0x64, 0x65, 0x6e, 0x73, 0x65, 0x5f, 0x31, 0x30, 0x2f, 0x54, 0x65,
  0x6e, 0x73, 0x6f, 0x72, 0x64, 0x6f, 0x74, 0x2f, 0x43, 0x6f, 0x6e, 0x73,
  0x74, 0x5f, 0x32, 0x00, 0x01, 0x00, 0x00, 0x00, 0x01, 0x00, 0x00, 0x00,
  0xbe, 0xfe, 0xff, 0xff, 0x14, 0x00, 0x00, 0x00, 0x14, 0x00, 0x00, 0x00,
  0x0a, 0x00, 0x00, 0x00, 0x00, 0x00, 0x00, 0x02, 0x34, 0x00, 0x00, 0x00,
  0x90, 0xfc, 0xff, 0xff, 0x27, 0x00, 0x00, 0x00, 0x73, 0x65, 0x71, 0x75,
  0x65, 0x6e, 0x74, 0x69, 0x61, 0x6c, 0x5f, 0x33, 0x2f, 0x64, 0x65, 0x6e,
  0x73, 0x65, 0x5f, 0x31, 0x31, 0x2f, 0x54, 0x65, 0x6e, 0x73, 0x6f, 0x72,
  0x64, 0x6f, 0x74, 0x2f, 0x43, 0x6f, 0x6e, 0x73, 0x74, 0x5f, 0x32, 0x00,
  0x01, 0x00, 0x00, 0x00, 0x01, 0x00, 0x00, 0x00, 0x0e, 0xff, 0xff, 0xff,
  0x14, 0x00, 0x00, 0x00, 0x14, 0x00, 0x00, 0x00, 0x09, 0x00, 0x00, 0x00,
  0x00, 0x00, 0x00, 0x02, 0x34, 0x00, 0x00, 0x00, 0xe0, 0xfc, 0xff, 0xff,
  0x25, 0x00, 0x00, 0x00, 0x73, 0x65, 0x71, 0x75, 0x65, 0x6e, 0x74, 0x69,
  0x61, 0x6c, 0x5f, 0x33, 0x2f, 0x64, 0x65, 0x6e, 0x73, 0x65, 0x5f, 0x31,
  0x30, 0x2f, 0x54, 0x65, 0x6e, 0x73, 0x6f, 0x72, 0x64, 0x6f, 0x74, 0x2f,
  0x43, 0x6f, 0x6e, 0x73, 0x74, 0x00, 0x00, 0x00, 0x01, 0x00, 0x00, 0x00,
  0x01, 0x00, 0x00, 0x00, 0x5e, 0xff, 0xff, 0xff, 0x14, 0x00, 0x00, 0x00,
  0x14, 0x00, 0x00, 0x00, 0x08, 0x00, 0x00, 0x00, 0x00, 0x00, 0x00, 0x02,
  0x34, 0x00, 0x00, 0x00, 0x30, 0xfd, 0xff, 0xff, 0x25, 0x00, 0x00, 0x00,
  0x73, 0x65, 0x71, 0x75, 0x65, 0x6e, 0x74, 0x69, 0x61, 0x6c, 0x5f, 0x33,
  0x2f, 0x6f, 0x75, 0x74, 0x70, 0x75, 0x74, 0x2f, 0x54, 0x65, 0x6e, 0x73,
  0x6f, 0x72, 0x64, 0x6f, 0x74, 0x2f, 0x43, 0x6f, 0x6e, 0x73, 0x74, 0x5f,
  0x32, 0x00, 0x00, 0x00, 0x01, 0x00, 0x00, 0x00, 0x01, 0x00, 0x00, 0x00,
  0xae, 0xff, 0xff, 0xff, 0x14, 0x00, 0x00, 0x00, 0x14, 0x00, 0x00, 0x00,
  0x07, 0x00, 0x00, 0x00, 0x00, 0x00, 0x00, 0x02, 0x34, 0x00, 0x00, 0x00,
  0x80, 0xfd, 0xff, 0xff, 0x24, 0x00, 0x00, 0x00, 0x73, 0x65, 0x71, 0x75,
  0x65, 0x6e, 0x74, 0x69, 0x61, 0x6c, 0x5f, 0x33, 0x2f, 0x64, 0x65, 0x6e,
  0x73, 0x65, 0x5f, 0x31, 0x30, 0x2f, 0x54, 0x65, 0x6e, 0x73, 0x6f, 0x72,
  0x64, 0x6f, 0x74, 0x2f, 0x61, 0x78, 0x65, 0x73, 0x00, 0x00, 0x00, 0x00,
  0x01, 0x00, 0x00, 0x00, 0x01, 0x00, 0x00, 0x00, 0x00, 0x00, 0x0e, 0x00,
  0x18, 0x00, 0x14, 0x00, 0x13, 0x00, 0x0c, 0x00, 0x08, 0x00, 0x04, 0x00,
  0x0e, 0x00, 0x00, 0x00, 0x14, 0x00, 0x00, 0x00, 0x14, 0x00, 0x00, 0x00,
  0x06, 0x00, 0x00, 0x00, 0x00, 0x00, 0x00, 0x02, 0x34, 0x00, 0x00, 0x00,
  0xe0, 0xfd, 0xff, 0xff, 0x24, 0x00, 0x00, 0x00, 0x73, 0x65, 0x71, 0x75,
  0x65, 0x6e, 0x74, 0x69, 0x61, 0x6c, 0x5f, 0x33, 0x2f, 0x64, 0x65, 0x6e,
  0x73, 0x65, 0x5f, 0x31, 0x30, 0x2f, 0x54, 0x65, 0x6e, 0x73, 0x6f, 0x72,
  0x64, 0x6f, 0x74, 0x2f, 0x66, 0x72, 0x65, 0x65, 0x00, 0x00, 0x00, 0x00,
  0x01, 0x00, 0x00, 0x00, 0x02, 0x00, 0x00, 0x00, 0x06, 0xff, 0xff, 0xff,
  0x10, 0x00, 0x00, 0x00, 0x10, 0x00, 0x00, 0x00, 0x05, 0x00, 0x00, 0x00,
  0x3c, 0x00, 0x00, 0x00, 0x2c, 0xfe, 0xff, 0xff, 0x2c, 0x00, 0x00, 0x00,
  0x73, 0x65, 0x71, 0x75, 0x65, 0x6e, 0x74, 0x69, 0x61, 0x6c, 0x5f, 0x33,
  0x2f, 0x64, 0x65, 0x6e, 0x73, 0x65, 0x5f, 0x31, 0x30, 0x2f, 0x42, 0x69,
  0x61, 0x73, 0x41, 0x64, 0x64, 0x2f, 0x52, 0x65, 0x61, 0x64, 0x56, 0x61,
  0x72, 0x69, 0x61, 0x62, 0x6c, 0x65, 0x4f, 0x70, 0x00, 0x00, 0x00, 0x00,
  0x01, 0x00, 0x00, 0x00, 0x08, 0x00, 0x00, 0x00, 0x5a, 0xff, 0xff, 0xff,
  0x10, 0x00, 0x00, 0x00, 0x10, 0x00, 0x00, 0x00, 0x04, 0x00, 0x00, 0x00,
  0x3c, 0x00, 0x00, 0x00, 0x80, 0xfe, 0xff, 0xff, 0x2c, 0x00, 0x00, 0x00,
  0x73, 0x65, 0x71, 0x75, 0x65, 0x6e, 0x74, 0x69, 0x61, 0x6c, 0x5f, 0x33,
  0x2f, 0x64, 0x65, 0x6e, 0x73, 0x65, 0x5f, 0x31, 0x31, 0x2f, 0x42, 0x69,
  0x61, 0x73, 0x41, 0x64, 0x64, 0x2f, 0x52, 0x65, 0x61, 0x64, 0x56, 0x61,
  0x72, 0x69, 0x61, 0x62, 0x6c, 0x65, 0x4f, 0x70, 0x00, 0x00, 0x00, 0x00,
  0x01, 0x00, 0x00, 0x00, 0x20, 0x00, 0x00, 0x00, 0xae, 0xff, 0xff, 0xff,
  0x10, 0x00, 0x00, 0x00, 0x10, 0x00, 0x00, 0x00, 0x03, 0x00, 0x00, 0x00,
  0x38, 0x00, 0x00, 0x00, 0xd4, 0xfe, 0xff, 0xff, 0x2b, 0x00, 0x00, 0x00,
  0x73, 0x65, 0x71, 0x75, 0x65, 0x6e, 0x74, 0x69, 0x61, 0x6c, 0x5f, 0x33,
  0x2f, 0x64, 0x65, 0x6e, 0x73, 0x65, 0x5f, 0x39, 0x2f, 0x42, 0x69, 0x61,
  0x73, 0x41, 0x64, 0x64, 0x2f, 0x52, 0x65, 0x61, 0x64, 0x56, 0x61, 0x72,
  0x69, 0x61, 0x62, 0x6c, 0x65, 0x4f, 0x70, 0x00, 0x01, 0x00, 0x00, 0x00,
  0x20, 0x00, 0x00, 0x00, 0x00, 0x00, 0x0e, 0x00, 0x14, 0x00, 0x10, 0x00,
  0x00, 0x00, 0x0c, 0x00, 0x08, 0x00, 0x04, 0x00, 0x0e, 0x00, 0x00, 0x00,
  0x10, 0x00, 0x00, 0x00, 0x10, 0x00, 0x00, 0x00, 0x02, 0x00, 0x00, 0x00,
  0x38, 0x00, 0x00, 0x00, 0x34, 0xff, 0xff, 0xff, 0x2a, 0x00, 0x00, 0x00,
  0x73, 0x65, 0x71, 0x75, 0x65, 0x6e, 0x74, 0x69, 0x61, 0x6c, 0x5f, 0x33,
  0x2f, 0x6f, 0x75, 0x74, 0x70, 0x75, 0x74, 0x2f, 0x42, 0x69, 0x61, 0x73,
  0x41, 0x64, 0x64, 0x2f, 0x52, 0x65, 0x61, 0x64, 0x56, 0x61, 0x72, 0x69,
  0x61, 0x62, 0x6c, 0x65, 0x4f, 0x70, 0x00, 0x00, 0x01, 0x00, 0x00, 0x00,
  0x03, 0x00, 0x00, 0x00, 0x14, 0x00, 0x18, 0x00, 0x14, 0x00, 0x00, 0x00,
  0x10, 0x00, 0x0c, 0x00, 0x08, 0x00, 0x00, 0x00, 0x00, 0x00, 0x04, 0x00,
  0x14, 0x00, 0x00, 0x00, 0x14, 0x00, 0x00, 0x00, 0x20, 0x00, 0x00, 0x00,
  0x20, 0x00, 0x00, 0x00, 0x01, 0x00, 0x00, 0x00, 0x34, 0x00, 0x00, 0x00,
  0x03, 0x00, 0x00, 0x00, 0xff, 0xff, 0xff, 0xff, 0x01, 0x00, 0x00, 0x00,
  0x03, 0x00, 0x00, 0x00, 0xac, 0xff, 0xff, 0xff, 0x17, 0x00, 0x00, 0x00,
  0x73, 0x65, 0x72, 0x76, 0x69, 0x6e, 0x67, 0x5f, 0x64, 0x65, 0x66, 0x61,
  0x75, 0x6c, 0x74, 0x5f, 0x69, 0x6e, 0x70, 0x75, 0x74, 0x3a, 0x30, 0x00,
  0x03, 0x00, 0x00, 0x00, 0x01, 0x00, 0x00, 0x00, 0x01, 0x00, 0x00, 0x00,
  0x03, 0x00, 0x00, 0x00, 0x08, 0x00, 0x00, 0x00, 0x7c, 0x00, 0x00, 0x00,
  0x60, 0x00, 0x00, 0x00, 0x50, 0x00, 0x00, 0x00, 0x40, 0x00, 0x00, 0x00,
  0x30, 0x00, 0x00, 0x00, 0x20, 0x00, 0x00, 0x00, 0x10, 0x00, 0x00, 0x00,
  0x08, 0x00, 0x00, 0x00, 0x04, 0x00, 0x04, 0x00, 0x04, 0x00, 0x00, 0x00,
  0xb8, 0xff, 0xff, 0xff, 0x09, 0x00, 0x00, 0x00, 0x00, 0x00, 0x00, 0x09,
  0xc4, 0xff, 0xff, 0xff, 0x16, 0x00, 0x00, 0x00, 0x00, 0x00, 0x00, 0x16,
  0xd0, 0xff, 0xff, 0xff, 0x02, 0x00, 0x00, 0x00, 0x00, 0x00, 0x00, 0x02,
  0xdc, 0xff, 0xff, 0xff, 0x53, 0x00, 0x00, 0x00, 0x00, 0x00, 0x00, 0x53,
  0xe8, 0xff, 0xff, 0xff, 0x51, 0x00, 0x00, 0x00, 0x00, 0x00, 0x00, 0x51,
  0xf4, 0xff, 0xff, 0xff, 0x24, 0x00, 0x00, 0x00, 0x00, 0x00, 0x00, 0x24,
  0x0c, 0x00, 0x0c, 0x00, 0x0b, 0x00, 0x00, 0x00, 0x00, 0x00, 0x04, 0x00,
  0x0c, 0x00, 0x00, 0x00, 0x4d, 0x00, 0x00, 0x00, 0x00, 0x00, 0x00, 0x4d
 
};

#endif //C_MODEL_ALT_3_CLUST_H